{"[UNK]":0,"[CLS]":1,"[SEP]":2,"[PAD]":3,"[MASK]":4,"!":5,"\"":6,"#":7,"$":8,"%":9,"&":10,"'":11,"(":12,")":13,"*":14,"+":15,",":16,"-":17,".":18,"/":19,"0":20,"1":21,"2":22,"3":23,"4":24,"5":25,"6":26,"7":27,"8":28,"9":29,":":30,";":31,"<":32,"=":33,">":34,"?":35,"@":36,"A":37,"B":38,"C":39,"D":40,"E":41,"F":42,"G":43,"H":44,"I":45,"J":46,"K":47,"L":48,"M":49,"N":50,"O":51,"P":52,"Q":53,"R":54,"S":55,"T":56,"U":57,"V":58,"W":59,"X":60,"Y":61,"Z":62,"[":63,"\\":64,"]":65,"^":66,"_":67,"`":68,"a":69,"b":70,"c":71,"d":72,"e":73,"f":74,"g":75,"h":76,"i":77,"j":78,"k":79,"l":80,"m":81,"n":82,"o":83,"p":84,"q":85,"r":86,"s":87,"t":88,"u":89,"v":90,"w":91,"x":92,"y":93,"z":94,"{":95,"|":96,"}":97,"~":98,"¡":99,"¢":100,"£":101,"¤":102,"¥":103,"¦":104,"§":105,"¨":106,"©":107,"ª":108,"«":109,"¬":110,"®":111,"¯":112,"°":113,"±":114,"²":115,"³":116,"´":117,"µ":118,"¶":119,"·":120,"¸":121,"¹":122,"º":123,"»":124,"¼":125,"½":126,"¾":127,"¿":128,"Â":129,"Ã":130,"Ä":131,"Å":132,"Æ":133,"Ç":134,"È":135,"É":136,"Ê":137,"Ë":138,"Ì":139,"Í":140,"Î":141,"Ï":142,"Ð":143,"Ñ":144,"Ò":145,"Ó":146,"Ô":147,"Õ":148,"Ö":149,"×":150,"Ø":151,"Ù":152,"Ú":153,"Û":154,"Ý":155,"Þ":156,"à":157,"á":158,"â":159,"ã":160,"ä":161,"å":162,"æ":163,"ç":164,"è":165,"é":166,"ê":167,"ë":168,"ì":169,"í":170,"î":171,"ï":172,"ð":173,"ô":174,"Ă":175,"ă":176,"ĉ":177,"Ċ":178,"ċ":179,"Č":180,"č":181,"Ġ":182,"Ģ":183,"ģ":184,"Ĥ":185,"ĥ":186,"Ħ":187,"ħ":188,"Ĩ":189,"ĩ":190,"Ī":191,"ī":192,"Ĭ":193,"ĭ":194,"Į":195,"į":196,"İ":197,"ı":198,"Ĳ":199,"ĳ":200,"Ĵ":201,"ĵ":202,"Ķ":203,"ķ":204,"ĸ":205,"Ĺ":206,"ĺ":207,"Ļ":208,"ļ":209,"Ľ":210,"ľ":211,"Ŀ":212,"ŀ":213,"Ł":214,"ł":215,"Ń":216,"ĠĠĠĠĠĠĠĠĠĠĠĠĠĠĠĠĠĠĠĠĠĠĠĠĠĠ":217,"ĠĠĠĠĠĠĠ":218,"----------------------------------":219,"Ġthe":220,"Ġa":221,"in":222,"er":223,"tion":224,"Ġt":225,"re":226,"Ġof":227,"en":228,"Ġs":229,"Ġand":230,"at":231,"-----------":232,"on":233,"or":234,"Ġc":235,"Ġw":236,"is":237,"es":238,"ed":239,"===================":240,"ĠĠĠ":241,"al":242,"it":243,"Ġp":244,"an":245,"Ġf":246,"Ġb":247,"ou":248,"ing":249,"Ġin":250,"ar":251,"************************************":252,"Ġd":253,"Ġm":254,"ic":255,"le":256,"Ġto":257,"Ġh":258,"as":259,"ro":260,"Ġthat":261,"ent":262,"et":263,"el":264,"Ġre":265,"Ġn":266,"om":267,"Ġwith":268,"st":269,"ac":270,"ec":271,"ĠTh":272,"il":273,"Ġe":274,"Ġl":275,"ot":276,"id":277,"im":278,"Ġis":279,"00000000000000000000000000000000000000000000000000000000000000000000000000000000000000000000000000000000000000000000000000000000000000000000000000000000000000000000000000000000000000000000000000000000000000000000000000000000000000000000000000000000000000000":280,"ig":281,"Ġ(":282,"Ġg":283,"am":284,"ve":285,"ol":286,"ation":287,"us":288,"Ġyou":289,"âĢ":290,"ĠI":291,"ly":292,"Ġfor":293,"ow":294,"ĠS":295,"Ġth":296,"ur":297,"ver":298,"Ġon":299,"un":300,"ĠC":301,"ad":302,"ĠA":303,"Ġst":304,"Ġbe":305,"ul":306,"ut":307,"if":308,"ay":309,"Ġwh":310,"ce":311,"Ġ1":312,"ter":313,"Ġcon":314,"Ġfrom":315,"em":316,"os":317,"ight":318,"Ġan":319,"ch":320,"ir":321,"Ġas":322,"od":323,"ag":324,"th":325,"Ġpro":326,"op":327,"Ġhave":328,"Ġ$":329,"um":330,"Ġ\"":331,"ab":332,"Ġ\\":333,"Ġit":334,"ate":335,"ĠM":336,"Ġv":337,"ri":338,"Ġal":339,"00":340,"ould":341,"ĊĠĠĠĠĠĠĠ":342,"======":343,"Ġ2":344,"res":345,"qu":346,"----":347,"ĠP":348,"pp":349,"ts":350,"Ġcomp":351,"Ġex":352,"ain":353,"oc":354,"ere":355,"sion":356,"Ġr":357,"ĊĠĠĠ":358,"Ġor":359,"ĠB":360,"ct":361,"ers":362,"////////////////////////////////////////":363,"Ġare":364,"se":365,"Ġ=":366,"est":367,"Ġwas":368,"_________________":369,"iv":370,"ist":371,"ĠĠ":372,"ity":373,"Ġsu":374,"Ġat":375,"ĠH":376,"Ġby":377,"Ġ-":378,"ound":379,"ĠD":380,"ore":381,"ment":382,"Ġwhich":383,"ill":384,"usepackage":385,"ĠF":386,"and":387,"our":388,"ĠThe":389,"ÂłÂłÂłÂłÂłÂłÂłÂłÂłÂłÂłÂłÂłÂłÂłÂłÂłÂłÂłÂłÂłÂłÂłÂłÂłÂłÂłÂłÂłÂłÂłÂłÂłÂłÂłÂłÂłÂłÂłÂłÂłÂłÂłÂł":390,"ect":391,"ant":392,"Ġde":393,"end":394,"out":395,"ap":396,"Ġnot":397,"Ġsh":398,"ess":399,"ĠW":400,"ĠT":401,"her":402,"The":403,"ĠL":404,"ke":405,"ĠR":406,"ough":407,"ive":408,"âĢĻ":409,"math":410,"Ġthis":411,"Ġch":412,"ĠN":413,"Ġwe":414,"clud":415,"ew":416,"ure":417,"Ġus":418,"ell":419,"ial":420,"ies":421,"Ġbetween":422,"ype":423,"art":424,"{\\":425,"ort":426,"#####################################":427,"Ġ*":428,"Ġun":429,"Ġse":430,"ated":431,"ĠG":432,"form":433,"pl":434,"ĠE":435,"%%%%%%%%%%%%%%%%%%%%%%%%%%%%%%%%%%%%%%%%%":436,"Ġup":437,"Ġo":438,"Ġtr":439,"Ġhe":440,"ext":441,"all":442,"og":443,"Ġle":444,"ine":445,"Ġknow":446,"Ġ0":447,"Ġyear":448,").":449,"ical":450,"'s":451,"Ġbecause":452,"ff":453,"ge":454,"Ġdiffer":455,"ĊĠĠĠĠĠĠĠĠĠĠĠĠĠĠĠ":456,"ome":457,"lass":458,"der":459,"iz":460,"ue":461,"ust":462,"Ġcan":463,"Ġalso":464,"ction":465,"Ġsp":466,"=\"":467,"ĠO":468,"act":469,"ib":470,"ame":471,"Ġ3":472,"Ġimp":473,"able":474,"Ġres":475,"ase":476,"nt":477,"ence":478,"Ġother":479,"Ġcont":480,"Ġ{":481,");":482,"Ġab":483,"are":484,"ĠâĢľ":485,"ost":486,"ublic":487,"per":488,"age":489,"01":490,"Ġtime":491,"Ġwork":492,"Ġ[":493,"ard":494,"_{":495,"ion":496,"ack":497,"ans":498,"ĠIn":499,"Ġj":500,"Ġpl":501,"pt":502,"ook":503,"Ġad":504,"av":505,"ĊĠ":506,"Ġfollow":507,"ĠU":508,"ud":509,"ak":510,"ast":511,"ip":512,"ition":513,"ign":514,"Ġwere":515,"ĠJ":516,"Ġint":517,"Ġall":518,"ide":519,"ĊĠĠĠĠĠĠĠĠĠĠĠ":520,"Ġpeople":521,"ach":522,"Ġacc":523,"**":524,"Ġhas":525,"Ġne":526,"ire":527,"Ġsystem":528,"ind":529,"Ġcomm":530,"ous":531,"Ġme":532,"one":533,".\"":534,"ary":535,"ult":536,"ice":537,"Ġtwo":538,"}}":539,"Ġdo":540,"Ġgroup":541,"Ġ+":542,"Ġapp":543,"Ġdis":544,"ations":545,"du":546,"Ġ4":547,"),":548,"ep":549,"Ġbut":550,"ru":551,"Ġsaid":552,"ĉĉĉ":553,"ong":554,"Ġar":555,"Ġreturn":556,"Âł":557,"Ġlike":558,"Ġwill":559,"ance":560,"ents":561,"Ġen":562,"Ġ<":563,"ose":564,"..":565,"ber":566,"ef":567,"ph":568,"Ġgo":569,"Ġfirst":570,"ile":571,"Ġ5":572,"Ġper":573,"ely":574,"ory":575,"Ġif":576,"Ġafter":577,"int":578,"Ġcl":579,"ens":580,"ally":581,"ace":582,"Ġone":583,"ord":584,"Ġpre":585,"ail":586,"ia":587,"âĢĿ":588,"Ġ\\[[@":589,"ang":590,"ys":591,"Ġop":592,"}$":593,"own":594,"Ġev":595,"Ġout":596,"Ġqu":597,"Ġthey":598,"ra":599,"ĠĠĠĠĠĠĠĠĠĠĠĠĠĠ":600,"//":601,"Ġso":602,"Ġdata":603,"ĠSt":604,"ond":605,"ors":606,"Ġfunction":607,"Ġ$\\":608,"Ġsignificant":609,"Ġmore":610,"ite":611,"ry":612,"Ġtheir":613,"Ġinter":614,"ĠK":615,"Ġyour":616,"ft":617,"Ġhis":618,"Ġhigh":619,"Ġmethod":620,"ield":621,"very":622,"Ġ}":623,"Ġdevelop":624,"Ġpart":625,"Ġthere":626,"Ġgener":627,"Ġag":628,"ake":629,"ree":630,"ress":631,"te":632,"eg":633,"erm":634,"Ġpatients":635,"ates":636,"enc":637,"Ġconsider":638,"ub":639,"\\]":640,"ll":641,"ish":642,"erv":643,"Ġbeen":644,"Ġk":645,"Ġthrough":646,"Ġany":647,"Ġman":648,"Ġno":649,"--":650,"Ġproblem":651,"In":652,"Ġwho":653,"ath":654,"ont":655,"ric":656,"ĠV":657,"Ġass":658,"Ġwould":659,"Ġob":660,"Ġrec":661,"](#":662,"Ġrep":663,"Ġvari":664,"Ġhad":665,"ount":666,"Ġexp":667,"Ġabout":668,"Ġwhen":669,"Ġsc":670,"ie":671,"^{":672,"ref":673,"ection":674,"rib":675,"ample":676,"Ġ6":677,"Ġindividual":678,"frac":679,"Ġthan":680,"Ġover":681,"Ġits":682,"old":683,"Ġpossib":684,"reat":685,"Ġ&":686,"Ġdef":687,"Ġincre":688,"10":689,"oth":690,"ex":691,"Ġ19":692,"ring":693,"Ġmy":694,"owever":695,"lect":696,"ĊĊ":697,"Ġpr":698,"ks":699,"]{}":700,"row":701,"Ġoff":702,"Ġam":703,"ob":704,"19":705,"Ġsomething":706,"ays":707,"Ġsub":708,"ĠCh":709,"332086":710,"ons":711,"ild":712,"Ġnew":713,"Ġsome":714,"</":715,"ied":716,"get":717,"hat":718,"Ġmod":719,"Ġ'":720,"Ġworld":721,"Ġemploy":722,"Ġnumber":723,"12":724,"ym":725,"ution":726,"Ċĉ":727,"ater":728,"ass":729,"Ġget":730,"Ġdes":731,"ject":732,"Ġour":733,"ttp":734,"'t":735,"Ġco":736,"Ġunder":737,"com":738,"Ġbefore":739,"Ġrel":740,"ĠâĢ":741,"ĠY":742,"Ġact":743,"Ġprocess":744,"ular":745,"ings":746,"Ġph":747,"Ġro":748,"Ġonly":749,"gr":750,"ative":751,"Ġinto":752,"Ġ7":753,"âĢĵâĢĵâĢĵâĢĵâĢĵâĢĵâĢĵâĢĵâĢĵâĢĵâĢĵâĢĵâĢĵâĢĵâĢĵâĢĵâĢĵâĢĵâĢĵâĢĵâĢĵâĢĵâĢĵâĢĵâĢĵâĢĵâĢĵâĢĵâĢĵâĢĵâĢĵâĢĵâĢĵâĢĵâĢĵâĢĵâĢĵâĢĵâĢĵâĢĵâĢĵ":754,"Ġval":755,"}\\":756,"vi":757,"Ġmay":758,"Ġstudy":759,"ink":760,"document":761,"Ġcurrent":762,"Ġlevel":763,"Ġpresent":764,"ĠIt":765,"Ġadd":766,"Ġtrans":767,"ick":768,"ma":769,"uc":770,"ove":771,"Ġreg":772,"ian":773,"Ġcharacter":774,"elf":775,"Ġim":776,"ĠThis":777,"Ġform":778,"###":779,"Ġwhat":780,"ov":781,"Ġinv":782,"aw":783,"Th":784,"ss":785,"ĠĠĠĠĠĠĠĠĠĠ":786,"ark":787,"Ġanalysis":788,"Ġhelp":789,"Ġsecond":790,"Ġdec":791,"Ġmade":792,"cl":793,"Ġthem":794,"Ġind":795,"app":796,"ĠUniversity":797,"ĠAmeric":798,"nd":799,"Ġsuch":800,"Ġ8":801,"Ġcells":802,"ode":803,"Ġmuch":804,"mathcal":805,"ear":806,"up":807,"Ġresp":808,"Ġeff":809,"ased":810,"Ġthese":811,"Ġpo":812,"Ġher":813,"Ġduring":814,"ating":815,"Ġsupport":816,"ility":817,"Ġbl":818,"Ġset":819,"ty":820,"Ġdet":821,"ient":822,"tain":823,"olog":824,"Ġprovid":825,"Ġac":826,"ith":827,"Ġ201":828,"ood":829,"ific":830,"ĊĠĠĠĠĠ":831,"Ġfl":832,"ne":833,"Ġgr":834,"anc":835,"Ġwhere":836,"Ġ9":837,"Ġjust":838,"type":839,"tr":840,"itt":841,"Ġ.":842,"ident":843,"Ġcol":844,"ĠWe":845,"sp":846,"Ġtechn":847,"ize":848,"Ġy":849,"Ġpol":850,"Ġ10":851,"20":852,"ption":853,"Ġclass":854,"Ġneed":855,"11":856,"Ġthen":857,"Ġcourt":858,"ock":859,"lement":860,"ues":861,"les":862,"fer":863,".,":864,"\",":865,"Ġuse":866,"$\\":867,"lambda":868,"ix":869,"Ġgovernment":870,"Ġrem":871,"Ġsmall":872,"Ġrequire":873,"ise":874,"fig":875,"right":876,"Ġperson":877,"){":878,"ug":879,"ual":880,"Ġcom":881,"eta":882,"he":883,"Ġsimilar":884,"[@":885,"Ġinclud":886,"ER":887,"Ġused":888,"Ġinformation":889,"%%%%%%%%%%%%%%%%%%%%":890,"Ġcould":891,"Ġresults":892,"Ġcorrespond":893,"Ġcontrol":894,"duc":895,"Ġfurther":896,"ange":897,"ength":898,"ax":899,"Ġagainst":900,"Ġdirect":901,"als":902,"ning":903,"Ġcondition":904,"St":905,"Ġshow":906,"Ġpotential":907,"->":908,"rop":909,"Ġdist":910,"io":911,"Ġfe":912,")$":913,"to":914,"Ġstruct":915,"Ġparamet":916,"ures":917,"Ġ[@":918,"Ġquestion":919,"ics":920,"ime":921,"Ġcaus":922,"und":923,"orm":924,"Ġconst":925,"ev":926,"(\\":927,"Ġhealth":928,"Ġusing":929,"arg":930,"ĠUnited":931,"ograph":932,"Ġspec":933,"()":934,"Ġatt":935,"Ġgiven":936,"Ġshould":937,"ull":938,"ities":939,"set":940,"\"}":941,"inal":942,"Ġsur":943,"\">":944,"Ġmost":945,"Ġerr":946,"000":947,"Ġsee":948,"Ġavailable":949,"13":950,"Ġi":951,"]\\].":952,"14":953,"tern":954,"Ġlife":955,"its":956,"Ġend":957,"red":958,"Chapter":959,"ement":960,"Ġenvironment":961,"Ġfact":962,"Ġem":963,"Ġdid":964,"Ġinst":965,"ng":966,"Ġresearch":967,"ox":968,"Ġmajor":969,"ower":970,"aintiff":971,"Ġfamily":972,"15":973,"Category":974,"sh":975,"Ġassoci":976,"begin":977,"Ġdemonstr":978,"ams":979,"16":980,"Ġsince":981,"Ġschool":982,"yl":983,"Ġestablish":984,"IN":985,"ĠHe":986,"fl":987,"_{\\":988,"Ġshe":989,"urn":990,"ism":991,"ator":992,"pos":993,"ized":994,"rit":995,"Ġwell":996,"Ġanother":997,"ined":998,"Ġcons":999,"ature":1000,"ĠĠĠĠĠĠĠĠĠĠĠĠĠĠĠĠĠĠĠĠĠĠĠĠĠĠĠĠĠĠĠĠĠĠĠĠĠĠĠĠĠĠĠĠĠĠĠĠĠĠĠĠĠĠĠĠĠĠĠĠĠĠĠĠĠĠĠĠĠĠĠĠĠĠĠĠĠĠĠĠĠĠĠĠĠĠĠĠĠĠĠĠĠĠĠĠĠĠĠĠĠĠĠĠ":1001,"ven":1002,"Ġdifferent":1003,"Ġstat":1004,"Ġback":1005,"ute":1006,"ata":1007,"ically":1008,"over":1009,"],":1010,"port":1011,"Ġenergy":1012,"Ġocc":1013,"Ġclaim":1014,"ational":1015,"Ġeach":1016,"ãģ":1017,"alpha":1018,"25":1019,"Ġchildren":1020,"Ġcorre":1021,"Ġhow":1022,"Ġ:":1023,"Ġright":1024,"Ġauth":1025,"Ġespecially":1026,"Ġdoes":1027,"li":1028,"Ġx":1029,"Ġcase":1030,"Ġalready":1031,"val":1032,"rm":1033,"Ã©":1034,"rom":1035,"cri":1036,"Ġsuggest":1037,"Ġdisc":1038,"elta":1039,"par":1040,"alcul":1041,"air":1042,"Ġent":1043,"Ġdifficult":1044,"Ġeven":1045,"mathbb":1046,"oun":1047,"imes":1048,"Ġhim":1049,"Ġlimit":1050,"ee":1051,"ict":1052,"Ġ200":1053,"Ġmonth":1054,"Ġapplic":1055,"upp":1056,"ĊĊĠĠĠ":1057,"yn":1058,"Ġobserv":1059,"Ġbusiness":1060,"ret":1061,"ork":1062,"sqrt":1063,"Ġparticular":1064,"iss":1065,"oddsidemargin":1066,"atch":1067,"Ġevery":1068,"min":1069,"ected":1070,"ects":1071,"Ġimportant":1072,"Ġmin":1073,"Ġcall":1074,"Ġmeasure":1075,"\":":1076,"Ġke":1077,"con":1078,"ash":1079,"Ġsame":1080,"Ġview":1081,"vers":1082,"ĠWh":1083,"AT":1084,"Ġsimp":1085,"Ġmake":1086,"label":1087,"Ġdescrib":1088,"ĠComm":1089,"Ġprotein":1090,"Ġet":1091,"Ġmem":1092,"ision":1093,"Ġtest":1094,"Ġpos":1095,"ages":1096,"Ġdi":1097,"pro":1098,"Ġtreatment":1099,"Ġrepresent":1100,"ants":1101,"ON":1102,"Ġexper":1103,"ting":1104,"Ġte":1105,"Ġexpression":1106,"Ġfind":1107,"Ġbel":1108,"ases":1109,"ave":1110,"Ġmultiple":1111,"Ġloc":1112,"Ġ_":1113,"Ġwant":1114,"Ġhuman":1115,"Ġwhether":1116,"}{":1117,"18":1118,"Ġway":1119,"Ġ@":1120,"ense":1121,"Ġthose":1122,"Ġtyp":1123,"put":1124,"17":1125,"Ġfound":1126,"ST":1127,"Ġlarge":1128,"Ġvery":1129,"Ġhere":1130,"ines":1131,"50":1132,"ful":1133,"Ġevidence":1134,"Ġboth":1135,"Ġsuccess":1136,"Ġbeing":1137,"oid":1138,"Ġdon":1139,"Ġcar":1140,"ason":1141,"Ġtri":1142,"Ġlong":1143,"Ġbu":1144,"the":1145,"cent":1146,"ible":1147,"Ġnow":1148,"ich":1149,"ale":1150,"ments":1151,"))":1152,"ved":1153,"Ġclear":1154,"Ġmechan":1155,"Ġ,":1156,"Ġbetter":1157,"Ġyears":1158,"ified":1159,"ward":1160,"Ġmed":1161,"Ġstr":1162,"Ġel":1163,"AR":1164,"Ġmodel":1165,"Ġprivate":1166,"let":1167,"Ġ|":1168,"Ġext":1169,"Ġser":1170,"ern":1171,"ok":1172,"30":1173,"âĢī":1174,"Ġmany":1175,"ĠQ":1176,"NA":1177,"...":1178,"cept":1179,"aaaaaaaaaaaaaaaaa":1180,"\\\\":1181,"CR":1182,"ared":1183,"Ġlook":1184,"Ġprogram":1185,"::":1186,"ystem":1187,"Ġorder":1188,"ole":1189,"Ġins":1190,"action":1191,"Ġ/":1192,"left":1193,"igned":1194,"Ġfil":1195,"ĠLet":1196,"Ġ12":1197,"ps":1198,"Ġbehavi":1199,"html":1200,"aking":1201,"led":1202,"Ġweek":1203,"ively":1204,"Ġplay":1205,"______":1206,"not":1207,"Ġ\\\\":1208,"ert":1209,"ik":1210,"Ġeconom":1211,"Ġgen":1212,"ĠJohn":1213,"Ġsol":1214,"We":1215,"Ġgu":1216,"duct":1217,"Ġvalue":1218,"day":1219,"ĠFor":1220,".âĢĿ":1221,"Ġpublic":1222,"It":1223,"32":1224,"Ġfr":1225,"Ġterm":1226,"ĠThese":1227,"ices":1228,"Ġequ":1229,"ner":1230,"pr":1231,"Ġgood":1232,"Ġorgan":1233,"text":1234,"of":1235,"Ġlittle":1236,"(\"":1237,"',":1238,"Ġcirc":1239,"Ġprovide":1240,"Ġalways":1241,"line":1242,"Ġsingle":1243,"ins":1244,"Ġhaving":1245,"Ġthink":1246,"ody":1247,"ission":1248,"Ġbr":1249,"Ġdep":1250,"ique":1251,"ray":1252,"Ġeither":1253,"Ġmet":1254,"ually":1255,"view":1256,"ank":1257,"Ġprevious":1258,"ness":1259,"Ġwhile":1260,"ĠâĢĵ":1261,"Ġname":1262,"ency":1263,"Ġtotal":1264,"Ġseveral":1265,"Ġnon":1266,"Ġ//":1267,"ĠÂ":1268,"ization":1269,"ĠAl":1270,"Ġstud":1271,"ĠĠĠĠ":1272,"(-":1273,"af":1274,"201":1275,"Ġhigher":1276,"Ġread":1277,"Ġant":1278,"ality":1279,"ences":1280,"Ġunderstand":1281,"Ġdown":1282,"Ġpar":1283,"ld":1284,"40":1285,"oad":1286,"Ġthree":1287,"br":1288,"Ġapproach":1289,"med":1290,"#*#*#*#*#*#*#*#*#*#*#*#*#*#*#*#*#*#*#*#*#*#*#*#*#*#*#*#*#*#*#*#*#*#*#*#*#*#*#*#*#*#*#*#*#*#*#*#*#*#*#*#*#*#*#*#*#*#*#*#*#*#*#*#*#*#*#*#*#*#*#*#*#*":1291,"Ġwomen":1292,"22":1293,"Ġserv":1294,"oy":1295,"âĢĵ":1296,"Ġmaterial":1297,"ĠIf":1298,"ists":1299,"](":1300,"$,":1301,"OR":1302,"way":1303,"amples":1304,"ĠĠĠĠĠ":1305,"ĠCourt":1306,"ah":1307,"Ġperiod":1308,"Ġown":1309,"ead":1310,"Ġactiv":1311,"://":1312,"Ġcount":1313,"bs":1314,"man":1315,"ters":1316,"===":1317,"Ġperform":1318,"Ġstate":1319,"Ġrelationship":1320,"Ġtemperature":1321,"sc":1322,"eck":1323,"ify":1324,"Ġsl":1325,"Ġprobab":1326,"ious":1327,"Ġeffect":1328,"80":1329,"Ġresult":1330,"Ġstandard":1331,"Ġwithout":1332,"ĠĠĠĠĠĠ":1333,"Ġuntil":1334,"ms":1335,"Ġcre":1336,"Ġgreat":1337,"ton":1338,"Ġreported":1339,"Ġoper":1340,"Ġsign":1341,"ource":1342,"Ġproper":1343,"Ġpoint":1344,"Ġtarget":1345,"ention":1346,"Let":1347,"$.":1348,"$$":1349,"What":1350,"use":1351,"ather":1352,"amp":1353,"Ġinvestig":1354,"Ġ20":1355,"Ġoften":1356,"?\"":1357,"ES":1358,"alk":1359,"ross":1360,"Ġresponse":1361,"Ġstart":1362,"AL":1363,"Ex":1364,"Ġhand":1365,"Ġ!":1366,"Ġcertain":1367,"ĠCalifornia":1368,"Ġline":1369,"Ġreceived":1370,"imension":1371,"ives":1372,"âĢľ":1373,"IT":1374,"operatorname":1375,"23":1376,"lection":1377,"ouse":1378,"\\[":1379,"ĠTr":1380,"Ġpres":1381,"ots":1382,"Ġnetwork":1383,"].":1384,"áĥ":1385,"ulation":1386,"atic":1387,"EN":1388,"Ġlet":1389,"ĠPro":1390,"Ġcent":1391,"Ġlast":1392,"selves":1393,"ience":1394,"lex":1395,"any":1396,"Ġmain":1397,"ĊĠĠĠĠĠĠĠĠĠĠĠĠĠĠĠĠĠĠĠ":1398,"ral":1399,"Ġnatural":1400,"Ġz":1401,"Ġthough":1402,"Ġtype":1403,"Ġver":1404,"eth":1405,"Ġmillion":1406,"Ġexpl":1407,"Wh":1408,"Ġday":1409,"Ġaccording":1410,"ann":1411,"ium":1412,"wh":1413,"itive":1414,"ependent":1415,"Ġrun":1416,"ĠAs":1417,"Ġiss":1418,"str":1419,"Ġear":1420,"mathrsfs":1421,"0000000000000000000000000000":1422,"Ġpur":1423,"Ġcontinu":1424,"ger":1425,"Ġlead":1426,"24":1427,"au":1428,"Ġsay":1429,"Ġpublished":1430,"ospital":1431,"Ġ15":1432,"Ġmust":1433,"Ġmicro":1434,"ule":1435,"ames":1436,"ination":1437,"ains":1438,"Ġtake":1439,"Ġident":1440,"Ġfollowing":1441,"var":1442,"por":1443,"Pro":1444,"ane":1445,",\"":1446,"Ġwr":1447,"ration":1448,"99":1449,"agn":1450,"ĠThere":1451,"aining":1452,"Ġdisease":1453,"}$$":1454,"gamma":1455,"arch":1456,"Ġhy":1457,"ĠEurope":1458,"Fig":1459,"Ġstill":1460,"ccording":1461,"();":1462,"Ġinf":1463,"âĪĴ":1464,"ĠAnd":1465,"Ġlaw":1466,"Ġbec":1467,"Ġanswer":1468,"oot":1469,"Ġrisk":1470,"Ġpost":1471,"arm":1472,"Ġsatisf":1473,"ology":1474,"28":1475,"Ġcourse":1476,"Ġfrequ":1477,"Ġ#":1478,"Ġapproxim":1479,"ĠBut":1480,"ier":1481,"Ġfin":1482,"Ġpoints":1483,"Ð¾Ð":1484,"Ġref":1485,"Ch":1486,"land":1487,"Ġestim":1488,"ĠYou":1489,"Ġnecessary":1490,"AN":1491,"inc":1492,"atter":1493,"This":1494,"200":1495,"Ġcr":1496,"read":1497,"ote":1498,"},":1499,"Ġsumm":1500,"mu":1501,"bf":1502,"bl":1503,"duction":1504,"}(":1505,"ources":1506,"ĊĠĠĠĠĠĠĠĠĠĠĠĠĠĠĠĠĠĠĠĠĠĠĠĠĠĠ":1507,"Ġdeterm":1508,"Ġfriend":1509,"ron":1510,"Ġtogether":1511,"ets":1512,"69":1513,"for":1514,"ĠNew":1515,"ĠAn":1516,"mathfrak":1517,"Ġmoney":1518,"ember":1519,"ĊĠĠĠĠ":1520,"CT":1521,"oup":1522,"Ġcap":1523,"64":1524,"Ġinc":1525,"augh":1526,"Ġelect":1527,"Ġnormal":1528,"ade":1529,"els":1530,"Ġbas":1531,"Ġjudgment":1532,"Ġderiv":1533,"Ġdocument":1534,"AS":1535,"ren":1536,"Ġdistribution":1537,"Ġprior":1538,"ily":1539,"hibit":1540,"ecurity":1541,"ability":1542,"Ġallow":1543,"Ġvehic":1544,"27":1545,"Ġgl":1546,"35":1547,"ey":1548,"uss":1549,"Ġaff":1550,"Ġ</":1551,"Ġ18":1552,"Ġchanges":1553,"dd":1554,"60":1555,"Ġlanguage":1556,"IEq":1557,"Ġparticip":1558,"Ġsupp":1559,"ĊĊĠ":1560,"ĠChrist":1561,"Ġmean":1562,",âĢĿ":1563,"we":1564,"ced":1565,"Ġreal":1566,"ately":1567,"Ġaddition":1568,"ruct":1569,"ĊĠĠ":1570,"atrix":1571,"ener":1572,"Ġwithin":1573,"tions":1574,"ech":1575,"org":1576,"akes":1577,"Ġoutside":1578,"Ġbenef":1579,"Ġed":1580,"Ġthird":1581,"Ġ{#":1582,"37":1583,"Ġgoing":1584,"ool":1585,"orth":1586,"Ġrecommend":1587,"sigma":1588,"En":1589,"34":1590,"displaystyle":1591,"Ġ14":1592,"Ġaround":1593,"Ġdrug":1594,"son":1595,"Ġsocial":1596,"ĠX":1597,"def":1598,"clusion":1599,"Ġfield":1600,"Ġincluding":1601,"Ġothers":1602,"Ċĉĉĉ":1603,"Ġpat":1604,"Ġcell":1605,"Ġconf":1606,"oss":1607,"vent":1608,"az":1609,"ĠSh":1610,"Ġfocus":1611,"Ġexample":1612,"ouble":1613,"Ġdefendant":1614,"Ġprot":1615,"Ġself":1616,"Ġcontr":1617,"Ġcare":1618,"Ċĉĉ":1619,"omp":1620,"Ġ\\[":1621,"^{\\":1622,"sec":1623,"Ġcommun":1624,"cer":1625,"varepsilon":1626,"Ġinitial":1627,"Ġ$$\\":1628,"Ġobtained":1629,"ĠZ":1630,"duced":1631,"ott":1632,"Ġconn":1633,"be":1634,"ww":1635,"Ġbre":1636,"Ġvis":1637,"View":1638,"Ġevalu":1639,"bers":1640,")\\":1641,"ĠAr":1642,"Ġdel":1643,"Ġviol":1644,"ently":1645,"ĠSp":1646,"Ġsurface":1647,"less":1648,"Ġrest":1649,"http":1650,"ars":1651,"Ġlikely":1652,"Ġpower":1653,"omega":1654,"Ġrespect":1655,"Ġbelieve":1656,"Ġartic":1657,"RE":1658,"Ġlist":1659,"igh":1660,"imal":1661,"part":1662,"ession":1663,"Ġarg":1664,")/":1665,"Ġsoftware":1666,"eed":1667,"âĢĶ":1668,"Ġ**":1669,"Ġtry":1670,"65":1671,"ĠIs":1672,"Ġopen":1673,"90":1674,"Ġhappen":1675,"}^{":1676,"Ġfac":1677,"Ġtop":1678,"Ġessential":1679,"ĠEx":1680,"by":1681,"Ġmark":1682,"LE":1683,"att":1684,"IC":1685,"Ġanaly":1686,"equ":1687,"etic":1688,"pone":1689,"rho":1690,"oint":1691,"ĠHowever":1692,"boldsymbol":1693,"Ġpath":1694,"**************":1695,"Ġless":1696,"ĠDepartment":1697,"Ġindic":1698,"Ġrele":1699,"Ġtaken":1700,"SE":1701,"Ġfuture":1702,"Ġaction":1703,"ffic":1704,"'m":1705,"Ġmight":1706,"Ġsitu":1707,"95":1708,"ained":1709,"Ġlow":1710,"ĠÐ":1711,"('":1712,"21":1713,"Con":1714,"name":1715,"ests":1716,"ĠUn":1717,"ĠĊĠĠĠĠĠĠĠĠĠĠĠĠĠĠĠ":1718,"ury":1719,"Ġhead":1720,"cript":1721,"rem":1722,"67":1723,"ĠPh":1724,"Ġ*/":1725,"Ġchallen":1726,"38":1727,"Ġreally":1728,"Ġadv":1729,"class":1730,"ification":1731,"Ġrequ":1732,"Ġchange":1733,"alse":1734,"ĠĠĠĠĠĠĠĠĠ":1735,"vert":1736,"ump":1737,"Ġpass":1738,"ety":1739,"Ġbased":1740,"co":1741,"ĠCl":1742,"Ġtoo":1743,"amssymb":1744,"Ġfew":1745,"Ġfour":1746,"amsfonts":1747,"wasysym":1748,"upgreek":1749,"oll":1750,"Ġimmun":1751,"ĠApp":1752,"aps":1753,"Ġbest":1754,"eb":1755,"reen":1756,"Ġpop":1757,"Ġcustom":1758,"Ġfile":1759,"ensuremath":1760,",\\":1761,"Ġnext":1762,"osed":1763,"reg":1764,"omet":1765,"94":1766,"Ġpaper":1767,"ush":1768,"You":1769,"cont":1770,"ĠOn":1771,"div":1772,"Ġplace":1773,"ĠNo":1774,"orts":1775,"fore":1776,"infty":1777,"Ġabove":1778,"Ġimprove":1779,"Ġhome":1780,"ited":1781,"ĠThey":1782,"=\\":1783,"Ġpe":1784,"Ġdev":1785,"ĠAfter":1786,"Ġprof":1787,"rap":1788,"ery":1789,"ror":1790,"iver":1791,"Ġelement":1792,"ope":1793,"rict":1794,"Ġinterest":1795,"Ġleg":1796,"Ġpsych":1797,"self":1798,"ateg":1799,"leg":1800,"mathrm":1801,"Ġinvol":1802,"ĠUS":1803,"thing":1804,"ĠTHE":1805,"Ġstrength":1806,"Ġu":1807,"45":1808,"ĠSo":1809,"Tr":1810,"Cont":1811,"ederal":1812,"ĠCon":1813,"Ġeas":1814,"Ġofficial":1815,"'re":1816,"05":1817,"roll":1818,"Ġ{\\":1819,"Ġpay":1820,"ĠWhat":1821,"ID":1822,"add":1823,"Ġhistory":1824,"eal":1825,"33":1826,"}_":1827,"Ġachie":1828,"Ġide":1829,"idth":1830,"opy":1831,"Ġpolicy":1832,"ĠĠĠĠĠĠĠĠ":1833,"Ġalmost":1834,"ception":1835,"Ġleft":1836,"Ġrecogn":1837,"ired":1838,"ems":1839,"Ġgrow":1840,"iving":1841,"Ġ11":1842,"Ġnothing":1843,"../../../":1844,"eps":1845,"ister":1846,"ser":1847,"Id":1848,"ending":1849,"Ġ30":1850,"ĠAt":1851,"Ġdue":1852,"arn":1853,"ological":1854,"riv":1855,"Ġrefer":1856,"Ġdr":1857,"To":1858,"26":1859,"ides":1860,"Ġtrue":1861,"Ġreason":1862,"}_{":1863,"Ġnucle":1864,"Ġasked":1865,"Ġ16":1866,"Ġ17":1867,"Ġput":1868,"data":1869,"ised":1870,"Ġpossible":1871,"Ġconcern":1872,"kn":1873,"key":1874,"Ġbeg":1875,"Ġfail":1876,"Ġfree":1877,"Ġhalf":1878,"beta":1879,"pm":1880,"36":1881,"Value":1882,"ances":1883,"Ġcur":1884,"Ġoriginal":1885,"Ġnever":1886,"Ġlayer":1887,"Ġhours":1888,"Ġcommon":1889,"ene":1890,"Ġbi":1891,"erc":1892,"Ġproperties":1893,"ĠPl":1894,"Ġcy":1895,"Ġbuild":1896,"ribut":1897,"cription":1898,"ault":1899,"Ġaverage":1900,"Ġlocal":1901,"ĠAll":1902,"ication":1903,"Ġsm":1904,"Ġsk":1905,"As":1906,"Ġcampaign":1907,"ural":1908,"ĠâĢĶ":1909,"Ġla":1910,"Ġleast":1911,"$$\\\\":1912,"čĊč":1913,"Ġposition":1914,"IS":1915,"ĠSc":1916,"ĊĊĠĠĠĠĠĠĠ":1917,"sum":1918,"ector":1919,"Ġrandom":1920,"Ġmoment":1921,"urrent":1922,"48":1923,"Ġlight":1924,"Ġminutes":1925,"):":1926,"ior":1927,"ED":1928,"Ġcontent":1929,"cess":1930,"eter":1931,"Ġheld":1932,"outh":1933,"ask":1934,"75":1935,"Ġregion":1936,"Ġsym":1937,"angle":1938,"OU":1939,"ina":1940,"Ġcomplete":1941,"Ġden":1942,"Ġrecord":1943,"Ġ25":1944,"ãĤ":1945,"Ġsize":1946,"emocr":1947,"new":1948,"raw":1949,"Ġcalled":1950,"29":1951,"0000":1952,"Ġinflu":1953,"Ġshown":1954,"Ġsequence":1955,"Ġaut":1956,"Ġspace":1957,"Ġ==":1958,"Ġprimary":1959,"Ġthings":1960,"Ġelse":1961,"Ġexperiment":1962,"omorphism":1963,"itch":1964,"Ġprom":1965,"ĠTo":1966,"Ġappropriate":1967,"ari":1968,"pi":1969,"ĠFurthermore":1970,"70":1971,"AC":1972,"ression":1973,"Ġmanufact":1974,"Ġmov":1975,"Ġfeatures":1976,"Name":1977,"uth":1978,"ĠInd":1979,"ream":1980,"If":1981,"back":1982,"Ġknown":1983,"Ġgeneral":1984,"mod":1985,"ules":1986,"ĠĠĠĠĠĠĠĠĠĠĠĠĠĠĠĠĠĠĠĠĠĠĠĠĠĠĠĠĠĠĠĠĠĠĠĠĠĠĠĠ":1987,"mitted":1988,"Ġret":1989,"Ġ13":1990,"Ġmilitary":1991,"though":1992,"Cl":1993,"Ġbig":1994,"Ġbo":1995,"Ġmolec":1996,"acy":1997,"include":1998,"%)":1999,"ats":2000,"Ġvolume":2001,"Ġcode":2002,"})":2003,"Ġwater":2004,"Ġdisplay":2005,"atory":2006,"Ġdays":2007,"Ġkey":2008,"Ġwords":2009,"ĠSuppose":2010,"Ġsection":2011,"Ð°Ð":2012,"ators":2013,"Ġvalues":2014,"Ġgive":2015,"\"/>":2016,"itude":2017,"ries":2018,"aces":2019,"Ġmon":2020,"For":2021,"Ġturn":2022,"urs":2023,"Ġpolitical":2024,"cle":2025,"ered":2026,"ended":2027,"Ġ_{":2028,"_\\":2029,"Ġsuper":2030,"Ġcome":2031,"ĠSeptember":2032,"Ġcases":2033,"Ġgame":2034,"];":2035,"88":2036,"Ġmotion":2037,"Ġclinical":2038,"uff":2039,"duce":2040,"Ġgot":2041,"nal":2042,"Ġnum":2043,"Ġ`":2044,"44":2045,"Ġinteg":2046,"Omega":2047,"log":2048,"ured":2049,"function":2050,"uck":2051,"Ġexist":2052,"col":2053,"Ġcor":2054,"itle":2055,"phi":2056,"]\\]":2057,"Ġdiv":2058,"Ġpred":2059,"Ġproducts":2060,"!\"":2061,"Ġ([":2062,"ĠJanuary":2063,"Ġabs":2064,"Ġreplac":2065,"aligned":2066,"oph":2067,"Ġtrial":2068,"Ġincreasing":2069,"Ġneg":2070,"Ġphysical":2071,"Ġsolution":2072,"ecause":2073,"ĠFr":2074,"---------------":2075,"Ġknowledge":2076,"Ġrad":2077,"bar":2078,"ands":2079,"ruction":2080,"Ġobject":2081,"Ġarea":2082,"Lambda":2083,"ĠSince":2084,"ĠState":2085,"Ġcost":2086,"sub":2087,"ĠNovember":2088,"gif":2089,")*":2090,"bit":2091,"ĠÎ":2092,"39":2093,"Ġbody":2094,"Ġdigit":2095,"arent":2096,"Ġbro":2097,"ET":2098,"import":2099,"ĠPresident":2100,"iddle":2101,"Ġwon":2102,"Ġmeans":2103,"Type":2104,"Ġ24":2105,"---":2106,"Ġprincip":2107,"Ġcrit":2108,"oci":2109,"Ġcounsel":2110,"77":2111,"eq":2112,"Ġable":2113,"table":2114,"gg":2115,"Ġdom":2116,"ava":2117,"Suppose":2118,"Ġplan":2119,"ĠGr":2120,"Ġspecific":2121,"Ġbase":2122,"Ġcomb":2123,"ivity":2124,"Ġchar":2125,"de":2126,"ĠRes":2127,"Ġfeel":2128,"ided":2129,"ables":2130,"Ġagain":2131,"__":2132,"Ġtimes":2133,"Ġside":2134,"ressed":2135,"Ġdirection":2136,"Ġsubstantial":2137,"chem":2138,"Ġpressure":2139,"ĠOctober":2140,"Ġcho":2141,"Ġ50":2142,"ories":2143,"ĠĠĠĠĠĠĠĠĠĠĠ":2144,"lected":2145,"Res":2146,"string":2147,"Ġstudies":2148,"Ġadminist":2149,"Ġbeautiful":2150,"âĢ¾âĢ¾âĢ¾âĢ¾âĢ¾âĢ¾âĢ¾âĢ¾âĢ¾âĢ¾âĢ¾âĢ¾âĢ¾âĢ¾âĢ¾âĢ¾âĢ¾âĢ¾âĢ¾âĢ¾âĢ¾âĢ¾âĢ¾âĢ¾âĢ¾âĢ¾âĢ¾âĢ¾âĢ¾âĢ¾âĢ¾âĢ¾âĢ¾âĢ¾âĢ¾âĢ¾":2151,"Ġ)":2152,"Ġ100":2153,"68":2154,"Ġalong":2155,"LL":2156,"Ġassociated":2157,"OM":2158,"Ġagreement":2159,"ION":2160,"Ġkeep":2161,"ends":2162,"yle":2163,"jects":2164,"rightarrow":2165,"Ġalgorith":2166,"Ġstrong":2167,"ĠWashington":2168,"AM":2169,"Ġhold":2170,"erg":2171,"Ġteam":2172,"Ġrevealed":2173,"100":2174,"âĢ¦":2175,"Ġimmedi":2176,"Ġnear":2177,"ler":2178,"Ġgroups":2179,"Ġweeks":2180,"ther":2181,"iqu":2182,"Ġglobal":2183,"xi":2184,"Ġdynam":2185,"ape":2186,"ising":2187,"ored":2188,"Ġpract":2189,"ĠLicense":2190,"ĊĠĠĠĠĠĠĠĠĠĠĠĠĠĠĠĠĠĠĠĠĠĠĠ":2191,"so":2192,"ĠStates":2193,"Ġsusp":2194,"Ġwritten":2195,"Ġfar":2196,"Ġ--":2197,"Ġmaximum":2198,"ney":2199,"But":2200,"aster":2201,"order":2202,"sequ":2203,"Ġsw":2204,"Ġlevels":2205,"void":2206,"Ġopportun":2207,"Ġfull":2208,"uring":2209,"ids":2210,"String":2211,"ores":2212,"Ġmot":2213,"97":2214,"Ġsure":2215,"box":2216,"Ġvir":2217,"theta":2218,"Ġlater":2219,"Ġterms":2220,"Ġreport":2221,"ison":2222,"olution":2223,"-\\":2224,"emplate":2225,"Ġtre":2226,"Ġcontinue":2227,"Ġappear":2228,"55":2229,"AP":2230,"Ġhard":2231,"ift":2232,"Ġreview":2233,"OT":2234,"ĠThat":2235,"Ġpercent":2236,"stit":2237,"Ġattempt":2238,"ĠCo":2239,"Ġfinal":2240,"Ġwhy":2241,"indow":2242,"ait":2243,"ĠâĢĺ":2244,"Ġapplied":2245,"Ġerror":2246,"time":2247,"comp":2248,"irst":2249,"osis":2250,"Ðµ":2251,"before":2252,"Ġmove":2253,"31":2254,"ument":2255,"Ġ>":2256,"orn":2257,"aring":2258,"04":2259,"bib":2260,"ĠObama":2261,"embly":2262,"AD":2263,"Ġ=>":2264,"{{\\":2265,"ails":2266,"Ġmen":2267,"ering":2268,"Ġopt":2269,"amm":2270,"Ġbackground":2271,"Ġlower":2272,"Ġfund":2273,"Ġamong":2274,"Ġenough":2275,"istic":2276,"rel":2277,"\";":2278,"Ġenc":2279,"Ġlot":2280,"Is":2281,"ĊĠĠĠĠĠĠĠĠĠ":2282,"Ġshort":2283,"Ġrequired":2284,"ĠBl":2285,"essage":2286,"ache":2287,"return":2288,"ĠRe":2289,"roid":2290,"]{":2291,"Ġclean":2292,"Ġexc":2293,"Ġhowever":2294,"Ġbound":2295,"Ġpurpose":2296,"Ġcover":2297,"Ġdegree":2298,"Ġaccess":2299,"Ġfamil":2300,"iff":2301,"^{-":2302,"Ġdesign":2303,"'ve":2304,"Ġdone":2305,"Ġdri":2306,"iction":2307,"Ġsays":2308,"ites":2309,"setlength":2310,"inter":2311,"fo":2312,"ival":2313,"ĠÃ":2314,"Ġmass":2315,"98":2316,"Un":2317,"Ġdensity":2318,"ĠMr":2319,"date":2320,"Ġcomplex":2321,"Ġopinion":2322,"hydroxy":2323,"ĠCounty":2324,"Ġconditions":2325,"gen":2326,"amsbsy":2327,"And":2328,"enn":2329,"Ġvideo":2330,"Ġair":2331,"Ġinj":2332,"Ġissue":2333,"ml":2334,"Ġple":2335,"Ġinterpret":2336,"Ġbehind":2337,"'ll":2338,"Ġstructure":2339,"Ġversion":2340,"Ġmanag":2341,"He":2342,"Ġlog":2343,"ING":2344,"Ġfixed":2345,"cdot":2346,"ĠRep":2347,"Ġparents":2348,"Ġcompared":2349,"Ġfavor":2350,"Ġrate":2351,"OP":2352,"ley":2353,"ling":2354,"02":2355,"Ġactivity":2356,"ram":2357,"Ġsim":2358,"Ġworking":2359,"Ġdevelopment":2360,"ĠWorld":2361,"Ġcheck":2362,"Ġdecision":2363,"}^":2364,"ĠOr":2365,"Ġcult":2366,"aff":2367,"ibrary":2368,"ves":2369,"ĠCol":2370,"Ar":2371,"Ġproject":2372,"Ġfaith":2373,"Ġproposed":2374,"Ġgraph":2375,"figuration":2376,"ĠWhen":2377,"Ġ${\\":2378,"Ġrole":2379,"lev":2380,"\")":2381,"ably":2382,"Object":2383,"ought":2384,"Ã¡":2385,"ension":2386,"this":2387,"bo":2388,"ales":2389,"Ġrespons":2390,"Ġeng":2391,"Ġage":2392,"Ġratio":2393,"Ġdaily":2394,"Ġeffects":2395,"66":2396,"85":2397,"Ġpiec":2398,"![":2399,"ĠShe":2400,"Ġprovided":2401,"plic":2402,"Ġbook":2403,"Ġfore":2404,"Ġcomponent":2405,"Ġuseful":2406,"Ġtax":2407,"Ġquant":2408,"Ġtradition":2409,"Ġstring":2410,"cre":2411,"ĠAss":2412,"ĠJune":2413,"Ġcalcul":2414,"Ġupon":2415,"Ġauthor":2416,"Ġmaking":2417,"met":2418,"Ġid":2419,"Ġflu":2420,"ino":2421,"Ġsex":2422,"Ġperfect":2423,"Ð¸":2424,"Ġaway":2425,"Ġliter":2426,"Ġpast":2427,"Ġvoid":2428,"Ġhydro":2429,"Sh":2430,"itor":2431,"Ġtold":2432,"Ġinclude":2433,"cc":2434,"An":2435,"Ġevent":2436,"ĠSch":2437,"vention":2438,"Ġrequires":2439,"Ġann":2440,"ony":2441,"Ġcolumn":2442,"Ġorigin":2443,"Ġexperience":2444,"ÑĤ":2445,"eople":2446,"ung":2447,"Ġlarger":2448,"\"}).":2449,"ĠSee":2450,"Ġ![":2451,"Ġjob":2452,"oms":2453,"ij":2454,"value":2455,"ief":2456,"At":2457,"Al":2458,"mon":2459,"ware":2460,"Ġincrease":2461,"Ġthing":2462,"upplementary":2463,"Ġcannot":2464,"Ġcountry":2465,"Ġtell":2466,"ĠGod":2467,"Ġold":2468,"Ġsent":2469,"ĠAd":2470,"Ġfactors":2471,"Ġrange":2472,"Ġweight":2473,"Ġcomponents":2474,"Ġkind":2475,"ĠCanad":2476,"Ġsufficient":2477,"46":2478,"Ġassum":2479,"head":2480,"\");":2481,"96":2482,"Ġsepar":2483,"ĠFlorida":2484,"Ġlearning":2485,"47":2486,"Ġmulti":2487,"Ġdoesn":2488,"olic":2489,"ining":2490,"Ġbecome":2491,"umber":2492,"âŃĲï¸ıâŃĲï¸ıâŃĲï¸ıâŃĲï¸ıâŃĲï¸ıâŃĲï¸ıâŃĲï¸ıâŃĲï¸ıâŃĲï¸ıâŃĲï¸ıâŃĲï¸ıâŃĲï¸ıâŃĲï¸ıâŃĲï¸ıâŃĲï¸ıâŃĲï¸ıâŃĲï¸ıâŃĲï¸ıâŃĲï¸ıâŃĲï¸ıâŃĲï¸ıâŃĲï¸ıâŃĲï¸ıâŃĲï¸ıâŃĲï¸ıâŃĲï¸ıâŃĲï¸ı":2493,"cal":2494,"Ġdefinition":2495,"AG":2496,"ounds":2497,"ĠHealth":2498,"App":2499,"Ġindustry":2500,"Error":2501,"Ġsens":2502,"Ġsource":2503,"Gamma":2504,"Ġpretty":2505,"Ġobserved":2506,"ges":2507,"CC":2508,"DE":2509,"Ġlab":2510,"Ġspe":2511,"Ġclos":2512,"List":2513,"Ġq":2514,"Ġfactor":2515,"uit":2516,"Ġep":2517,"tilde":2518,"Ġdiscussion":2519,"ership":2520,"II":2521,"Ġacross":2522,"Ġstop":2523,"Ġservice":2524,"Ġdefined":2525,"Ġseen":2526,"ipp":2527,"Ġhom":2528,"load":2529,"Ġlo":2530,"arr":2531,"Ġarrest":2532,"Ġfootball":2533,"ians":2534,"%%%%%%%%%%":2535,"Ġspecial":2536,"delta":2537,"Ġrather":2538,"ĠFebruary":2539,"On":2540,"ï¼":2541,"go":2542,"There":2543,"ĠWednesday":2544,"Ġregard":2545,"Ġdidn":2546,"Ġimage":2547,"mission":2548,"ĠFig":2549,"Ġsec":2550,"Ġcandid":2551,"Ġwrote":2552,"Ġproperty":2553,"Ġcreate":2554,"ero":2555,"87":2556,"lish":2557,"Ġmor":2558,"ĠAND":2559,"off":2560,"unch":2561,"Ġmus":2562,"Ġ%":2563,"Ġdatabase":2564,"Ġfinancial":2565,"Ġfood":2566,"CH":2567,"Ġincreased":2568,"ponse":2569,"Ġ([@":2570,"aint":2571,"Ġdescribed":2572,"Ġred":2573,"Ġpositive":2574,"Ġphot":2575,"ender":2576,"Ġearly":2577,"Ġmonths":2578,"Ġtext":2579,"Ġgirl":2580,"irm":2581,"span":2582,"och":2583,"mp":2584,"Ġcoupl":2585,"acter":2586,"~~~~~~~~~~":2587,"Ġtalk":2588,"Ġlove":2589,"ervice":2590,"Ã³":2591,"Ġamount":2592,"Ġcompletely":2593,"ĠJuly":2594,"Ġcomput":2595,"rec":2596,"Ġcompl":2597,"ife":2598,"yt":2599,"Ph":2600,"Data":2601,"ĠApril":2602,"Ġcompanies":2603,"......................":2604,"Ġnecessarily":2605,"Ġconduct":2606,"no":2607,"PS":2608,"Ġsite":2609,"word":2610,"Ġrece":2611,"ensive":2612,"Ġdoing":2613,"Ġrelated":2614,"ĠĊ":2615,"Ġspect":2616,"ivers":2617,"Ġcircumstances":2618,"Ġdeath":2619,"Ġmeet":2620,"Ġ(-":2621,"IG":2622,"ental":2623,"ective":2624,"]).":2625,"Ġcut":2626,"ĠThen":2627,"Ġperformed":2628,"Ġenjoy":2629,"Ġshows":2630,"onal":2631,"Ġpack":2632,"Ġdam":2633,"Ġbelow":2634,"Ġearlier":2635,"xxxxxxxxxxxxxxxxxxxxxxx":2636,"ĠMar":2637,"leq":2638,"Ġproduct":2639,"Ġrelevant":2640,"Ġactually":2641,"08":2642,"ĠGeneral":2643,"Ġnearest":2644,"Ġbit":2645,"Ġbirth":2646,"Ġmagn":2647,"Ġ(*":2648,"Ġtown":2649,"RNA":2650,"Ġtumor":2651,"Ġmatter":2652,"Ġbinding":2653,"IM":2654,"ĠBe":2655,"ĠAmerican":2656,"03":2657,"Ġ$$":2658,"ĠIN":2659,"Ġanalyses":2660,"ĠAm":2661,"ai":2662,"001":2663,"Ġsignal":2664,"ogen":2665,"ĠLe":2666,"ols":2667,"Ġproceed":2668,"ried":2669,"Ġcounter":2670,"Ġstates":2671,"iles":2672,"+\\":2673,"mathbf":2674,"Ġbeyond":2675,"PR":2676,"Ġaccount":2677,"Ġpaid":2678,"ving":2679,"Ġmembers":2680,"ibility":2681,"Ġcause":2682,"oper":2683,"see":2684,"verse":2685,"bi":2686,"No":2687,"Ġwoman":2688,"year":2689,"Ġutil":2690,"Ġalgebra":2691,"Ġsystems":2692,"Ġfive":2693,"Ġsaf":2694,"Figure":2695,"Ġadjust":2696,"UR":2697,"Ġvarious":2698,"Ġadded":2699,"Ġmeasures":2700,"rim":2701,"Ġreasons":2702,"Ġnetworks":2703,"ulated":2704,"partial":2705,"*,":2706,".)":2707,"Ġadditional":2708,"Ġthought":2709,"Ġexecut":2710,"IV":2711,"Ġdeal":2712,"Ġdoc":2713,"ĠPaul":2714,"ouncil":2715,"Ġcommunity":2716,"Ġapplication":2717,"me":2718,"Ġconsidered":2719,"Ġconsist":2720,"Ġrespectively":2721,"inary":2722,"unt":2723,"Ġhttp":2724,"ĠMoreover":2725,"ĠĠĠĠĠĠĠĠĠĠĠĠĠĠĠĠĠĠĠĠĠĠĠĠĠĠĠĠĠĠĠĠĠĠĠĠĠĠĠĠĠĠĠĠĠĠĠĠĠĠĠĠ":2726,"SS":2727,"Ġhypothes":2728,"Ġfully":2729,"Ġ},":2730,"86":2731,"rc":2732,"Ġsqrt":2733,"Ġmakes":2734,"Ġwriting":2735,"ooooooooooooooooooooooooooooooooooooooooooooooooooooooooooooo":2736,"Ġwebsite":2737,"Ġshowed":2738,"Ġâ":2739,"Ġsynth":2740,"ions":2741,"PE":2742,"Ġaddress":2743,"93":2744,"Ġcross":2745,"Ġonce":2746,"Ġsubject":2747,"irect":2748,"Ġcontract":2749,"><":2750,"Ġexperiments":2751,"smallcaps":2752,"ously":2753,"lation":2754,"ĠTheorem":2755,"Ġillustr":2756,"Ġir":2757,"quad":2758,"ittee":2759,"ĠMay":2760,"So":2761,"Ġtem":2762,"Ġcompany":2763,"Ġformula":2764,"Ġconnection":2765,"ees":2766,"Ġra":2767,"}$,":2768,"Ġbuilt":2769,"Ġjurisdiction":2770,"ips":2771,"Ġseason":2772,"Ġpick":2773,"ĠThus":2774,"ĠAugust":2775,"Ġbreak":2776,"epsilon":2777,"ĠPat":2778,"osition":2779,"Ġdem":2780,"Ġmar":2781,"Ġoccur":2782,"ĠSe":2783,"ĠOne":2784,"></":2785,"Ġwhole":2786,"ĠSupreme":2787,"After":2788,"oin":2789,"opt":2790,"âĢĲ":2791,"normal":2792,"Ġuser":2793,"ethod":2794,"Ġmind":2795,"Ġart":2796,"$-":2797,"OC":2798,"Ġprogress":2799,"Index":2800,"array":2801,"Ġthus":2802,"Ġvictim":2803,"ĠIceland":2804,"Ġreach":2805,"Ġprovision":2806,"Ġexactly":2807,"Ġneighb":2808,"42":2809,"lying":2810,"Ġtowards":2811,"Ġinternational":2812,"ĠGovernment":2813,"den":2814,"sl":2815,"ilities":2816,"widetilde":2817,"Ġur":2818,"resh":2819,"Ġhouse":2820,"Ġchanged":2821,"Ġdoubt":2822,"Ġever":2823,"older":2824,"Ġdecre":2825,"ients":2826,"Ġvol":2827,"Ġobtain":2828,"41":2829,"UT":2830,"Ġassess":2831,"ĠBr":2832,"Ġotherwise":2833,"test":2834,"etition":2835,"Ġexam":2836,"Ġsimple":2837,"89":2838,"ãĢĤ":2839,"oh":2840,"Ġconcentrations":2841,"ued":2842,"anch":2843,"ĠMy":2844,"Ġmethods":2845,"Ġyet":2846,"Ġtravel":2847,"Ġeducation":2848,"Ġentire":2849,"Table":2850,"Ġloss":2851,"Ġmemory":2852,"AB":2853,"ribute":2854,"size":2855,"ider":2856,"Ġpers":2857,"ises":2858,"Ġtoday":2859,"ĠIsrael":2860,"la":2861,"lim":2862,"Col":2863,"ĠCD":2864,"td":2865,"OL":2866,"CL":2867,"));":2868,"Ġsignificantly":2869,"www":2870,"times":2871,"//////////////":2872,"Ġbar":2873,"char":2874,"Im":2875,"Sp":2876,"atus":2877,"top":2878,"aging":2879,"ĠBy":2880,"Ġblock":2881,"ĠJapan":2882,"Ġprocedure":2883,"}{\\":2884,"Manager":2885,"Ġphilosoph":2886,"57":2887,"ones":2888,"Ġclose":2889,"Ġacknowled":2890,"Ġperformance":2891,"Ġrelatively":2892,"Ġland":2893,"07":2894,"49":2895,"file":2896,"Ġnight":2897,"Ġincluded":2898,"summary":2899,"56":2900,"Ġanti":2901,"ĠÂ§":2902,"material":2903,"Ġvia":2904,"Ġinsurance":2905,"Ġfalse":2906,"Ġlink":2907,"}(\\":2908,"ãĥ":2909,"Ġyoung":2910,"Ġsometimes":2911,"ĠAustral":2912,"net":2913,"param":2914,"Ġchild":2915,"Ġcouple":2916,"Ġbecomes":2917,"}$.":2918,"ills":2919,"illed":2920,"Ġphenomen":2921,"Get":2922,"Ġdiscuss":2923,"09":2924,"ĠGoogle":2925,"IL":2926,"Ġrequest":2927,"}}\\":2928,"ĠCont":2929,"des":2930,"reed":2931,"ĠCar":2932,"Ġdeb":2933,"Ġcontribution":2934,"big":2935,"Ġhundred":2936,"ĠWith":2937,"cy":2938,"tau":2939,"^\\":2940,"Ġhost":2941,"Ġaccept":2942,"ĠDistrict":2943,")-":2944,"itting":2945,"Ġextr":2946,"])":2947,"face":2948,"isc":2949,"ĠCor":2950,"Ġfelt":2951,"Ġintro":2952,"ĠĠĠĠĠĠĠĠĠĠĠĠĠ":2953,"Ġalleged":2954,"Ġsearch":2955,"icrosoft":2956,"ĠDecember":2957,"aged":2958,"Ġseries":2959,"ĠAfric":2960,"position":2961,"do":2962,"path":2963,"ÃŃ":2964,"ĠMichael":2965,"ocal":2966,"mit":2967,"Ġcame":2968,"Ġtrying":2969,"ital":2970,"Ġtheory":2971,"uch":2972,"Ġensure":2973,"ĠResearch":2974,"Ġmarket":2975,"ged":2976,"Ġsmooth":2977,"Ġnull":2978,"Ġalcohol":2979,"olve":2980,"81":2981,"IR":2982,"Ġtook":2983,"Ġimplement":2984,"Ġcard":2985,"52":2986,"used":2987,"ĠCir":2988,"Ġacid":2989,"Ġconsum":2990,".âĢĭ":2991,"izing":2992,"exp":2993,"With":2994,"Ġcoll":2995,"atur":2996,"Ġ$(":2997,"Ġefficiency":2998,"Ġprograms":2999,"Ġproblems":3000,"where":3001,"Model":3002,"|\\":3003,"Ġtypes":3004,"Ġtherefore":3005,"Ġtissue":3006,"ÑĢ":3007,"ĠCent":3008,"bu":3009,"ĠYork":3010,"Ġblood":3011,"Ġinvolved":3012,"ference":3013,"By":3014,"Ñģ":3015,"Ġrecent":3016,"/*":3017,"actions":3018,"Ġminimum":3019,"Com":3020,"mm":3021,"iber":3022,"Ġplaced":3023,"ished":3024,"Ġphase":3025,"perty":3026,"Ġitself":3027,"Ġsched":3028,"Ġneeds":3029,"Ġsleep":3030,"53":3031,"Ċĉĉĉĉ":3032,"IP":3033,"Ġsix":3034,"Ġissues":3035,"63":3036,"ults":3037,"istance":3038,"Ġpolynomial":3039,"based":3040,"Ġparty":3041,"Ġcancer":3042,"come":3043,"Ġmix":3044,"92":3045,"Ġdifference":3046,"Ġidea":3047,"Ġmapping":3048,"ux":3049,"Ġlength":3050,"Ġservices":3051,"MS":3052,"Ġgene":3053,"pts":3054,"Ġconcentration":3055,"oud":3056,"Ġprovides":3057,"ĠNULL":3058,"Ġsample":3059,"ENT":3060,"Ġcomparison":3061,"Ref":3062,"],[@":3063,"ĠMin":3064,"Ġcharacteristics":3065,"idence":3066,"Ġstory":3067,"Ġcorrect":3068,"ĠBoard":3069,"sim":3070,"Ġdevice":3071,"Ġhref":3072,"ĠOF":3073,"Ġtherapy":3074,"Ġchannel":3075,"Ġanything":3076,"Ġang":3077,"Ġneeded":3078,"All":3079,"Ġexpected":3080,"]{},":3081,"Ġgetting":3082,"Ġpatient":3083,"Ġcolor":3084,"version":3085,"ĠAct":3086,"Ġfigure":3087,"Ġanimals":3088,"iation":3089,"rew":3090,"ĠSec":3091,"ived":3092,"Ġseem":3093,"Ġmarijuana":3094,"rol":3095,"Ġcelebr":3096,"ĠComp":3097,"Ġlooking":3098,"lay":3099,"Ġneuro":3100,"Ġsamples":3101,"asc":3102,"Ġinstead":3103,"light":3104,"with":3105,"Ġ!=":3106,"Ġmatch":3107,"Ġ21":3108,"lobal":3109,"Ġbegin":3110,"43":3111,"ements":3112,"Ġmachine":3113,"Des":3114,"Ġbring":3115,"Ġworks":3116,"Ġbundle":3117,"ÂłÂłÂłÂłÂłÂłÂł":3118,"OD":3119,"Ġmyself":3120,"nu":3121,"Ġphosph":3122,"ging":3123,"ĠNot":3124,"78":3125,"Ġplaintiff":3126,"TH":3127,"Ġarray":3128,"Ġexpect":3129,"king":3130,"Ġsal":3131,"ternal":3132,"Ġtable":3133,"Ġtw":3134,"imate":3135,"Ġconfirmed":3136,"iting":3137,"body":3138,"Ġdistributed":3139,"Ġmodels":3140,"Ġhapp":3141,"roph":3142,"\\_":3143,"Ġvalid":3144,"Ġpanel":3145,"Ġnamed":3146,"Ø§ÙĦ":3147,"Ġlines":3148,"Gr":3149,"ike":3150,"yp":3151,"ĠPr":3152,"Ġquickly":3153,"Ġcoordin":3154,"EX":3155,"Ġsimply":3156,"Text":3157,"anding":3158,"cm":3159,"Ġlearn":3160,"reet":3161,"Add":3162,"US":3163,"Ġfunctions":3164,"Ġgenes":3165,"Ġcarbon":3166,"($":3167,"Ġseems":3168,"Ġbottom":3169,"06":3170,"Ġbasis":3171,"Ġwent":3172,"Ġbur":3173,"ulations":3174,"Ġbrief":3175,"Ġanalyzed":3176,"Ġindependent":3177,"Ġsense":3178,"Ġinstall":3179,"Ġfilm":3180,")(":3181,"ially":3182,"};":3183,"Ġtouch":3184,"Ġproduction":3185,"acc":3186,"Ġspecifically":3187,"Ġmedia":3188,"anks":3189,"Ġremoved":3190,"ĠMed":3191,"Ġparameters":3192,"bed":3193,"urch":3194,"Ġdepend":3195,"Ġroom":3196,"Ġstar":3197,"Ġgrowth":3198,"Ġcapacity":3199,"ĠNorth":3200,"When":3201,"Ġparallel":3202,"struct":3203,"Ġmut":3204,"Ġjud":3205,"Ġhistor":3206,"px":3207,"Ġes":3208,"Ġconv":3209,"Ġprec":3210,"Ġcivil":3211,"Ġsemiconductor":3212,"uments":3213,"Ġattack":3214,"Ġpolice":3215,"ython":3216,"Ġhusband":3217,"Ġconstit":3218,"xy":3219,"Ġimpl":3220,"rite":3221,"init":3222,"Ġplatform":3223,"ĠDef":3224,"51":3225,"OS":3226,"ĠDr":3227,"Ġquality":3228,"iated":3229,"Ġload":3230,"ĠCom":3231,"')":3232,"EM":3233,"Ġalternative":3234,"Ġflo":3235,"Ġspirit":3236,"Ġflow":3237,"aaaaaaaa":3238,"ple":3239,"Ġoil":3240,"ĠEng":3241,"Ġidentified":3242,"Ġwin":3243,"Ġpage":3244,"ĠEn":3245,"Ġ22":3246,"71":3247,"vel":3248,"Ġpopulation":3249,"*~":3250,"Ġprinciples":3251,"mer":3252,"Ġstep":3253,"Ġelements":3254,"Ġsomeone":3255,"jÃ¶rÃ°ur":3256,"fort":3257,"odes":3258,"Ġprobably":3259,"down":3260,"but":3261,"Ð½":3262,"astic":3263,"Ġcal":3264,"59":3265,"ĠTw":3266,"Ġheart":3267,"Ġimport":3268,"čĊĠĠĠ":3269,"Ġdetermined":3270,"ros":3271,"ops":3272,"Ġcharg":3273,"Ġexercise":3274,"Ġsequences":3275,"Ġmiss":3276,"Ġtaking":3277,"unc":3278,"Ġindex":3279,"Ġstraight":3280,"Ġrespond":3281,"Ġportion":3282,"fa":3283,"Ġest":3284,"84":3285,"like":3286,"Ġpresence":3287,"ĠInternational":3288,"width":3289,"miss":3290,"ĠSouth":3291,"raft":3292,"ĠGu":3293,"Sc":3294,"eng":3295,"Ġcity":3296,"Ġreceptor":3297,"Ġbill":3298,"Ġvar":3299,"--------------------------------------------------------------------":3300,"aj":3301,"Ġbad":3302,"Ġexposure":3303,"eline":3304,"Ġmentioned":3305,"Ġwor":3306,"otic":3307,"Ġsyndrome":3308,"ounts":3309,"Ġ&&":3310,"Ġofficer":3311,"err":3312,"uses":3313,"ĠNational":3314,"ĠFacebook":3315,"Ġdespite":3316,"lin":3317,"How":3318,"my":3319,"==========":3320,"ĠMc":3321,"ese":3322,"Ġpair":3323,"Ġeyes":3324,"Def":3325,"atal":3326,"Ġmechanism":3327,"}=":3328,"other":3329,"ĠId":3330,"á»":3331,"anced":3332,"uk":3333,"Ġwar":3334,"Ġfemale":3335,"Ġchemical":3336,"Ġupper":3337,"Ġdestroy":3338,"'d":3339,"Ġdraw":3340,"Ġsurgery":3341,"ble":3342,"Ġrights":3343,"Request":3344,"ĠWilli":3345,"That":3346,"vec":3347,"Ġbuilding":3348,"Ġ40":3349,"NS":3350,"Ġwalk":3351,"Ġformer":3352,"Ġexperienced":3353,"ronic":3354,"73":3355,"dimensional":3356,"ĠInc":3357,"Ġfollows":3358,"Override":3359,"72":3360,"arb":3361,"Ġoutput":3362,"Ġpattern":3363,"Ġlinks":3364,"EC":3365,"Ġtraining":3366,"tor":3367,"Ġlive":3368,"Ġwatch":3369,"stance":3370,"Ġstrategy":3371,"Ġcomes":3372,"Ġwitness":3373,"mathsf":3374,"âĢĵâĢĵâĢĵâĢĵâĢĵâĢĵâĢĵâĢĵâĢĵâĢĵâĢĵâĢĵâĢĵâĢĵâĢĵâĢĵâĢĵâĢĵâĢĵâĢĵâĢĵ":3375,"Ġsymptoms":3376,"omic":3377,"Ġrapid":3378,"Ġfall":3379,"76":3380,"dev":3381,"work":3382,"Ġcreated":3383,"Ġdiagn":3384,"Ġcreat":3385,"Ġareas":3386,"Ġlack":3387,"Ġeasy":3388,"Ġimproved":3389,"74":3390,"Ġcredit":3391,"83":3392,"Comp":3393,"group":3394,"Ġevents":3395,"ĠString":3396,"Ġquite":3397,"Ġeffective":3398,"orizontal":3399,"ĠMan":3400,"aving":3401,"https":3402,"ĠAg":3403,"oke":3404,"formation":3405,"Ġdecl":3406,"Ġblack":3407,"Ġdetermine":3408,"target":3409,"Ġpain":3410,"IF":3411,"oes":3412,"athemat":3413,"iate":3414,"Ġcitizens":3415,"ĠTrump":3416,"Set":3417,"list":3418,"Ġface":3419,"Ġconstant":3420,"term":3421,"Ġperhaps":3422,"na":3423,"ĠLondon":3424,"Ġstarted":3425,"BC":3426,"Ġdate":3427,"requ":3428,"Ġprimarily":3429,"2049936119837162":3430,"acts":3431,"rep":3432,"ever":3433,"ĠSimilar":3434,"Ġisol":3435,"Ġinflamm":3436,"------":3437,"Ġ[*":3438,"Ġprevent":3439,"Ġ);":3440,"Ġstatus":3441,"Ġshall":3442,"Ġdistinct":3443,"54":3444,"ĠPar":3445,"Ġtechniques":3446,"Ġdegrees":3447,"91":3448,"rangle":3449,"Ġmaintain":3450,"ĠCongress":3451,"PL":3452,"erson":3453,"ĠDavid":3454,"ĠGeorge":3455,"rows":3456,"hibition":3457,"Ġliquid":3458,"Ġrepresents":3459,"Ġattorney":3460,"Ġprofessional":3461,"Ġcopy":3462,"ĠWARRANT":3463,"const":3464,"hy":3465,"Ġrender":3466,"Ġenzym":3467,"Ġbrain":3468,"dom":3469,"ĠBLASTER":3470,"Ġdanger":3471,"Ġnews":3472,"ck":3473,"Ġgreater":3474,"ĠCity":3475,"Ġ...":3476,"Ġprepared":3477,"TC":3478,"Ġwrong":3479,"Ġquestions":3480,"Ġprint":3481,"Ġpersonal":3482,"Ġmedical":3483,"Ġsuggests":3484,"Ġ28":3485,"Ġremain":3486,"Ġdimension":3487,"Ġmember":3488,"Ġframework":3489,"Ġmap":3490,"Ġlonger":3491,"Ġsurvey":3492,"True":3493,"Ġ23":3494,"Ġdriving":3495,"Ġvelocity":3496,"Ġpurposes":3497,"Ġwall":3498,"era":3499,"Ġeverything":3500,"Ġnature":3501,"Ġbiggest":3502,"Ġtherapeutic":3503,"Par":3504,"Ġrunning":3505,"ĠPhys":3506,"}\\\\":3507,"ĠÂ±":3508,"fr":3509,"Ġtra":3510,"ĠFoundation":3511,"uel":3512,"spec":3513,"Ġpresented":3514,"Ġcontact":3515,"Ġdirectly":3516,"Ġtitle":3517,"itation":3518,")$.":3519,"Ġselect":3520,"Ġcorresponding":3521,"Sigma":3522,"Ġstri":3523,"Ġactive":3524,"ĠInstitute":3525,"lete":3526,"active":3527,"Ġgas":3528,"ĠInt":3529,"ĠAb":3530,"Not":3531,"ĊĠĠĠĠĠĠĠĠ":3532,"aut":3533,"error":3534,"lo":3535,"Ġstatement":3536,"ĠSuper":3537,"61":3538,"Ġinput":3539,"Ġthousands":3540,"Ġphys":3541,"čĊĠ":3542,"Ġwidth":3543,"Ġcontext":3544,"Ġunit":3545,"Delta":3546,"rown":3547,"Int":3548,"ince":3549,"lease":3550,"79":3551,"place":3552,"ĠDevelopment":3553,"ĠVirginia":3554,"ening":3555,"ä¸":3556,"ĠĠĠĠĠĠĠĠĠĠĠĠ":3557,"ĠIran":3558,"Ġdiseases":3559,"++":3560,"dots":3561,"Ġdiabetes":3562,"Ġintelligence":3563,"Ġfront":3564,"AA":3565,"TR":3566,"Ġuncertain":3567,"Ġrecovery":3568,"code":3569,"gy":3570,"Ġstatic":3571,"circ":3572,"Ġtestimony":3573,"ĠChicago":3574,"Ġinfection":3575,"Ġsett":3576,"Ġequivalent":3577,"Ġexplicit":3578,"UN":3579,"Calculate":3580,"Ġhuge":3581,"public":3582,"induced":3583,"aven":3584,"ird":3585,"que":3586,"ĠPart":3587,"apt":3588,"Ġisn":3589,"Ġrelease":3590,"esis":3591,"icle":3592,"ying":3593,"Ġbehavior":3594,"Handler":3595,"Ġclaims":3596,"ĉĉĉĉĉĉĉĉĉĉĉĉĉĉĉĉĉĉĉĉĉĉĉĉĉĉĉĉĉĉĉĉĉ":3597,"Ġarchitect":3598,"#*#*#*#*#*#*#*#*#*#*#*#*#*#*#*#*#*#*#*#*#*#*#*#*#*#*#*#*#*#*#*#*#*#*#*#*":3599,"Ġinside":3600,"Ġstatist":3601,"stein":3602,"wide":3603,"section":3604,"çļĦ":3605,"Ġap":3606,"Ġantib":3607,"Ġcoeffic":3608,")}":3609,"Ġcateg":3610,"dis":3611,"Ps":3612,"ester":3613,"\\])":3614,"Ġintegr":3615,"field":3616,"Ġcontroll":3617,"fully":3618,"Ġoscill":3619,"encies":3620,"Ġpicture":3621,"Ġsurvival":3622,"Ġinstitution":3623,"Ġspectrum":3624,"Ġguidelines":3625,"Sec":3626,"Ġago":3627,"Ġ\"\\":3628,"Ġlatest":3629,"Ġadvantage":3630,"ĠReg":3631,"ĠHamilton":3632,"Ġproliferation":3633,"Ġability":3634,"Ġremember":3635,"Ġmaintenance":3636,"Ġ?":3637,"Ġcountries":3638,"Ġnote":3639,"Ġefficient":3640,"vironment":3641,"elling":3642,"Ġcriteria":3643,"base":3644,"ha":3645,"Ġsociety":3646,")=":3647,"58":3648,"SD":3649,"bin":3650,"^*":3651,"Ġdeveloped":3652,"Ġfire":3653,"Ġarticle":3654,"Ġrule":3655,"ĠMe":3656,"ĠCommission":3657,"hood":3658,"unction":3659,"Ġprop":3660,"pert":3661,"unk":3662,"amespace":3663,"Ġ26":3664,"Ġorg":3665,"Equ":3666,"trans":3667,"ĊĠĠĠĠĠĠĠĠĠĠĠĠĠ":3668,"state":3669,"MA":3670,"ĠDNA":3671,"oma":3672,"Ġautomatically":3673,"aves":3674,"Ġstay":3675,"Ġinvention":3676,"ĠOR":3677,"Ġstorage":3678,"Ġnational":3679,"Ġreduced":3680,"Ġuniform":3681,"ils":3682,"atives":3683,"Ġgrad":3684,"kappa":3685,"ĠFriday":3686,"Ġmitochondri":3687,"Ġslightly":3688,"Ġofficers":3689,"Ġlimited":3690,"su":3691,"Ġground":3692,"My":3693,"ament":3694,"Ġimpact":3695,"Ġmeaning":3696,"ĠWestern":3697,"Re":3698,"Ġfollowed":3699,"Ġavoid":3700,"Ġge":3701,"Ġ/>":3702,"ĠIS":3703,"ĠJust":3704,"Ġstrugg":3705,"Ġtemperatures":3706,"Ġque":3707,"define":3708,"Ġsevere":3709,"Ġsn":3710,"msg":3711,"Ġinstance":3712,"java":3713,"Ġcognitive":3714,"Ġsil":3715,"ĠMonday":3716,"athSciNetMATH":3717,"Ð¾":3718,"Ġsuff":3719,"Ġproportion":3720,"Ġtransfer":3721,"ĠVal":3722,"Ġhot":3723,"*]{}":3724,"Ġarrang":3725,"Ġcontain":3726,"Ġparticularly":3727,"Ġstudents":3728,")$,":3729,"Ġcriminal":3730,"ĠReykjavÃŃk":3731,"pty":3732,"Ġincludes":3733,"Ġwrite":3734,"Ġexpansion":3735,"oe":3736,"Ġrev":3737,"Ġarbitr":3738,"Ġetc":3739,"Ġnegative":3740,"Ġcrucial":3741,"ĠInter":3742,"lege":3743,"iven":3744,"Ġgames":3745,"Ġrecently":3746,"Ġaccur":3747,"Ġbalance":3748,"Ġsomew":3749,"ĠSunday":3750,"Ġparticles":3751,"inally":3752,"sing":3753,"ĠEm":3754,"Ġequipment":3755,"Ġtakes":3756,"ĠOur":3757,"Ġlargest":3758,"ĠIm":3759,"Se":3760,"GF":3761,"clude":3762,"ĠChinese":3763,"82":3764,"\\*":3765,"Ġinvest":3766,"idge":3767,"ĠSystem":3768,"ĠRec":3769,"EL":3770,"oo":3771,"lig":3772,"omy":3773,"\".":3774,"}_{\\":3775,"ĠQu":3776,"Ġforces":3777,"Ġcompleted":3778,"Ġdelivery":3779,"ential":3780,"Ġdistrict":3781,"ster":3782,"usion":3783,"ĠSm":3784,"Ġdifferences":3785,"ĠHow":3786,"Ġresid":3787,"Ġcenter":3788,"minimal":3789,"Ġreference":3790,"Ġpredict":3791,"Ġodd":3792,"ocation":3793,"ography":3794,"System":3795,"Ġ60":3796,"max":3797,"Ġillegal":3798,"ĶĢâĶĢâĶĢâĶĢâĶĢâĶĢâĶĢâĶĢâĶĢâĶĢâĶĢâĶĢâĶĢâĶĢâĶĢâĶĢâĶĢâĶĢâĶĢâĶĢâĶĢ":3799,"ĠPol":3800,"ship":3801,"ĠHis":3802,"ĠPennsylvania":3803,"Ġparameter":3804,"ĠTH":3805,"ĠRobert":3806,"umb":3807,"Ġplayers":3808,"Ġscript":3809,"Ġpractice":3810,"Ġnumbers":3811,"Ġdatas":3812,"Ġwanted":3813,"Ġconventional":3814,"ĠAdd":3815,"ailed":3816,"Â±":3817,"Ġles":3818,"ĠWhile":3819,"Ġappeal":3820,"ana":3821,"Ġ(\\[":3822,"Ġgenerally":3823,"Ġmembrane":3824,"documentclass":3825,"ĠTherefore":3826,"call":3827,"ze":3828,"aries":3829,"Ġmurder":3830,"ĠPer":3831,"Ġpreviously":3832,"ague":3833,"Ġannounced":3834,"sk":3835,"}}$":3836,"ags":3837,"Ġconstruct":3838,"Ġsecurity":3839,"ett":3840,"ĠST":3841,"ĠFirst":3842,"Simplify":3843,"ĊĊĊ":3844,"varphi":3845,"Ġincorpor":3846,"ploy":3847,"Ġ||":3848,"/(-":3849,"ae":3850,"illing":3851,"Ġshare":3852,"Ġleave":3853,"Ġtrack":3854,"Ġreligious":3855,"Ġregular":3856,"Key":3857,"nection":3858,"nonumber":3859,"fn":3860,"Cs":3861,"pc":3862,"ether":3863,"Ġforward":3864,"Ġbelie":3865,"Ġfib":3866,"CD":3867,"Ġexchange":3868,"Ġsurround":3869,"62":3870,"ML":3871,"Ġliving":3872,"ĠHere":3873,"Ġpresident":3874,"eat":3875,"gl":3876,"Ġguarant":3877,"Ġfeature":3878,"alysis":3879,"Ġrestaurant":3880,"Ġabsolutely":3881,"Ġunique":3882,"amsmath":3883,"Ġcommercial":3884,"Ġ2012":3885,"}{-":3886,"Ġmer":3887,"itted":3888,"Ġsem":3889,"tt":3890,"Ġwait":3891,"Ġcryst":3892,"Ġoutcomes":3893,"otion":3894,"Ġtreated":3895,"Ġforce":3896,"Ġandroid":3897,"Ġwhite":3898,"Ġextrem":3899,"Ġrepeated":3900,"Class":3901,"Ġinhibit":3902,"Ġmice":3903,"eless":3904,"Or":3905,"erve":3906,"Ġmis":3907,"Ġeye":3908,"ades":3909,"Ġidentify":3910,"point":3911,"ham":3912,"Ġult":3913,"Ġaud":3914,"Ġword":3915,"Ġnumer":3916,"Ġmessage":3917,"ĠDes":3918,"ĠDe":3919,"Ġ-->":3920,"Ġteach":3921,"ken":3922,"Ð°":3923,"ĠChina":3924,"Ġusually":3925,"Builder":3926,"ĠAP":3927,"Ġlate":3928,"Ġalthough":3929,"Ġmeasured":3930,"Ġadjacent":3931,"unn":3932,"SP":3933,"sw":3934,"ellant":3935,"Ġ2014":3936,"Ġappeared":3937,"Ġoption":3938,"Ġ]":3939,"Ġscreen":3940,"ĠBritish":3941,"Ġmetabol":3942,"anging":3943,"elle":3944,"Ġwhose":3945,"Ġspecies":3946,"ĠTrans":3947,"Ġdefault":3948,"Ġheavy":3949,"Ġvector":3950,"Ġprice":3951,"Ġoffer":3952,"Ġwhatever":3953,"Ġlegal":3954,"abor":3955,"Â°":3956,"Ġrout":3957,"Ġpoor":3958,"apter":3959,"umin":3960,"Ġcoming":3961,"langle":3962,"Ġ[**":3963,"rupt":3964,"Ġgrant":3965,"ducing":3966,"Ġcompet":3967,"Ġappro":3968,"alt":3969,"Ġstress":3970,"Ġonline":3971,"ĠTechn":3972,"map":3973,"Ġselected":3974,"Ġroad":3975,"Ġthemselves":3976,"psi":3977,"Ġoffice":3978,"from":3979,"Of":3980,"Ġmatrix":3981,"izes":3982,"Ġsituation":3983,"inn":3984,"Ġways":3985,"ĠĠĠĠĠĠĠĠĠĠĠĠĠĠĠĠĠ":3986,"Ġdetails":3987,"002":3988,"Ġhumans":3989,"item":3990,"ĠAmerica":3991,"Ġlinear":3992,"Ġbroad":3993,"Ġchosen":3994,"anguage":3995,"Ġvariables":3996,"Ġsubsequent":3997,"ball":3998,"ulate":3999,"ours":4000,"Exception":4001,"Ġhighly":4002,"\\].":4003,"Ġoperation":4004,"Ġpurch":4005,"ĠTuesday":4006,"~~":4007,"Ġsqu":4008,"ĠSome":4009,"Ġ27":4010,"Ġfrequency":4011,"jection":4012,"Ġtim":4013,"igen":4014,"Ġrelative":4015,"Ġsaying":4016,"áĥĲáĥ":4017,"Ġrates":4018,"({\\":4019,"Ġ2013":4020,"().":4021,"ĠDewey":4022,"ocks":4023,"Ġvisit":4024,"Ġ29":4025,"Ġ2015":4026,"ĠMERCHANTABILITY":4027,"``":4028,"Bl":4029,"Ġfit":4030,"ards":4031,"Ġanyone":4032,"Ã¶":4033,"ochosi":4034,"that":4035,"Ġparts":4036,"File":4037,"Ġprices":4038,"....":4039,"Ġgovern":4040,"DA":4041,"Ed":4042,"]^":4043,"Ġcomment":4044,"Ġargument":4045,"ĠGaussian":4046,"]--[@":4047,"Ġgives":4048,"Ġdeep":4049,"OW":4050,")/(-":4051,"Ġguilty":4052,"Ġnutri":4053,"overline":4054,"Ġinfrastructure":4055,"ĠWest":4056,"Ġtried":4057,"Ġprime":4058,"One":4059,"Pl":4060,"Ġten":4061,"Ġasp":4062,"Ġemphas":4063,"TP":4064,"Ġhope":4065,"ĠEd":4066,"ii":4067,"Ġreduction":4068,"Ġfundamental":4069,"ĠMarch":4070,"Ġ2016":4071,"BS":4072,"Ġ/*":4073,"cap":4074,"onic":4075,"Item":4076,"...\"":4077,"Ġpolicies":4078,"indows":4079,"eff":4080,"ened":4081,"Ġimages":4082,"Ġgenerated":4083,"Ġstyle":4084,"Ġplasma":4085,"ius":4086,"Ġcentral":4087,"Filter":4088,"Ġ;":4089,"Ġenh":4090,"iant":4091,"artifactId":4092,"}.":4093,"Ġfindings":4094,"rad":4095,"ĠII":4096,"ris":4097,"oring":4098,"Ġste":4099,"Ġenforce":4100,"Ġbox":4101,"Ġatmosphere":4102,"len":4103,"ications":4104,"Ġapply":4105,"ĠĠĠĠĠĠĠĠĠĠĠĠĠĠĠĠĠĠ":4106,"itter":4107,"Ġdistinguish":4108,"user":4109,"ĠAc":4110,"cluded":4111,"play":4112,"Ġill":4113,"ĠNow":4114,"Ġanalog":4115,"ca":4116,"ĠĠĠĠĠĠĠĠĠĠĠĠĠĠĠ":4117,"Ġvoice":4118,"Ġserious":4119,"Ad":4120,"ls":4121,"ĠSw":4122,"ĠAlthough":4123,"oted":4124,"ĠRepublic":4125,"ĠThursday":4126,"Ġprocedures":4127,"Ġcurrently":4128,"Ġproteins":4129,"500":4130,"ĠHouse":4131,"-----":4132,"aph":4133,"Ġnotice":4134,"ĠGermany":4135,"Ġ2017":4136,"acing":4137,"burg":4138,"Ġprevalence":4139,"Ġlost":4140,"Ġyield":4141,"EST":4142,"Time":4143,"Ġfunctional":4144,"DS":4145,"EP":4146,"ĠRuss":4147,"Ġcontains":4148,"Ġexpress":4149,"Ġobvious":4150,"cell":4151,"ĠProposition":4152,"ocytes":4153,"Ġ^":4154,"Ġexists":4155,"Ġprefer":4156,"pen":4157,"Ġallows":4158,"ĠTexas":4159,"iable":4160,"ĠMark":4161,"Ġfederal":4162,"Ġ->":4163,"ĠTe":4164,"Ġ-----------":4165,"Ġenter":4166,"lor":4167,"Ġ00":4168,"ĠJesus":4169,"6789012345678901234567":4170,"Ġstim":4171,"Ġscenario":4172,"Ġdesigned":4173,"Ġactivities":4174,"raph":4175,"ocol":4176,"ournal":4177,"Ġmult":4178,"Ġexpressed":4179,"Ġstage":4180,"Ġcharge":4181,"Ġlymph":4182,"Ġapparatus":4183,"Ġexcellent":4184,"Ġord":4185,"istry":4186,"ĠCalculate":4187,"ĠCircuit":4188,"Map":4189,"yr":4190,"Ġconflict":4191,"ns":4192,"bm":4193,"Controller":4194,"Layout":4195,"Ġindividuals":4196,"Ass":4197,"nabla":4198,"Ġattention":4199,"Ġlay":4200,"index":4201,"github":4202,"ĠAssociation":4203,"ĠAfghanistan":4204,"Ġmax":4205,"Ġtransition":4206,"Ġdistance":4207,"knome":4208,"Ġelimin":4209,"js":4210,"čĊ":4211,"Ġ2011":4212,"ĠSer":4213,"Ġsaw":4214,"ĊĠĠĠĠĠĠ":4215,"Ġentitled":4216,"Ġvehicle":4217,"Now":4218,"Ġbank":4219,"Version":4220,"methyl":4221,"Ġspin":4222,"Ġleading":4223,"Ġabsolute":4224,"\\,":4225,"Ġoverall":4226,"Ġsoon":4227,"Ġchoice":4228,"Ġbuffer":4229,"link":4230,"Ġauthors":4231,"Ġvs":4232,"FL":4233,"arrow":4234,"Ġask":4235,"Ġ($":4236,"Ġ2010":4237,"Ġeasily":4238,"Ġnor":4239,"ios":4240,"Ġallowed":4241,"Ġcritical":4242,"Ġcourts":4243,"Ġintensity":4244,"Ġunderstood":4245,"Ġdouble":4246,"Ġhospital":4247,"Ġsites":4248,"Ġtransport":4249,"Ġlocation":4250,"Ġconstruction":4251,"Ġbecame":4252,"Ġconcrete":4253,"!!":4254,"Ġalone":4255,"Ġscale":4256,"ĠFurther":4257,"Form":4258,"Ġfailed":4259,"script":4260,"Ġmode":4261,"Ġlimits":4262,"Ġneither":4263,"Ġgoal":4264,"Ġdomain":4265,"urb":4266,"author":4267,"Ġvariable":4268,"Ġmanagement":4269,"ĠNe":4270,"iness":4271,"003":4272,"){#":4273,"ming":4274,"Ġelectro":4275,"Ġquarter":4276,"springframework":4277,"Ġstore":4278,"Ġport":4279,"Ġ__":4280,"^+^":4281,"._":4282,"osp":4283,"Ġzero":4284,"False":4285,"Ġfailure":4286,"oz":4287,"FF":4288,"encing":4289,"Ġproof":4290,"ĠBar":4291,"node":4292,"ilit":4293,"Ġsupported":4294,"Ġacqu":4295,"ALL":4296,"Ġduty":4297,"Ġlicense":4298,"Field":4299,"Qu":4300,"Ġmobile":4301,"Ġeveryone":4302,"kr":4303,"Ġhol":4304,"ĠPublic":4305,"Ġsets":4306,"Ġball":4307,"clusive":4308,"Ġaim":4309,"Ġfiles":4310,"Ġinform":4311,"Ġvitro":4312,"gn":4313,"pped":4314,"Ġconsequ":4315,"Ġproduce":4316,"hal":4317,"ĠRed":4318,"Ġlikelihood":4319,"Ġspeed":4320,"amin":4321,"Ġspeak":4322,"ĠIslam":4323,"(),":4324,"asing":4325,"Ġcaused":4326,"Ġveget":4327,"Ġversus":4328,"ĠCons":4329,"Ġcontaining":4330,"Ġweak":4331,"iring":4332,"Ġthreat":4333,"ville":4334,"oding":4335,"Ġou":4336,"Ġfluorescence":4337,"ecting":4338,"Ġequal":4339,"iding":4340,"ĠSen":4341,"Ġsuit":4342,"icated":4343,"Ġdaughter":4344,"Ġneurons":4345,"Ġstated":4346,"Ġ32":4347,"Ġdiet":4348,"Ġfix":4349,"Ġfruit":4350,"IA":4351,"Ġworth":4352,"ifier":4353,"Ġbasic":4354,"mark":4355,"Ġwarrant":4356,"print":4357,"Create":4358,"Ġaxis":4359,"New":4360,"fil":4361,"ped":4362,"ĠFl":4363,".[":4364,"Ab":4365,"ĠLa":4366,"Ġwonder":4367,"Ġnode":4368,"omb":4369,"Ġconnected":4370,"Ġthreshold":4371,"tical":4372,"Ġcollection":4373,"pre":4374,"Ġheight":4375,"Ġcommand":4376,"Ġscheme":4377,"Ġbudget":4378,"Ġduration":4379,"style":4380,"Ġround":4381,"pack":4382,"Ġslow":4383,"Ġhimself":4384,"Ġclearly":4385,"Ġfreedom":4386,"Ġelection":4387,"known":4388,"Ġoxid":4389,"OV":4390,"gu":4391,"rier":4392,"ĠGet":4393,"Ġbacter":4394,"Ġdead":4395,"Ð»":4396,"ĠHar":4397,"Ġtrigger":4398,"uetoothLowEnergyWeaveClientConnection":4399,"using":4400,"Ġrot":4401,"Ġlocated":4402,"Ġsensitivity":4403,"Ġfair":4404,"Ġinit":4405,"Ġled":4406,"ĠDi":4407,"Ġusers":4408,"Ġliability":4409,"}$$\\":4410,"Ġforms":4411,"Ġculture":4412,"Ġ2008":4413,"plit":4414,"anguages":4415,"Ġparties":4416,"âĢĥ":4417,"Ġdeliver":4418,"Ġgave":4419,"Ġclust":4420,"Ġextra":4421,"Event":4422,"post":4423,"ract":4424,"Ġpush":4425,"Ġwavelength":4426,"}^{\\":4427,"ĠUSA":4428,"ĠANY":4429,"Info":4430,"Ġfight":4431,"Ġfeed":4432,"Ġsort":4433,"Ġemerg":4434,"ĠSchool":4435,"Ġpeak":4436,"ĠSaturday":4437,"ĠWITHOUT":4438,"ĠPost":4439,"ART":4440,"['":4441,"Ġheat":4442,"ĠJud":4443,"Ġ90":4444,"upport":4445,"References":4446,"Ġrules":4447,"Ġdefine":4448,"Ġactual":4449,"Ġfriends":4450,"());":4451,"Ġlives":4452,"Ġmort":4453,"Ġdu":4454,"ĠRev":4455,"rich":4456,"info":4457,"Ġfast":4458,"Ġprocesses":4459,"itis":4460,"break":4461,"Ġmat":4462,"RI":4463,"hand":4464,"Ġ\"\"":4465,"Ġserver":4466,"Ġsegment":4467,"######":4468,"Ġbuy":4469,"Ġfiled":4470,"ĠCal":4471,"}-":4472,"osing":4473,"textbf":4474,"Ġfields":4475,"ĠCopyright":4476,"Ġmount":4477,"Ġcarry":4478,"Ġskin":4479,"((":4480,"inding":4481,"raz":4482,"Ġpress":4483,"Ġstaff":4484,"dep":4485,"cast":4486,"Factory":4487,"ĠOffice":4488,"Ġscientific":4489,"Ġvirtual":4490,"Ġpull":4491,"hold":4492,"\",\"":4493,"Ġbegan":4494,"Ġ<<":4495,"Ġeconomic":4496,"Ġhit":4497,"ĠDemocr":4498,"Î±":4499,"ĠMon":4500,"Ġqual":4501,"Ġ31":4502,"ĠFrench":4503,"Ġlegisl":4504,"ĠStud":4505,"ĠÎ¼":4506,"Ġfinding":4507,"Ġoperator":4508,"Ġdamage":4509,"Ġones":4510,"Ġprob":4511,"claim":4512,"ica":4513,"ĊĊĠĠĠĠĠ":4514,"ĠData":4515,"Ġhighest":4516,"Test":4517,"orph":4518,"image":4519,"ĠHigh":4520,"Ġoppos":4521,"Ġecho":4522,"Ġfat":4523,")^":4524,"ding":4525,"ĠSP":4526,"Ġremains":4527,"ube":4528,"Ġunderstanding":4529,"Ġsum":4530,"ulf":4531,"geq":4532,"\\],":4533,"otes":4534,"Ġdefendants":4535,"ture":4536,"Ġexcept":4537,"Ġtransform":4538,"Ġcontinues":4539,"Ġcosts":4540,"Ġaccompl":4541,"éĿŀæ°´éĽ»è§£è³ªäºĮæ¬¡éĽ»æ±ł":4542,"Ġgalaxies":4543,"ano":4544,"color":4545,"Service":4546,"Ġintr":4547,"Ġsmaller":4548,"emic":4549,"''":4550,">>":4551,"TYPE":4552,"vis":4553,"Ġ\\<":4554,"Ġcorrel":4555,"Ġequation":4556,"Ġnoted":4557,"carboxylic":4558,"UL":4559,"Ġborder":4560,"Ġhear":4561,"duces":4562,"Ġtreat":4563,"Ġgoes":4564,"Ġmaterials":4565,"Ġplant":4566,"Ġweb":4567,"Ġimag":4568,"Ġinteresting":4569,"ĠRNA":4570,"Ġgauge":4571,"Ġvoltage":4572,"bol":4573,"Ġproduced":4574,"stitution":4575,"Ġreduce":4576,"ĠĠĠĠĠĠĠĠĠĠĠĠĠĠĠĠ":4577,"Ġlooks":4578,"ĠĠĠĠĠĠĠĠĠĠĠĠĠĠĠĠĠĠĠ":4579,"Ġfine":4580,"Ġhar":4581,"Ġkn":4582,"^{(":4583,"ubuntu":4584,"ĠAmazon":4585,"men":4586,"Ġtheorem":4587,"Size":4588,"title":4589,"owing":4590,"irt":4591,"Ġoptions":4592,"iences":4593,"ĠAng":4594,"Ġtechnology":4595,"Ġplease":4596,"ĠHuman":4597,"Ġsignificance":4598,"RC":4599,"INT":4600,"ĠThomas":4601,"From":4602,"Ġmother":4603,"Ġworked":4604,"pd":4605,"treated":4606,"ani":4607,"');":4608,"Ġestablished":4609,"Ġreceive":4610,"Ġathletes":4611,"AMissionOfMamahood":4612,"Ġdevices":4613,"Ġsolid":4614,"float":4615,"Ġderivative":4616,"]\\],":4617,"Ġdisp":4618,"Ġthroughout":4619,"Ġshowing":4620,"molecules":4621,"carbamoyl":4622,"\\<":4623,"Ġeth":4624,"Ġreports":4625,"Ġreasonable":4626,"ustrial":4627,"Ġfun":4628,"Ġresulting":4629,"Ġpopular":4630,"Ġtests":4631,"Ġboard":4632,"ĠIllinois":4633,"Ġexception":4634,"Ġswitch":4635,"Ġwidely":4636,"Ġmajority":4637,"Ġ:=":4638,"Ġregions":4639,"subseteq":4640,"Path":4641,"pe":4642,"ĠFrom":4643,"Ġdecided":4644,"Ġbed":4645,"Ġ35":4646,"ĠIraq":4647,"Ġpen":4648,"ĠWar":4649,"Ġframe":4650,"fortunately":4651,"æŃ£æ¥µæ´»çī©è³ª":4652,"Ġsources":4653,"stream":4654,"ĠSub":4655,"Ġcontrast":4656,"Ġinsp":4657,"Ġseparate":4658,"\\'":4659,"Ġhop":4660,"Ġsymmet":4661,"Ġsetting":4662,")).":4663,"select":4664,"ways":4665,"Ġitem":4666,"Ġclasses":4667,"attle":4668,"Ġengine":4669,"Ġtoxic":4670,"Ġlaser":4671,"Ġclosed":4672,"Ġfilter":4673,"Ġdefinitely":4674,"Ġdivided":4675,"Ġunivers":4676,"ĠEl":4677,"ĠSecretary":4678,"IB":4679,"Ġsound":4680,"Ġreleased":4681,"ĠInstead":4682,"Ġmal":4683,"enses":4684,"Ġuns":4685,"Ġinteraction":4686,"Ġdepartment":4687,"Ġbecoming":4688,"enz":4689,"which":4690,"Ġsafety":4691,"Be":4692,"Ġcam":4693,"Ġcomputer":4694,"][":4695,"Ġchannels":4696,"Ġson":4697,"otype":4698,"Ġworkers":4699,"Ġ2018":4700,"Rec":4701,"ancy":4702,"ows":4703,"Ġtesting":4704,"ĠBro":4705,"Ġuses":4706,"Ġmid":4707,"ĠAccording":4708,"Ġyourself":4709,"object":4710,"icip":4711,"ĠMod":4712,"Ġhearing":4713,"Ġ/**":4714,"Ġdiscovered":4715,"ĠLaw":4716,"';":4717,"hip":4718,"Ġregarding":4719,"Ġinjury":4720,"Ġsampling":4721,"HT":4722,"RA":4723,"approx":4724,"enced":4725,"Ġstand":4726,"ĠList":4727,"Ġtrust":4728,"ground":4729,"Ġnuclear":4730,"Ġsenior":4731,"Ġtruly":4732,"Ġdiagram":4733,"flocculant":4734,"Ġdiss":4735,"Ġgets":4736,"Ġprobability":4737,"Ġtoward":4738,"true":4739,"PC":4740,"Buffer":4741,"Ġdemonstrated":4742,"NN":4743,"Ġreading":4744,"Ġhyper":4745,"Ġweapons":4746,"Ġtool":4747,"Ġlov":4748,"ĠMuslim":4749,"They":4750,"Ġcontribut":4751,"Ġindicated":4752,"Ġcomprehensive":4753,"lt":4754,"Ġtask":4755,"State":4756,"Ġwrit":4757,"Ġapplications":4758,"Ġmilk":4759,"Ġbenefits":4760,"Ġ(**":4761,"ama":4762,"Ġconstraints":4763,"Ġwasn":4764,"Ġscattering":4765,"Ġchoose":4766,"oto":4767,"ldots":4768,"Ġcomposite":4769,"wise":4770,"under":4771,"Ġconclusion":4772,"ĠMassachusetts":4773,"ME":4774,"Ġaware":4775,"oses":4776,"Ġmorning":4777,"Ġlattice":4778,"ĠGerman":4779,"Ġinterview":4780,"Ġscore":4781,"related":4782,"Ġaward":4783,"RT":4784,"Ġsubstrate":4785,"ares":4786,"free":4787,"Ġemployees":4788,"rs":4789,"Ġ80":4790,"private":4791,"Ġmanifest":4792,"otherapy":4793,"*-":4794,"Ġgiving":4795,"ĠSection":4796,"omin":4797,"ĠDet":4798,"ĠChar":4799,"Ġattach":4800,"Ġmedium":4801,"Ġbaby":4802,"cos":4803,"iter":4804,"olar":4805,"Ġinstructions":4806,"db":4807,"Î²":4808,"PO":4809,"fe":4810,"ĠMexico":4811,"gs":4812,"Ġhon":4813,"odies":4814,"áº":4815,"ĠNS":4816,"Ġneut":4817,"Ġdescription":4818,"Ġplayed":4819,"Ġgun":4820,"ATE":4821,"here":4822,"Ġdest":4823,"Ġshape":4824,"ume":4825,"erved":4826,"Ġprove":4827,"[^":4828,"Ġer":4829,"aling":4830,"Ġpul":4831,"Ġitems":4832,"ĠGe":4833,"session":4834,"Ġindicate":4835,"Ġinvariant":4836,"ĠArizona":4837,"============":4838,"resent":4839,"ĠEq":4840,"dr":4841,"Ġinternal":4842,"American":4843,"Ġletters":4844,"length":4845,"Ġdetection":4846,"une":4847,"Ġconsistent":4848,"Ġmac":4849,"Ġimmediately":4850,"Ġsucceed":4851,"Ġdog":4852,"py":4853,"ESS":4854,"iet":4855,"../":4856,"Two":4857,"ecutive":4858,"Ġoccasion":4859,"Here":4860,"VER":4861,"ĠTO":4862,"Em":4863,"Ġcalculated":4864,"static":4865,"Ġrob":4866,"Trans":4867,"istribution":4868,"Ġfoot":4869,"Ġformation":4870,"Ġstarting":4871,"Context":4872,"Ġimmig":4873,"mic":4874,"Log":4875,"enty":4876,"Ġappears":4877,"Ġpetition":4878,"ights":4879,"čĊĉ":4880,"iÃ³n":4881,"ĠLemma":4882,"^[@":4883,"rick":4884,"oon":4885,"Ġwave":4886,"ĠBecause":4887,"Ġcomments":4888,"comm":4889,"Ġcycl":4890,"âķĲâķĲâķĲâķĲâķ":4891,"Ġ\\,":4892,"LA":4893,"Ġsolutions":4894,"Ġaw":4895,"ĠPark":4896,"Ġapoptosis":4897,"})$":4898,"php":4899,"Ġparticipants":4900,"ĊĊĠĠĠĠĠĠĠĠĠĠĠ":4901,"Ġconfig":4902,"Ġbrought":4903,"Ġdiscovery":4904,"Ġstation":4905,"Ġjury":4906,"lic":4907,"Ġsingular":4908,"Ġdollars":4909,"Ġ95":4910,"ellow":4911,"Ġmoments":4912,"Ġmargin":4913,"Ġknew":4914,"Ġincome":4915,"Ġdrive":4916,"Ġmagnetic":4917,"Ġorthogonal":4918,"çĶ¨":4919,"Ġtelevision":4920,"ĠDis":4921,"Ġheard":4922,"ula":4923,"Ġagree":4924,"Ġcollect":4925,"Ġhousing":4926,"Ġimpossible":4927,"Ġvariety":4928,"ĠInsurance":4929,"Ġstructures":4930,"Ġsurpr":4931,"olved":4932,"cribed":4933,"Ġlargely":4934,"Ġplaying":4935,"$$\\":4936,"Ġproviding":4937,"Ġemb":4938,"Ġemail":4939,"Ġvivo":4940,"Ġpreparation":4941,"Fr":4942,"Ġdetected":4943,"Ġwide":4944,"gener":4945,"Ġcore":4946,"ĠPR":4947,"airs":4948,"ĠAlso":4949,"Ġactions":4950,"{\\\\":4951,"icon":4952,"Ġfigures":4953,"Ġinfluence":4954,"Ġmeeting":4955,"Ġdoor":4956,"Ġthinking":4957,"Another":4958,"Ġeight":4959,"Ġ2009":4960,"Ġsimultaneously":4961,"*.":4962,"Ġadopted":4963,"otal":4964,"Ġstd":4965,"Ġopportunity":4966,"Ġperipheral":4967,"zz":4968,"ĠPlaintiff":4969,"ometry":4970,"\"},":4971,"lib":4972,"Ġrow":4973,"Ġexisting":4974,"Ġresponsible":4975,"Ġsup":4976,"\"><":4977,"Ġpackage":4978,"}}(":4979,"Ġcombination":4980,"Ġadministration":4981,"Ġmanuscript":4982,"cons":4983,"Ġdiscl":4984,"Ġquantum":4985,"Ġinduced":4986,"Ġstrategies":4987,"FT":4988,"ishing":4989,"Ġachieve":4990,"Ġmale":4991,"Ġnearly":4992,"Ġshooting":4993,"Out":4994,"Ġderived":4995,"ĠSocial":4996,"*)":4997,"Ġconcept":4998,"ĠMore":4999,"Ġoptim":5000,"]:":5001,"ford":5002,"Reg":5003,"ĠHol":5004,"Ġdiscussed":5005,"ĠSyri":5006,"Ġperspective":5007,"Ġharm":5008,"ifying":5009,"Ġupdated":5010,"hes":5011,"lication":5012,"ky":5013,"room":5014,"Ġactivation":5015,"ĠEarth":5016,"Ġfamiliar":5017,"input":5018,"Ġign":5019,"ĠYour":5020,"Ġmusic":5021,"ÙĬØ":5022,"Ġunlikely":5023,"ĠAM":5024,"Read":5025,"side":5026,"Ġselection":5027,"berg":5028,"Ġdiscipl":5029,"cin":5030,"xe":5031,"Ġvacuum":5032,"long":5033,"onent":5034,"di":5035,"Ġ(\"":5036,"Label":5037,"Ġtissues":5038,"áĥĶáĥ":5039,"Ġ(\\":5040,"Ġpept":5041,"Ġfacts":5042,"alth":5043,"ipe":5044,"Ġconducted":5045,"Ġsuggested":5046,"\\!\\":5047,"ĠView":5048,"She":5049,"Ġprem":5050,"oting":5051,"Ġplaces":5052,"ptions":5053,"contouringMetaDataS":5054,"EG":5055,"Image":5056,"Ġdefense":5057,"Ġlif":5058,"Ġri":5059,"Ġpossess":5060,"Ġglucose":5061,"Ġplus":5062,"ĠUK":5063,"urt":5064,"\\)":5065,"Ġresistance":5066,"Ġprincipal":5067,"board":5068,"well":5069,"ners":5070,"Ġcook":5071,"Ġgreen":5072,"ĠEuropean":5073,"sm":5074,"resp":5075,"Inter":5076,"Ġblog":5077,"DM":5078,"Ġsteps":5079,"Ġswe":5080,"CO":5081,"atively":5082,"Ġdrop":5083,"ading":5084,"Ġvisual":5085,"Ser":5086,"tx":5087,"Ġinstrument":5088,"ĠMinnesota":5089,"Ġcarried":5090,"Ġtrade":5091,"Ġmessages":5092,"Ġ37":5093,"ĠObject":5094,"Ġamazing":5095,"ĠâĪĴ":5096,"Ġfather":5097,"assert":5098,"Ã£o":5099,"run":5100,"yst":5101,"Ġphone":5102,"inflammatory":5103,"Ġmiddle":5104,"Ġextract":5105,"QU":5106,"pat":5107,"Ġ36":5108,"Ġbul":5109,"Ġ\"[":5110,"opl":5111,"Ġlaunch":5112,"ecl":5113,"abs":5114,"Ġspread":5115,"Ġexceed":5116,"Ġcohort":5117,"ias":5118,"Ġregister":5119,"lear":5120,"Ġclick":5121,"Ġcool":5122,"iatric":5123,"Ġcholesterol":5124,"Ġcardiovascular":5125,"ĠSim":5126,"\"></":5127,"Ġconc":5128,"ĠÐ¼ÐµÑģÑĤÐ¾ÑĢÐ¾Ð¶Ð´ÐµÐ½Ð¸Ð¹":5129,"Ġnorth":5130,"Ġmanifold":5131,"Ġorganizations":5132,"Ġattr":5133,"ync":5134,"%,":5135,"Ã°":5136,"ĠTable":5137,"ĠEven":5138,".\\":5139,"ĠCH":5140,"Ġpolit":5141,"Ġsold":5142,"Ġclient":5143,"Attribute":5144,"Ġavailability":5145,"ĠOf":5146,"Ġdiscretion":5147,"Ġhor":5148,"Ã©s":5149,"Ġsouth":5150,"ĠHer":5151,"Ġunits":5152,"Ġreaction":5153,"Ġformed":5154,")?":5155,"points":5156,"url":5157,"abled":5158,"Ġhealthy":5159,"×Ļ×":5160,"setminus":5161,"Ġdomin":5162,"${":5163,"Ac":5164,"friend":5165,"Ġepisode":5166,"ĠDefendant":5167,"Ġdegradation":5168,"uate":5169,"Ġalter":5170,"Ġdelay":5171,"Ġruling":5172,"Ġacceler":5173,"ping":5174,"ayer":5175,"Ġtruth":5176,"uted":5177,"Ġlaws":5178,"going":5179,"umn":5180,":\"":5181,"âĢĬ":5182,"Ġresources":5183,"gress":5184,"Ġmoving":5185,"Ġwa":5186,"Ġstuff":5187,"Exp":5188,"Ġobjects":5189,"BI":5190,"Ġsrc":5191,"Ġthermal":5192,"Ġroot":5193,"Ġ70":5194,"Ġfabric":5195,"Ġsudden":5196,"ptr":5197,"ĠCenter":5198,"ĠVer":5199,"Ġeffort":5200,"ĠLouis":5201,"':":5202,"ĠDo":5203,"Ġfinally":5204,",-":5205,"Before":5206,"ĠJewish":5207,"ĠKorea":5208,"CE":5209,"Ñĥ":5210,"Ġseven":5211,"},\\":5212,"Ġgonna":5213,"check":5214,"Ġencounter":5215,"Act":5216,"Ġincreases":5217,"Ġmodern":5218,"Ġstatute":5219,"RS":5220,"Ġconcerning":5221,"Ġhem":5222,"Ġrat":5223,"}}}":5224,"Ġpolym":5225,"Ġremove":5226,"Ġexistence":5227,"ench":5228,"Ġsell":5229,"Ġapparent":5230,"Ġmolecular":5231,"Ġconversation":5232,"Ġarrived":5233,"Ġmonitoring":5234,"Ġmetal":5235,"='":5236,"ires":5237,"ĠServices":5238,"Ġultimately":5239,"tw":5240,"ĊĊĠĠĠĠĠĠ":5241,"Ġtour":5242,"Ġshot":5243,"ĠRef":5244,"ĠAnother":5245,"Ġcrisis":5246,"ĠSoftware":5247,"Ġpoly":5248,"icial":5249,"ĠInternet":5250,"Ġingredients":5251,"ĠNevertheless":5252,"CS":5253,"ĠMost":5254,"Ġhidden":5255,"write":5256,"itz":5257,"Ġdrugs":5258,"\":\"":5259,"Ġbus":5260,"Ġonto":5261,"iers":5262,"create":5263,"Ġshift":5264,"Ġafraid":5265,"bluesabre":5266,"Ct":5267,"core":5268,"ATION":5269,"Ġtested":5270,"Ġreceptors":5271,"parent":5272,"Ġ~":5273,"Ġsave":5274,"Ġwish":5275,"Ġbenefit":5276,"oub":5277,"Ġprocessing":5278,"Ġsummary":5279,"orrect":5280,"ĠClinton":5281,"BL":5282,"Ġturned":5283,"AV":5284,"Ġnone":5285,"Ġextent":5286,"Ġwithdraw":5287,"ĠMichigan":5288,"CI":5289,"Ġhour":5290,"Ġlabor":5291,"KE":5292,"ĠHIV":5293,"Ġinvestigation":5294,"Ġcontinued":5295,"Ġmovement":5296,"Ġcheap":5297,"Ġdiversity":5298,"Ġwindow":5299,"Ġwife":5300,"Ġdark":5301,"Ġcompr":5302,"Ġspent":5303,"eah":5304,"Ġsugar":5305,"Ġdiameter":5306,"imer":5307,"**)":5308,"Ġbeginning":5309,"Ġcycle":5310,"Ġstretch":5311,"CA":5312,"arp":5313,"ĠCO":5314,"Ġletter":5315,"John":5316,"Ġmag":5317,"}}}}":5318,"Ġassume":5319,"De":5320,"atin":5321,"oul":5322,"stract":5323,"level":5324,".](":5325,"Ġcop":5326,"Ġmg":5327,"Target":5328,"##":5329,"----------------------":5330,"orter":5331,"Ġnation":5332,"Ġcircuit":5333,"num":5334,"ustom":5335,"Ġprotection":5336,"Ġstroke":5337,"Ġjoined":5338,"erence":5339,"start":5340,"Ġlip":5341,"ĠRem":5342,"Ġpassed":5343,"Ġassociation":5344,"acellular":5345,"Ġkernel":5346,"Ġ((":5347,"Ġ45":5348,"Ġsession":5349,"earch":5350,"Ġvirus":5351,"ãĢģ":5352,"Ġfashion":5353,"Me":5354,"Ġfear":5355,"=\"-":5356,"Ġmovie":5357,"igation":5358,"Ġsequ":5359,"agon":5360,"Ġsexual":5361,"source":5362,"ublish":5363,"ographic":5364,"Token":5365,"/\\":5366,"apache":5367,"ĠEast":5368,"Ġofficials":5369,"Ġadministered":5370,"Ġparent":5371,"Ġ2007":5372,"Ġoptical":5373,"ĠSan":5374,"Ġdie":5375,"Ġsurgical":5376,"Ġremov":5377,"iscussion":5378,".*":5379,"ibr":5380,"Ġplayer":5381,"Ġoperations":5382,"ause":5383,"Ġplans":5384,"Ġoffers":5385,"property":5386,"book":5387,"Ġnorm":5388,"Ġsummer":5389,"--------------------------":5390,"AND":5391,"Ġsecret":5392,"Ġ33":5393,"ĠĠĠĠĠĠĠĠĠĠĠĠĠĠĠĠĠĠĠĠĠ":5394,"Ġagent":5395,"Ġtend":5396,"005":5397,"aine":5398,"Ġblue":5399,"Ġregul":5400,"Ġ});":5401,"Ġmanner":5402,"Ġhands":5403,"gram":5404,"Ġtensor":5405,"ĊĊĉ":5406,")**":5407,"čĊĠĠĠĠĠĠĠ":5408,"open":5409,"Ġchurch":5410,"Ġwhereas":5411,"(\\\\":5412,"src":5413,"ingly":5414,"Ġchance":5415,"space":5416,"rypt":5417,"ocket":5418,"Ġchallenge":5419,"build":5420,"Ġwild":5421,"Ġthread":5422,"Ġhospitals":5423,"Ġolder":5424,"Ġupdate":5425,"ĠOther":5426,"ignment":5427,"Ġcalls":5428,"Ġoxygen":5429,"count":5430,"ln":5431,"Ø§":5432,"izer":5433,"ĠSpec":5434,"Ġstars":5435,"agement":5436,"Ġapproximately":5437,"vergence":5438,"ifferent":5439,"Ġsugges":5440,"Ġready":5441,"Ġcareer":5442,"Ġded":5443,"Ġagency":5444,"Ġroll":5445,"Ġbispectrum":5446,"vest":5447,"Ġcoach":5448,"Ġleads":5449,"ĠService":5450,"**]{},":5451,"Ġ48":5452,"Ġcorrelation":5453,"ï¼Į":5454,"Ġabsorption":5455,"host":5456,"Ġchrom":5457,"Ġmoved":5458,"Ġcatch":5459,"Ġband":5460,"Ġinn":5461,"istant":5462,"Ġoccup":5463,"Ġ2006":5464,"Ġextension":5465,"Ġreplacement":5466,"ĠÄĳ":5467,"Ġtaste":5468,"Ġdoctrine":5469,"ĠCode":5470,"Ġtypically":5471,"Ġcorpor":5472,"hi":5473,"arian":5474,"Ġherself":5475,"Ġcompar":5476,"PA":5477,"ĠAdminist":5478,"Ġwarm":5479,"Ġrelation":5480,"Ã¨":5481,"option":5482,"Ġkids":5483,"Ġdomestic":5484,"Ġaffected":5485,"Ġtomorrow":5486,"Ġcauses":5487,"Ġattempts":5488,"/(":5489,"wood":5490,"Ġcurve":5491,"Mod":5492,"ston":5493,"onymous":5494,"Ġpadding":5495,"Ġhealthcare":5496,"Ġinsufficient":5497,"ql":5498,"Ġ///":5499,"Ġbattery":5500,"Ġplanned":5501,"Ġexplanation":5502,"ĠAppeals":5503,"Element":5504,"iot":5505,"fold":5506,"ĠWhite":5507,"Ġaccordance":5508,"Ġobviously":5509,"Ġsend":5510,"Ġdiff":5511,"Ġencour":5512,"Ġrepresentation":5513,"ĠAlexand":5514,"Ġcontrovers":5515,"Ġabundance":5516,"Ġ2000":5517,"\").":5518,"fact":5519,"Ġrace":5520,"Ġexperimental":5521,"ĠFROM":5522,"Property":5523,"ĠNews":5524,"ĠCambridge":5525,"ĠPhiladelphia":5526,"CN":5527,"See":5528,"Ġfamilies":5529,"Pr":5530,"Fl":5531,"olean":5532,"Ġtalking":5533,"ublisher":5534,"Ġclub":5535,"Ġspeech":5536,"Ġmarriage":5537,"ĠAp":5538,"ĠArt":5539,"ĠMiami":5540,"Ġepithelial":5541,"Ġapart":5542,"Ġsaved":5543,"ĠRichard":5544,"Ġspatial":5545,"Ġunless":5546,"Ġimpro":5547,"Ġcombined":5548,"ĠMS":5549,"aker":5550,"Ġefforts":5551,"Ġvillage":5552,"ologies":5553,"Ġideas":5554,"Ġ----":5555,"Ġfarm":5556,"Ġbillion":5557,"ĠReturn":5558,"Ġnil":5559,"Ġsafe":5560,"avascript":5561,"Ġkitchen":5562,"Ġlegislation":5563,"chi":5564,"Build":5565,"Ġdischarge":5566,"ynamic":5567,"Ġelectrical":5568,"Ġhappy":5569,"Ġtumors":5570,"ĠAmendment":5571,"ĠAD":5572,"Ġmaybe":5573,"Ġcollected":5574,"Ġcolleagues":5575,"ĠIL":5576,"ĠGroup":5577,"Ġdemand":5578,"gt":5579,"ĠCan":5580,"eph":5581,"esh":5582,"Ġexplained":5583,"Ġhappened":5584,"Ġhttps":5585,"bottom":5586,"Ġpictures":5587,"Ġapplies":5588,"Definition":5589,"&\\":5590,"Ġcontrols":5591,"Ġgrowing":5592,"Ġdenied":5593,"Ġreligion":5594,"Sub":5595,"Ġfill":5596,"ara":5597,".'":5598,"inity":5599,"utes":5600,"Ġcaught":5601,"Ġthick":5602,"ĊĠĠĠĠĠĠĠĠĠĠĠĠ":5603,"ĠPress":5604,"Ġdisorders":5605,"ĠBu":5606,"Count":5607,"EE":5608,"FI":5609,"Ġserve":5610,"Ġfresh":5611,"Ġstock":5612,"Ġexplain":5613,"Ġcoverage":5614,"Phi":5615,"mid":5616,"Ġagreed":5617,"Ġforeign":5618,"áĥĺáĥ":5619,"rd":5620,"Ġfinite":5621,"house":5622,"Ġstudied":5623,"ĠÃł":5624,"Net":5625,"ĠAT":5626,"Ġbelong":5627,"Ġprofile":5628,"Ġpursuant":5629,"ĠSN":5630,"ĠRel":5631,"ĠStat":5632,"Ġpicked":5633,"AY":5634,"ãģ®":5635,"Ġemotional":5636,"evel":5637,"Ġaffect":5638,"ĠDirector":5639,"ĠPM":5640,"Ġtools":5641,"Ġnames":5642,"ilt":5643,"ĠWH":5644,"}}{":5645,"Ġscience":5646,"Ġampl":5647,"Ġaggreg":5648,"ials":5649,"Ġtasks":5650,"ctions":5651,"ĠCanada":5652,"Ġcharged":5653,"Ġnoise":5654,"Ġhyp":5655,"Ġresponses":5656,"Ġincubated":5657,"google":5658,"eld":5659,"Ġeat":5660,"Ġembedded":5661,"dot":5662,"Ġconstitutional":5663,"iment":5664,"format":5665,"Ġabsence":5666,"ectors":5667,"Ġcertainly":5668,"Ġcontinuous":5669,"Up":5670,"asts":5671,"Ġchain":5672,")/(":5673,"/-":5674,"prop":5675,"api":5676,"Ġintroduced":5677,"Ġtransmission":5678,"/**":5679,"iance":5680,"abil":5681,"ells":5682,"ĠUp":5683,"Ġobserve":5684,"âĢ¦âĢ¦âĢ¦âĢ¦âĢ¦âĢ¦âĢ¦âĢ¦âĢ¦âĢ¦âĢ¦":5685,"Ġ×":5686,"Ġhandle":5687,"Ġloop":5688,"Ġreturned":5689,"Ġintended":5690,"Ġsubs":5691,"organ":5692,"Ġhabit":5693,"CM":5694,"Us":5695,"Ġsin":5696,"Ġbond":5697,"ĠSOFTWARE":5698,"Ġwind":5699,"Ġemission":5700,"Ġmissing":5701,"Ġcrowd":5702,"Ġtotally":5703,"ĠFrancis":5704,"ĠAdditionally":5705,"ned":5706,"Ġstream":5707,"itional":5708,"ributes":5709,"Ġtempor":5710,"Ġinjuries":5711,"bert":5712,"Ġoccurred":5713,"ĠPD":5714,"Rep":5715,"Ġok":5716,"det":5717,"Ġautom":5718,"Ġvacc":5719,"}=\\":5720,"Ġthin":5721,"ado":5722,"While":5723,"ĠURL":5724,"Ġpriv":5725,"ada":5726,"Ġrare":5727,"Ġcapital":5728,"Ġanswers":5729,"Ġcompliance":5730,"Ġrisks":5731,"Ġwants":5732,"Ġ${":5733,"Ġchem":5734,"Ġstudent":5735,"======================================":5736,"Ġjudge":5737,"Ġnoticed":5738,"']":5739,"Array":5740,"json":5741,"Ġrecover":5742,"Ġpossibility":5743,"Ġdescribe":5744,"including":5745,"Ġtelephone":5746,"Ġrank":5747,"Ġindicates":5748,"Ġ34":5749,"Ġpiece":5750,"Ġteacher":5751,"Ġtrivial":5752,"ĠNote":5753,"specific":5754,"Ġsurveillance":5755,"inite":5756,"Ġpan":5757,"Ġgone":5758,"Ġtraditional":5759,"hibits":5760,"ertificate":5761,"Ġneighborhood":5762,"Ġtransl":5763,"())":5764,"Ġestimate":5765,"Ġbrowser":5766,"However":5767,"PP":5768,"Ġnice":5769,"avity":5770,"Ġsuccessful":5771,"Ġresolution":5772,"âĢĿ.":5773,"Ġcommunication":5774,"Can":5775,"004":5776,"FA":5777,"Ġprojects":5778,"ĠGreen":5779,"Ġcommit":5780,"lands":5781,"Ġraised":5782,"ĠGl":5783,"includegraphics":5784,"Ġ2005":5785,"prot":5786,"Ġdriver":5787,"Ġmist":5788,"oles":5789,"Ġdoctors":5790,"ĠTV":5791,"Ġplate":5792,"ĠPakistan":5793,"OG":5794,"Ġspokes":5795,"Ġclinic":5796,"Ġstable":5797,"Ġcond":5798,".$$":5799,"ĠCON":5800,"ĠIndia":5801,"model":5802,"can":5803,"ulture":5804,"ĠKing":5805,"Ġnovel":5806,"UM":5807,"Ġconjug":5808,"[\\":5809,"Ġ---------------":5810,"Ġlock":5811,"Ġauto":5812,"Ġalpha":5813,"Ġrise":5814,"Ġdismiss":5815,"sequently":5816,"Method":5817,"ĠAnt":5818,"ocyte":5819,"serDefinedAssemblyAttrAllowMultiple":5820,"Ġbranch":5821,"Ġut":5822,"ĠÃ©":5823,"010":5824,"Ġvulner":5825,"ĠSur":5826,"ĠFOR":5827,"Ġfluctuations":5828,"Ġinterests":5829,"Ġentry":5830,"ĠOlymp":5831,"Ġshared":5832,"Ġjoin":5833,"Ġvan":5834,"Ġguys":5835,"Ġimportance":5836,"Ġcompensation":5837,"Provider":5838,"Ġdied":5839,"ĠPre":5840,"ĠNet":5841,"ĠChristian":5842,"ba":5843,"Ġ38":5844,"Ġsuscept":5845,"Ġuniverse":5846,"Command":5847,"CON":5848,"Ġtechnique":5849,"Ġholds":5850,"ĠSaudi":5851,"rr":5852,"Ġsun":5853,"Ġshop":5854,"Ġenvironmental":5855,"itrogen":5856,"ĠMartin":5857,"Ġsurfaces":5858,"night":5859,"Ġthrow":5860,"etween":5861,"Node":5862,"oor":5863,"pping":5864,"wards":5865,"Ġdrink":5866,"Ġlabel":5867,"letion":5868,"âĢ²":5869,"Ð¸Ð":5870,"false":5871,"Ġcontained":5872,"ĠDonald":5873,"Ġdro":5874,"Ġmm":5875,"umm":5876,"Ġlooked":5877,"Ġquadr":5878,"oom":5879,"Ġter":5880,"Ġhair":5881,"ĠEnglish":5882,"more":5883,"åı":5884,"ĠTest":5885,"SL":5886,"lang":5887,"now":5888,"Ġedge":5889,"Ġcytok":5890,"Ġsmoking":5891,"ĠEv":5892,"Ġreached":5893,"*(":5894,"==":5895,"Ġsust":5896,"Ġcharacters":5897,"aneous":5898,"Ġliterature":5899,"ĠSociety":5900,"ĠGNU":5901,"ĠAtlant":5902,"Ġinteractions":5903,"rot":5904,"config":5905,"Header":5906,"ĠEgypt":5907,"Ent":5908,"cr":5909,"aren":5910,"Ġthank":5911,"aly":5912,"opic":5913,"Ġpseud":5914,"Ġmi":5915,"Ġliver":5916,"Ġabuse":5917,"Ġjava":5918,"rough":5919,"}}_":5920,"Ġrequirements":5921,"height":5922,"Ġpathway":5923,"MOESM":5924,"$(":5925,"scale":5926,"Ġrestric":5927,"Ġsodium":5928,"ĠJackson":5929,"Message":5930,"Ġreferred":5931,"Group":5932,"Ġdiagnosis":5933,"Ġdisadvant":5934,"AF":5935,"result":5936,"Ġgeneration":5937,"while":5938,"Ġprogression":5939,"Ġprosecut":5940,"kg":5941,"Ġreve":5942,"Ġanimal":5943,"Ġchronic":5944,"Ġadding":5945,"ĠEducation":5946,"Ġaccompanied":5947,"âĢ¾âĢ¾âĢ¾âĢ¾âĢ¾âĢ¾âĢ¾âĢ¾âĢ¾âĢ¾âĢ¾âĢ¾âĢ¾âĢ¾âĢ¾âĢ¾âĢ¾âĢ¾":5948,"inger":5949,"Ġassert":5950,"Ġspecified":5951,"Ġminor":5952,"Ġthousand":5953,"Ġprepare":5954,"Ġvent":5955,"ĠBre":5956,"Ġelectric":5957,"Our":5958,"Ġsat":5959,"query":5960,"Ġoutcome":5961,"ĠIndian":5962,"lects":5963,"ĠArm":5964,"ager":5965,"flu":5966,"IST":5967,"Ġpark":5968,"omes":5969,"Ġorganization":5970,"ĠCreate":5971,"Ġvoters":5972,"ĠDivision":5973,"Ġrestricted":5974,"ĠProfessor":5975,"MT":5976,"Oh":5977,"Ġtrain":5978,"Ġmechanisms":5979,"osc":5980,"quinoxaline":5981,"ĠPal":5982,"nutrients":5983,"Ġ2004":5984,"Ġdeviation":5985,"Ġdiscrimin":5986,"ka":5987,"main":5988,"Ġsyn":5989,"Ġ(!":5990,"Ġgenerate":5991,"Ġidentity":5992,"Ġimplies":5993,"Ġcreating":5994,"User":5995,"Ġ42":5996,"Ġprotect":5997,"=-=-=-=-=-=-=-=-=-=-=-=-=":5998,"Ġinterface":5999,"PT":6000,"cel":6001,"lock":6002,"Ġimplic":6003,"Ġminim":6004,"sensors":6005,"Ġtheoretical":6006,"Ġaccommod":6007,"ND":6008,"Ġformat":6009,"rence":6010,"Ġproposal":6011,"Ġprecisely":6012,"Ġjobs":6013,"mar":6014,"Ñı":6015,"Ġmental":6016,"âĢĿ,":6017,"Ġguy":6018,"Param":6019,"Ġturning":6020,"Ġpermanent":6021,"Ġdisapp":6022,"ĊĠĠĠĠĠĠĠĠĠĠĠĠĠĠĠĠĠĠĠĠĠĠĠĠĠĠĠ":6023,"uled":6024,"Ġexamples":6025,"ĠWhich":6026,"Ġtrend":6027,"Ġnaturally":6028,"Ġasympt":6029,"Ġevolution":6030,"Ġexpert":6031,"Ġestimated":6032,"case":6033,"Ġcamp":6034,"Ġgain":6035,"dagger":6036,"Ġinvolvement":6037,"SIZE":6038,"ĠAcademy":6039,"[]":6040,"Ġmodule":6041,"Ġviews":6042,"Ġweapon":6043,"Ġcomfortable":6044,"Ġexcess":6045,"Ġkid":6046,"Ġschools":6047,"Ġendothelial":6048,"Code":6049,"method":6050,"Ġremaining":6051,"Ġstatements":6052,"Ġserved":6053,"Ġreflect":6054,"Ġexecution":6055,"Ġchamber":6056,"Ġmoderate":6057,"Le":6058,"ĠCommun":6059,"after":6060,"SON":6061,"Ġhel":6062,"Ġeconomy":6063,"Ġproperly":6064,"Ġinterested":6065,"aced":6066,"ĠDel":6067,"Ġsubjects":6068,"icted":6069,"Ġconfirm":6070,"Color":6071,"Ġmouse":6072,"ĠDay":6073,"Ġchampion":6074,"Ġscientists":6075,"Ġstatutory":6076,"has":6077,"({":6078,"Ġpowers":6079,"ĠAttorney":6080,"you":6081,"ĠØ":6082,"Ġcast":6083,"Ġcomposition":6084,"Ġfluid":6085,"ĠCouncil":6086,"ports":6087,"ĠUnion":6088,"Ġintermediate":6089,"xxxxxxx":6090,"Ġ()":6091,"Ġvote":6092,"Ġexpand":6093,"Ġsecondary":6094,"Ñĭ":6095,"inder":6096,"Ġcoffee":6097,"ĠPeople":6098,"Ġamino":6099,"Ġacts":6100,"Ġanthrax":6101,"asis":6102,"Ġconce":6103,"Ġdownload":6104,"ĠFigure":6105,"Ġnamely":6106,"ãģĦãģ":6107,"Ġsales":6108,"ĠEach":6109,"CG":6110,"QL":6111,"Ġguess":6112,"Ġfifth":6113,"icensed":6114,"iled":6115,"ĠDon":6116,"ĠOut":6117,"Ġkilled":6118,".:":6119,"ĠBritain":6120,"Ġperturb":6121,"Ġfirm":6122,"Ġerrors":6123,"Ġcharges":6124,"Ġbool":6125,"ĠTwo":6126,"Ġsorry":6127,"otypes":6128,"ootstrap":6129,"anes":6130,"apped":6131,"Ġserum":6132,"Ġdecreased":6133,"how":6134,"tes":6135,"Ġpot":6136,"ialog":6137,"Ġ[[":6138,"ĠAny":6139,"Ġcardiac":6140,"Ġwidespread":6141,"ien":6142,"ĠOver":6143,".[@":6144,"Ġoffered":6145,"Operation":6146,"Ġadvertising":6147,"struction":6148,"Ġrefriger":6149,"mem":6150,"Ġmo":6151,"ĠForm":6152,"ĠSte":6153,"Ġmotor":6154,"feedburner":6155,"Ġunnecessary":6156,")\"":6157,"Box":6158,"supplementary":6159,"ĠNone":6160,"ĠĠĠĠĠĠĠĠĠĠĠĠĠĠĠĠĠĠĠĠĠĠ":6161,"GB":6162,"ĠJames":6163,"Ġbasketball":6164,"vas":6165,"Ġfem":6166,"Ġmel":6167,"Yes":6168,"}+":6169,"ĠID":6170,"ancing":6171,"Debug":6172,"Ġoverride":6173,"Ġpor":6174,"Ġadapt":6175,"Ġdirector":6176,"ĠPsych":6177,"First":6178,"ette":6179,"apes":6180,"\\[[@":6181,"Val":6182,"Ġcred":6183,"According":6184,"Rem":6185,"ĠÙ":6186,"Ġtal":6187,"Ġcm":6188,"imation":6189,"tex":6190,"Style":6191,"ugin":6192,"Ġfunds":6193,"Ġnewspaper":6194,"orb":6195,"Ġdecomposition":6196,".</":6197,"Ġlibrary":6198,"img":6199,"vey":6200,"ĠClass":6201,"Ġaren":6202,"Ġmeant":6203,"End":6204,"PD":6205,"ui":6206,"anged":6207,"Ġdancers":6208,"Ġconscious":6209,"Ġmetabolic":6210,"SH":6211,"itative":6212,"ĠCa":6213,"Ġkill":6214,"GE":6215,"|_{":6216,"Ġmatrices":6217,"(\\[":6218,"Ġconserv":6219,"Ġasthma":6220,")=\\":6221,"android":6222,"Ġpredictions":6223,"Ġpool":6224,"Ġcategory":6225,"Ġyesterday":6226,"pol":6227,"ĠSmith":6228,"Some":6229,"ĉĉĉĉĉĉĉĉĉ":6230,"ĠDespite":6231,"arily":6232,"}}_{":6233,"2015":6234,"Ġunderlying":6235,"Ġalgorithm":6236,"Ġfloat":6237,"most":6238,"Ġwouldn":6239,"Ġhighlight":6240,"Ġholding":6241,"Ġvascular":6242,"Ġhist":6243,"ĠSuch":6244,"ĠAir":6245,"AGE":6246,"pper":6247,"Ġkept":6248,"Content":6249,"Ġsections":6250,"Ġrevenue":6251,"ĠWomen":6252,"Ġchecks":6253,"ä»":6254,"Ġentered":6255,"Ġlatter":6256,"ĠDM":6257,"ĠNOT":6258,"Descriptor":6259,"range":6260,"Ġice":6261,"Ġarm":6262,"local":6263,"owed":6264,"ĠSD":6265,"ĠON":6266,"Ġfamous":6267,"Ġrejected":6268,"Ġequilibrium":6269,"Ġcytotoxic":6270,"LS":6271,"sch":6272,"ÑĮ":6273,"Ġcold":6274,"Ġevaluation":6275,"Ġsigned":6276,"ĠBank":6277,"Well":6278,"ker":6279,"Ġalleg":6280,"ĠBlack":6281,"Ġmigration":6282,"Ġabandon":6283,"ĠKelly":6284,"iary":6285,"Ġborn":6286,"inf":6287,"Ġfuel":6288,"Ġmeasurements":6289,"Ġdepends":6290,"Ġruns":6291,"Ġadequate":6292,"Note":6293,"TS":6294,"Î¼":6295,"Ġsale":6296,"Ġmethyl":6297,"Ġheter":6298,"armaceutical":6299,"RETURN":6300,"PU":6301,"Ġsupply":6302,"ãģĹãģ":6303,"Since":6304,"ulating":6305,"Ġintervention":6306,"ĠScience":6307,"Ġfloor":6308,"Ġpun":6309,"eters":6310,"Ġgold":6311,"Ġwhom":6312,"Ġagents":6313,"Ġowner":6314,"âĢĶâĢĶâĢĶâĢĶâĢĶâĢĶâĢĶâĢĶâĢĶâĢĶâĢĶâĢĶâĢĶ":6315,"icks":6316,"Ġund":6317,"Ġbundles":6318,"ĠOrgan":6319,"road":6320,"ĊĠĠĠĠĠĠĠĠĠĠĠĠĠĠĠĠĠ":6321,"Click":6322,"Ġmuscle":6323,"ĠMet":6324,"Ġring":6325,"Ġcontrolled":6326,"ĠRyan":6327,"Ġplurality":6328,"Ġacademic":6329,"ĠPARTICULAR":6330,"Ġwel":6331,"Ġextended":6332,"Ġhappens":6333,"dir":6334,"ato":6335,"Ġpure":6336,"Ġinher":6337,"ĠSam":6338,"ĠĠĠĠĠĠĠĠĠĠĠĠĠĠĠĠĠĠĠĠ":6339,"ĠCarolina":6340,"Per":6341,"Dis":6342,"std":6343,"amine":6344,"Ġconvert":6345,"Ġsupplement":6346,"ÐµÐ":6347,"Ġfraud":6348,"Ġorientation":6349,"ĠEnergy":6350,"ĠOklahoma":6351,"Ġexact":6352,"elled":6353,"Ġsurv":6354,"ĠUnder":6355,"Ġstatistical":6356,"$)":6357,"Ġconfiguration":6358,"Ġmachines":6359,"Ġefficacy":6360,"Ġmedicine":6361,"umer":6362,"Ġreturns":6363,"uation":6364,"ĠFinally":6365,"Ġspaces":6366,"isms":6367,"Ġpercentage":6368,"Ġauthority":6369,"Ġsentence":6370,"rey":6371,"urer":6372,"isation":6373,"ĠâĻ£":6374,"ifications":6375,"ERE":6376,"Ġcouldn":6377,"layer":6378,"iny":6379,"ĠRom":6380,"Ġteams":6381,"Ġrecords":6382,"×ķ×":6383,"ĠOhio":6384,"edge":6385,"Ġ2003":6386,"Ġrecorded":6387,"Ġdry":6388,"Ġopening":6389,"ĠAre":6390,"Ġdetail":6391,"Ġmetric":6392,"2017":6393,"Ġcrime":6394,"Ġgastrointestinal":6395,"Ġafternoon":6396,"TO":6397,"stall":6398,"Line":6399,"ĠGen":6400,"default":6401,"Ġreality":6402,"Ġglass":6403,"\"})":6404,"Ġcovered":6405,"Ġec":6406,"Ġvisible":6407,"inner":6408,"Ġdeveloping":6409,"Ġleader":6410,"Ġevaluated":6411,"perties":6412,"Ġfeet":6413,"Ġideal":6414,"Ġintervals":6415,"Ġwood":6416,"standing":6417,"Ġphen":6418,"Ġfraction":6419,"Ġconcerns":6420,"ĠUsing":6421,"Ġbelief":6422,"Ġequations":6423,"content":6424,"ĠFATAL":6425,"Ġtypical":6426,"Ġpayment":6427,"lie":6428,"Ġflex":6429,"Ġcommunities":6430,"Ġimmune":6431,"Ġmigr":6432,"ĠCorporation":6433,"conn":6434,"Ġ75":6435,"2013":6436,"ĠLinux":6437,"func":6438,"Ġ500":6439,"EV":6440,"ĠBoth":6441,"Ġtermin":6442,"Ġoperating":6443,"Ġwestern":6444,"Ġbehalf":6445,"romagnetic":6446,"rest":6447,"Ġfeeling":6448,"week":6449,"MR":6450,"Ġtree":6451,"Ġkin":6452,"Ġconsent":6453,"ãĥ¡ãĤ«ãĥĭãĤ«ãĥ«ãĥŁãĥªãĥ³ãĤ°åĩ¦çĲĨ":6454,"Date":6455,"Ġmaster":6456,"annel":6457,"Ġinequality":6458,"ĠMac":6459,"Ġ---":6460,"Ġ2001":6461,"ĠBitcoin":6462,"ĠRiemann":6463,"cs":6464,"look":6465,"ogg":6466,"Ġextremely":6467,"bb":6468,"Ġguide":6469,"process":6470,"Why":6471,"Ġeduc":6472,"Ġsimpl":6473,"Ċĉĉĉĉĉ":6474,"oral":6475,"Ġbio":6476,"Ġder":6477,"ĠUN":6478,"negative":6479,"omething":6480,"ilateral":6481,"BM":6482,"XX":6483,"ĠChurch":6484,"Ġgrand":6485,"Ġcustomers":6486,"Ġcandidate":6487,"iveness":6488,"ogeneous":6489,"doc":6490,"ĠAS":6491,"ested":6492,"GL":6493,"idget":6494,"Ġwash":6495,"omorphic":6496,"apshot":6497,"efully":6498,"yes":6499,"Ãº":6500,"Ġiter":6501,"ĠMem":6502,"Ġissued":6503,"module":6504,"Ġradio":6505,"Source":6506,"aid":6507,"ini":6508,"Ġce":6509,"Ġclosest":6510,"ĠMath":6511,"ĠEvery":6512,"Ġappellant":6513,"Ġcentury":6514,"block":6515,"lem":6516,"CTION":6517,"Ġdiagnostic":6518,"dict":6519,"jud":6520,"Ġvary":6521,"Ġnet":6522,"imb":6523,"Ġallowing":6524,"Ġapproved":6525,"Ġsquare":6526,"ĠToday":6527,"algebra":6528,"BA":6529,"âĢ¢":6530,"Ġchanging":6531,"Ġconnect":6532,"equiv":6533,"^âĪĴ":6534,"sin":6535,"Ġinquiry":6536,"oprotein":6537,"sign":6538,"ĠMiss":6539,"ĠPe":6540,"Ġorbit":6541,"ĠTNF":6542,"Ġadministrative":6543,"Ġexternal":6544,"Ġjoint":6545,"Ġrepresented":6546,"Run":6547,"last":6548,"Ġrecon":6549,"Ġoffense":6550,"Ġprotected":6551,"Ġpowerful":6552,"aclitaxel":6553,"current":6554,"ycl":6555,"ald":6556,"Ġstack":6557,"ĠJohnson":6558,"Ġfrag":6559,"Ġexamined":6560,"400":6561,"icles":6562,"ĠStreet":6563,"Ġimaging":6564,"Ġformal":6565,"atabase":6566,"ĠDaily":6567,"Ġstories":6568,"Ġrich":6569,"Ġapprec":6570,"Ġdefic":6571,"aa":6572,"Ġlimitations":6573,"MASK":6574,"Ind":6575,"Which":6576,"HS":6577,"ĠSant":6578,"Ġknows":6579,"Ġfavour":6580,"Ġcarbohydr":6581,"aur":6582,"udd":6583,"ĠĠĠĠĠĠĠĠĠĠĠĠĠĠĠĠĠĠĠĠĠĠĠĠĠ":6584,")$$":6585,"ude":6586,"othing":6587,"Ġindeed":6588,"Ġscalar":6589,"Ġcoronavirus":6590,"Ġmention":6591,"Ġdetailed":6592,"brainwash":6593,"*/":6594,"iling":6595,"Ġgoals":6596,"ĠPhil":6597,"olicy":6598,"Ġremainder":6599,"ĠBefore":6600,"Ġprim":6601,"Ġconfidence":6602,"widehat":6603,"Ġpapers":6604,"Ġanxiety":6605,"pass":6606,"Ġisolated":6607,"pg":6608,"ĠSolve":6609,"ĠEnd":6610,"_{{\\":6611,"Ġcalling":6612,"Ġhierarch":6613,"(&":6614,"ĠGold":6615,"Ġvariation":6616,"Ġarguments":6617,"Solve":6618,"xml":6619,"elp":6620,"else":6621,"aded":6622,"\"}.":6623,"Url":6624,"Ġannounce":6625,"Ġconclude":6626,"activ":6627,"STR":6628,"Ġlearned":6629,"}/":6630,"Ġfish":6631,"ĠDuring":6632,"Ġspring":6633,"Ġinterval":6634,"Ġachieved":6635,"Device":6636,"asp":6637,"ĠBay":6638,"mail":6639,"Ġquick":6640,"Ġfourth":6641,"Ġvideos":6642,"ĠCr":6643,"rie":6644,"Ġ39":6645,"Ġopened":6646,"Ġdecrease":6647,"ĠSet":6648,"Ġhelped":6649,"Ġbooks":6650,"Ġraise":6651,"Ġpatterns":6652,"Ġaccuracy":6653,"MD":6654,"Ġgly":6655,"agent":6656,"Ġrepro":6657,",\\\\":6658,"NO":6659,"PI":6660,"mt":6661,"illa":6662,"endif":6663,"Ġinterpretation":6664,"just":6665,"connection":6666,"Ġeasier":6667,"deg":6668,"Ġsch":6669,"Ġconven":6670,"Ġrecall":6671,"Ġmostly":6672,"ogn":6673,"Ġoblig":6674,"adata":6675,"akers":6676,"ĠMiller":6677,"EXPECT":6678,"Ġ(%)":6679,"ĠGal":6680,"Ġregulation":6681,"icate":6682,"ilation":6683,"Ġpossibly":6684,"Ġdiscrimination":6685,"TE":6686,"016":6687,"Ġobservations":6688,"Ġelectron":6689,"Ġ2019":6690,"amb":6691,"Ġsignaling":6692,"ĠCommonwealth":6693,"Ġinner":6694,"Ġpermission":6695,"Ġassay":6696,"ometric":6697,"ĠSecond":6698,"itudes":6699,"tag":6700,"ĠCA":6701,"util":6702,"Ġemployee":6703,"ĠÂ£":6704,"kin":6705,"orks":6706,"Ġhouses":6707,"ĠError":6708,"Ġrespiratory":6709,"ipped":6710,"ĠType":6711,"ĠNor":6712,"stant":6713,"}'":6714,"itions":6715,"Ġleaders":6716,"Ġexhaust":6717,"Ġpromoter":6718,"ao":6719,"ouch":6720,"Ġhence":6721,"ĠBer":6722,"Ġquery":6723,"Ġconsidering":6724,"Ġemployed":6725,"Ġdecisions":6726,"Ġhybrid":6727,"Ġintellectual":6728,"ĠBill":6729,"ella":6730,"mbox":6731,"Ġarch":6732,"coming":6733,"Ġempty":6734,"ĠChristmas":6735,"OH":6736,"Ġtrip":6737,"]{.":6738,"layout":6739,"Ġindependence":6740,"Do":6741,"icians":6742,"ĠIP":6743,"ĠMal":6744,"Ġflat":6745,"Ġdemonstrate":6746,"Ġoccurs":6747,"ymmetric":6748,"!--":6749,"?âĢĿ":6750,"ki":6751,"Ġleaving":6752,"Ġfacilities":6753,"Ġpositions":6754,"Man":6755,"Ġcompact":6756,"ĠWork":6757,"Ġasser":6758,"ĠFisher":6759,"ĠAngeles":6760,"Ġelliptic":6761,"uint":6762,"Ġdig":6763,"Ġhaven":6764,"ĠCap":6765,"ĠMo":6766,"300":6767,"oney":6768,"Ġsubset":6769,"Ġconcentr":6770,"aming":6771,"ĠFederal":6772,"ĠâĢ¦":6773,"ĠCompany":6774,"Gener":6775,"]),":6776,"Ġterror":6777,"amed":6778,"Ġexhibit":6779,"Ġdetect":6780,"Ġmarked":6781,"ĠÐ¿":6782,"Ġmanager":6783,"ĠBrazil":6784,"istory":6785,"Ġdesired":6786,"110":6787,"Doc":6788,"2012":6789,"Ġviolence":6790,"ĠBoston":6791,"ĠChampion":6792,"Ġvaluable":6793,"ĠBur":6794,"These":6795,"Ġfilms":6796,"ERT":6797,"Ġmirror":6798,"ces":6799,"hr":6800,"vir":6801,"0001":6802,"Ġreson":6803,"Ġplot":6804,"ny":6805,"Handle":6806,"Ġnegligence":6807,"Big":6808,"valid":6809,"FS":6810,"LD":6811,"ĠMany":6812,"ĠLog":6813,"Ġstrongly":6814,"Ġinvalid":6815,"Ġguidance":6816,"Ġahead":6817,"Ġgenetic":6818,"Ġdepending":6819,"Result":6820,"ardMediumSoftScore":6821,"ĠHT":6822,"Ġ65":6823,"dec":6824,"dependent":6825,"gent":6826,"ĠCT":6827,"anges":6828,"2016":6829,"BO":6830,"Ġfre":6831,"ĠWil":6832,"Ġmodified":6833,"Ġseeing":6834,"Ġpassion":6835,"cor":6836,"Ġsan":6837,"ĠCollege":6838,"ifies":6839,"unsigned":6840,"ĠAuthor":6841,"associated":6842,"Ã¼":6843,"Ġdual":6844,"Ġspend":6845,"Ġsignals":6846,"Ġassessment":6847,"Ġskills":6848,"Ġboundary":6849,"Ġvictory":6850,"Ġurban":6851,"Ġconspiracy":6852,"ĉĉ":6853,"istent":6854,"ildren":6855,"Ġgreatest":6856,"ĠTaylor":6857,"MC":6858,"ĠDE":6859,"Ġsole":6860,"Ġrelations":6861,"non":6862,"Ġcatal":6863,"ĠMethod":6864,"Ġplane":6865,"Ġgranted":6866,"Ġpizza":6867,"Ġanisotrop":6868,"ERS":6869,"-(":6870,"pan":6871,"åĪ":6872,"ĠMs":6873,"Ġscores":6874,"Ġends":6875,"nbsp":6876,"Ġtaught":6877,"Ġwheel":6878,"Ġrevers":6879,"Ġcompounds":6880,"Ġapplicable":6881,"Ġdigital":6882,"ijms":6883,"ĠIreland":6884,"ĠJersey":6885,"Ġdenominator":6886,"Ġbankruptcy":6887,"\\{":6888,"osh":6889,"Ġcompetition":6890,"ĠField":6891,"antly":6892,"]]":6893,"ĠPort":6894,"Ġsoft":6895,"Instance":6896,"dependency":6897,"Ġcloud":6898,"df":6899,"ĠEngland":6900,"buffer":6901,"Ġsupplied":6902,"Ġcalcium":6903,"oder":6904,"Ġ+=":6905,"Ġdramatically":6906,"HP":6907,"fit":6908,"Ġexposed":6909,"Ġnervous":6910,"Ġmeasuring":6911,"Ġpulmonary":6912,"wall":6913,"asure":6914,"Ġlose":6915,"ancer":6916,"{{":6917,"ĠĠĠĠĠĠĠĠĠĠĠĠĠĠĠĠĠĠĠĠĠĠĠĠĠĠĠĠĠĠĠĠĠĠĠĠĠĠĠĠĠĠĠĠĠĠĠĠĠĠĠĠĠĠĠĠĠĠĠĠĠĠĠĠĠĠ":6918,"Ġappoint":6919,"Ġinvestigated":6920,"operative":6921,"Ġcubic":6922,"Ġcrazy":6923,"Ġupdates":6924,"groups":6925,"Ġluminosity":6926,"ĠCONDITIONS":6927,"DC":6928,"ora":6929,"ĠAmericans":6930,"vol":6931,"ĠDen":6932,"2011":6933,"ICENSE":6934,"ĠGood":6935,"ĠStr":6936,"Button":6937,"null":6938,"Ġbath":6939,"ĠBel":6940,"Ġreinfor":6941,"Ġcanonical":6942,"iotthingsgraph":6943,"cup":6944,"Ġdose":6945,"ainer":6946,"Ġsports":6947,"even":6948,"Don":6949,"Ġresource":6950,"Ġseek":6951,"Ġstandards":6952,"Ġchallenges":6953,"RNAs":6954,"Ġexclusively":6955,"UE":6956,"Ġsupporting":6957,"Ġrelationships":6958,"button":6959,"006":6960,"ĠFe":6961,"Ġnumerous":6962,"category":6963,"page":6964,"Ġom":6965,"Ġyes":6966,"uous":6967,"ĠOpen":6968,"ĠĠĠĠĠĠĠĠĠĠĠĠĠĠĠĠĠĠĠĠĠĠĠ":6969,"Web":6970,"scribe":6971,"DR":6972,"MI":6973,"Ġacute":6974,"Ġship":6975,"ĠRo":6976,"Ġapproaches":6977,"Check":6978,"Ġuint":6979,"Ġinteger":6980,"Ġantibody":6981,"Ġpurchase":6982,"Ġelevated":6983,"Ġcurvature":6984,"ĠWisconsin":6985,"first":6986,"Ġcollege":6987,"ĠCommittee":6988,"Ġcash":6989,"Ġbow":6990,"Ġcapable":6991,"Select":6992,"Ġfelony":6993,"Ġsupporters":6994,"Ġretirement":6995,"Ġcrack":6996,"Ġbelieved":6997,"Ġ{}\\\\\\\\":6998,"Ġforth":6999,"ĠCS":7000,"bundle":7001,"ĠCivil":7002,"ĠJerusalem":7003,"high":7004,"law":7005,"Ġclimate":7006,"Ġoffset":7007,"Ġconsumption":7008,"Ġrepair":7009,"press":7010,"ĠSal":7011,"Ġjournal":7012,"ĠParty":7013,"Ġwaiting":7014,"âŃĲï¸ıâŃĲï¸ıâŃĲï¸ıâŃĲï¸ıâŃĲï¸ıâŃĲï¸ıâŃĲï¸ıâŃĲï¸ıâŃĲï¸ıâŃĲï¸ıâŃĲï¸ıâŃĲï¸ıâŃĲï¸ı":7015,"Ġ($\\":7016,"empl":7017,"flow":7018,"Ġburden":7019,"Ġinterventions":7020,"Ġasking":7021,"FO":7022,"ivariate":7023,"Ġdiscrete":7024,"Just":7025,"Ġargues":7026,"number":7027,"Ñį":7028,"ĠDec":7029,"**]{}":7030,"event":7031,"Ġresulted":7032,"Ġfinish":7033,"Ġtraffic":7034,"Ġgenuine":7035,"Ġsymplectic":7036,"Ġirreducible":7037,"Co":7038,"ico":7039,"rog":7040,"andard":7041,"Ġstructural":7042,"Ġlinked":7043,"Ġpig":7044,"Ġdil":7045,"ĠDep":7046,"Ġ64":7047,"ĠYes":7048,"Ġphoto":7049,"Ġgoverning":7050,"mL":7051,"Ġspending":7052,"Ġcommission":7053,"pes":7054,"cles":7055,"Ġearth":7056,"ĠBusiness":7057,"ader":7058,"ĠFrank":7059,"Description":7060,"%.":7061,"yntax":7062,"Ġpartnership":7063,"Ġoverwhelming":7064,"Ġbutton":7065,"Ġpartial":7066,"ĠLie":7067,"ĠGo":7068,"ĠWeb":7069,"ository":7070,"Ġtransplant":7071,"ĠMor":7072,"ello":7073,"Ġplays":7074,"Ġcitizen":7075,"ĠToronto":7076,"Ġcontemporary":7077,"Ġrid":7078,"ĠLeg":7079,"ears":7080,"Ġordered":7081,"Ġfocused":7082,"Client":7083,"Ġ}}":7084,"Ġrepl":7085,"Ġ150":7086,"Ġestimates":7087,"More":7088,"Ġscan":7089,"Ġamounts":7090,"2010":7091,"ĠAgreement":7092,"Ġ44":7093,"Ġdirected":7094,"Stream":7095,"Ġdynamics":7096,"sn":7097,"Ġshut":7098,"Ġtranscription":7099,"ashed":7100,"Ġprofessionals":7101,"Ġescape":7102,"Ġceremony":7103,"NT":7104,"arge":7105,"ĠMA":7106,"Ġ2002":7107,"ethyl":7108,"Ġinvasion":7109,"|\\|\\|\\|\\|\\":7110,"Call":7111,"SC":7112,"Ġreb":7113,"apse":7114,"Ġrelief":7115,"Ġconcerned":7116,"Any":7117,"Ġeventually":7118,"ih":7119,"Ġáĥ":7120,"Ġfans":7121,"isted":7122,"Ġ55":7123,"Menu":7124,"urthermore":7125,"appropriate":7126,"agen":7127,"Ġpregn":7128,"ya":7129,"etime":7130,"emia":7131,"Ġsuggesting":7132,"Ġtestified":7133,"Ġmorph":7134,"Ġdesirable":7135,"Ġâī¥":7136,"ĠÐĵÐµÐ¾Ð»Ð¾Ð³Ð¸Ñı":7137,"Ġban":7138,"Ġclassical":7139,"Ġhypertension":7140,"Ġupload":7141,"Ġlung":7142,"ĠSE":7143,"Ġextends":7144,"Ġinvestigate":7145,"Ġprotocol":7146,"Ġreceiving":7147,"Ġimplementation":7148,"$_":7149,"BD":7150,"Ġretain":7151,"Then":7152,"Ġcritic":7153,"ĠTwitter":7154,"Ġjourney":7155,"Ġadvantages":7156,"written":7157,"ikipedia":7158,"Ġêµ¬ìŀĲëĿ¼íĬ¸":7159,"cf":7160,"Ġliber":7161,"ERR":7162,"Ġadvice":7163,"mut":7164,"Ġkeeping":7165,"ĠOfficer":7166,"ultiple":7167,"LC":7168,"Ġconver":7169,"Ġ};":7170,"Ġnegotiations":7171,"Ġconsideration":7172,"ĠJustice":7173,"Ġheavily":7174,"\\(":7175,"eness":7176,"ĠWindows":7177,"Ġspot":7178,"Ġconsult":7179,"font":7180,"Ġtit":7181,"ĠIll":7182,"Ġ\\{":7183,"Ġpoverty":7184,"Ġstored":7185,"rior":7186,"Ġassessed":7187,"HA":7188,"cut":7189,"inations":7190,"Ġtight":7191,"etch":7192,"ĠRT":7193,"ĠRead":7194,"Ġplants":7195,"Ġlisted":7196,"empt":7197,"Ġ46":7198,"Base":7199,"Work":7200,"ĠLong":7201,"Ġ&=":7202,"Ġpowder":7203,"match":7204,"ipeline":7205,"ĠKe":7206,"Ġsmallest":7207,"del":7208,"oded":7209,"Ġhelps":7210,"Ġincident":7211,"request":7212,"Ġsuitable":7213,"Left":7214,"ĠCatholic":7215,"Ġhippocamp":7216,"Ġinvolving":7217,"Ġpersons":7218,"Ġresidents":7219,"Bar":7220,"Ġtick":7221,"ĠBrown":7222,"Ġpharmac":7223,"ä½":7224,"ecute":7225,"NC":7226,"Ġve":7227,"ĠCI":7228,"Ġ120":7229,"Ġcompare":7230,"Ġmeasurement":7231,"Ġpersonnel":7232,"Ġpenalty":7233,"Ġaforementioned":7234,"Max":7235,"real":7236,"values":7237,"Ġoperators":7238,"bling":7239,"missing":7240,"nat":7241,"Ġ\\|":7242,"Ġarter":7243,"Ġroughly":7244,"ĠLeague":7245,"Ġestate":7246,"lets":7247,"rive":7248,"Ġsupposed":7249,"Ġthorough":7250,"Ġunusual":7251,"Ġbug":7252,"ĠIII":7253,"Ġcommitted":7254,"Ġdecades":7255,"Ġpotentially":7256,"ORT":7257,"Ġadvance":7258,"Ġscene":7259,"ASS":7260,"Ġbreast":7261,"Ġposterior":7262,"Action":7263,"UD":7264,"sd":7265,"Ġwire":7266,"edy":7267,"aped":7268,"Ġpairs":7269,"only":7270,"Ġadult":7271,"Ġ47":7272,"Ġassistance":7273,"2014":7274,"ĠJudge":7275,"Ġmacrophages":7276,"element":7277,"Ġnarrow":7278,"Ġplanning":7279,"Ġdimensions":7280,"Ġbacteria":7281,"Ġcluster":7282,":\\":7283,"Mr":7284,"ala":7285,"urance":7286,"Ġaccident":7287,"Ġens":7288,"Ġannual":7289,"ĠPacific":7290,"han":7291,"neq":7292,"Psi":7293,"rin":7294,"Ġstre":7295,"ĠHence":7296,"oute":7297,"**,":7298,"Ġagreements":7299,"Ġnotes":7300,"Ġassembly":7301,"Ġpoll":7302,"Ġpolar":7303,"Ġfunding":7304,"ĠAR":7305,"Ġaccum":7306,"Ġoptimal":7307,"ĠCEO":7308,"Ġdistricts":7309,"Ġparagraph":7310,"Lie":7311,"oration":7312,"ĠAL":7313,"ĊĊĠĠ":7314,"cripts":7315,"change":7316,"Ġseed":7317,"Ġdynamic":7318,"Ġurl":7319,"Ġdelivered":7320,"Evaluate":7321,"Ñĩ":7322,"Status":7323,"Ġanalysed":7324,"outs":7325,"Ġgap":7326,"ords":7327,"ĠØ§ÙĦØ":7328,"rian":7329,"\\]).":7330,"ĠAustralia":7331,"tab":7332,"ÃĹ":7333,"Ñħ":7334,"Ġfees":7335,"prime":7336,"ĠÃĹ":7337,"Ġmathematical":7338,"icity":7339,"Ġbiological":7340,"Ġaccurate":7341,"Ġsocioeconomic":7342,"Ġcat":7343,"Ġreplace":7344,"ipping":7345,"osomal":7346,"Ġprofessor":7347,"Ġnav":7348,"ĠWhy":7349,"Ġbreath":7350,"Ġrecognized":7351,"ĠÎ²":7352,"ĠMinister":7353,"101":7354,"Script":7355,"Ġcup":7356,"asm":7357,"ĠLine":7358,"integ":7359,"Ġevaluate":7360,"Ġworse":7361,"Ġtweet":7362,"Ġcaptured":7363,"Ġfacilitate":7364,"Ġboy":7365,"Ġrock":7366,"Ġfinished":7367,"weight":7368,"Back":7369,"ename":7370,"ither":7371,"itable":7372,"istor":7373,"Ġdenote":7374,"Ġsensitive":7375,"Axis":7376,"Ġrescue":7377,"12345678901234567890123456789012345678901234567890":7378,"Ġfan":7379,"Ġaspects":7380,")]":7381,"Ġunknown":7382,"Ġemployment":7383,"Ġpractices":7384,"SELECT":7385,"Ġvolunte":7386,"arc":7387,"Ġthanks":7388,"Ġcharacterized":7389,"ĠSpring":7390,"gorithm":7391,":(":7392,"win":7393,"Ġtag":7394,"olf":7395,"Ġorders":7396,"Hz":7397,"Ġmill":7398,"ady":7399,"abilities":7400,"ĊĊĊĊ":7401,"Connection":7402,"Ġmortality":7403,"member":7404,"Ġcle":7405,"ifer":7406,"ĠTime":7407,"ĠNC":7408,"Ġrecip":7409,"Ġthoughts":7410,"Ġfacility":7411,"Ġinformed":7412,"Ġfrozen":7413,"Ġindividually":7414,"Ġcryptocurren":7415,"Ġbright":7416,"Ġreverse":7417,"ĠGreat":7418,"Config":7419,"\"),":7420,"Ġcontribute":7421,"ĠIFN":7422,"actor":7423,"ĠAnn":7424,"Ġappearance":7425,"Ġauthorities":7426,"Ġyields":7427,".**":7428,"Ġthereby":7429,"Ġbaseline":7430,"Last":7431,"Ġnine":7432,"Ġstreet":7433,"ĠWell":7434,"Ġmainly":7435,"Ġprosecution":7436,"Part":7437,"Ġ99":7438,"ds":7439,"Ġlik":7440,"Ġblocks":7441,"Ġindicating":7442,"Ġcompatible":7443,"FR":7444,"^-":7445,"Ġdys":7446,"amily":7447,"ĠFree":7448,"Ġweekend":7449,"2008":7450,"Ġalgebras":7451,"Ġscenarios":7452,"bor":7453,"Ġstability":7454,"Ġprov":7455,"Ġgenome":7456,"Ġsettings":7457,"Ġstellar":7458,")*{};":7459,"DNA":7460,"Ġleaves":7461,"Ġeffectively":7462,"Ġcustomer":7463,"008":7464,"ĠPlease":7465,"ĠRad":7466,"ĠRule":7467,"Ġintention":7468,"Ġcomplaint":7469,"Ġappeals":7470,"Ġelderly":7471,"Ġochosi":7472,"Ġagricultural":7473,"ĠEX":7474,"eh":7475,"mat":7476,"thread":7477,"ĠHall":7478,"Ġadults":7479,"otted":7480,"ACK":7481,"rist":7482,"Ġelectronic":7483,"month":7484,"Ġstarts":7485,"Ġenhance":7486,"cdots":7487,"sup":7488,"Ġbeam":7489,"Ġcommonly":7490,"Ġplanet":7491,"ĠGreek":7492,"ais":7493,"Ġdetermination":7494,"ĠÎ±":7495,"Ġseemed":7496,"unit":7497,"Ġpilot":7498,"ĠSpanish":7499,"Ġconflicts":7500,"Ġmicrobiota":7501,"Load":7502,"cur":7503,"Ġ----------------------------------":7504,"ĠSecurity":7505,"ĠMax":7506,"ĠRob":7507,"Ġtechnical":7508,")^{":7509,"Ġconcluded":7510,"ĠMag":7511,"ĠNO":7512,"ĠĠĠĠĠĠĠĠĠĠĠĠĠĠĠĠĠĠĠĠĠĠĠĠ":7513,"defined":7514,"Ġdraft":7515,"Ġmission":7516,"Ġng":7517,"ĠSk":7518,"Ġconference":7519,"Ġ300":7520,"Ġadvanced":7521,"Ġdamages":7522,"esth":7523,"Ġgender":7524,"linear":7525,"Ġseasons":7526,"Dec":7527,"low":7528,"ĠmM":7529,"apping":7530,"world":7531,"Ġsupplies":7532,"cing":7533,"roduction":7534,"asy":7535,"uli":7536,"Ġdifferential":7537,"Ġholiday":7538,"čĊĠĠĠĠĠ":7539,"Ġol":7540,"Ġped":7541,"Ġpitch":7542,"Spec":7543,"slickymaster":7544,"aired":7545,"Ãł":7546,"etr":7547,"Ġstanding":7548,"Ġscope":7549,"Ġpopulations":7550,"Ġcategories":7551,"Ġlawyer":7552,"Page":7553,"Ġaltern":7554,"ĠStar":7555,"Ġdepth":7556,"Ġinjection":7557,"ĠRussia":7558,"æĸ¹æ³ķ":7559,"Next":7560,"Ġpour":7561,"Ġ::":7562,"Ġbeauty":7563,"ĠClaim":7564,"ĠPURPOSE":7565,"Ġ49":7566,"Ġpropag":7567,"').":7568,".âĢĻ":7569,"km":7570,"split":7571,"Ġca":7572,"Ġnodes":7573,"aled":7574,"ĠDoc":7575,"Ġfrequently":7576,"Ġcoupling":7577,"ĠELISA":7578,"conduct":7579,"Ġtrauma":7580,"Ġfibrosis":7581,"ci":7582,"|^":7583,"Start":7584,"Ġlayers":7585,"Auth":7586,"][@":7587,"Ġhum":7588,"Ġlit":7589,"ĠHill":7590,"ĠFin":7591,"ĠYOU":7592,"ĠDavis":7593,"Ġeligible":7594,"ococcus":7595,"May":7596,"was":7597,"æľ":7598,"Ġax":7599,"blog":7600,"Ġmassive":7601,"Ġentirely":7602,"ĠAfrica":7603,"~~~":7604,"~,":7605,"ads":7606,"ĠUs":7607,"example":7608,"Ġrelates":7609,"Ġweren":7610,"áĥĿáĥ":7611,"ĠGeorgia":7612,"iological":7613,"isting":7614,"Ġshock":7615,"Ġclaimed":7616,"Ġgalaxy":7617,"Ġultrasound":7618,"ĠLIABILITY":7619,"Ġmaps":7620,"Ġforced":7621,"emp":7622,"Ġusual":7623,"}}^":7624,"Ġcultural":7625,"debug":7626,"Ġrepresentative":7627,"Ġcellular":7628,"Ġmotiv":7629,"Ġangle":7630,"olt":7631,"Ġcosm":7632,"zeta":7633,"Ġcert":7634,"ĠRE":7635,"Response":7636,"Ġtwice":7637,"ĠRepublican":7638,"benzyl":7639,"Ġseverity":7640,"NE":7641,"dt":7642,"lines":7643,"ĠBo":7644,"Dep":7645,"Ġnan":7646,"ĠBen":7647,"Ġadmitted":7648,"Ġidentification":7649,"Ġresponsibility":7650,"olecular":7651,"([":7652,"BU":7653,"pay":7654,"Ġlib":7655,"Ġparticle":7656,"ĠOnly":7657,"Ġcamera":7658,"ÂŃ":7659,"Ġton":7660,"Ġassigned":7661,"Ġrecru":7662,"Ġclosely":7663,"Ġattacks":7664,"Ġfolks":7665,"ĠSeveral":7666,"Ġassembled":7667,"Ġcentrifug":7668,"UI":7669,"]);":7670,"web":7671,"ĠArab":7672,"ĠMrs":7673,"message":7674,"Ġvessel":7675,"Ġcarcinoma":7676,"Ġdivisor":7677,"ĠWARRANTIES":7678,"find":7679,"acle":7680,"imm":7681,"Ġinteract":7682,"145":7683,"Ġxml":7684,"Ġintegral":7685,"Ġprinciple":7686,"2000":7687,"iency":7688,"jo":7689,"rh":7690,"čĊĉĉ":7691,"Ġarticles":7692,"Resource":7693,"Ġsought":7694,"Ġdisorder":7695,"Ġroute":7696,"CV":7697,"pose":7698,"status":7699,"rying":7700,"Ġmicrosc":7701,"Ġsuicide":7702,"Ġsymbols":7703,"Ġlongitudinal":7704,"COM":7705,"ĠIT":7706,"Ġrac":7707,"Ġcolon":7708,"params":7709,"Ġinsert":7710,"Ġvertical":7711,"ĠmRNA":7712,"output":7713,"overn":7714,"Ġimprovement":7715,"Ġarbitration":7716,"Ġattributed":7717,"Number":7718,"bool":7719,"Ġcort":7720,"Ġinvolves":7721,"0901485":7722,"ãģ«ãĤĪãĤĬå¾ĹãģŁæŃ£æ¥µæ´»çī©è³ªãĤĴçĶ¨ãģĦãģŁéĿŀæ°´éĽ»è§£è³ªäºĮæ¬¡éĽ»æ±łãģ®åħħæĶ¾éĽ»çī¹æĢ§ãĤĴç¤ºãģĹãģŁãĤ°ãĥ©ãĥķãģ§ãģĤãĤ":7723,"ĠSun":7724,"eller":7725,"Ġwilling":7726,"Ġprison":7727,"Ġdebt":7728,"staples":7729,"Ġunclear":7730,"pu":7731,"etal":7732,"ĠTheir":7733,"Ġafford":7734,"ĠIndeed":7735,"iability":7736,"Ġtemplate":7737,"Ġstick":7738,"Ġmunicip":7739,"Ġcomparisons":7740,"Ġproximity":7741,"ĠFITNESS":7742,"amide":7743,"Ġstrict":7744,"ĊĠĠĠĠĠĠĠĠĠĠĠĠĠĠĠĠĠĠĠĠĠĠĠĠĠ":7745,"ĠLord":7746,"Ġdecide":7747,"Equal":7748,"aters":7749,"ĠCL":7750,"Ġ43":7751,"isions":7752,"Ġdeaths":7753,"Ġsacr":7754,"ĠMajor":7755,"hydro":7756,"ek":7757,"avel":7758,"Ġ41":7759,"Ġdescribes":7760,"ĠCameron":7761,".-":7762,"alian":7763,"Ġpri":7764,"Ġjump":7765,"Ġdependent":7766,"Ġaspect":7767,"%%%%%":7768,"car":7769,"Ġsides":7770,"Ġdemocr":7771,"Ġvac":7772,"Ġsea":7773,"Ġminimal":7774,";\\":7775,"bal":7776,"Ġrecommended":7777,"Ġhundreds":7778,"Ġancient":7779,"Br":7780,"Ġchief":7781,"rug":7782,"Ġremained":7783,"Ġiron":7784,"Ġwalking":7785,"ĠDemocratic":7786,"Pre":7787,"Ġinfer":7788,"ĠdÃ©":7789,"rial":7790,"Thread":7791,"variant":7792,"keyword":7793,"Ġopposite":7794,"Ġcourses":7795,"Ġdramatic":7796,"Ġsalvation":7797,"Ġeating":7798,"olid":7799,"ĠPCR":7800,"Ġrational":7801,"Ġbroken":7802,"Ġknock":7803,"Ġmeasurable":7804,"Ġmyocardial":7805,"Your":7806,"Ġforget":7807,"erves":7808,"append":7809,"Ġreads":7810,"Char":7811,"Cons":7812,"Sim":7813,"Ġfer":7814,"Ġextend":7815,"Ġsupports":7816,"Ġinstalled":7817,"Ġpredicted":7818,"```":7819,"alo":7820,"ĠTur":7821,"ĠLike":7822,"****":7823,"Ġseeking":7824,"Control":7825,"Ġobjective":7826,"Ġcabin":7827,"Ġlibraries":7828,"Ġstupid":7829,"Ġcheese":7830,"ĠJoseph":7831,"ĠColorado":7832,"ĠSpecifically":7833,"Ġbiosynthesis":7834,"Ġenable":7835,"bre":7836,"Ãª":7837,"eting":7838,"Ġrent":7839,"NAME":7840,"Ġposted":7841,"Ġpromote":7842,"Query":7843,"00463":7844,"Ġentropy":7845,"yg":7846,"Ġbars":7847,"ician":7848,"ĠFore":7849,"chema":7850,"ĠTaiwan":7851,"itors":7852,"Ġpal":7853,"Ġbehaviour":7854,"ĠIowa":7855,">(":7856,"sv":7857,"ĠĊĠ":7858,"Ġspl":7859,"Ġviolation":7860,"fix":7861,"Ġunion":7862,"Ġdebate":7863,"called":7864,"Det":7865,"MP":7866,"Ġtor":7867,"ulin":7868,"ĠNon":7869,"Ġdisk":7870,"uccess":7871,"OCK":7872,"Ġmixed":7873,"ployment":7874,"ÙĨ":7875,"Ġlig":7876,"ĠMary":7877,"ICE":7878,"Ġdocuments":7879,"Ġprominent":7880,".$":7881,"Ge":7882,"NOT":7883,"feed":7884,"vo":7885,"ãģ«":7886,"notation":7887,"Ġaccepted":7888,"Ġbleeding":7889,"Ġattorneys":7890,"ĠDev":7891,"anda":7892,"Ġ56":7893,"Ġessentially":7894,"server":7895,"Ġinjected":7896,"Ġsteady":7897,"Ġrefuge":7898,"Ġawesome":7899,"BR":7900,"CIT":7901,"dist":7902,"uh":7903,"Ð´":7904,"Ġbin":7905,"ĠCup":7906,"ĊĠĠĠĠĠĠĠĠĠĠ":7907,"Ġclients":7908,"Ġgather":7909,"Ġcompound":7910,"ĠLife":7911,"Ġunable":7912,"Ġattend":7913,"Ġresearchers":7914,"posed":7915,"ijerph":7916,"ĠĠĠĠĠĠĠĠĠĠĠĠĠĠĠĠĠĠĠĠĠĠĠĠĠĠĠĠĠĠĠĠĠĠĠĠĠĠĠĠĠĠĠĠĠĠĠĠĠĠĠĠĠĠĠĠĠĠĠĠĠĠĠĠĠĠĠĠĠĠĠĠĠĠĠĠĠĠĠĠĠĠĠĠĠĠĠĠĠĠĠĠĠĠĠĠĠĠĠĠĠĠĠĠĠĠĠĠĠĠĠĠĠĠĠĠĠĠĠĠĠĠĠĠĠĠĠĠĠĠĠĠĠĠĠĠĠĠĠĠĠĠĠĠĠĠĠĠĠĠĠĠĠĠĠĠĠĠĠĠĠĠĠĠĠĠĠĠĠĠĠĠĠĠĠĠĠĠĠĠĠĠĠĠĠĠĠĠĠĠĠĠĠĠĠĠĠĠĠĠĠĠĠĠĠĠĠĠĠĠĠĠĠĠĠĠĠĠĠĠĠĠĠĠĠĠĠĠĠĠĠĠĠĠĠĠĠĠĠĠĠĠĠĠĠĠĠĠĠĠĠĠĠĠĠĠĠĠĠĠĠĠĠĠĠĠĠĠĠĠĠĠĠĠĠĠĠĠĠĠĠĠĠĠĠĠĠĠĠĠĠĠĠĠĠĠĠĠĠĠĠĠĠĠĠĠĠĠĠĠĠĠĠĠĠĠĠĠĠĠĠĠĠĠĠĠĠĠĠĠĠĠĠĠĠĠĠĠĠĠĠĠĠĠĠĠĠĠĠĠĠĠĠĠĠĠĠĠĠĠĠĠĠĠĠĠĠĠĠĠĠĠĠĠĠĠĠĠĠĠĠĠĠĠĠĠĠĠĠĠĠĠĠĠĠĠĠĠĠĠĠĠĠĠĠĠĠĠĠĠĠĠĠĠĠĠ":7917,"ĠSand":7918,"osph":7919,"ĠUse":7920,"Ġ72":7921,"Ġbusinesses":7922,"Ġrecognition":7923,"FC":7924,"OST":7925,"Ġfell":7926,"ĠEU":7927,"Ġcocaine":7928,"fast":7929,"gers":7930,"Ġexperiences":7931,"Ġpages":7932,"Ġoral":7933,"Ġseconds":7934,"Ġcentre":7935,"Ġmerely":7936,"Offset":7937,"cond":7938,"Ð²":7939,"äº":7940,"Ġfont":7941,"Ġreducing":7942,"ĠFour":7943,"Ġadm":7944,"Ġended":7945,"riter":7946,"ĊĠĠĠĠĠĠĠĠĠĠĠĠĠĠĠĠĠĠĠĠĠĠĠĠĠĠĠĠĠĠĠ":7947,"gments":7948,"uing":7949,"Ġprosp":7950,"opath":7951,"Input":7952,"Ġrequirement":7953,"Ġsolve":7954,"Ġfavorite":7955,"ĠSpirit":7956,"Ag":7957,"CP":7958,"SM":7959,"SU":7960,"nav":7961,"Ġtrouble":7962,"ĠBas":7963,"Types":7964,"Ġepisodes":7965,"war":7966,"Î³":7967,"ena":7968,"istics":7969,"ĠFed":7970,"Ġinvestment":7971,"ĠOrthodox":7972,"kins":7973,"arks":7974,"oster":7975,"Ġ52":7976,"Ġminute":7977,"project":7978,"ORD":7979,"Ġtargets":7980,"2006":7981,"Ġmuseum":7982,"Ġacquisition":7983,"GG":7984,"Ġess":7985,"ĠSU":7986,"Ġ101":7987,"Go":7988,"yd":7989,"aration":7990,"render":7991,"ÑģÑĤ":7992,"Ġdescending":7993,"Ġconfront":7994,"ĠDefendants":7995,"Ġinadequate":7996,"Ġhydraulic":7997,"La":7998,"SA":7999,"Ġtrail":8000,"Ġ1990":8001,"Ġreplaced":8002,"%),":8003,"Fe":8004,"ez":8005,"md":8006,"Ġ1000":8007,"options":8008,"ĠTimes":8009,"ĠEqu":8010,"Ġsecure":8011,"ĠFollowing":8012,"Exercise":8013,"sur":8014,"aria":8015,"utor":8016,"Ġtransformation":8017,"Ġturns":8018,"ĠSenate":8019,"Ġattached":8020,"IO":8021,"_.":8022,"response":8023,"Ġsubstance":8024,"Ġdoctor":8025,"Ġpicking":8026,"owski":8027,"ĠRoyal":8028,"Ġperceived":8029,"Ġpreliminary":8030,"Ġconsensus":8031,"stylesheet":8032,"Tex":8033,"aus":8034,"ĠHospital":8035,"ĠInformation":8036,"Ġacting":8037,"2018":8038,"cat":8039,"Ùħ":8040,"Ġchair":8041,"Ġamb":8042,"Where":8043,"Ġpractical":8044,"Ġisolates":8045,"ãģ£ãģ":8046,"ĠDetermine":8047,"ĠIndividual":8048,"Ġgravitational":8049,"TT":8050,"png":8051,"ĠER":8052,"Ġ51":8053,"EXT":8054,":**":8055,"Ġbacterial":8056,"DB":8057,"ibly":8058,"Ġintent":8059,"Ġcalculate":8060,"Ġplaintiffs":8061,"GR":8062,"uro":8063,"Ġcharacteristic":8064,"150":8065,"Ġmolecules":8066,"Ġnecess":8067,"Ġvirtually":8068,"ĠParliament":8069,"ifts":8070,"Ġdepression":8071,"Ġimmediate":8072,"Ġgirls":8073,"aints":8074,"193":8075,"Ġobservation":8076,"Ġmixture":8077,"Ġcannabis":8078,"parallel":8079,"uberculosis":8080,"west":8081,"Ġsector":8082,"iler":8083,"Although":8084,"have":8085,"loc":8086,"ourse":8087,"END":8088,"Ġzone":8089,"Ġargue":8090,"ABLE":8091,"Ġappropri":8092,"aken":8093,"Ġregime":8094,"Ġ97":8095,"Ġcausing":8096,"Ġimplemented":8097,"Ġassign":8098,"earing":8099,"Ġsmart":8100,"Ġdangerous":8101,"Ġfiscal":8102,"ynamics":8103,"ĠInterestingly":8104,"800":8105,"Ġ_{\\":8106,"Ġweather":8107,"forms":8108,"Ġsigns":8109,"Ġputting":8110,"ĠMedical":8111,"Ġsit":8112,"Ġran":8113,"///":8114,"Ġconsists":8115,"Ġconsequences":8116,"Ġcerebral":8117,"Ġeigen":8118,"ĠFile":8119,"Ġremark":8120,"Ġsuccessfully":8121,"Ġintegration":8122,"Ã§":8123,"avor":8124,"Ġcurves":8125,"Ġcorner":8126,"eclipse":8127,"biomolecules":8128,"Ġprojection":8129,"Ġune":8130,"Ġhomes":8131,"Ġconstructed":8132,"ĠVietnam":8133,":=":8134,"Ġ*)":8135,"uster":8136,"Theta":8137,"Ġcrash":8138,"ĠOnce":8139,"++)":8140,"Ġanterior":8141,"Ġdistinction":8142,"ramework":8143,"OB":8144,"amination":8145,"ĠSTDMETHODCALLTYPE":8146,"(*":8147,"Sch":8148,"bits":8149,"Ġpump":8150,"Ġbag":8151,"Ġdetermining":8152,"arXiv":8153,"ĠJews":8154,"Ġunderwent":8155,"Ġlifestyle":8156,"ĠLloyd":8157,"Ġempirical":8158,"cd":8159,"power":8160,"Ġ54":8161,"Ġregulations":8162,"ACE":8163,"CF":8164,"Rel":8165,"lu":8166,"rid":8167,"Ðº":8168,"ĠĊĠĠĠ":8169,"Ġfilled":8170,"ĠBack":8171,"ĠTom":8172,"Ġ68":8173,"Ġsituations":8174,"ĠFrance":8175,"ogenic":8176,"Identifier":8177,"Ġinhibition":8178,"Ġlived":8179,"inds":8180,"reatment":8181,"Ġhelpful":8182,"Ġcandidates":8183,"Ġdistinguished":8184,"ĠSwitzerland":8185,"template":8186,"xx":8187,"Ġvit":8188,"ĠNE":8189,"ĠNa":8190,"Ġinstances":8191,"Ġexamination":8192,"ĠAPI":8193,"Ġemergency":8194,"ĠJacob":8195,"Ġfrustr":8196,"ĠPittsburgh":8197,"âĸĪâĸĪâĸĪâĸĪâĸĪâĸĪâĸĪâĸĪâĸĪâĸĪâĸĪâĸĪâĸĪâĸĪâĸĪâĸĪâĸĪ":8198,"acket":8199,"ysis":8200,"Ġacids":8201,"ASE":8202,"Ġinitially":8203,"Ġwatching":8204,"Ġmic":8205,"Ġforg":8206,"Ġcoast":8207,"show":8208,"Ġpossession":8209,"Ext":8210,"Ġwisdom":8211,"Ġaircraft":8212,"Ġmagazine":8213,"??":8214,"Ġcache":8215,"Ġunf":8216,"Ġplastic":8217,"Ġbrand":8218,"pop":8219,"ura":8220,"Ġautophag":8221,"Are":8222,"TA":8223,"Ġinfl":8224,"ĠIV":8225,"ĠSH":8226,"irty":8227,"ĠGlobal":8228,"Ġpathways":8229,"Ġviral":8230,"Protocols":8231,"Ġsi":8232,"Ġ\"(":8233,"raf":8234,"ĠVol":8235,"Ġflag":8236,"Ġpayments":8237,"æĺ¯":8238,"ĠCruz":8239,"ĠWITH":8240,"Ġintestinal":8241,"zing":8242,"Ġdim":8243,"sts":8244,"ĠMad":8245,"ĠScott":8246,"Current":8247,"DL":8248,"OK":8249,"Ġhook":8250,"ĠJava":8251,"Ġregression":8252,"Ġorganic":8253,"Ġstopped":8254,"ogenesis":8255,"Ġdependence":8256,"ĠRussian":8257,"ĠDaniel":8258,"ectrum":8259,"Ġregistration":8260,"ĠPerhaps":8261,"Am":8262,"uto":8263,"actic":8264,"Ġdirectory":8265,"/>":8266,"support":8267,"ĠFire":8268,"strong":8269,"ĠFourier":8270,"dim":8271,"va":8272,"ĠCNN":8273,"Ġclar":8274,"lectric":8275,"WS":8276,"åĲ":8277,"ĠSing":8278,"Ġconnections":8279,"havior":8280,"ĠHouston":8281,"Ġweblate":8282,"iology":8283,"onents":8284,"Ġfaster":8285,"ĠIts":8286,"Ġ$(\\":8287,"Ġinstant":8288,"('',":8289,"Options":8290,"Ġcomplement":8291,"offset":8292,"Ġpixel":8293,"mapsto":8294,"čĊĠĠĠĠĠĠĠĠĠĠĠ":8295,"Ġ96":8296,"Ġevening":8297,"Ġencoding":8298,"GC":8299,"iod":8300,"}\\,":8301,"oxy":8302,"Ġprovisions":8303,"frame":8304,"Return":8305,"margin":8306,"square":8307,"Ġduties":8308,"Ġdollar":8309,"Ġdiabetic":8310,"Despite":8311,"Ġatmospheric":8312,"0300060520918476":8313,"Ms":8314,"Ġcas":8315,"ita":8316,"ste":8317,"Ġgar":8318,"thers":8319,"andom":8320,"Ġ53":8321,"grade":8322,"Thanks":8323,"INE":8324,"conf":8325,"Ġbias":8326,"Ġconviction":8327,"Ġteaching":8328,"ĠUbuntu":8329,"Row":8330,"Ġcart":8331,"120":8332,"click":8333,"Ġsetup":8334,"afe":8335,"2009":8336,"ãĤĭ":8337,"Ġmanaged":8338,"Ġpieces":8339,"ytic":8340,"Output":8341,"fs":8342,"Ġmomentum":8343,"Ġarrested":8344,"ĠWilliams":8345,"\"\"":8346,"Over":8347,"ĠDeb":8348,"Ġapproximation":8349,"Ġreporting":8350,"Ġdeeper":8351,"Ġincredible":8352,"Ġenthus":8353,"Ġphosphorylation":8354,"ĠTranslators":8355,"ĠOntario":8356,"ĠĠĠĠĠĠĠĠĠĠĠĠĠĠĠĠĠĠĠĠĠĠĠĠĠĠĠ":8357,"Ġlie":8358,"Ġprev":8359,"Ġexpensive":8360,"Ġremote":8361,"256":8362,"Ġdans":8363,"ĠHR":8364,"ĠTre":8365,"Ġjustice":8366,"Ġpeptide":8367,"Supp":8368,"bp":8369,"da":8370,"Ġmit":8371,"Ġ1998":8372,"ĠPlan":8373,"package":8374,"Ġsupra":8375,"Ġantioxid":8376,"Ġfulf":8377,"Ġ1999":8378,"ĠCheck":8379,"ĠEastern":8380,"Ġdisagree":8381,"Ġagenda":8382,"Ġpneumonia":8383,"ĠIMPLIED":8384,"EA":8385,"Min":8386,"ĠPut":8387,"Ġpointed":8388,"ĠArch":8389,"Ġargued":8390,"Ġaudio":8391,"Ġmiles":8392,"osure":8393,"client":8394,"250":8395,"00000000":8396,"Ġarthritis":8397,"Ġembarrass":8398,"microorganisms":8399,"(_":8400,"Ġlaugh":8401,"otimes":8402,"ĠText":8403,"ĠVis":8404,"iki":8405,"Ġnumerical":8406,"]^.":8407,"Pat":8408,"Ġ\\>":8409,"ĠFA":8410,"ached":8411,"args":8412,"Helper":8413,"carbon":8414,"ĠDirac":8415,"Ġclothes":8416,"Ġamendment":8417,"Ġlysozyme":8418,"pin":8419,"ented":8420,"Ġven":8421,"ĠPA":8422,"Ġdispl":8423,"Ġlowest":8424,"Ġpeace":8425,"Ġouter":8426,"Ġpredetermined":8427,"Length":8428,"po":8429,"tic":8430,"Ġwarn":8431,"Ġcyt":8432,"Ġradiation":8433,"Ġmarried":8434,"Ġimplied":8435,"Ġsymmetric":8436,"Ġnarrative":8437,"ĠMicro":8438,"ĠJordan":8439,"Ġbiomark":8440,"IRE":8441,"Ġil":8442,"Ġmand":8443,"Ġrelax":8444,"FOR":8445,"Link":8446,"Ġmess":8447,"ece":8448,"idents":8449,"Ġrig":8450,"Ġdivide":8451,"Ġassumed":8452,"Ġvessels":8453,"Ġinfectious":8454,"Ġalt":8455,"Ġmillions":8456,"Will":8457,"ted":8458,"anger":8459,"Ċĉĉĉĉĉĉ":8460,"âĦ¢":8461,"Ġstruck":8462,"bound":8463,"Ġcoinc":8464,"Ġtransf":8465,"ĠPolice":8466,"ĠKentucky":8467,"ohistochem":8468,"cit":8469,"direct":8470,"Ġha":8471,"Ġren":8472,"Ġexplore":8473,"URL":8474,"Ġmatters":8475,"Ġcustody":8476,"Ġperpendicular":8477,"aws":8478,"Ġconsole":8479,"ATH":8480,"Ġantibodies":8481,"tc":8482,"icious":8483,"Ġconversion":8484,"Ġrats":8485,"aks":8486,"Ġoverl":8487,"Ġlocations":8488,"Ġidentical":8489,"Default":8490,"Ġsubstances":8491,"Ġswimming":8492,"Ġrecombinant":8493,"Ġirrelevant":8494,"ĠSupp":8495,"ria":8496,"ĠCorp":8497,"Ġhonest":8498,"[\"":8499,"gment":8500,"Ġmask":8501,"Ġproved":8502,"Ġroles":8503,"Ġstolen":8504,"Storage":8505,"Ġhomotopy":8506,"Ġbinary":8507,"ĠCount":8508,"ĠPan":8509,"ĠBig":8510,"media":8511,"Ġcreation":8512,"IGHT":8513,"msgid":8514,"ĠBaltimore":8515,"Ġbattle":8516,"Ġbrother":8517,"msgstr":8518,"ĠZealand":8519,"Ob":8520,"Ġpaint":8521,"ĠMur":8522,"Ġwear":8523,"=\"#":8524,"Ġ:)":8525,"Ġinfo":8526,"operation":8527,"Ġextreme":8528,"roc":8529,"root":8530,"ĠBa":8531,"ĠWall":8532,"Ġleague":8533,"ĠVersion":8534,"ãĢĢ":8535,"Ġtroops":8536,"Ġborrow":8537,"Ġeggs":8538,"Ġfaculty":8539,"Ġtoler":8540,"ulti":8541,"Ġcorresponds":8542,")*{{\\":8543,"Ġepid":8544,"Ġcorrectly":8545,"Mark":8546,"ĠName":8547,"otten":8548,"Att":8549,"pisode":8550,"æķ°":8551,"Ġchapter":8552,"Ġcars":8553,"Ġpassing":8554,"Ġspeaking":8555,"ĠMatthew":8556,"#:":8557,")+":8558,"Ġdisplayed":8559,"ĠVictor":8560,"stat":8561,"Ġ{{":8562,"aked":8563,"Ġeditor":8564,"Ġmouth":8565,"Ġvision":8566,"Ġmenu":8567,"Ġspectra":8568,"Ġ\"\"\"":8569,"Ġubiqu":8570,"Ġgarden":8571,"Sm":8572,"een":8573,"Ġfold":8574,"Ġhole":8575,"ĠLabor":8576,"ĠRiver":8577,"Ġcommittee":8578,"Ġourselves":8579,"Ġconsequence":8580,"Ġtrials":8581,"Ġdriven":8582,"ĠCentral":8583,"Assembly":8584,"Ġtunnel":8585,"Ġphrase":8586,"Vis":8587,"kind":8588,"Ġsick":8589,"Ġclassification":8590,"Ġmedian":8591,"Ġcollabor":8592,"Ġwalls":8593,"Ġmail":8594,"Ġhelping":8595,"filter":8596,"Æ°á»":8597,"ĠCR":8598,"ĠFIG":8599,"ollow":8600,"ĠAppellant":8601,"Ġhypothesis":8602,"Ġcopyright":8603,")}\\":8604,"ĠSil":8605,"Ġ${{\\":8606,"ĠGive":8607,"Ġpartner":8608,"Ġsubmitted":8609,"Ġcloser":8610,"Phys":8611,"ĠPalestin":8612,"Ġsampled":8613,"ropolitan":8614,"ĠSign":8615,"emy":8616,"empty":8617,"Ġcoal":8618,"idential":8619,"Ġowners":8620,"2007":8621,"Ġadvoc":8622,"Ġinfections":8623,"PG":8624,"]$":8625,"ĠCV":8626,"Ġfoods":8627,"Ġbirds":8628,"ĠHAVE":8629,"Does":8630,"å®":8631,"iger":8632,"Ġacet":8633,"Ġretro":8634,"Collection":8635,"idel":8636,"Ġrh":8637,"ĠReview":8638,"reasonable":8639,"Ġwedding":8640,"Ġunexpected":8641,"ffffffffffffffffffffff":8642,"make":8643,"eme":8644,"osa":8645,"ĠTim":8646,"ressive":8647,"Ġmaintained":8648,"bid":8649,"tca":8650,"})\\":8651,"Ġsitting":8652,"ĊĠĠĠĠĠĠĠĠĠĠĠĠĠĠ":8653,"ĠOct":8654,"\\]),":8655,"Ġfinds":8656,"Ġaffirm":8657,"Ġbigger":8658,"ĠCorollary":8659,"Michael":8660,"Ġspectroscopy":8661,"Ġion":8662,"ĠpH":8663,"Ġbeat":8664,"ILL":8665,"Ġbal":8666,"Ġbench":8667,"Ġ\\-":8668,"Ġmanip":8669,"Also":8670,"ĠAfrican":8671,"Ġschedule":8672,"Ġsettlement":8673,"Ġapparently":8674,"Ġbone":8675,"Ġapplying":8676,"Ġretail":8677,"Ġtrees":8678,"life":8679,"Ġcounts":8680,"Ġpin":8681,"ĠPC":8682,"Ġusage":8683,"ĠOS":8684,"ruption":8685,"ÂłÂł":8686,"Ġphilosophy":8687,"Ġdrawn":8688,"selector":8689,"Ġfunny":8690,"ĠHawai":8691,"ĠSoviet":8692,"aver":8693,"Ġ1996":8694,"Stat":8695,"Ġrespective":8696,"Ġexamine":8697,"Ġelectrode":8698,"alkyl":8699,"Ġcoupled":8700,"Today":8701,"Ġdiagonal":8702,"ĠThompson":8703,"ko":8704,"Ġbet":8705,"Ġinduction":8706,"Ġ110":8707,"Ġ58":8708,"Ġinstruction":8709,"mate":8710,"orig":8711,"Ġnative":8712,"ĠTR":8713,"Ġbarely":8714,"Ut":8715,"bel":8716,"sym":8717,"uke":8718,"etics":8719,"iform":8720,"Ġ\\*":8721,"ATA":8722,"Ġdepart":8723,"ĠÐ½":8724,"Ġrecognize":8725,"Ġcontributions":8726,"Ġuncertainty":8727,"Ġsymmetry":8728,"ĠCounsel":8729,"Ġintelligent":8730,"ĠLand":8731,"}}^{":8732,"Ġconstr":8733,"Ġ2020":8734,"Ġintegrated":8735,"toggle":8736,"Ġoxide":8737,"Ġcurrency":8738,"Ġterrible":8739,"Ġcigarette":8740,"Conn":8741,"Ġopportunities":8742,"ĠJapanese":8743,"Ġenhanced":8744,"Ġpresentation":8745,"Ġbuildings":8746,"000000":8747,"Ġtells":8748,"ĠSometimes":8749,"knowled":8750,"Ġtobacco":8751,"ĠCinnamon":8752,"Post":8753,"Ø±":8754,"GET":8755,"});":8756,"Ġnm":8757,"ĠIr":8758,"ĠMil":8759,"Ġmodify":8760,"Ġauthent":8761,"header":8762,"Ġspiritual":8763,"ĠImmun":8764,"Ġdischarg":8765,"Ġorthonormal":8766,"DP":8767,"Med":8768,"PAR":8769,"Â·":8770,"itr":8771,"ĠSl":8772,"rief":8773,"Ġraw":8774,"acted":8775,"echo":8776,"Ġhousehold":8777,"Ġsandwich":8778,"Ġpronounced":8779,"Ġromantic":8780,"AMDGPU":8781,"Ġ),":8782,"aper":8783,"ĠJan":8784,"Ġsubstit":8785,"Ġrepresenting":8786,"ĠProject":8787,"description":8788,"Ġrapidly":8789,"Ġsweet":8790,"Okay":8791,"human":8792,"Ġbottle":8793,"ĠAustin":8794,"Ġdeemed":8795,"Ġcancers":8796,"ĠRegional":8797,",\\,\\,\\,\\,\\,\\,\\,\\,\\,\\,\\,\\,\\,\\,\\,\\,\\,\\,\\,\\":8798,"mode":8799,"ona":8800,"Ġ59":8801,"Change":8802,"Results":8803,"EQ":8804,"bolic":8805,"Ġlift":8806,"ĠPo":8807,"Ġexecutive":8808,"Ġstomach":8809,"Ġretriev":8810,"band":8811,"iser":8812,"Ġpet":8813,"agram":8814,"\"}),":8815,"Ġposts":8816,"Ġtopic":8817,"Arg":8818,"BP":8819,"PCR":8820,"Ġcoronary":8821,"ĠSantayana":8822,"\"]":8823,"Width":8824,"cache":8825,"serv":8826,"oped":8827,"ĠGa":8828,"Ġ69":8829,"Ġsynthesis":8830,"&=":8831,"css":8832,"ye":8833,"zer":8834,"ĠCall":8835,"refer":8836,"years":8837,"Ġcorrelated":8838,"åľ¨":8839,"ĠBureau":8840,"Ġchicken":8841,"Ġjoining":8842,"ĠKorean":8843,"ĠClinical":8844,"VAL":8845,"ali":8846,"ĠWill":8847,"Ġtelling":8848,"Ġinflammatory":8849,"Ġstatistics":8850,"ua":8851,"Ġvariance":8852,"ĠHarris":8853,"available":8854,"mond":8855,"rip":8856,"ideo":8857,"ĠWhere":8858,"textit":8859,"Block":8860,"dest":8861,"Â¶":8862,"Ġ1997":8863,"]{})":8864,"ĠQue":8865,"regulated":8866,"Ġcoefficients":8867,"\\*\\*":8868,"Ġsurrounding":8869,"Ġequivalence":8870,"medscimonit":8871,"ĠConnecticut":8872,"Ġcities":8873,"ĠRoad":8874,"Ġengaged":8875,"Ġpolymer":8876,"Ġentreprene":8877,"Ġoc":8878,"Ġ\\(":8879,"Ġreader":8880,"Ġappellants":8881,"Ġaggressive":8882,"Ġexponential":8883,"Ġexpendit":8884,"Ġstraightforward":8885,"Met":8886,"kt":8887,"search":8888,"Ġcarrying":8889,"SO":8890,"dc":8891,"drop":8892,"Ġrib":8893,"009":8894,"ĠBE":8895,"Ġpreced":8896,"Ġoffering":8897,"Ġmetast":8898,"utrition":8899,"Ġaffirmed":8900,"ĠEuclidean":8901,"!âĢĿ":8902,"Supplementary":8903,"VM":8904,"dp":8905,"Ġsplit":8906,"ortion":8907,"Ġstages":8908,"ĠFund":8909,"Ġ85":8910,"Ġattribute":8911,"Ġdiscover":8912,"Ġearn":8913,"next":8914,"Ġburn":8915,"ĠWood":8916,"ĠJones":8917,"erman":8918,"Ġexperts":8919,"Ġpeptides":8920,"ĠMuseum":8921,"ĠHilbert":8922,"Ġquasi":8923,"Ġmembranes":8924,"Ġmortgage":8925,"%;":8926,"Ġrows":8927,"}}{\\":8928,"Ġ77":8929,"Ġmechanical":8930,"Ġsatisfied":8931,"Ġseparated":8932,"Ġimprisonment":8933,"hol":8934,"Ġbodies":8935,"ĠAcc":8936,"Ġwaste":8937,"}.$$":8938,"ĠFermi":8939,"Ġsurveys":8940,"si":8941,"âĢĺ":8942,"Ġrail":8943,"ĠAtt":8944,"Ġpromise":8945,"Ġ{}":8946,"Ġaccounts":8947,"elfy":8948,"ĠÐ²":8949,"Ġassumption":8950,"ĠControl":8951,"Ġiniti":8952,"Ġloved":8953,"ĠClearly":8954,"ĠNatural":8955,"Ġpreparing":8956,"ĠColumbia":8957,"Ġuncertainties":8958,"Ġantibiotics":8959,"VERSION":8960,"Ġparadigm":8961,"Ġaver":8962,"Ġlin":8963,"ĠPeter":8964,"Ġsharp":8965,"***":8966,"125":8967,"common":8968,"Ġrequested":8969,"ĠCamp":8970,"subset":8971,"Unit":8972,"Ġmagnet":8973,"Ġsomewhat":8974,"fessional":8975,"Virginia":8976,"YP":8977,"born":8978,"Ġtail":8979,"Ġdesire":8980,"Ġsuffering":8981,"ECT":8982,"Mon":8983,"None":8984,"Ġcited":8985,"Ġnom":8986,"ĠHome":8987,"Ġperiods":8988,"Process":8989,"Ġrealize":8990,"Ġradical":8991,"Ġenforcement":8992,"Ġineffective":8993,"Ġmappings":8994,"Ġrecurrence":8995,"Ġquestionnaire":8996,"Ġtherm":8997,"Ġsounds":8998,"Ġ\"$":8999,"oked":9000,">,":9001,"MENT":9002,"nes":9003,"tings":9004,"ÙĦ":9005,"Ġisomorphism":9006,"ulus":9007,"Ġinstruments":9008,"Ġdiplom":9009,"Ġlandscape":9010,"Please":9011,"}+\\":9012,"ĊČ":9013,"acement":9014,"ĠLab":9015,"Ġwealth":9016,"Ġstrains":9017,"Ġprompt":9018,"Ġincreasingly":9019,"Ġlogic":9020,"Ġdataset":9021,"Ġlies":9022,"ĠReal":9023,"Ġ{{\\":9024,"Convert":9025,"Ġdeclared":9026,"Module":9027,"ĠLewis":9028,"ĠLittle":9029,"ructs":9030,"Ġethnic":9031,"Ġ..":9032,"ĊĠĠĠĠĠĠĠĠĠĠĠĠĠĠĠĠ":9033,"Ġinternet":9034,")*(":9035,"ictionary":9036,"Ġrotation":9037,"Ne":9038,"there":9039,"Ġevident":9040,"iana":9041,"Ġpurs":9042,"txt":9043,"person":9044,"van":9045,"Â®":9046,"adow":9047,"ĠHE":9048,"2001":9049,"2005":9050,"Ġheader":9051,"Ġrequests":9052,"Ġpassword":9053,"ãĤĴ":9054,"Ġkinds":9055,"Ġuniversal":9056,"Rev":9057,"ja":9058,"Ã´":9059,"åħ":9060,"Ġlat":9061,"Ġforum":9062,"ologist":9063,"Ġinnov":9064,"Theorem":9065,"ĠSweden":9066,"ĠDetroit":9067,"Ġske":9068,"Ġrenew":9069,"Ġreplic":9070,"utch":9071,"izations":9072,"IND":9073,"Ġstrain":9074,"Ġboost":9075,"ÐµÐ½":9076,"Every":9077,"Ġbought":9078,"ema":9079,"Ġprofiles":9080,"Ġpaying":9081,"Ġillness":9082,"Ġpolitics":9083,"Ġlithium":9084,"Ġsynchron":9085,"Ġpunishment":9086,"Write":9087,"nc":9088,"è¿":9089,"Ġdream":9090,"irs":9091,"Ġrain":9092,"ensity":9093,"Ġexcited":9094,"Ġneutral":9095,"HE":9096,"reens":9097,"ĠBook":9098,"illion":9099,"Ġprogramming":9100,"Ġdistributions":9101,"ĠDemocrats":9102,"Ġimpairment":9103,"Right":9104,"Ġos":9105,"ĠĠĠĠĠĠĠĠĠĠĠĠĠĠĠĠĠĠĠĠĠĠĠĠĠĠĠĠ":9106,"Ġaid":9107,"Ġhate":9108,"uls":9109,"Ġ400":9110,"Ġgenerating":9111,"ãģ¨":9112,"Ġcomplicated":9113,"Mar":9114,"Tab":9115,"groupId":9116,"Directory":9117,"Ġocean":9118,"Ġexperiencing":9119,"Ġsophisticated":9120,"0177616":9121,"Ġatheroscler":9122,"Ġtough":9123,"Ġtip":9124,"omer":9125,"Ġdepos":9126,"ĠEC":9127,"Ġkick":9128,"Ġstimulation":9129,"Ġremoval":9130,"Ġongoing":9131,"ĠAF":9132,"Ġshoot":9133,"Ġ57":9134,"Ġ61":9135,"Ġgrid":9136,"Ġ128":9137,"context":9138,"Ġvictims":9139,"Ġextracted":9140,"World":9141,"ĠRachel":9142,"Ġrestaurants":9143,"Ġrobbery":9144,"Ġtub":9145,"ĠThose":9146,"Ġluck":9147,"Ġbegins":9148,"Ġcalculation":9149,"Ġintroduce":9150,"ï½":9151,"Ġ$.":9152,"Ġimm":9153,"ĠAmong":9154,"Ġabundant":9155,"Ġchromosome":9156,"Ġav":9157,"ĠHz":9158,"Ġseat":9159,"Ġagencies":9160,"Ġextensive":9161,"Ġmagnitude":9162,"ĠModel":9163,"ãĥªãĥģãĤ¦ãĥł":9164,",'":9165,"Point":9166,"Str":9167,"ĠIR":9168,"ĠPL":9169,"015":9170,"))/(":9171,"ĊĠĠĠĠĠĠĠĠĠĠĠĠĠĠĠĠĠĠĠĠĠĠĠĠĠĠĠĠĠĠĠĠĠĠĠ":9172,"Ġplea":9173,"Ġarbitrary":9174,"ĠNetherlands":9175,"ĠScientific":9176,"stack":9177,"128":9178,"Ġserving":9179,"ĠTrust":9180,"ĠProgram":9181,"Ġrefused":9182,"Ġproduc":9183,"update":9184,"Ġconsumers":9185,"Ġenzyme":9186,"Ġimagine":9187,"Ġtroubles":9188,"Ġpermits":9189,"ĠKevin":9190,"Ġptlrpc":9191,";;;;;;;;;;;;;;;;;;;;;;;;;;;":9192,"mo":9193,"inv":9194,"Ġincomp":9195,"rose":9196,"ola":9197,"Ġknowing":9198,"anned":9199,"ĠMean":9200,"ellee":9201,"Ġthickness":9202,"Ġaccompanying":9203,"ĠVenezuel":9204,"Ġridiculous":9205,"æĸ":9206,"Ġgam":9207,"Ġplain":9208,"Ġ63":9209,"Ġinfected":9210,"Ġsymbol":9211,"Ġstatistically":9212,"ĠNavy":9213,"Mode":9214,"each":9215,"Ġschem":9216,"imp":9217,"ĠMake":9218,"=======":9219,"Ġmanage":9220,"Ġ&\\":9221,"141":9222,"vector":9223,"obile":9224,"Ġoperate":9225,"Ġcapture":9226,"Ġlisten":9227,"Ġradius":9228,"Ġdensities":9229,"ĠHenry":9230,"Ġwebsites":9231,"Ġenergies":9232,"Ġdioxide":9233,"Ġcongressional":9234,"ĠTennessee":9235,"ĠÑģ":9236,"Ġmine":9237,"Ġyouth":9238,"ques":9239,"ĠPy":9240,"Ġvehicles":9241,"Format":9242,"ĠÐ¸ÑģÐºÐ¾Ð¿Ð°ÐµÐ¼ÑĭÑħ":9243,"'.":9244,"Null":9245,"hen":9246,"store":9247,"enders":9248,"teen":9249,"Ġdomains":9250,"ĠBlue":9251,"Ġpurchased":9252,"Ġtiming":9253,"License":9254,"ĠAvenue":9255,"Ġanchor":9256,"Ġarrival":9257,"Ġmineral":9258,"Ġlegitimate":9259,"Many":9260,"UC":9261,"ilder":9262,")*(-":9263,"Ġsalt":9264,"Ġsemi":9265,"Ġacquired":9266,"Server":9267,"Ġtremendous":9268,"za":9269,"Ġfellow":9270,"Ġlots":9271,"opes":9272,"ĠLi":9273,"ĠGener":9274,"ĠJournal":9275,"Ġincidence":9276,"ĠAustralian":9277,"devel":9278,"Ġwelfare":9279,"ĠAppendix":9280,"Ġartificial":9281,"cence":9282,"Ġwinter":9283,"ili":9284,"Ġveter":9285,"ruby":9286,"106":9287,"Ġ98":9288,"Ġpresum":9289,"Ġdecreasing":9290,"Ġcontributed":9291,"Finally":9292,"Other":9293,"ht":9294,"pers":9295,"arly":9296,"uts":9297,"formed":9298,"ĠIns":9299,"Ġaddressed":9300,"ĠAnalysis":9301,"Ġsuppress":9302,"Ġcovering":9303,"Ġapproval":9304,"Ġnutrition":9305,"ĠCOVID":9306,"Ġplasmid":9307,"attr":9308,"ĠMont":9309,"activity":9310,"Ġ<=":9311,"Ġmedication":9312,"force":9313,"ĠExp":9314,"Ġloan":9315,"esides":9316,"ucks":9317,"','":9318,"Ġsatisfy":9319,"Ġparticipate":9320,"equal":9321,"ĠClub":9322,"Ġworst":9323,"Ġcorporate":9324,"Ġincubation":9325,"Ġelectrons":9326,"Ġsymptom":9327,"Ġconvinced":9328,"Dr":9329,"IX":9330,"Ġms":9331,"Ġgeneric":9332,"exec":9333,"Ġcolors":9334,"Configuration":9335,"Ġsuffered":9336,"ĠTokyo":9337,"=\"../../../../../":9338,"ĠLegislature":9339,"dy":9340,"internal":9341,"ĠFil":9342,"Ġspoke":9343,"Init":9344,"Ġfrequent":9345,"ĠDiamond":9346,"Ġterritory":9347,"./":9348,"rb":9349,"ĠCong":9350,"ĠLiber":9351,"oids":9352,"Ġcalculations":9353,"Ġcrystal":9354,"Ġstaining":9355,"Ġ67":9356,"ĠChief":9357,"Ġfeedback":9358,"ĠMathematics":9359,"Ġfranchise":9360,"Ġtrafficking":9361,"Ġcohomology":9362,"Bo":9363,"Red":9364,"dat":9365,"hab":9366,"take":9367,"erry":9368,"enth":9369,"ĠFood":9370,"Ġintake":9371,"Ġwrt":9372,"Ke":9373,"\\|":9374,"sample":9375,"Ã¤":9376,"Ġ((-":9377,"ĠAlex":9378,"riers":9379,"ctx":9380,"ĠRun":9381,"mediated":9382,"Ġsummar":9383,"Ġrealized":9384,"Ġspectral":9385,"ĠKansas":9386,"Ġmodes":9387,"Ġ89":9388,"Ġmarker":9389,"Ġmoral":9390,"Ġcontroller":9391,"urop":9392,"isters":9393,"step":9394,"iral":9395,"Ġproducing":9396,"cludes":9397,"ĠOb":9398,"Ġ62":9399,"Ġclassified":9400,"Ġcreates":9401,"Ġleadership":9402,"Ġcontainer":9403,"Ġ\\\\\\\\":9404,"Ġmicrobial":9405,"Ġmonitored":9406,"ĠMedicine":9407,"qquad":9408,"Ġwage":9409,"Ġbear":9410,"ĠLake":9411,"orted":9412,"ordin":9413,"Ġopposition":9414,"Ġregistered":9415,"Ġdoxorubicin":9416,"Ġstores":9417,"Ġhash":9418,"Ġqui":9419,"1999":9420,"ĠÂ«":9421,"Ġhappening":9422,"ULT":9423,"Ġpositively":9424,"Ġtransparency":9425,"Ġpeaceful":9426,"600":9427,"Vert":9428,"aft":9429,"Ġfant":9430,"Ġassault":9431,"Ġ93":9432,"control":9433,"Ġfairly":9434,".âĢĶ":9435,"fi":9436,"Ġcontents":9437,"143":9438,"Ġreferences":9439,"Ġpreferred":9440,"Ġcircles":9441,"Ġmothers":9442,"Ġreputation":9443,"Gu":9444,"Prop":9445,"aud":9446,"~-":9447,"Ġsizes":9448,"Ġinclusion":9449,"Ġstabil":9450,"Ġattributes":9451,"Ġgrown":9452,"Listener":9453,"uetooth":9454,"Ġfurniture":9455,"Function":9456,"TEST":9457,"iders":9458,"Ġalle":9459,"ĠDoes":9460,"Ġdecade":9461,"Ġcounty":9462,"Ġhistorical":9463,"Donald":9464,"Super":9465,"ĠCriminal":9466,"amjcaserep":9467,"ÙĪ":9468,"Ġpp":9469,"Ġfly":9470,"Ġdecline":9471,"ĠProv":9472,"Ġradi":9473,"pcbi":9474,"push":9475,"Ġsharing":9476,"}}}\\":9477,"Ġpartners":9478,"127":9479,"Ġdifferentiation":9480,"Ġsolar":9481,"Ġpublication":9482,"regular":9483,"ĠFootball":9484,"Ġaggrav":9485,"ãģ§ãģ":9486,"Ġprotocols":9487,"ĠHollywood":9488,"Ġdatabases":9489,"0208973":9490,"ĠisExplicitlyDefined":9491,"Mem":9492,"Search":9493,"ĠEV":9494,"ĠChapter":9495,"ĠIsland":9496,"SET":9497,"Ġsuperior":9498,"*~*":9499,"Ġeast":9500,"anted":9501,"ername":9502,"mann":9503,"rolled":9504,"Ġsubstantially":9505,"Ġreviewed":9506,"Ġ>=":9507,"Ġoriented":9508,"ogeneity":9509,"Ġendogenous":9510,"echnology":9511,"Ġprivilege":9512,"wire":9513,"Ġgate":9514,"Activity":9515,"Ġcumulative":9516,"Ġrehabilitation":9517,"ĠElizabeth":9518,"mg":9519,"Ġ\\;":9520,"ĠPet":9521,"ĠNext":9522,"Ġaccused":9523,"Ġterminal":9524,"inson":9525,"chemical":9526,"pdf":9527,"two":9528,"Ġyeast":9529,"Ġcircuits":9530,"^^^^^^^^":9531,"Ġvast":9532,"Ġrub":9533,"Ġ1994":9534,"Ġsignature":9535,"Ġstronger":9536,"joint":9537,"sor":9538,"ĠCur":9539,"ĠMel":9540,"graph":9541,"Ġscreening":9542,"Ġnormally":9543,"Ġinches":9544,"Ġgrateful":9545,"ktop":9546,"send":9547,"Ġsister":9548,"ida":9549,"ĠDC":9550,"leted":9551,"ĠOrder":9552,"Ġcultures":9553,"PH":9554,"SN":9555,"mathit":9556,"Ġmarkets":9557,"Ġyounger":9558,"Ġbelieves":9559,"Ġteachers":9560,"water":9561,"Ġhorizontal":9562,"ĠPower":9563,"Ġclock":9564,"Ġconsumer":9565,"Task":9566,"Ġì":9567,"ensor":9568,"Ġ73":9569,"Ġequally":9570,"ĠProt":9571,"Ġsimulation":9572,"Ġrespondents":9573,"Ġknee":9574,"itations":9575,"thal":9576,"ibration":9577,"acking":9578,"close":9579,"Ġgrounds":9580,"positive":9581,"2004":9582,"ĠMcC":9583,"scriptstyle":9584,"Yeah":9585,"čĊĠĠ":9586,"acer":9587,"Ġenrich":9588,"Ġoriginally":9589,"Ġinflammation":9590,"Ġconvex":9591,"ĠBayesian":9592,"Ġdowntown":9593,"ĠANOVA":9594,"URE":9595,"Ġfed":9596,"Ġlob":9597,"Ġstands":9598,"ĠNov":9599,"aved":9600,"Ġ===":9601,"Ġchoices":9602,"Even":9603,"Graph":9604,"^+":9605,"pres":9606,"uis":9607,"Ġnotion":9608,"Ġscales":9609,"Ġ1995":9610,"Ġfract":9611,"Ġdetermin":9612,"ĠQuant":9613,"Ġhabits":9614,"ĠMissouri":9615,"cover":9616,"ĠGiven":9617,"}\\(":9618,"},\\\\":9619,"Ġscrutiny":9620,"star":9621,"Ġ87":9622,"Ġphotos":9623,"âĨĴ":9624,"uated":9625,"enes":9626,"Ġselling":9627,"Ġwest":9628,"ĠLight":9629,"Ġarr":9630,"ĠYet":9631,"ups":9632,"Ġgrade":9633,"Ġkeyword":9634,"OF":9635,"foot":9636,"kes":9637,"ĠĠĠĠĠĠĠĠĠĠĠĠĠĠĠĠĠĠĠĠĠĠĠĠĠĠĠĠĠ":9638,"Ġtab":9639,"Ġtens":9640,"align":9641,"imum":9642,"Ġisland":9643,"ĠSum":9644,"ĠUser":9645,"Ġpartition":9646,"Ġsheet":9647,"ITY":9648,"Ġdropped":9649,"David":9650,"virtual":9651,"Ġmaternal":9652,"Ġhtml":9653,"Ġhazard":9654,"Ġgentle":9655,"Ġunstable":9656,"Ġpertinent":9657,"âĢĵâĢĵâĢĵâĢĵâĢĵâĢĵâĢĵâĢĵâĢĵâĢĵ":9658,"#*#*#*#*#*#*#*#*#*#*#*#*#*#*#*#*#*#*":9659,"Look":9660,"entry":9661,"ffect":9662,"ĠStart":9663,"aterials":9664,"mean":9665,"Ġtheme":9666,"ĠExper":9667,"Ġchocolate":9668,"Integer":9669,"Ġintrinsic":9670,"Ġcylindrical":9671,"Sign":9672,"UST":9673,"Ġcomprom":9674,"Ġrobust":9675,"ĠRespondent":9676,"El":9677,"Ġaer":9678,"ĠThree":9679,"Ġ$|":9680,"ĠEth":9681,"Ġowned":9682,"Ġcoordinates":9683,"cancers":9684,"Ġindictment":9685,"Ġstrategic":9686,"ĠClifford":9687,"ĠBeijing":9688,"Ġantibiotic":9689,"TER":9690,"Ġ('":9691,"Ġ125":9692,"ĠFre":9693,"plus":9694,"Ġplenty":9695,"Ġopp":9696,"Ã©e":9697,"Ġactivated":9698,"Ġprediction":9699,"Ġregardless":9700,"Ġreveal":9701,")}{":9702,"HC":9703,"bro":9704,"Ġpatch":9705,"email":9706,"ĠLocal":9707,"Ġreliable":9708,"oken":9709,"ĠApplication":9710,"Ġhotel":9711,"court":9712,"orandum":9713,"Ġspontaneous":9714,"Ġconfigurations":9715,"1002257":9716,"Drosophila":9717,"GA":9718,"ĠSat":9719,"ĠABC":9720,"ĠBush":9721,"Ġpresents":9722,"THE":9723,"menu":9724,"Sw":9725,"Ġrect":9726,"ĠThanks":9727,").$$":9728,"Ġspher":9729,"ĠâĢ¢":9730,"Ġtranscript":9731,"ãģª":9732,"Ġminister":9733,"Ġkeys":9734,"century":9735,"Ġguard":9736,"Ġperforming":9737,"Ġdealing":9738,"ĠWilliam":9739,"Ġopposed":9740,"Ġadventure":9741,"Ġdeterior":9742,"Ġâī¤":9743,"BB":9744,"Eng":9745,"GS":9746,"Ġcable":9747,"tsd":9748,"ĠLA":9749,"III":9750,"Ġunsigned":9751,"Ġsustain":9752,"ĠAlzheimer":9753,"Cache":9754,"Ġaside":9755,"ĠBO":9756,"Ġatoms":9757,"019":9758,"Ġassuming":9759,"small":9760,"ĠBuild":9761,"Ġenvelope":9762,"imicrobial":9763,"ran":9764,"xsl":9765,"{\"":9766,"oman":9767,"asty":9768,"prod":9769,"ĠConstitution":9770,"Ġfails":9771,"Ġversions":9772,"bc":9773,"vision":9774,"alg":9775,"ima":9776,"Ġalign":9777,"Ġarms":9778,"Ġanyway":9779,"Ġscrew":9780,"shift":9781,"Proof":9782,"2003":9783,"Ġbasically":9784,"ytes":9785,"Ġstyles":9786,"ĠBuddh":9787,"Ġadhesion":9788,"Ġsuperclusters":9789,"Ġnanoparticles":9790,"Pol":9791,"Render":9792,"Ġassist":9793,"Ġinvolve":9794,"ĠmiR":9795,"zero":9796,"Ġing":9797,"Ġpublish":9798,"ĠCase":9799,"ĠAud":9800,"ĠMer":9801,"007":9802,"Ġrooms":9803,"Ġperfectly":9804,"Ġembry":9805,"Ġpixels":9806,"Ġabdominal":9807,"Ġinvariants":9808,"Ġschizophrenia":9809,"uuuuuuuuuuuuuuu":9810,"ĠHCN":9811,"Ġpermit":9812,"Ġserves":9813,"Address":9814,"Ġdogs":9815,"ĠMexican":9816,"Di":9817,"uz":9818,"iced":9819,"Ġthr":9820,"iration":9821,"ĠYear":9822,"Ġ94":9823,"Ġchromatography":9824,"Øª":9825,"tein":9826,"Ġ66":9827,"obj":9828,"Ġnewly":9829,"Ġglut":9830,"Ġmoves":9831,"Ġflux":9832,"Ġexplicitly":9833,"IE":9834,"Ġmeta":9835,"Ġhur":9836,"Ġrely":9837,"Ġfort":9838,"ĠMD":9839,"Ġalk":9840,"}}}$":9841,"Ġwinning":9842,"ĠVixens":9843,"Ġcytopl":9844,"Most":9845,"ĠCare":9846,"Ġalumin":9847,"ĊĠĠĠĠĠĠĠĠĊĠĠĠĠĠĠĠ":9848,"%).":9849,"reh":9850,"Ġinterf":9851,"Ġsubsequently":9852,"Ġserial":9853,"Ġfaces":9854,"Ġrequiring":9855,"Ġsimulations":9856,"upload":9857,"Ġfirms":9858,"Ġantigens":9859,"Ġinfiltr":9860,"Ġlawyers":9861,"Ġembodiment":9862,"elect":9863,"she":9864,"isk":9865,"verage":9866,"ĠElection":9867,"Ġtrained":9868,"aki":9869,"Ġ1980":9870,"Ġfee":9871,"Grid":9872,"Ġworry":9873,"Ġwonderful":9874,"Ġfighting":9875,"Ġsurprising":9876,"0040365":9877,"ĠDouglas":9878,"then":9879,"Ġviewed":9880,"Ġjudicial":9881,"Ġaudience":9882,"Further":9883,"Ġproposals":9884,"Ġdispersion":9885,"Ġinvasive":9886,"Ġsing":9887,"Ġ130":9888,"160":9889,"ructure":9890,"buf":9891,"Update":9892,")}$":9893,",$$":9894,"uzz":9895,"Ġtables":9896,"ĊĠĠĠĠĠĠĠĠĠĠĠĠĠĠĠĠĠĠĠĠĠ":9897,"Ġbytes":9898,"Ġ<-":9899,"Ġpaths":9900,"Ġboolean":9901,"ĠPlaintiffs":9902,"Ġcompartment":9903,"Ġpassenger":9904,"023":9905,"service":9906,"âĪ":9907,"Ġbanks":9908,"enter":9909,"ĠDate":9910,"Ġtract":9911,"Ġ[]":9912,"Ġadmission":9913,"comment":9914,"Ġtranslation":9915,"Ġ84":9916,"Enc":9917,"Tetrahymena":9918,"Ġsovereignty":9919,"iy":9920,"Ġalloc":9921,"awa":9922,"Ġguests":9923,"ucurbitacin":9924,"Because":9925,"Te":9926,"Using":9927,"uer":9928,"what":9929,"Ġdip":9930,"Ġgro":9931,"odd":9932,"Ġexcluded":9933,"ĠLee":9934,"Ġtruck":9935,"uality":9936,"Ġfeels":9937,"Ġseparation":9938,"Ġprecise":9939,"serializedValue":9940,"Ġgift":9941,"âĢ³":9942,"Ġweigh":9943,"ĠGL":9944,"Ġsport":9945,"Ġ$\\{":9946,"Ġdocumentation":9947,"Ġfacing":9948,"ĠCanadian":9949,"Ġgeometry":9950,"ĠSarah":9951,"Ġvesicles":9952,"Ġreporters":9953,"Ġfluorescent":9954,"TD":9955,"rams":9956,"Ġneck":9957,"ĠCurrent":9958,"ĠMount":9959,"Ġanywhere":9960,"Ġengage":9961,"Ġdedicated":9962,"Ġcomparable":9963,"thm":9964,"ander":9965,"ĠTown":9966,"gex":9967,"ĠArray":9968,"Ġintroduction":9969,"ĠArmy":9970,"driven":9971,"folio":9972,"ĠIntelligence":9973,"hash":9974,"location":9975,"Ġ-\\":9976,"Ġcontends":9977,"Ġobj":9978,"Ġ1993":9979,"OUT":9980,"dx":9981,"mac":9982,"Ġbeta":9983,"ĠAff":9984,"product":9985,"Ġtreatments":9986,"second":9987,"gathered":9988,"Ġstochastic":9989,"Ġ\"/":9990,"Ġdecay":9991,"ologic":9992,"Ġshouldn":9993,"ONE":9994,"Ġreflection":9995,"ĠISO":9996,"Ġregulatory":9997,"Ġmirrors":9998,"Ġaffidavit":9999,"),\\":10000,"Ġtransferred":10001,"Ġordinary":10002,"ĠIgG":10003,"Ġdiscontin":10004,"Ġsimplicity":10005,"tn":10006,"alls":10007,"Ġclassic":10008,"2002":10009,"Ġstrike":10010,"Ġuniversity":10011,"1000":10012,"files":10013,"oice":10014,"Ã¦":10015,"Ġcath":10016,"ĠColl":10017,"Ġthereof":10018,"exception":10019,"ĠWho":10020,"ĠReport":10021,"Ġbrings":10022,"Ġbringing":10023,"Entry":10024,"establish":10025,"ĠJonathan":10026,"har":10027,"eman":10028,"Ġcircle":10029,"iously":10030,"Ġrecording":10031,"ĠParis":10032,"Did":10033,"LY":10034,"fin":10035,"Ġfiber":10036,"Ġmob":10037,"ÂłĠĠ":10038,"Ġevil":10039,"Ġ78":10040,"Ġtopological":10041,"Ġregional":10042,"ĠSafety":10043,"Ġinconsistent":10044,"Ġdivorce":10045,"ĊĊĠĠĠĠĠĠĠĠĠĠĠĠĠĠĠ":10046,"Ġdict":10047,"Ġhurt":10048,"Ġride":10049,"ĠFunction":10050,"Ġflight":10051,"Ġherein":10052,"0159690":10053,"=(":10054,"hour":10055,"Ġau":10056,"rell":10057,"Ġwine":10058,"ictions":10059,"ĠLo":10060,"Ġinstruct":10061,"pmatrix":10062,"Ġmutations":10063,"loop":10064,"Ġentertain":10065,"Frame":10066,"]-[@":10067,"Ġdialogue":10068,"ICPSR":10069,"Template":10070,"Ġtack":10071,"Ġcrop":10072,"oline":10073,"Ġ$-":10074,"Ġcontrary":10075,"Ġtwenty":10076,"ĠAccordingly":10077,"ĠCharles":10078,"Ġpod":10079,"ĠSn":10080,"Ġ111":10081,"ĠRA":10082,"ĠNFL":10083,"ĠSimilarly":10084,"Ġadvertis":10085,"Ġbioinformatics":10086,"ĠCOPYRIGHT":10087,"*(-":10088,"BE":10089,"ĠCell":10090,"ĠPS":10091,"apl":10092,"Ġexplo":10093,"Ġtaxes":10094,"ĠAdv":10095,"ĠPrinc":10096,"Ġsnow":10097,"Ġconservative":10098,"}]":10099,"Ð¼":10100,"Ġic":10101,"ĠMike":10102,"istical":10103,"ĊĊĠĠĠĠ":10104,"Ġcenters":10105,"Ġcareful":10106,"Ġhardware":10107,"Ġreviews":10108,"Ġseriously":10109,"Ġmarginal":10110,"Ġpassengers":10111,"care":10112,"iest":10113,"ota":10114,"izers":10115,"Ġspons":10116,"when":10117,"Ġcontinuing":10118,"ĠYoung":10119,"Ġpeaks":10120,"Ġawareness":10121,"Ġdominant":10122,"Ġbluesabre":10123,"Ġmonoclonal":10124,"ĠRodriguez":10125,"Local":10126,"MV":10127,"Pa":10128,"ĠPython":10129,"ĠFort":10130,"ĠNY":10131,"theast":10132,"ĠShow":10133,"Reflection":10134,"About":10135,"Ġrestriction":10136,"ĠObserv":10137,"Ġfeasible":10138,"Ġelimination":10139,"Ġrecruitment":10140,"cyclohexyl":10141,"ĠMediterranean":10142,"ras":10143,"ĠTE":10144,"Ġreserved":10145,"Ġchecked":10146,"ĠNetwork":10147,"instance":10148,"ĠMicrosoft":10149,"ĠHim":10150,"ĠDO":10151,"ĠOper":10152,"Ġquiet":10153,"ologically":10154,"Ġentity":10155,"Ġentrance":10156,"Ġmanufacturers":10157,"Ġacoustic":10158,"pool":10159,"seq":10160,"Ġdeleg":10161,"Ġhepat":10162,"Ġ1970":10163,"Ġcarrier":10164,"Ġtargeted":10165,"Ġnormalized":10166,"Ġchallenging":10167,"Ġquantity":10168,"Ġrevolution":10169,"ĠÐ¿Ð¾Ð»ÐµÐ·Ð½ÑĭÑħ":10170,"draw":10171,"tg":10172,"urg":10173,"}\\(\\\\":10174,"Summary":10175,"Ġsavings":10176,"Ġlemma":10177,"Ġvarieties":10178,"Ġvolumes":10179,"Ġvoluntary":10180,"Ġadenocarcinoma":10181,")\\\\":10182,"People":10183,"Ver":10184,"\\\"":10185,"mes":10186,"rt":10187,"vm":10188,"Ġum":10189,"otyp":10190,"Ġstem":10191,"Ġwhenever":10192,"should":10193,"Project":10194,"Ġinfinite":10195,"Ġconsisting":10196,"ĠComput":10197,"Ġnecrosis":10198,"such":10199,"zed":10200,"Ġcouncil":10201,"unity":10202,"Ġ74":10203,"âĻª":10204,"Ġdreams":10205,"Ġnurse":10206,"Ġlen":10207,"Ġpartially":10208,"Ġcomfort":10209,"OME":10210,"Ġinstitutions":10211,"rate":10212,"Ġnurs":10213,"ĠMiddle":10214,"Ġresolve":10215,"ĠJoe":10216,"Ġdefines":10217,"grad":10218,"Ġexpressions":10219,"180":10220,"ANT":10221,"Ġloaded":10222,"ĠSpecial":10223,"Ġhockey":10224,"emphasis":10225,"Ġhepatic":10226,"Ġdozen":10227,"Ġemotions":10228,"Ġrighteous":10229,"Ġsynthesized":10230,"Ġcollateral":10231,"Ġphilosopher":10232,"è¯":10233,"Ġcru":10234,"Ġdc":10235,"Ġproven":10236,"Ġchlor":10237,"Ġ***":10238,"014":10239,"Ġmemories":10240,"ĠÂĹ":10241,"Ġrefers":10242,"Ġbulk":10243,"WH":10244,"å¤":10245,"Ġtow":10246,"Ġtoken":10247,"etry":10248,"Ġlosing":10249,"ĠCast":10250,"ador":10251,"ĠFind":10252,"ĠUI":10253,"orship":10254,"Ġ1992":10255,"Ġcarefully":10256,"Ġfertil":10257,"ĠnÃ©v":10258,"Ġwindows":10259,"Ġreform":10260,"Ġstations":10261,"Ġedges":10262,"Ġcutting":10263,"Orig":10264,"Ġpulled":10265,"Ġperspectives":10266,"TL":10267,"Ġsight":10268,"anth":10269,"ĠHy":10270,"Ġforming":10271,"Thank":10272,"Ġwherein":10273,"remove":10274,"Ġmanufacturing":10275,"Application":10276,"Ġsauce":10277,"Ġwalks":10278,"Ġfruits":10279,"Ġconjunction":10280,"DuelingLetters":10281,"HL":10282,"Sl":10283,"Ġ112":10284,"ĠED":10285,"ogether":10286,"####":10287,"140":10288,"307":10289,"Ġcircum":10290,"Ġelected":10291,"ĠPlay":10292,"Ġdivision":10293,"Ġsensor":10294,"Ġcomplications":10295,"Ġmissed":10296,"Ġlipid":10297,"lat":10298,"Ġbomb":10299,"Ġ180":10300,"Ġcomparing":10301,"Ġhandling":10302,"Ġwriter":10303,"Ġlaunched":10304,"Panel":10305,"ĠManchester":10306,"ĠBowl":10307,"Ġembedding":10308,"January":10309,"ĠOTHERWISE":10310,"auth":10311,"window":10312,"ĠMich":10313,"note":10314,"Â»":10315,"Ġassets":10316,"1234":10317,"2019":10318,"Ġfewer":10319,"ĠApple":10320,"API":10321,"ĠMaybe":10322,"Ġancest":10323,"ĠDisease":10324,"Ġagrees":10325,"Ġbrilliant":10326,"Ġvertices":10327,"Ġrelevance":10328,"tmp":10329,"00000":10330,"ĠRock":10331,"Ġmeat":10332,"Ġcorrection":10333,"leton":10334,"ĠÂ°":10335,"Ġfrequencies":10336,"Ġmarkers":10337,"Ġsufficiently":10338,"Ġsocieties":10339,"ĠSullivan":10340,"ĠPhilosophy":10341,"ĠCreateCompilationWithMscorlib":10342,"making":10343,"rine":10344,"Ġhun":10345,"ĠCas":10346,"Ġanim":10347,"ĠWal":10348,"Ġlease":10349,"raham":10350,"obs":10351,"rome":10352,"Ġcreative":10353,"Ġpetitioner":10354,"Ġcylinder":10355,"Ġsubunits":10356,"AK":10357,"Ġtube":10358,"ami":10359,"amps":10360,"essed":10361,"Ġ['":10362,"ĠJr":10363,"ĠJack":10364,"Ġkilling":10365,"ĠChem":10366,"retion":10367,"Ġpy":10368,"Ġbases":10369,"lee":10370,"Ġhell":10371,"idal":10372,"ĠBased":10373,"aching":10374,"Ġ83":10375,"ologists":10376,"Ġearned":10377,"Ġnearby":10378,"Ġwelcome":10379,"published":10380,"Ġdiesel":10381,"emperature":10382,"Ġvillages":10383,"Ġcompanion":10384,"Ġoccasions":10385,"Ġcameras":10386,"Ġwaveguide":10387,"Ġventricular":10388,"getElementById":10389,")[":10390,"inated":10391,"usp":10392,"Ġonset":10393,"Ġju":10394,"Ġgoods":10395,"Ġmarketing":10396,"Ġlaboratory":10397,"ji":10398,"ws":10399,"ulator":10400,"chain":10401,"Ġprote":10402,"ĠMus":10403,"ĠHam":10404,"Ġtechnologies":10405,"Ġdifficulty":10406,"External":10407,"Ġroutine":10408,"elesc":10409,"Ġloyal":10410,"Ġadequately":10411,"Ġkilomet":10412,"Ġscratch":10413,"Ġcriterion":10414,")|":10415,"MO":10416,"Open":10417,"ĠCALL":10418,"ĠNature":10419,"Ġ91":10420,"Ġindependently":10421,"Ġdiagnosed":10422,"Ġimproving":10423,"oskcaj":10424,"isciplinary":10425,"åı¯ä»¥":10426,"bas":10427,"}\"":10428,"Ġcavity":10429,"umps":10430,"Ġexit":10431,"ĠTop":10432,"ĠLanguage":10433,"Ġgrace":10434,")))":10435,"ĠAsia":10436,"Ġsuppose":10437,"Ġimprovements":10438,"ĠResults":10439,"Ġangular":10440,"Ġdeclare":10441,"Ġcoefficient":10442,"Ġconversations":10443,"ĠBruce":10444,"Location":10445,"Ġvers":10446,"onom":10447,"Ġlic":10448,"usr":10449,"Ġ113":10450,"elli":10451,"ĠES":10452,"ĠJim":10453,"Ġdiverse":10454,"Ġheads":10455,"Ġattempted":10456,"device":10457,"MM":10458,"Rad":10459,"Top":10460,"cp":10461,"card":10462,"custom":10463,"uture":10464,"ĠEll":10465,"Ġcovers":10466,"Thus":10467,"Ġmetabolism":10468,"imestamp":10469,"ĠVEGF":10470,"Ġspecimens":10471,"widget":10472,"Ġsa":10473,"roy":10474,"eli":10475,"ĠHand":10476,"ĠFar":10477,"ĠFox":10478,"ĠLos":10479,"ĠChris":10480,"tox":10481,"Ġbounded":10482,"Ġinjured":10483,"Ġrounded":10484,"<?":10485,"Eq":10486,"binding":10487,"gi":10488,"oned":10489,"Ġinduce":10490,"ĠCOU":10491,"ĠMass":10492,"ĠPage":10493,"Ġdelete":10494,"ĠInit":10495,"Ġproud":10496,"Ġlocally":10497,"Ġdrinking":10498,"simeq":10499,"Ġextraordinary":10500,"Ġsatellite":10501,"`,":10502,"Ġsad":10503,"Ġsong":10504,"isp":10505,"Ġnerve":10506,"Ġvariations":10507,"Ġanticip":10508,"ĠTHIS":10509,"juvant":10510,"Ġmachinery":10511,"Ġlarvae":10512,"Ġunprecedented":10513,"Ġheterocysts":10514,"ycle":10515,"}[":10516,"ulg":10517,"ĠLast":10518,"Ġsoil":10519,"ĠKn":10520,"Ġ92":10521,"Ġending":10522,"Ġcomplexity":10523,"Ġbusy":10524,"Required":10525,"Ġprolonged":10526,"\\}$":10527,"iner":10528,"Ġtum":10529,"ĠDown":10530,"Ġ1991":10531,"Ġmodification":10532,"Ġprocessed":10533,"Ġresponded":10534,"ĠÃŀÃ³rsmÃ¶rk":10535,"ĠJul":10536,"Ġ88":10537,"ĠÂµ":10538,"Ġmonitor":10539,"Ġenemies":10540,"Ġprejudice":10541,"Http":10542,"aque":10543,"Ġsy":10544,"Ġlunch":10545,"Ġ(âĢľ":10546,"ucle":10547,"Ġbreaking":10548,"biased":10549,"âĶĢâĶĢâĶĢâĶĢâĶĢâĶĢâĶĢâĶĢâĶĢâĶĢ":10550,"\\!":10551,"åº":10552,"Ġ^{":10553,"Ġthrows":10554,"emble":10555,"through":10556,"Ġunw":10557,"ĠGR":10558,"018":10559,"Ġslight":10560,"ĠInteg":10561,"Ġborders":10562,"Ġoutdoor":10563,"ĠStephen":10564,"Ġretrieve":10565,"CLUDING":10566,"Ġtournament":10567,"å¦Ĥæŀľ":10568,"ĠMÃ½vatn":10569,"MB":10570,"Section":10571,"ean":10572,"Ġfo":10573,"Ġperception":10574,"Ġscaling":10575,"198":10576,"114":10577,"ĠLett":10578,"Ġmarks":10579,"oplus":10580,"Ġvaccine":10581,"ĠLIMITED":10582,"Cor":10583,"Find":10584,"Pos":10585,"ĠĠĠĠĠĠĠĠĠĠĠĠĠĠĠĠĠĠĠĠĠĠĠĠĠĠĠĠĠĠ":10586,"Ġlists":10587,"ĠRet":10588,"ĠEvent":10589,"Ġhasn":10590,"Ġgenerator":10591,"Ġtransaction":10592,"addr":10593,"Ġcuts":10594,"front":10595,"Ġbabies":10596,"Ġexercises":10597,"Ġenormous":10598,"ĠAlaska":10599,"LOC":10600,"Ġbind":10601,"acity":10602,"Ġster":10603,"ĠBern":10604,"Stud":10605,"Ġtele":10606,"Ġprofit":10607,"returns":10608,"Ġcolumns":10609,"Like":10610,"æĪ":10611,"Ġtheories":10612,"Ġdress":10613,"Ġassociations":10614,"ãģĮ":10615,"ĠExt":10616,"Ġadjusted":10617,"Desc":10618,"ĠServer":10619,"Parser":10620,"circle":10621,"Ġbubble":10622,"otropic":10623,"Ġcovariance":10624,"Ġprognostic":10625,"ĠLincoln":10626,"Ġuncomfortable":10627,"Ġassemblies":10628,"Ġaz":10629,"Ġchose":10630,"Ġtrav":10631,"Ġinsight":10632,"}_\\":10633,"Ġcomputed":10634,"Ġprecision":10635,"Ġphysics":10636,"Ġguarantee":10637,"Ġsteel":10638,"Car":10639,"ni":10640,"{(":10641,"Ġtank":10642,"Ġsen":10643,"======================":10644,"Ġreactions":10645,"ĠSO":10646,"Ġheating":10647,"Ġ[$":10648,"Ġmanufacturer":10649,"Queue":10650,"ifndef":10651,"DEBUG":10652,"ĠBrooks":10653,"ĠAkureyri":10654,"670123456701234567":10655,"During":10656,"Sym":10657,"namespace":10658,"pot":10659,"Â´":10660,"ela":10661,"Ġ115":10662,"cluding":10663,"ĠJeff":10664,"rapper":10665,"refix":10666,"reference":10667,"Ġemployer":10668,"Ġindustrial":10669,"interface":10670,"Ġmatches":10671,"ĠTechnology":10672,"ĠTeam":10673,"Ġclusters":10674,"Ġtemporary":10675,"Ġ],":10676,"Ġmales":10677,"icular":10678,"imately":10679,"axis":10680,"bibr":10681,"Ġloading":10682,"Ġcommitment":10683,"Ġincredibly":10684,"ä½¿çĶ¨":10685,"Ġreduces":10686,"Ġ140":10687,"Ġpray":10688,"Ġ86":10689,"charlie":10690,"HD":10691,"system":10692,"Ġtort":10693,"access":10694,"Ġbeach":10695,"Ġproduces":10696,"ĠNumber":10697,"Ġconsiderable":10698,"lier":10699,"Services":10700,"Ġexterior":10701,"ĠLGBT":10702,"Ġmetallic":10703,"Ġviscosity":10704,"ISCUSSION":10705,"oro":10706,"ĠMen":10707,"Who":10708,"ĊĠĠĠĠĊĠĠĠ":10709,"ighter":10710,"Ġconstitute":10711,"Ġapartment":10712,"site":10713,"Ġsed":10714,"Ġinverse":10715,"icts":10716,"ĠThank":10717,"Ġalert":10718,"Ġ250":10719,"Ġrecommendations":10720,"IME":10721,"Ġproceedings":10722,"Ġwarning":10723,"Ġcontrolling":10724,"Second":10725,"Ġmistake":10726,"FALSE":10727,"Ġbonus":10728,"Ġdrives":10729,"ĠAaron":10730,"ĠLeft":10731,"ĠGovernor":10732,"Ġappellate":10733,"Ġparliament":10734,"'$":10735,"NP":10736,"Ġgel":10737,"Ġont":10738,"Ġking":10739,"ducts":10740,"Ġcontrad":10741,"Ġinhibitor":10742,"Ġokay":10743,"Ġvelocities":10744,"ĠFaculty":10745,"ĠBrooklyn":10746,"uity":10747,"ĠĠĠĠĠĠĠĠĠĠĠĠĠĠĠĠĠĠĠĠĠĠĠĠĠĠĠĠĠĠĠĠĠ":10748,"Ġtom":10749,"che":10750,"endant":10751,"ĠUt":10752,"Ġaged":10753,"Ġ76":10754,"Ã©t":10755,"Ġfailing":10756,"čĊčĊĠĠĠ":10757,"Ġpackages":10758,"ĠPrime":10759,"ĠSquare":10760,"Ġrabbit":10761,"Ġindustries":10762,")),":10763,"--------------------------------------":10764,"inks":10765,"Ġwww":10766,"river":10767,"ĠGO":10768,"ĠOff":10769,"Ġneural":10770,"address":10771,"Ġelsewhere":10772,"Ġsuffer":10773,"Ġsequencing":10774,"BV":10775,"Cal":10776,"IZ":10777,"Window":10778,"copy":10779,"unct":10780,"Ġasc":10781,"Ġflood":10782,"ships":10783,"who":10784,"ĠImage":10785,"Ġvarying":10786,"ĠOxford":10787,"Ġobesity":10788,"Ġathletic":10789,"Ġauxiliary":10790,"ĠBase":10791,"phase":10792,"165":10793,"Ġnegot":10794,"Ġclosure":10795,"Ġmutation":10796,"Ġfibre":10797,"*^":10798,"GT":10799,"RF":10800,"eds":10801,"Ġbid":10802,"Ġlos":10803,"ĠAC":10804,"Ġvectors":10805,"acting":10806,"ĠKen":10807,"Ġrepeat":10808,"ORE":10809,"Reader":10810,"Ġdedu":10811,"Ġeryth":10812,"Ġpancreat":10813,"ĠCredit":10814,"Ġfatigue":10815,"-*":10816,"home":10817,"ints":10818,"Ġdeploy":10819,"ĠRequ":10820,"acks":10821,"ĠKey":10822,"Ð¾Ð²":10823,"Ġprotest":10824,"Ġmovies":10825,"October":10826,"nbm":10827,"Ġmere":10828,"ĠRights":10829,"inded":10830,"Ġprovider":10831,"Ġfoundation":10832,"Ġmolecule":10833,"Ġstrings":10834,"ĠAgain":10835,"ĠRepublicans":10836,"Ġslowly":10837,"Ġdispute":10838,"ĠDallas":10839,"neutral":10840,"ĠScotland":10841,"ĠRepresentative":10842,"ĠIdeogrÃ¡f":10843,"Hey":10844,"Title":10845,"ĠThough":10846,"Ġparticipation":10847,"High":10848,"ĠĊĠĠĠĠĠĠĠ":10849,"Ġmerc":10850,"ĠNAS":10851,"ĠInf":10852,"}}\\\\":10853,"Ġ71":10854,"vious":10855,"ĠÐ¸":10856,"iques":10857,"Ġdiscussions":10858,"Ġignore":10859,"Ġratios":10860,"Ġemissions":10861,"government":10862,"ĠSummary":10863,"Ġsubcontract":10864,"OUTPUT":10865,"icpsrdrug":10866,"RealBufferedSink":10867,"Cell":10868,"TV":10869,"eer":10870,"ĠĠĠĠĠĠĠĠĠĠĠĠĠĠĠĠĠĠĠĠĠĠĠĠĠĠĠĠĠĠĠ":10871,"rooms":10872,"Ġcomposed":10873,"mathop":10874,"area":10875,"Ġprevention":10876,"ishes":10877,"Ġadds":10878,"Ġinstallation":10879,"Ġmeaningful":10880,"handle":10881,"Ġallegations":10882,"Ġconvenient":10883,"Ġassertion":10884,"ÂĹ":10885,"onomy":10886,"Ġwaves":10887,"Ġfa":10888,"Ġdust":10889,"Ġdoub":10890,"Ġmild":10891,"olk":10892,"ĠSort":10893,"ĠJSON":10894,"ĠKim":10895,"123":10896,"viously":10897,"ormal":10898,"ĠExample":10899,"Ġdisclosed":10900,"Ġclinically":10901,"Ġcoherent":10902,"Ġcenturies":10903,"controller":10904,"Ġtrajectory":10905,"Range":10906,"full":10907,"jpg":10908,"names":10909,"Ġast":10910,"report":10911,"leep":10912,"stop":10913,"Ġadverse":10914,"Ġoperated":10915,"Ġcrimes":10916,"contin":10917,"Ġexcitation":10918,"Ġarchitecture":10919,"onitrile":10920,"ĠMississippi":10921,"irth":10922,"ĠRest":10923,"Ġcontacts":10924,"rave":10925,"205":10926,"ynth":10927,"Once":10928,"Events":10929,"schemas":10930,"Ġdisregard":10931,"ĠAlabama":10932,"Ġsignatures":10933,"Good":10934,"RES":10935,"Tool":10936,"Ġdinner":10937,"Ġnod":10938,"ĠSon":10939,"ĠSher":10940,"=\"@":10941,"center":10942,"ĠĠĠĠĠĠĠĠĠĠĠĠĠĠĠĠĠĠĠĠĠĠĠĠĠĠĠĠĠĠĠĠĠĠĠĠĠĠĠĠĠ":10943,"ETH":10944,"Use":10945,"final":10946,"mi":10947,"rated":10948,"ĠIC":10949,"ĠBi":10950,"Ġphases":10951,"ĠAnderson":10952,"Ġdrivers":10953,"Ġholes":10954,"Ġfemales":10955,"Ġdeputy":10956,"ĠUkraine":10957,"Ġenabling":10958,"ĠDiego":10959,"oured":10960,"ĠDan":10961,"angers":10962,"Ġsubt":10963,"Ġworldwide":10964,"Ġroots":10965,"130":10966,"Ġcontracts":10967,"ĠGrand":10968,"ĠDescription":10969,"Ġimplications":10970,"ille":10971,"images":10972,"Ġneur":10973,"Ġconcepts":10974,"Ġrefusal":10975,"Ġbureaucr":10976,"&#":10977,"KI":10978,"Ġsending":10979,"Ġgut":10980,"ĠCP":10981,"anded":10982,"ĠGar":10983,"}$]{}":10984,"Ġorganized":10985,"Ġaccessible":10986,"ĠValue":10987,"especially":10988,"Ġnontrivial":10989,"Each":10990,"TF":10991,"enal":10992,"Ġshares":10993,"Ġimper":10994,"Ġjson":10995,"Ġflash":10996,"properties":10997,"Ġconvicted":10998,"Ġstruggle":10999,"Ġsurprise":11000,"Ġriver":11001,"Ġcomprises":11002,"COLOR":11003,"padding":11004,"Ġsoccer":11005,"ĠAwareness":11006,"ĠYouTube":11007,"wedge":11008,"Ġrenal":11009,"Ġrural":11010,"ĠOh":11011,"Ġ79":11012,"\"}](":11013,"255":11014,"ĠAssoci":11015,"Ġcards":11016,"Ġpulse":11017,"install":11018,"Ġsoul":11019,"------------":11020,"Ġinduces":11021,"Ġmes":11022,"tered":11023,"Ġcompute":11024,"ĠWord":11025,"Ġsimilarly":11026,"ARY":11027,"ĠConference":11028,"ï¼ī":11029,"ĠStudies":11030,"Ġtexts":11031,"Ġpricing":11032,"Ġdozens":11033,"Ġinsertion":11034,"Ġsovereign":11035,"Ġanaerobic":11036,"Ġë":11037,"Ġda":11038,"Ġthrom":11039,"ĠTurn":11040,"Ġabnormal":11041,"012":11042,"ĠInvest":11043,"Ġfunctionality":11044,"ĠItaly":11045,"Ġteen":11046,"they":11047,"Ġsatisfies":11048,"}^{-":11049,"ï¼Ī":11050,"SSL":11051,"ĠMedia":11052,"}}$$\\":11053,"Case":11054,"Pi":11055,"WE":11056,"iel":11057,"ati":11058,"Ġpm":11059,"Ġ117":11060,"Ġvalidity":11061,"Ġamplitude":11062,"Document":11063,"Bundle":11064,"Ġoutlined":11065,"Ġundertaken":11066,"ĠPolitical":11067,"bad":11068,"ĠĠĠĠĠĠĠĠĠĠĠĠĠĠĠĠĠĠĠĠĠĠĠĠĠĠĠĠĠĠĠĠ":11069,"ĠWE":11070,"aware":11071,"appy":11072,"Ġexplos":11073,"Ġexecuted":11074,"Ġaimed":11075,"Ġexpanded":11076,"difficult":11077,"Ġlocksmith":11078,"\\.":11079,"}|":11080,"ĠĠĠĠĠĠĠĠĠĠĠĠĠĠĠĠĠĠĠĠĠĠĠĠĠĠĠĠĠĠĠĠĠĠĠĠĠĠĠ":11081,"ĠCond":11082,"ĠrÃ©":11083,"istence":11084,"116":11085,"Ġphenomenon":11086,"Ġmountain":11087,"Ġlaptop":11088,"ĠBiden":11089,"Ġsubscrib":11090,"typedef":11091,"primary":11092,"ĠClayton":11093,"Ġâģ¢":11094,"Ġethanol":11095,"Ġcigarettes":11096,"ĠHUVECs":11097,"NET":11098,"nm":11099,"will":11100,"{-":11101,"atform":11102,"Ġfits":11103,"iments":11104,"emon":11105,"Ġ++":11106,"iley":11107,"Ġassignment":11108,"Ġantigen":11109,"ĠAssert":11110,"Ġintegrity":11111,"Ġaltered":11112,"Ġresonance":11113,"112":11114,"greg":11115,"ho":11116,"Ð³":11117,"Ġpas":11118,"Ġpounds":11119,"ĠCOM":11120,"aga":11121,"Ġ$[":11122,"ĠMid":11123,"Ġshell":11124,"ĠWay":11125,"Ġimposed":11126,"Ã©n":11127,"Ġpara":11128,"Ġgreatly":11129,"Ġpatent":11130,"Ġenzymes":11131,"ĠMoscow":11132,"Ġfeaturing":11133,"ĠEnvironmental":11134,"ĠAmsterdam":11135,"Ġestoppel":11136,"TypesNotToFlatten":11137,"SQL":11138,"bell":11139,"Ġhal":11140,"Ġprobe":11141,"Ġspan":11142,"Ġdish":11143,"ãģ¯":11144,"ĠÎĶ":11145,"Ġelections":11146,"Ġconclusions":11147,"Parameter":11148,"Ġdisappoint":11149,"hd":11150,"Ġ--------------------------------------------------------------------":11151,"eling":11152,"amic":11153,"Ġvo":11154,"phen":11155,"phone":11156,"ĠKar":11157,"Ġreporter":11158,"Ġbreach":11159,"Ġdrag":11160,"Ġcoordinate":11161,"Ġmaintaining":11162,"Ġfragment":11163,"Ġbeneath":11164,"Ġhormone":11165,"Ġasylum":11166,"Ġpolypept":11167,"ynchron":11168,"Ġnevertheless":11169,"ĠSi":11170,"ĠHistory":11171,"Ġtrick":11172,"Ġintersection":11173,"Ġscored":11174,"Ġvalve":11175,"anna":11176,"Ġfeelings":11177,"Port":11178,"čĊĠĠĠĠ":11179,"Ġviruses":11180,"Ġultimate":11181,"Ġtreating":11182,"Ġconverted":11183,"Ġwhilst":11184,"Ġanniversary":11185,"Ġimmigrants":11186,"NG":11187,"SV":11188,"Total":11189,"onn":11190,"onomic":11191,"icing":11192,"Ġalive":11193,"Ġreasonably":11194,"column":11195,"Ġscheduled":11196,"Ġencourage":11197,"Ġsustained":11198,"#.":11199,"\\/":11200,"bur":11201,"fill":11202,"stone":11203,"ĠRay":11204,"Ġjet":11205,"Ġsystematic":11206,"Ġobjection":11207,"prov":11208,"Ġdesigns":11209,"Ġquantitative":11210,"IVE":11211,"ĠCentre":11212,"MAX":11213,"Ġpanels":11214,"vailable":11215,"ĠPremier":11216,"Ġshifting":11217,"Ġerroneous":11218,"Ġhemorrh":11219,"ĠSingapore":11220,"Down":11221,"ĠPHP":11222,"Ġatom":11223,"ĠLook":11224,"Ġplates":11225,"ensing":11226,"Ġanymore":11227,"Ġcoating":11228,"Ġblot":11229,"Ġdescribing":11230,"Ġpasses":11231,"Ġsuspect":11232,"EF":11233,"Level":11234,"ĠĠĠĠĠĠĠĠĠĠĠĠĠĠĠĠĠĠĠĠĠĠĠĠĠĠĠĠĠĠĠĠĠĠ":11235,"Ġsou":11236,"Ġfault":11237,"Ġelev":11238,"Ġcream":11239,"ĠSouthern":11240,"Several":11241,"quarters":11242,"Instead":11243,"ĠEngineering":11244,"xc":11245,"yan":11246,"Ġbits":11247,"asters":11248,"ums":11249,"Ġnotation":11250,"formance":11251,"Ġrepresentations":11252,"Ġaffects":11253,"}^\\":11254,"callback":11255,"Ġpolymorph":11256,"Ġencephal":11257,"0025972":11258,"cases":11259,"Ġpra":11260,"Ġbuck":11261,"ĠSol":11262,"opol":11263,"ĠPI":11264,"ĠRam":11265,"ĠJo":11266,"obe":11267,"Ġsomehow":11268,"Ġdetector":11269,"Ġtalked":11270,"Ġaromatic":11271,"Ġcompassion":11272,"Ġcalendar":11273,"William":11274,"ĠLagrangian":11275,"={":11276,"coll":11277,"ĠSQL":11278,"ĠALL":11279,"Ġcompletion":11280,"Ġrush":11281,"Ġchart":11282,"Ġresist":11283,"Ġ''":11284,"Ġgovernments":11285,"straint":11286,"ĠGuard":11287,"Ġsomewhere":11288,"LO":11289,"anim":11290,"Ġdb":11291,"ĠBY":11292,"ĠRight":11293,"inking":11294,"ĠManagement":11295,"Ġmaxim":11296,"Ġrestrictions":11297,"Selector":11298,"ĠHiggs":11299,"Ġemerge":11300,"November":11301,"conjugated":11302,"lm":11303,"ĠMap":11304,"Ġcontention":11305,"011":11306,"}({\\":11307,"čĊčĊ":11308,"Ġresidual":11309,"Ġlesions":11310,"KEY":11311,"double":11312,"mal":11313,"rv":11314,"agic":11315,"ĠMu":11316,"Ġplug":11317,"Ġpret":11318,"oving":11319,"riving":11320,"Ġgradient":11321,"Dropout":11322,"oglob":11323,"ĠBrexit":11324,"ĠDubriwny":11325,"some":11326,"una":11327,"Ġorth":11328,"ĠTerm":11329,"âĢĻ.":11330,"Ġspac":11331,"Ġtargeting":11332,"Ġwalked":11333,"MODULE":11334,"Ġamplitudes":11335,"Ġnewspapers":11336,"Position":11337,"amino":11338,"ĠMot":11339,"ĠEP":11340,"ervation":11341,"Ġlosses":11342,"Ġcompeting":11343,"Ġtalks":11344,"Ġextinction":11345,"Support":11346,"Ġdisability":11347,"Ġrelating":11348,"Ġroof":11349,"screen":11350,"Ġmultipl":11351,"ĠBeach":11352,"ĠCard":11353,"ĠAut":11354,"ailing":11355,"Ġmanual":11356,"ylation":11357,"}^{{\\":11358,"Ġmaximal":11359,"Ġdairy":11360,"Ġharbour":11361,"Ġnucleotide":11362,"Ġirradiation":11363,"Ġunfortunate":11364,"Ġcurriculum":11365,"$^{-":11366,"Gl":11367,"NR":11368,"PER":11369,"fg":11370,"holder":11371,"pret":11372,"Ġterr":11373,"emb":11374,"Ġleaf":11375,"ĠOK":11376,"Ġ1988":11377,"Ġgrab":11378,"185":11379,"iking":11380,"Ġbridge":11381,"Ġexplains":11382,"aze":11383,"Ġ255":11384,"Ġcleaning":11385,"ĠPatients":11386,"Ġmatching":11387,"ĠAbout":11388,"Ġsolely":11389,"ĠMethods":11390,"}-\\":11391,"ĠAction":11392,"Ġrising":11393,"Exec":11394,"Ġacceptable":11395,"display":11396,"Meanwhile":11397,"ĠRoberts":11398,"æĶ¾éĽ»":11399,".;":11400,"total":11401,"adium":11402,"child":11403,"ĠMC":11404,"Ġcolour":11405,"floor":11406,"ĠMuhammad":11407,"Bs":11408,"FIG":11409,"His":11410,"Windows":11411,"mitting":11412,"oose":11413,"etary":11414,"Ġgod":11415,"Ġ160":11416,"ĠPath":11417,"Ġexclusive":11418,"Ġsystemic":11419,"102":11420,"}{(":11421,"Ġframes":11422,"REF":11423,"Ġradial":11424,"Ġmeetings":11425,"Reference":11426,"Ġwatched":11427,"disp":11428,"bullet":11429,"npmjs":11430,"è¡Į":11431,"Ġfigured":11432,"streeteng":11433,"ĠFaith":11434,"IRQHandler":11435,"integrity":11436,"DOCTYPE":11437,")_":11438,",{\\":11439,"Found":11440,"XML":11441,"lers":11442,"ĠCG":11443,"ĠGames":11444,"}}})":11445,"Ġovercome":11446,"Ġ1987":11447,"types":11448,"Ġkeeps":11449,"Ġparam":11450,"modules":11451,"Ġpresidential":11452,"Num":11453,"ĠSym":11454,"ĠRound":11455,"Ġresolved":11456,"^{+":11457,"Ġmonthly":11458,"ĠTHAT":11459,"connect":11460,"ĠCummings":11461,"Ġdiarrhea":11462,"Long":11463,"VE":11464,"large":11465,"rat":11466,"eration":11467,"entity":11468,"ĠUV":11469,"108":11470,"1998":11471,"ĠWhether":11472,"ĠConn":11473,"Ġdirections":11474,"ennis":11475,"ensions":11476,"Ġsilver":11477,"Ġregularly":11478,"ĠSyria":11479,"ĠCONTRIBUTORS":11480,"FD":11481,"Ġå":11482,"omas":11483,"Ġgross":11484,"Ġstorm":11485,"sey":11486,"ĠHel":11487,"ĠDirect":11488,"herence":11489,"Ġje":11490,"Ġenabled":11491,"Ġ82":11492,"Ġyellow":11493,"ĠAppl":11494,")*-":11495,"Ġautomatic":11496,"Ġpregnancy":11497,"otrophic":11498,"Ġincurred":11499,"Ġtaxpayer":11500,"ãĥ¼ãĥ":11501,"0052841":11502,"Ġtiny":11503,"iffer":11504,"irl":11505,"ĠMa":11506,"Ġwearing":11507,"Ġ[\"":11508,"Ġinterference":11509,"erving":11510,"Ġexpenses":11511,"Ġoffensive":11512,"Ð¾Ð»":11513,"Ġbeneficial":11514,"Under":11515,"Ġphoton":11516,"Ġexpressing":11517,"Ġcopies":11518,"Raytracing":11519,"Ġhypothetical":11520,"*]{},":11521,"Ġtips":11522,"Ġcod":11523,"Ġfuck":11524,"Ġboot":11525,"Ġhall":11526,"Ġpersonally":11527,"limits":11528,"ĠHamiltonian":11529,"Ġinvestors":11530,"Ġcorrelations":11531,"ĠApache":11532,"Ġtherapies":11533,"orgellons":11534,"Ġlanguages":11535,"ĠHart":11536,"Ġ<!--":11537,"Ġreflected":11538,"Ġdenotes":11539,"GFP":11540,"Ø§Ø":11541,"Ġrecovered":11542,"Ġeducational":11543,"\\^":11544,"ois":11545,"pet":11546,"lean":11547,"sex":11548,"Ġlect":11549,"export":11550,"jective":11551,"139":11552,"eek":11553,"Ġreaders":11554,"Ġsizeof":11555,"Ġengineering":11556,"Ġprohibited":11557,"ĠBASIS":11558,"Ġbuttons":11559,"0011928":11560,"Observer":11561,"Ġunacceptable":11562,"0209692":11563,"1948550617714586":11564,"'),":11565,"found":11566,"uler":11567,"Ġtrading":11568,"angular":11569,"INFO":11570,"four":11571,"čĊĠĠĠĠĠĠĠĠĠĠĠĠĠĠĠ":11572,"Ġwound":11573,"ĠAsh":11574,"ocus":11575,"Ġmodules":11576,"Ġbuying":11577,"3752":11578,"cmd":11579,"represent":11580,"Ġportions":11581,"Begin":11582,"frequency":11583,"Ġaesthetic":11584,"Ġfrustration":11585,"Ġpredominantly":11586,"Ġpulses":11587,"ĠFinancial":11588,"Acc":11589,"help":11590,"Ġna":11591,"Ġvag":11592,"ĠWater":11593,"Ġpossibilities":11594,"Ġstrip":11595,"Ġcolorectal":11596,"=>":11597,"Rate":11598,"Ġbatch":11599,"Ġmamm":11600,"ĠCross":11601,"ĠFull":11602,"Ġchip":11603,"Ġclause":11604,"Ġ1989":11605,"parse":11606,"Ġentering":11607,"Ġclosing":11608,"Ġwashed":11609,"western":11610,"Ġcaspase":11611,"ĠTYPE":11612,"ĠKennedy":11613,"Ġguitar":11614,"Ġelectrolyte":11615,"CORISSIA":11616,"ĠLebesgue":11617,"Ġmethamphetamine":11618,"ych":11619,"Ġment":11620,"ĠSC":11621,"Ġranging":11622,"Ġcontin":11623,"achine":11624,"Ġproviders":11625,"Ġoccurring":11626,"eatures":11627,"mM":11628,"meta":11629,"ori":11630,"ilar":11631,"Ġgrew":11632,"ĠLy":11633,"Ġfactory":11634,"versely":11635,"Ġhydrogen":11636,"Ġomitted":11637,"dngbin":11638,"ĠTarget":11639,"Ġscattered":11640,"Ġtransgender":11641,"Ġunconstitutional":11642,"ĠFramework":11643,"Ġaudiobook":11644,"Ġrhetoric":11645,"master":11646,"req":11647,"Ġ114":11648,"ĠPers":11649,"ĠElect":11650,"ĠOld":11651,"rule":11652,"Ġreturning":11653,"Ġgrapes":11654,"Ġxe":11655,"Ġcallback":11656,"Ġseparately":11657,"Ġsubjected":11658,"super":11659,"Expand":11660,"-------------------------------------------------":11661,"ĠLuc":11662,"irection":11663,"Ġarising":11664,"Ġdefensive":11665,"oved":11666,"closed":11667,"117":11668,"Ġargs":11669,"Ġsmoke":11670,"Interface":11671,"dashboard":11672,"Ġcancellation":11673,"Ġencompass":11674,"Ġsubstrates":11675,"ĠHarvard":11676,"Ġneutrophils":11677,"vs":11678,"emn":11679,"ĠMB":11680,"ĠBio":11681,"ĠFC":11682,"izz":11683,"Ġadmit":11684,"Ġintern":11685,"Ġ127":11686,"Ġelectricity":11687,"viruses":11688,"RO":11689,"policy":11690,"uan":11691,"Ġbeer":11692,"about":11693,"ĠLow":11694,"Ġvaried":11695,"Ġvisits":11696,"ometer":11697,"Ġrandomly":11698,"Ġexpectations":11699,"Ġcollective":11700,"ĠWilson":11701,"lordship":11702,"Ġfermion":11703,"oooooooooooooooooooooo":11704,"Core":11705,"Pass":11706,"VD":11707,"aug":11708,"itÃ©":11709,"ĠSix":11710,"Ġ\\+":11711,"Ġvotes":11712,"ĠPop":11713,"ĠLove":11714,"ĠGM":11715,"Ġtrace":11716,"ogle":11717,"Ġarise":11718,"LED":11719,"Ġalgorithms":11720,"Ġopinions":11721,"sem":11722,"idine":11723,"olly":11724,"ĠSEC":11725,"channel":11726,"season":11727,"antic":11728,"Ġperf":11729,"Ġdefining":11730,"Ġfriendly":11731,"Ġawarded":11732,"ĠCommunity":11733,"Following":11734,"ĠADSM":11735,"religion":11736,"Ġenterprise":11737,"Ġtheravada":11738,"Ġtyrosine":11739,"Ġfascinating":11740,"ĠVancouver":11741,"Ġphylogenetic":11742,"ĠArkansas":11743,"Ġreward":11744,"acet":11745,"Ġstuck":11746,"uting":11747,"apol":11748,"ĠRos":11749,"Ġquot":11750,"Ġstudying":11751,"ĠÐº":11752,"âĢ¦.":11753,"Ġdemands":11754,"Ġdecreases":11755,"Ġconstitution":11756,"<\\":11757,"tures":11758,"Ġfunc":11759,"Ġbrown":11760,"Ġhide":11761,"Ġconform":11762,"ĠPres":11763,"ĠGame":11764,"owner":11765,"Ġverify":11766,"rivate":11767,"Ġskill":11768,"Ġdismissed":11769,"Bottom":11770,"Ġprognosis":11771,"ĠFifth":11772,"ĠNigeria":11773,"ĠKellogg":11774,"ĠAntonio":11775,"Non":11776,"orge":11777,"Ġfolder":11778,"ĠSupport":11779,"ĠHon":11780,"Ġsees":11781,"Inv":11782,"Ġdefend":11783,"Ġparas":11784,"Ġverdict":11785,"Ġpriority":11786,"ãĤĵ":11787,"Ġbroke":11788,"Ã¨re":11789,"Ġtemporal":11790,"Ġinevitably":11791,"Ġhelicopter":11792,"Ġlignocellulose":11793,"green":11794,"ĠĊĠĠĠĠĠĠĠĠĠĠĠ":11795,"Ġease":11796,"igma":11797,"ĠMain":11798,"Ġsubmit":11799,"Ġtransmitted":11800,"Ġcircular":11801,"Ġinterpreted":11802,"Height":11803,"Ġeliminate":11804,"Ġimmigration":11805,"NULL":11806,"Sorry":11807,"Ġaugment":11808,"Ġfingers":11809,"Ġoverseas":11810,"ĠiPhone":11811,"Ġelucid":11812,"Â§":11813,"Ġfusion":11814,"etter":11815,"Ġ119":11816,"Ġyeah":11817,"ĠProcess":11818,"285":11819,"ĠUnfortunately":11820,"news":11821,"Ġabsent":11822,"ä¸Ģ":11823,"Ġwarming":11824,"Ġreversed":11825,"fd":11826,"Ġexecute":11827,"Ġ=\\\\":11828,"}};":11829,"Ġkm":11830,"ĠChristians":11831,"ĠSpain":11832,"foo":11833,"ĠIsraeli":11834,"ĠValley":11835,"Ġlayout":11836,"ĠIslamic":11837,"Ġcycles":11838,"Ġgospel":11839,"ĠCertain":11840,"Ġsuperconducting":11841,"ĠReuters":11842,"Ġresponsibilities":11843,"Ġtrajectories":11844,"melanin":11845,"ubernetes":11846,"Ġaneurys":11847,"Ġalcoholic":11848,"ĠBirmingham":11849,"Ġgenuinely":11850,")](#":11851,"\\>":11852,"gal":11853,"ta":11854,"olving":11855,"alloc":11856,"ĠVan":11857,"ãģĻ":11858,"Ġinsured":11859,"scope":11860,"ĠUnit":11861,"Ġforest":11862,"Ġimproper":11863,"\"))":11864,"bon":11865,"good":11866,"had":11867,"iating":11868,"pad":11869,"Ġfung":11870,"ĠMat":11871,"ĠBest":11872,"ĠHD":11873,"Ġdeals":11874,"ĠRoute":11875,"ĠEp":11876,"Ġintra":11877,"Ġinterior":11878,"Ġages":11879,"Ġprotective":11880,"Ġappreciate":11881,"Ġmystery":11882,"ĠAnthony":11883,"Ġneighbourhood":11884,"fall":11885,"may":11886,"Ġtang":11887,"Ġbull":11888,"rob":11889,"ĠCIA":11890,"Ġ118":11891,"resource":11892,"phy":11893,"Ġkit":11894,"Ġsurge":11895,"Conclusion":11896,"Ġwrites":11897,"Ġremoving":11898,"ĠLorentz":11899,"Ġsatur":11900,"oton":11901,"Ġatomic":11902,"plane":11903,"Ġpermitted":11904,"iversity":11905,"rophy":11906,"Ġcategor":11907,"Ġthinks":11908,"Ġaccumulation":11909,"ĠSettlement":11910,"Ġglobally":11911,"Ġneurological":11912,"Ġrough":11913,"ribe":11914,"Ġattended":11915,"Ġmetadata":11916,"Ġvisited":11917,"Ġreasoning":11918,"desc":11919,"Ġsouthern":11920,"Ġshel":11921,"Ġarmed":11922,"Ġovernight":11923,"303":11924,"Ġboundaries":11925,"Ġassumptions":11926,"Ġoccurrence":11927,"Ġinhibitory":11928,"âĢ²-":11929,"Ġkinase":11930,"Question":11931,"pouit":11932,"Ġodor":11933,"ĠNelson":11934,"Ġbiopsy":11935,"1006551":11936,"Ġpenalties":11937,"Bre":11938,"vin":11939,"inth":11940,"Ġbands":11941,"Ġgest":11942,"irk":11943,"147":11944,"Ġtopics":11945,"ãĤĪ":11946,"Ġphotograph":11947,"Ġreaching":11948,"Ġmutant":11949,"Ġoptimization":11950,"UP":11951,"cost":11952,"tre":11953,"erk":11954,"plot":11955,"ĠStandard":11956,"Ġgrass":11957,"regulation":11958,"Ġweights":11959,"ĠNorthern":11960,"ativistic":11961,"Ġmedicines":11962,"dehyde":11963,"Perhaps":11964,"ĠPoisson":11965,"Custom":11966,"Ġalb":11967,"illary":11968,"ĠWat":11969,"derived":11970,"105":11971,"ugg":11972,"Ġattitude":11973,"parison":11974,"Ġfocusing":11975,"Ġ**(":11976,"Ġanalyze":11977,"Ġboys":11978,"ascular":11979,"Ð°ÑĤ":11980,"Ġvegetables":11981,"ĠHTML":11982,"jar":11983,"nn":11984,"ti":11985,"ĠÑĤ":11986,"Ġ\\\"":11987,"container":11988,")*{\\":11989,"===========":11990,"Params":11991,"Ġidentifying":11992,"Ġouts":11993,"Ġbeliefs":11994,"Human":11995,"Single":11996,"ĠASSERT":11997,"ĠMedicare":11998,"Ġduplicate":11999,"Ġmoisture":12000,"ded":12001,"Ġtall":12002,"release":12003,"oning":12004,"Ġele":12005,"ĠSource":12006,"ĠPolicy":12007,"ĠHo":12008,"ĠHal":12009,"eping":12010,"Ġdevelopers":12011,"Ġ81":12012,"Ġcommunications":12013,"Ġdeclined":12014,"Ġmounted":12015,"Ġsurprised":12016,"Draw":12017,"Make":12018,"task":12019,"Ġconvergence":12020,"Ġordering":12021,"ĠAndroid":12022,"missible":12023,"Ġincorporated":12024,"Ġ--------------------------":12025,"Ġdestruction":12026,"command":12027,"Ġcondens":12028,"ĠMaterial":12029,"ĠarXiv":12030,"Ġpathogens":12031,"Ġmorbidity":12032,"ĠPUBLIC":12033,"Ġemploys":12034,",$":12035,"Aut":12036,"hep":12037,"worth":12038,"Ġstone":12039,"ĠDue":12040,"ĠTake":12041,"1996":12042,"Ġpublicly":12043,"},$$":12044,"Ġneglig":12045,"Ġobtaining":12046,"Ġconstantly":12047,"Ġcompetitive":12048,"USE":12049,"matrix":12050,"isa":12051,"Ġanimation":12052,"ĠMO":12053,"ogram":12054,"Ġmeal":12055,"track":12056,"Ġ104":12057,"Ġfiling":12058,"Ġownership":12059,"Ġpolynomials":12060,"Ġangi":12061,"Ġhistoric":12062,"Ġrendered":12063,"Ġrarely":12064,"Ġprocedural":12065,"ĠMathematical":12066,"Ġattributable":12067,"echanical":12068,"dependencies":12069,"conscious":12070,"Ġinnocent":12071,"Err":12072,"Xi":12073,"days":12074,"atile":12075,"Ġhang":12076,"ĠLead":12077,"arding":12078,"ptic":12079,"Ġdefects":12080,"Ġdecent":12081,"views":12082,"Ġbreaks":12083,"ĠStudy":12084,"Ġtrends":12085,"&&":12086,"]\\":12087,"iq":12088,"rl":12089,"env":12090,"Ġdump":12091,"Ġassays":12092,"ixed":12093,"Ġinhibitors":12094,"Ġdeeply":12095,"Ġharvest":12096,"Ġhonor":12097,"ĠGreece":12098,"Ġcommerce":12099,"Ġscientist":12100,"Ġcoordination":12101,"Ġlogarith":12102,"Ġmicrowave":12103,"jet":12104,"Ġtmp":12105,"Ġnamespace":12106,"illy":12107,"vee":12108,"ĠCF":12109,"Ġtranscripts":12110,"Ġconstants":12111,"ounter":12112,"Ġeveryday":12113,"Ġtea":12114,"Ġcrew":12115,"being":12116,"Ġadvis":12117,"ĠĠĠĠĠĠĠĠĠĠĠĠĠĠĠĠĠĠĠĠĠĠĠĠĠĠĠĠĠĠĠĠĠĠĠĠĠĠĠĠĠĠĠĠĠĠĠ":12118,"Ġbirthday":12119,"Ġattractive":12120,"Ġsuddenly":12121,"$]{}":12122,"=-":12123,"DIR":12124,"enum":12125,"users":12126,"ĠPBS":12127,"ĠFair":12128,"endor":12129,"ĠTotal":12130,"Ġsubgroup":12131,"away":12132,"Ġblind":12133,"Ġconsecutive":12134,"Ġdifficulties":12135,"Ġanswered":12136,"rench":12137,"Ġenjoyed":12138,"Ġdamaged":12139,"Ġextraction":12140,"Ġhoping":12141,"ĠHudson":12142,"ĠDefinition":12143,"{}\\!\\":12144,"Ġcaffeine":12145,"Ġmalpractice":12146,"228572756":12147,"Json":12148,"SY":12149,"Ġera":12150,"ematic":12151,"Ġproposition":12152,"Ġvital":12153,"ĠLev":12154,"Ġarmy":12155,"Ġindirect":12156,"STAT":12157,"Ġweekly":12158,"Ġderivatives":12159,"Ġedition":12160,"Ġforever":12161,"Ġvalidation":12162,"Abstract":12163,"Ġmacro":12164,"Ġlifetime":12165,"Ġcomprising":12166,"Ġshopping":12167,"Ġobligation":12168,"åŃ":12169,"orial":12170,"Ġru":12171,"ivid":12172,"017":12173,"Ġquote":12174,"1997":12175,"Ġgran":12176,"Ġgenomic":12177,"ITS":12178,"Ġpurified":12179,"Ġcomplexes":12180,"Ġconsistently":12181,"Ġdrawing":12182,"ĠIntroduction":12183,"Ġphysically":12184,"Entity":12185,"July":12186,"Picker":12187,"ĠWalker":12188,"Ġsimultaneous":12189,"leqslant":12190,"Ġdigestion":12191,"BT":12192,"Main":12193,"bra":12194,"lot":12195,"})$.":12196,"Ġnic":12197,"ĠThrough":12198,"riz":12199,"ĠTheory":12200,"ĠNF":12201,"ĠEst":12202,"ĠEcon":12203,"ffff":12204,"ĠOT":12205,"ĠTrue":12206,"Ġutilized":12207,"Impl":12208,"ĠContin":12209,"ÃŃa":12210,"Ġarrangement":12211,"Ġrepeatedly":12212,"Ġprivacy":12213,"ĠHampshire":12214,"Rect":12215,"supp":12216,"âī":12217,"Ġnp":12218,"Ġgall":12219,"ampl":12220,"uty":12221,"Ġlean":12222,"Ġabstract":12223,"Ġ})":12224,"Ġdefect":12225,"Ġmasses":12226,"Ġnorthern":12227,"Ġtweets":12228,"ĠMapps":12229,"Ġrgba":12230,"Ġ[âĢ¦]":12231,"Ġagonist":12232,"ĠSwedish":12233,"ĠEXPECT":12234,"HR":12235,"Host":12236,"ÙĬ":12237,"analysis":12238,"Ġlys":12239,"Ġstood":12240,"Ġbearing":12241,"ĠLtd":12242,"Ġcancel":12243,"Ġenvironments":12244,"Ġentries":12245,"Ġdonor":12246,"802":12247,"Component":12248,"Ġstreets":12249,"Tag":12250,"Vari":12251,"asks":12252,"ĠAge":12253,"Ġanth":12254,"agger":12255,"uming":12256,"ĠPay":12257,"ĠFri":12258,"Ġresidence":12259,"ressing":12260,"Ġexport":12261,"Stack":12262,"ductive":12263,"Ġviolent":12264,"Ġairport":12265,"ĠCommissioner":12266,"Ġdietary":12267,"Access":12268,"Ġglyc":12269,"RANK":12270,"ekyll":12271,"ĠPetitioner":12272,"ĠFestival":12273,"Ġdisagre":12274,"Ġeternal":12275,"ĠAlternatively":12276,"Ġhydrolys":12277,"February":12278,"Ġundisputed":12279,"ĠkhÃ´ng":12280,"Ġundoubtedly":12281,"his":12282,"via":12283,"onder":12284,"Ġdance":12285,"aba":12286,"ĠHot":12287,"ĠFBI":12288,"izable":12289,"}}(\\":12290,"1990":12291,"Ġlimitation":12292,"Ġputs":12293,"ĠĠĠĠĠĠĠĠĠĠĠĠĠĠĠĠĠĠĠĠĠĠĠĠĠĠĠĠĠĠĠĠĠĠĠĠĠĠĠĠĠĠĠĠĠĠĠĠ":12294,"Ġmuscles":12295,"Ġfalls":12296,"}}}}({\\":12297,"ĠAlexander":12298,"$).":12299,"IAL":12300,"MF":12301,"Ġmock":12302,"Ġgiant":12303,"Ġruled":12304,"Ġarc":12305,"iaz":12306,"124":12307,"Ġ105":12308,"Ġspecify":12309,"Ġreadily":12310,"Ġincorrect":12311,"Ġfaced":12312,"ÐµÑĢ":12313,"ĠâĪ":12314,"Ġaddresses":12315,"Ġfalling":12316,"Ġharder":12317,"Ġcampus":12318,"ä¼ļ":12319,"ĠCTCF":12320,"artinez":12321,"Ġseverely":12322,"Ġseventh":12323,"plorer":12324,"avÃŃk":12325,"Ġextensively":12326,"ĠShoenfeld":12327,"MAT":12328,"vc":12329,"atically":12330,"urd":12331,"ĠPoint":12332,"Ġattain":12333,"ĠDR":12334,"ĠWin":12335,"}}}(":12336,"168":12337,"READ":12338,"ĠUnivers":12339,"background":12340,"Ġsupernat":12341,"Ġmotif":12342,"\"));":12343,"Ġadjustment":12344,"Column":12345,"ĠÎ¼g":12346,"Ġaccomplish":12347,"Ġartery":12348,"Ġcriminals":12349,";</":12350,"GH":12351,"itivity":12352,"etric":12353,"Ġgang":12354,"admin":12355,"cher":12356,"Ġadopt":12357,"Ġappend":12358,"Ġ1983":12359,"itten":12360,"ãģĭ":12361,"okes":12362,"Ġpreventing":12363,"ERROR":12364,"Pointer":12365,"Ġadhesive":12366,"Ġinfrared":12367,"MW":12368,"^](#":12369,"pa":12370,"éĢ":12371,"orous":12372,"Ġcodes":12373,"Ġbunch":12374,"Ġho":12375,"ĠBible":12376,"Ġshorter":12377,"Ġtransverse":12378,"also":12379,"Additional":12380,"ĠAgency":12381,"Bit":12382,"JS":12383,"ĠĠĠĠĠĠĠĠĠĠĠĠĠĠĠĠĠĠĠĠĠĠĠĠĠĠĠĠĠĠĠĠĠĠĠ":12384,"Ġsand":12385,"Ġlact":12386,"Ġgear":12387,"Ġstake":12388,"Ġ+/-":12389,"104":12390,"Ġtransparent":12391,"short":12392,"Properties":12393,"ĠBrad":12394,"Ġphenotype":12395,"ĠSanta":12396,"Health":12397,"Ġuniquely":12398,"nowledge":12399,"Ġechocardi":12400,"ĠMilwaukee":12401,"cong":12402,"dm":12403,"åĬ":12404,"Ġwaters":12405,"stage":12406,"ĠPT":12407,"ando":12408,"Ġblame":12409,"Ġyards":12410,"ãģĵ":12411,"Ġfilters":12412,"OLD":12413,"Ġutility":12414,"Ġcortex":12415,"JSON":12416,"bio":12417,"gov":12418,"ked":12419,"Ġbread":12420,"amer":12421,"ipart":12422,"Ġdifferently":12423,"blue":12424,"Optional":12425,"Ġathlete":12426,"Ġrevenues":12427,"Ġischemic":12428,"Ġformulas":12429,"Ġapoptotic":12430,"Ġmalignant":12431,"Ġecosystem":12432,"Ġretrospective":12433,"Pipeline":12434,"Ġpipe":12435,"ĠCC":12436,"irus":12437,"_{-":12438,"Ġdistances":12439,"Ġstrange":12440,"}^{(":12441,"ĠConsequently":12442,"ĠĠĠĠĠĠĠĠĠĠĠĠĠĠĠĠĠĠĠĠĠĠĠĠĠĠĠĠĠĠĠĠĠĠĠĠĠĠĠĠĠĠ":12443,"enna":12444,"Ġallegedly":12445,"ĠSTAT":12446,"Ġawait":12447,"Ġadolescents":12448,"ĠYankees":12449,"Ġepilepsy":12450,".^[@":12451,"iens":12452,"Ä±":12453,"Ġfinger":12454,"imen":12455,"igate":12456,"ĠDB":12457,"allen":12458,"ĠOil":12459,"}}$,":12460,"Ġblow":12461,"Ġrepresentatives":12462,"Ġstrat":12463,"ĠSpace":12464,"Ġlights":12465,"Ġcollapse":12466,"Ġworried":12467,"Ġcascade":12468,"ĠJOIN":12469,"ĠKangxi":12470,"ĠQuestion":12471,"Ġlawmakers":12472,"Ġcurrents":12473,"KA":12474,"Put":12475,"sa":12476,"ĠcDNA":12477,"Ġfired":12478,"rogen":12479,"ĠSports":12480,"Ġchest":12481,"111":12482,"Ġequipped":12483,"Ġpassage":12484,"Ġattempting":12485,"doi":12486,"ĠMinistry":12487,"Ġtransportation":12488,"hbar":12489,"rical":12490,"uf":12491,"omatic":12492,"ĠBal":12493,"ĠLC":12494,"Ġtriple":12495,"Ġnonlinear":12496,"Ġsatisfying":12497,"Ġdestroyed":12498,"ulmonary":12499,"Ġproportions":12500,"Ġalbeit":12501,"Ġchaos":12502,"Ġscripts":12503,"Protocol":12504,"ĠNintendo":12505,"Ġelectrophoresis":12506,"ĠDiabetes":12507,">\\":12508,"Gen":12509,"rank":12510,"invariant":12511,"Ġtone":12512,"Ġnons":12513,"ĠPrior":12514,"103":12515,"ĠChildren":12516,"Ġmitochondrial":12517,"Ġodds":12518,"printf":12519,"Ġlegislative":12520,"POST":12521,"ĠReturns":12522,"Ġinserted":12523,"ä¿¡æģ¯":12524,"Bas":12525,"uid":12526,"-------------":12527,"Ġpip":12528,"Ġbills":12529,"Ġmath":12530,"ocial":12531,"ĠDist":12532,"}},":12533,"ieve":12534,"INK":12535,"Ġillustrated":12536,"FILE":12537,"ĠFrancisco":12538,"èĥ½":12539,"Ġtongue":12540,"Ġcourage":12541,"Ġconstrued":12542,"CRIPT":12543,"ĠOrleans":12544,"Ġnineteenth":12545,"ĠCARTESIAN":12546,"Ġquaternionic":12547,"DH":12548,"Sk":12549,"norm":12550,"nrs":12551,"Ġreject":12552,"empor":12553,"ĠMR":12554,"ĠMir":12555,"quis":12556,"ĠPrim":12557,"}}$.":12558,"ÂłĊ":12559,"Ġ1986":12560,"ĠItalian":12561,"Ġinvent":12562,"Ġfounded":12563,"oker":12564,"Ġeffectiveness":12565,"ĠPhot":12566,"IDS":12567,"Ġproceeding":12568,"Ġhopes":12569,"respond":12570,"ĠAdministration":12571,"ĠSteve":12572,"Ġsurvive":12573,"ĠLeibniz":12574,"fect":12575,"items":12576,"Ġfate":12577,"Ġmom":12578,"ago":12579,"Ġcompens":12580,"ĠHard":12581,"ĠTor":12582,"Ġadmin":12583,"olds":12584,"192":12585,"ĊĉĊ":12586,"Ġembr":12587,"shaped":12588,"ARD":12589,"ika":12590,"Ġliterally":12591,"++;":12592,"Ġcargo":12593,"arxiv":12594,"Ġprevalent":12595,"Ġquarters":12596,"Ġcohorts":12597,"Ġcurcumin":12598,"Ġsympathetic":12599,"Ġredistribute":12600,"FUN":12601,"far":12602,"Ġtox":12603,"ĠCher":12604,"ifdef":12605,"emat":12606,"osomes":12607,"Ġspr":12608,"Ġinvestigations":12609,"reme":12610,"AMP":12611,"Ġchecking":12612,"Ġchildhood":12613,"Ġphysician":12614,"Ġ]\"":12615,"Ġignored":12616,"Ġsessions":12617,")/((-":12618,"prototype":12619,";}":12620,"Global":12621,"Session":12622,"Ġsulf":12623,"edit":12624,"Ġdates":12625,"abb":12626,"Ġ01":12627,"ĠInclude":12628,"ĠStan":12629,"Ġteeth":12630,"Ġestimation":12631,"Ġgraphics":12632,"ĠContract":12633,"Ġqualified":12634,"Ġreveals":12635,"ĠIndiana":12636,"Ġdemocracy":12637,"ĠCleveland":12638,"Ġwheels":12639,"ĠParticipants":12640,"Ġcartridge":12641,"iseconds":12642,"æķ°æį®":12643,"ç¨ĭåºı":12644,"ADVERTISEMENT":12645,"hhhhhhhhhhhhhhh":12646,"tri":12647,"ìĿ":12648,"Ġlake":12649,"idity":12650,"ĠBrian":12651,"ĠOw":12652,"pton":12653,"aka":12654,"ĠVari":12655,"Ġpointer":12656,"Ġconserved":12657,"Ġrefresh":12658,"Ġaffil":12659,"United":12660,"Ġpropose":12661,"rupted":12662,"!!!":12663,"Xml":12664,"`.":12665,"pn":12666,"aser":12667,"Ġlens":12668,"ĠHor":12669,"ĠHave":12670,"angel":12671,"awn":12672,"ãģĦ":12673,"profile":12674,"Ġmodeling":12675,"Ġglad":12676,"Ġsky":12677,"Ġdenoted":12678,"ĠIndex":12679,"Ġsuspended":12680,"Ġcomputing":12681,"ĠEnter":12682,"Ġisolation":12683,"Ġarranged":12684,"Ġbroadcast":12685,"Edit":12686,"Ġpushed":12687,"Ġflexible":12688,"April":12689,"Ġugly":12690,"Ġcervical":12691,"rystal":12692,"Ġroyal":12693,"ĠSELECT":12694,"Ġsacrifice":12695,"join":12696,"tra":12697,"tically":12698,"ĠĠĠĠĠĠĠĠĠĠĠĠĠĠĠĠĠĠĠĠĠĠĠĠĠĠĠĠĠĠĠĠĠĠĠĠ":12699,"Ġtape":12700,"Ġwet":12701,"outer":12702,"oups":12703,"Ġgay":12704,"ĠBell":12705,"iva":12706,"ĠGreg":12707,"Ġleak":12708,"Ġworker":12709,"1986":12710,"white":12711,"Ġexciting":12712,"Only":12713,"Ġregarded":12714,"ÑĢÐ°Ð":12715,"Ġpsoriasis":12716,"Ġarithmetic":12717,"Ġobstacles":12718,"<!--":12719,"LR":12720,"bec":12721,"Ġwages":12722,"Ġnitrogen":12723,"utable":12724,"umor":12725,"ĠHa":12726,"ĠEnt":12727,"=\"../":12728,"Ġvariants":12729,"Ġ600":12730,"Ġdecor":12731,"Ġ108":12732,"Ġlimiting":12733,"IDE":12734,"Ġbarrier":12735,"ĠRegister":12736,"Ġresidues":12737,"ĠAdditional":12738,"ĠDesign":12739,"Empty":12740,"Ġsubsid":12741,"President":12742,"Ġsyscall":12743,"Ġprosper":12744,"ĠFreedom":12745,"oxidase":12746,"ĠValdez":12747,"Ġhorizon":12748,"Ġhorrible":12749,"ĠBenjamin":12750,"Ġultraviolet":12751,".\\[[@":12752,"Font":12753,"Var":12754,"fire":12755,"iac":12756,"made":12757,"zy":12758,"čĊĉĉĉ":12759,"ativity":12760,"omm":12761,"ulates":12762,"ulatory":12763,"Ġvice":12764,"ĠBob":12765,"ĠRTC":12766,"Ġsegments":12767,"Ġfunctioning":12768,"yme":12769,"uclear":12770,"ĠWeek":12771,"Ð¾Ð´":12772,"ĠSciences":12773,"Ġprinted":12774,"Ġkidney":12775,"ĠRoman":12776,"Come":12777,"LOG":12778,"gun":12779,"Ġicon":12780,"Ġtends":12781,"Ġlas":12782,"urities":12783,"Ġ116":12784,"ĠOl":12785,"ONG":12786,"Ġphysicians":12787,"ĠRemark":12788,"Ġappointed":12789,"PstI":12790,"Package":12791,"ç±»":12792,"icillin":12793,"Ġtoilet":12794,"Ġdeviations":12795,"Ġabsorbed":12796,"-[":12797,"Body":12798,"iates":12799,"ito":12800,"Ġfitting":12801,"Ġflav":12802,"206":12803,"Ġinsulin":12804,"Ġviolated":12805,"Ġhardly":12806,"Ġconstitu":12807,"ä¸Ń":12808,"Ġaims":12809,"Ġdestination":12810,"licenses":12811,"Ġparking":12812,".),":12813,"mult":12814,"turn":12815,"annotation":12816,"Ġbil":12817,"Ġdst":12818,"Ġmil":12819,"ĠLibrary":12820,"ialize":12821,"Ġintens":12822,"Ġallerg":12823,"Ġamended":12824,"115":12825,"ANS":12826,"Ġheading":12827,"Ġimmunity":12828,"ophil":12829,"Ġacknowledge":12830,"ĠBroad":12831,"Ġticket":12832,"Ġhorses":12833,"ĠSusan":12834,"Ġascertain":12835,"ĠLearning":12836,"Aug":12837,"Copy":12838,"Sort":12839,"VI":12840,"disc":12841,"oi":12842,"zi":12843,"~*":12844,"inement":12845,"utter":12846,"Ġaligned":12847,"Ġbyte":12848,"ĠTer":12849,"ĠRod":12850,"138":12851,"Ġapproximate":12852,"ĊĠĠĠĠĠĠĠĠĠĠĠĠĠĠĠĠĠĠĠĠĠĠĠĠĠĠĠĠĠĠĠĠĠĠĠĠĠĠĠ":12853,"Ġrandomized":12854,"Ġspecificity":12855,"Ġfunded":12856,"relation":12857,"Ã¡n":12858,"INTER":12859,"Ġliberal":12860,"Wednesday":12861,"Mc":12862,"Ġpending":12863,"omal":12864,"ĠThird":12865,"ĠCu":12866,"ĠAZ":12867,"Ġexch":12868,"ĠLim":12869,"ĠEM":12870,"=\"{":12871,"parts":12872,"ashing":12873,"Ġparams":12874,"Ġfacilit":12875,"register":12876,"Ġdrain":12877,"Ġlaid":12878,"Ġinfluenced":12879,"Ġauthorized":12880,"Show":12881,"Ġraising":12882,"auto":12883,"Order":12884,"Ġtoxicity":12885,"Ġchemotherapy":12886,"ĠðŁ":12887,"Ġ$(\"#":12888,"Ġunemployment":12889,"Ġseizure":12890,"fragment":12891,"è¢«è¦ĨæĿĲæĸĻ":12892,"bus":12893,"iro":12894,"Ġsaving":12895,"ĠDid":12896,"Ġshipping":12897,"rowser":12898,"Ġblank":12899,"ocker":12900,"Ġseeks":12901,"174":12902,"178":12903,"Ġemphasis":12904,"Ġimagination":12905,"Valid":12906,"SR":12907,"ply":12908,"Ġdense":12909,"ples":12910,"ĉĉĉĉ":12911,"1992":12912,"Ġ109":12913,"Ġeverywhere":12914,"Ġtermination":12915,"etheless":12916,"rength":12917,"atisf":12918,"ĠOregon":12919,"Ġbreeding":12920,"Ġtwelve":12921,"Ã¶kull":12922,"nanomaterials":12923,"Ġthoracic":12924,".).":12925,"\\}":12926,"Ġcord":12927,"etc":12928,"Ġ(@":12929,"ĠBox":12930,"plugin":12931,"Ġvulnerable":12932,"WT":12933,"aults":12934,"wave":12935,"stand":12936,"Ġgal":12937,"Ġ134":12938,"ĠTex":12939,"Ġcontest":12940,"Ġendurance":12941,"Ġdrill":12942,"ĠPlace":12943,"Ġmovements":12944,"blem":12945,"ĠConsider":12946,"Register":12947,"Ġcooking":12948,":@\"":12949,"Ġtutorial":12950,"Ġwrapped":12951,"ĠSydney":12952,"Ġpermanently":12953,"Ġpreparations":12954,"Ġscandal":12955,"Ġmacrophage":12956,"Ġsynaptic":12957,"Ġscholars":12958,".]":12959,"DD":12960,"lower":12961,"Ġtur":12962,"ĠMaster":12963,"}$)":12964,"}\\)":12965,"Ġ|=":12966,"Ġextending":12967,"oking":12968,"Ġantagon":12969,"806":12970,"ĠAsian":12971,"Child":12972,"OUND":12973,"Arch":12974,"Ġquantities":12975,"Ð¸Ð¹":12976,"Ġstrictly":12977,"Ġlivestock":12978,"Ġundesirable":12979,"Ġcountryside":12980,"1006244":12981,"0232963":12982,"ĠMelbourne":12983,"because":12984,"your":12985,"zone":12986,"Ġcer":12987,"Ġwake":12988,"arth":12989,"ĠRog":12990,"Ġbehaviors":12991,"Ġexcit":12992,"Ġloops":12993,"Ġprogressive":12994,"cycl":12995,"åĻ¨":12996,"Ġorigins":12997,"ĠORDER":12998,"ĠRevenue":12999,"Ġunpredictable":13000,"Her":13001,"Ø¯":13002,"è®":13003,"resolved":13004,"ĠLes":13005,"ĠNi":13006,"Ġtherein":13007,"ĠYang":13008,"apsed":13009,"Ġpersu":13010,"character":13011,"ãĤ¤ãĥ³ãĤ¿ãĥ¼ãĥķãĤ§ãĥ¼ãĤ¹":13012,"AX":13013,"Ñİ":13014,"entially":13015,"ĠSa":13016,"Ġ135":13017,"Ġ1984":13018,"ugs":13019,"Ġprescribed":13020,"Ġlegs":13021,"Ġbreakfast":13022,"Ġbovine":13023,"Ġcompleting":13024,"Ġrocks":13025,"ĠProcedure":13026,"Ġvirtue":13027,"ĠâĤ¬":13028,"ĠGuidelines":13029,"Ġdisappeared":13030,"Ġingredient":13031,"*\\":13032,",#":13033,":`":13034,"LEN":13035,"PM":13036,"dig":13037,"gan":13038,"languages":13039,"ÑĨ":13040,"Ġcrypt":13041,"Ġeq":13042,"Ġshifts":13043,"144":13044,"_{\\\\":13045,"175":13046,"Example":13047,"Ġpsychological":13048,"Ġselective":13049,"Ġdominated":13050,"Ġfurn":13051,"ĠSSL":13052,"ĠCulture":13053,"Ġalignment":13054,"ĠLE":13055,"ĠOk":13056,"ione":13057,"}}},":13058,"107":13059,"1995":13060,"Ġdisturb":13061,"ĠShould":13062,"cheme":13063,"Ġwitnesses":13064,"Permission":13065,"Ġinevitable":13066,"Ġplasmids":13067,"Ġdisposal":13068,"Ġdiamond":13069,"Ġdiagrams":13070,"Ġreceipt":13071,"Ġharassment":13072,"Ġ×Ķ×":13073,"Ġjurisdictions":13074,"âĶĢâĶĢ":13075,"Ġmozzarella":13076,")-\\":13077,"ACT":13078,"^,":13079,"javascript":13080,"asant":13081,"Ġlum":13082,"ĠSoc":13083,"ĠCre":13084,"Ġ137":13085,"Ġpartly":13086,"ubs":13087,"Ġrecipe":13088,"Ġtransmit":13089,"133":13090,"Ġindication":13091,"Ġpromotion":13092,"Ġalongside":13093,"Ġsearching":13094,"expression":13095,"Ġmixing":13096,"Ġlikes":13097,"Ġdysfunction":13098,"ofluorescence":13099,"Ġï»¿":13100,"Ġmellitus":13101,"Ġabatacept":13102,"xf":13103,"Îº":13104,"Ġinference":13105,"Ġdat":13106,"ĠCells":13107,"Ġunlike":13108,"Ġjail":13109,"aste":13110,"254":13111,"Ġentities":13112,"Ġreferring":13113,"Ġdenying":13114,"Ġdesignated":13115,"offs":13116,"Ġexpectation":13117,"Ġvitamin":13118,"Segment":13119,"Sometimes":13120,"ĠGordon":13121,"ĠVegas":13122,"Whitney":13123,"Ġspectacular":13124,"Cap":13125,"\\,\\":13126,"\\|_{":13127,"Ð¿":13128,"atible":13129,"Ġpa":13130,"Ġfle":13131,"Ġdm":13132,"Ġvoted":13133,"ĠPa":13134,"Ġdoi":13135,"Ġinterfer":13136,"tools":13137,"148":13138,"required":13139,"Introduction":13140,"ĠImport":13141,"Ġboxes":13142,"Ġexcessive":13143,"Given":13144,"Off":13145,"eating":13146,"wd":13147,"Ġfishing":13148,"Ġincl":13149,"eland":13150,"adem":13151,"Ġexclusion":13152,"ĠTri":13153,"Ġuna":13154,"avage":13155,"Ġopens":13156,"\\](":13157,"shape":13158,"Ġcarries":13159,"ĠForce":13160,"Ġhomomorphism":13161,"Ġreceiver":13162,"Ġinspired":13163,"Ġerred":13164,"Ġdaughters":13165,"Ġlubric":13166,"ĠRuby":13167,"ĠHarriet":13168,"Ġbubbles":13169,"Ġexhaustion":13170,"ĠTaliban":13171,"Ġultrasonic":13172,"Advertisement":13173,"~)":13174,"Ġfif":13175,"rox":13176,"ĠLPS":13177,"Ġactor":13178,"Three":13179,"ancies":13180,"token":13181,"Ġequality":13182,"enny":13183,"IGN":13184,"Ġswitching":13185,"Ġsoldiers":13186,"Ġpermissions":13187,"Cond":13188,"SI":13189,"ga":13190,"save":13191,"Ø©":13192,"--------------":13193,"Ġmesh":13194,"Ġham":13195,"ecess":13196,"uration":13197,"ĠMP":13198,"ĠHun":13199,"ĠNA":13200,"Ġexpense":13201,"1994":13202,"Ġyarn":13203,"Ġeverybody":13204,"Container":13205,"Ġoptional":13206,"Ġlabeled":13207,"Author":13208,"Ġinequalities":13209,"Ġinhabit":13210,"ĠCraig":13211,"theorem":13212,"Ġpatriarch":13213,"Ġordinance":13214,"Delegate":13215,"Ġsurvivors":13216,"!)":13217,">.":13218,"SER":13219,"_+":13220,"Ġmilit":13221,"ĠCook":13222,"Ġ07":13223,"Ġ}\\":13224,"application":13225,"spect":13226,"Ġ102":13227,"progress":13228,"ready":13229,"ĠCDC":13230,"ĠSeries":13231,"Ġ-------":13232,"docs":13233,"Ġpregnant":13234,"ĠUkrainian":13235,"Ġepithelium":13236,"Cam":13237,"Del":13238,"Mat":13239,"cam":13240,"mass":13241,"Ġcanvas":13242,"ensitive":13243,"Ġedit":13244,"ĠÐ±":13245,"Ġwinner":13246,"Ġfeeding":13247,"Ġconcur":13248,"Ġpoliticians":13249,"langdata":13250,"Ġxmlns":13251,"Court":13252,"Servlet":13253,"Ġgastric":13254,"ĠUntil":13255,"ĠâĨĴ":13256,"Ġautoimmune":13257,"Ġphagocytosis":13258,"'}":13259,"KS":13260,"ket":13261,"Ġcere":13262,"Ġpit":13263,"Ġproph":13264,"ĠHop":13265,"ĠGOP":13266,"Ġcommands":13267,"Ġbutter":13268,"Ġsolved":13269,"Ġvisiting":13270,"ĠArg":13271,"Ġboat":13272,"ĠPatent":13273,"ĠEmma":13274,"Ġcooling":13275,"isen":13276,"âĢ¯":13277,"abstract":13278,"apor":13279,"Ġshed":13280,"ĠTour":13281,"Ġresident":13282,"Ġtimeout":13283,"Ġdoors":13284,"Ġdisabled":13285,"Ġdeveloper":13286,"Ġdesc":13287,"Ġflies":13288,"():":13289,"Ġautomorphism":13290,"Ġlogical":13291,"Ã¡s":13292,"terminal":13293,"Ġbroader":13294,"ĠPostal":13295,"Ġlocked":13296,"rafts":13297,"Japan":13298,"è¦ģ":13299,"Ġfestival":13300,"Ġbrake":13301,"Ġthyroid":13302,"ĠCreek":13303,"ĠPowell":13304,"ĠOcean":13305,"Ġappellees":13306,"phantom":13307,"Ġheritage":13308,"Ġsoluble":13309,"Ġdeprivation":13310,"Ġgrocery":13311,"Ò¯Ð¹Ð»Ð´Ð²ÑįÑĢÐ»Ñį":13312,"/~":13313,"WR":13314,"family":13315,"git":13316,"round":13317,"works":13318,"{{{\\":13319,"Ġble":13320,"ĠAward":13321,"keys":13322,"Ġcapac":13323,"Ġdocumented":13324,"Ġconnecting":13325,"Ġdeliber":13326,"Ġindicator":13327,"Ġcombine":13328,"ĠParam":13329,"Flow":13330,"Ġexhibited":13331,"FB":13332,"zo":13333,"Ġcake":13334,"ĠLib":13335,"Ġmanually":13336,"obacter":13337,"Ġ.$$":13338,"Ġshoulder":13339,"aux":13340,"Ġdefinitions":13341,"ĠKingdom":13342,"Ġmicroscopy":13343,"ĠMaryland":13344,",...,":13345,"Ġaqueous":13346,"Ġsidew":13347,"idimensional":13348,"ĠBriefly":13349,"Ġuniqueness":13350,"Ġroutinely":13351,"ĠHostForLife":13352,"HM":13353,"LI":13354,"language":13355,"Ġfilling":13356,"Ġdial":13357,"ĠFeb":13358,"ĠTax":13359,"Ġjunction":13360,"closure":13361,"Ġ103":13362,"135":13363,"Ġclaiming":13364,"Ġsolit":13365,"Ġparticipated":13366,"ĠConf":13367,"Ġpromising":13368,"Ġchoosing":13369,"Ġsuspected":13370,"Ġcomplaints":13371,"Ġmatched":13372,"Ġsettled":13373,"Ġguns":13374,"Ġsiblings":13375,"Ġpeculiar":13376,"ĠMunicipal":13377,"bsolutely":13378,"ĠManhattan":13379,"Day":13380,"Pool":13381,"game":13382,"iol":13383,"tbl":13384,"Ġbos":13385,"Ġbatt":13386,"arry":13387,"ĠmL":13388,"sters":13389,"ĠIl":13390,"abel":13391,"ĠRow":13392,"Ġleuk":13393,"Ġ{@":13394,"Ġvariant":13395,"Ġregulated":13396,"ĠCoast":13397,"ĠCollection":13398,"domain":13399,"Ġcorporation":13400,"Ġluxury":13401,"ĠMateo":13402,"Ġjunior":13403,"bsolute":13404,".(\\[":13405,"Match":13406,"West":13407,"rent":13408,"Ġsquad":13409,"Ġcos":13410,"Ġfatal":13411,"Ġliable":13412,"quality":13413,"ĠBUT":13414,"ĠFamily":13415,"ĠRather":13416,"ĠGard":13417,"Changed":13418,"ĠUnless":13419,"Ġchallenged":13420,"Ġabsorb":13421,"Ġcultiv":13422,"Ġdebug":13423,"eclaration":13424,"Ġhorse":13425,")^{-":13426,"Ro":13427,"cult":13428,"sf":13429,"ÎĶ":13430,"Ġcraft":13431,"Ġhack":13432,"rock":13433,"âĢł":13434,"Ġreliability":13435,"228":13436,"ĠÐ´":13437,"Art":13438,"Ġconstructor":13439,"Ġfarmers":13440,"Warning":13441,"æĹ¶":13442,"Ġsacred":13443,"Ġearliest":13444,"Ġconfirms":13445,"Ġsecrets":13446,"Updatable":13447,"ĠHermitean":13448,"ĠDoppler":13449,"ĠSchrÃ¶dinger":13450,"Anal":13451,"Full":13452,"Lo":13453,"hard":13454,"kit":13455,"ÑĪ":13456,"Ùĥ":13457,"Ġsew":13458,"Ġboss":13459,"utils":13460,"Ġ132":13461,"ĠMDA":13462,"Ġshots":13463,"formula":13464,"price":13465,"Ġblocking":13466,"\\)\\\\":13467,"ĠMoore":13468,"Mac":13469,"late":13470,"Ġhat":13471,"omed":13472,"ĠCAR":13473,"ĠMill":13474,"ĠDom":13475,"ĠOpt":13476,"Ġprescription":13477,"Ġfinance":13478,"Ġcomputation":13479,"Ġinputs":13480,"Ġgovernor":13481,"Ġattachment":13482,"Ġdisplays":13483,"Clearly":13484,"bundles":13485,"Ġcotton":13486,"Ġhungry":13487,"Ġperpetr":13488,"Ġsuspicion":13489,"Ġtaxpayers":13490,"ĠBarbara":13491,"Discussion":13492,"ea":13493,"Ġiso":13494,"ched":13495,"period":13496,"ipher":13497,"oven":13498,"Ġsubscription":13499,"Ġadapted":13500,"Ġdiffraction":13501,"0210235":13502,"0215873":13503,"Ptr":13504,"[$":13505,"_-":13506,"done":13507,"nov":13508,"security":13509,"Ġmad":13510,"Ġconvention":13511,"Ġ\\#":13512,"ĠRich":13513,"ĠOp":13514,"ensus":13515,"ĠStill":13516,"Ġjustify":13517,"textnormal":13518,"Ġcontinuously":13519,"Ġreflects":13520,"energy":13521,"Ġconfusion":13522,"('#":13523,"Ġheaded":13524,"Ġdenial":13525,"ĠSea":13526,"feast":13527,"Ġinaccur":13528,"icpsr":13529,"Ġunchanged":13530,"Ġinvariance":13531,"clinical":13532,"Ġvertebr":13533,"Converter":13534,"ĠClinic":13535,"Ġinfluenza":13536,"Ġbreastfeeding":13537,"åĽ":13538,"inct":13539,"Ġcertificate":13540,"elcome":13541,"ĠSu":13542,"ifiers":13543,"Ġ\"<":13544,"ĠRoss":13545,"Ġimpression":13546,"riculture":13547,"ĊĉĠĠĠ":13548,"byte":13549,"Ġacceptance":13550,"Ġmutants":13551,"ĠDefense":13552,"Adapter":13553,"degree":13554,"?)":13555,"hel":13556,"mates":13557,"sys":13558,"Ġpill":13559,"Ġbarg":13560,"omial":13561,"Ġstating":13562,"emption":13563,"andy":13564,"ĠWild":13565,"forming":13566,"Ġenables":13567,"Ġassistant":13568,"Ġflavor":13569,"overs":13570,"Ġmining":13571,"184":13572,"402":13573,"Ġsatisfaction":13574,"Ġrestrict":13575,"Ġpromoting":13576,"Ġreplacing":13577,"ĠWithout":13578,"Ġprinting":13579,"Ġdatasets":13580,"Ġroads":13581,"Ġtransformed":13582,"Ġbonds":13583,"ĠTurkey":13584,"UPDATE":13585,"ä¾ĭ":13586,"Ġdignity":13587,"ĠThailand":13588,"ĠStaples":13589,"trigger":13590,"Ġvoluntarily":13591,"..\\..\\":13592,"ĠPROVIDED":13593,"ĠPortuguese":13594,"Ġcement":13595,"ĠMI":13596,"quin":13597,"ĠProp":13598,"Ġshapes":13599,"Ġchains":13600,"phere":13601,"Ġasset":13602,"Ġ800":13603,"137":13604,"Ġbike":13605,"Ġburning":13606,"Ġbelongs":13607,"700":13608,"Head":13609,"bow":13610,"hs":13611,"hu":13612,"hole":13613,"})$,":13614,"Ġstained":13615,"Ġ138":13616,"ĠProm":13617,"ĠJane":13618,"ĠChange":13619,"Ġdemonstrates":13620,"conv":13621,"Ġdimensional":13622,"Ġaccomplished":13623,"Ġfemin":13624,"password":13625,"Ġ_{\\\\":13626,"Ġdermat":13627,"Ġexacerb":13628,"ĠDigital":13629,"Ġdesperate":13630,"typename":13631,"ĠHebrew":13632,"FIELD":13633,".*]{}":13634,"np":13635,"çĶ":13636,"Ġ^{\\":13637,"ĠĠĠĠĠĠĠĠĠĠĠĠĠĠĠĠĠĠĠĠĠĠĠĠĠĠĠĠĠĠĠĠĠĠĠĠĠ":13638,"ira":13639,"ĠLatin":13640,"Ġspots":13641,"Ins":13642,"Ġvariability":13643,"Ġexpr":13644,"Ġ106":13645,"amping":13646,"ĠAndrew":13647,"Ġdeny":13648,"Ġengagement":13649,"Ġtexture":13650,"Ġasymptotic":13651,"Ġdehydrogenase":13652,"ĠInfrastructure":13653,"Ġzebrafish":13654,"[**":13655,"ĠÏ":13656,"Ġtied":13657,"edu":13658,"Ġhits":13659,"ĠBC":13660,"ĠJun":13661,"Ġpreference":13662,"109":13663,"Ġpersonality":13664,"ĠProperty":13665,"Ġgeneralized":13666,"Ġlateral":13667,"Ġmanagers":13668,"holders":13669,"itoneal":13670,"Ġstiffness":13671,"Ġcompatibility":13672,"octyl":13673,"Ġunlawful":13674,"ographer":13675,"Ġpermutation":13676,"Ġrepeats":13677,"STYLE":13678,"Ġprotesters":13679,"Ġtemplates":13680,"Ap":13681,"ĠSite":13682,"Ġasks":13683,"ĠPerson":13684,"Ġranges":13685,"ĠDisc":13686,"Ġdeposition":13687,"Ġchances":13688,"),$$":13689,"Ġoutbreak":13690,"Ġregulate":13691,"health":13692,"sets":13693,"Ġadvised":13694,"Ġsentencing":13695,"Ġinspection":13696,"ĠÙħ":13697,"Ġreplied":13698,"Ġolig":13699,"aire":13700,"hom":13701,"mask":13702,"tk":13703,"Ġpad":13704,"usive":13705,"ĠIRS":13706,"ĠOcc":13707,"eval":13708,"155":13709,"ĠSpe":13710,"Ġlistening":13711,"fficient":13712,"Ġcrossing":13713,"Ġvisitors":13714,"Ġfitness":13715,"iii":13716,"Ġinterviews":13717,"Ġligand":13718,"Rewrite":13719,"acillus":13720,"Ġstunning":13721,"izumab":13722,"Ġjavax":13723,"major":13724,"Ġalphabet":13725,"FFIRMED":13726,"ĠSERVICES":13727,"ĠBangladesh":13728,"ĠHausdorff":13729,"ĠTanzania":13730,"Mo":13731,"sort":13732,"Ġcoding":13733,"adi":13734,"Ġbeings":13735,"ĠBan":13736,"esting":13737,"Ġambig":13738,"Store":13739,"ounce":13740,"Ġaffecting":13741,"ĠScale":13742,"Ġbirths":13743,"ĠBeing":13744,"ĠImages":13745,"Ġthreats":13746,"ĠÐ¿ÑĢ":13747,"tail":13748,"Ġtie":13749,"replace":13750,"igr":13751,"**.":13752,"Ġdevelopments":13753,"Ġsomebody":13754,"ĠCarl":13755,"Ġhosts":13756,"Ġtracking":13757,"COUNT":13758,"Ġtactics":13759,"Ġdosage":13760,"Ġelegant":13761,"Ġritual":13762,"ĠFARC":13763,"ĠJamie":13764,"emptyset":13765,"GO":13766,"gly":13767,"Ã¢":13768,"Ġli":13769,"impl":13770,"ĠCancer":13771,"ĠML":13772,"ĠPen":13773,"ĠDem":13774,"ĠLO":13775,"ĠNick":13776,"utions":13777,"Ġsigning":13778,"Ġnucleus":13779,"ĠĠĠĠĠĠĠĠĠĠĠĠĠĠĠĠĠĠĠĠĠĠĠĠĠĠĠĠĠĠĠĠĠĠĠĠĠĠĠĠĠĠĠĠĠ":13780,"Ġsuspension":13781,"Ġsentenced":13782,"ĠPhysics":13783,"Ġhemat":13784,"ĠArticle":13785,"Ġremarkable":13786,"MiAa":13787,"(@":13788,"rator":13789,"writ":13790,"Ġcul":13791,"Ġmature":13792,"ĠAz":13793,"ĠMarg":13794,"ĠBat":13795,"ĠBuff":13796,"Ġresistant":13797,"avi":13798,"exper":13799,"Ġrose":13800,"ificant":13801,"407":13802,"ĠĠĠĠĠĠĠĠĠĠĠĠĠĠĠĠĠĠĠĠĠĠĠĠĠĠĠĠĠĠĠĠĠĠĠĠĠĠĠĠĠĠĠĠĠĠ":13803,"Ġblocked":13804,"Ġstriking":13805,"Ġmounting":13806,"Ġcontributing":13807,"Maybe":13808,"Ġmathematics":13809,"ĠKEY":13810,"Ġhomosex":13811,"Ġneutrino":13812,"ĠSUCCESS":13813,"Ġdiaphragm":13814,")}(":13815,"294":13816,"Parent":13817,"pf":13818,"vy":13819,"wrap":13820,"Ġtension":13821,"Ġmood":13822,"Ġnations":13823,"Ġlady":13824,"ido":13825,"ĠMah":13826,"ĠBL":13827,"ortic":13828,"Ġtrap":13829,"Ġarrive":13830,"Ġ107":13831,"Ġestablishment":13832,"Ġpromised":13833,"Ġbaseball":13834,"Ġintracellular":13835,"Ġloves":13836,"Ġcatalyst":13837,"elly":13838,"ĠSS":13839,"ĠCore":13840,"Ġproxy":13841,"ĠMagn":13842,"ĠPE":13843,"Ġcontamination":13844,"Ġmyth":13845,"223":13846,"Ġcommunicate":13847,"Ġacknowledged":13848,"Ġimplant":13849,"Ġdeclaration":13850,"hidden":13851,"Ġreimburs":13852,"storage":13853,"Ġanalges":13854,"Ġproximal":13855,"Ġupdating":13856,"0120307":13857,"Ġdefeated":13858,"ĠChairman":13859,"ĠProgramm":13860,"Ġpractitioners":13861,"STRUCT":13862,"Ġcirrhosis":13863,"Ġanesthesia":13864,"Ġframeworks":13865,"ĠNorwegian":13866,"Miss":13867,"Ġtons":13868,"arse":13869,"Ġdining":13870,"Ġlying":13871,"Ġgotten":13872,"ĠPot":13873,"esty":13874,"Ġshoes":13875,"Ġdisput":13876,"Ġ1985":13877,"Ġconditional":13878,"Ġbrush":13879,"Ġperiodic":13880,"black":13881,"Ġconfident":13882,"Ġdrama":13883,"ĠĠĠĠĠĠĠĠĠĠĠĠĠĠĠĠĠĠĠĠĠĠĠĠĠĠĠĠĠĠĠĠĠĠĠĠĠĠĠĠĠĠĠĠ":13884,"Ġ0001":13885,"Ġburgdorferi":13886,"Ant":13887,"random":13888,"wa":13889,"Ġcure":13890,"eces":13891,"children":13892,"Ġrape":13893,"ĊĉĠ":13894,"Ġhero":13895,"spring":13896,"113":13897,"Ġbriefly":13898,"Ġcytokines":13899,"Ġfragments":13900,"Ġscholar":13901,"employed":13902,"ĠTODO":13903,"ĠLiverpool":13904,"iblical":13905,"Ġcontexts":13906,"Ġreconsider":13907,"ĠUniverse":13908,"Ġvirulence":13909,"Ġmisleading":13910,"micahg":13911,"ĠMagazine":13912,"ucleotide":13913,"ĠVladimir":13914,"Div":13915,"role":13916,"Ġreact":13917,"Ġconvey":13918,"ĠGET":13919,"Ġimpressive":13920,"Ġ1979":13921,"Ġcorrespondence":13922,"icture":13923,"rett":13924,"ĠCommon":13925,"507":13926,"ORY":13927,"Ġlabels":13928,"Ġrespondent":13929,"Ġfatty":13930,"Ġsuggestions":13931,"0040358":13932,"Ġreservoir":13933,"ĠPhoenix":13934,"nam":13935,"erts":13936,"Ġml":13937,"Ġsteal":13938,"ĠDub":13939,"=\"/":13940,"ĠJer":13941,"ega":13942,"1993":13943,
[...]
