{"[UNK]":0,"[CLS]":1,"[SEP]":2,"[PAD]":3,"[MASK]":4,"!":5,"\"":6,"#":7,"$":8,"%":9,"&":10,"'":11,"(":12,")":13,"*":14,"+":15,",":16,"-":17,".":18,"/":19,"0":20,"1":21,"2":22,"3":23,"4":24,"5":25,"6":26,"7":27,"8":28,"9":29,":":30,";":31,"<":32,"=":33,">":34,"?":35,"@":36,"A":37,"B":38,"C":39,"D":40,"E":41,"F":42,"G":43,"H":44,"I":45,"J":46,"K":47,"L":48,"M":49,"N":50,"O":51,"P":52,"Q":53,"R":54,"S":55,"T":56,"U":57,"V":58,"W":59,"X":60,"Y":61,"Z":62,"[":63,"\\":64,"]":65,"^":66,"_":67,"`":68,"a":69,"b":70,"c":71,"d":72,"e":73,"f":74,"g":75,"h":76,"i":77,"j":78,"k":79,"l":80,"m":81,"n":82,"o":83,"p":84,"q":85,"r":86,"s":87,"t":88,"u":89,"v":90,"w":91,"x":92,"y":93,"z":94,"{":95,"|":96,"}":97,"~":98,"¡":99,"¢":100,"£":101,"¤":102,"¥":103,"¦":104,"§":105,"¨":106,"©":107,"ª":108,"«":109,"¬":110,"®":111,"¯":112,"°":113,"±":114,"²":115,"³":116,"´":117,"µ":118,"¶":119,"·":120,"¸":121,"¹":122,"º":123,"»":124,"¼":125,"½":126,"¾":127,"¿":128,"Â":129,"Ã":130,"Ä":131,"Å":132,"Æ":133,"Ç":134,"È":135,"É":136,"Ê":137,"Ë":138,"Ì":139,"Í":140,"Î":141,"Ï":142,"Ð":143,"Ñ":144,"Ò":145,"Ó":146,"Ô":147,"Õ":148,"Ö":149,"×":150,"Ø":151,"Ù":152,"Ú":153,"Û":154,"Ü":155,"Ý":156,"Þ":157,"ß":158,"à":159,"á":160,"â":161,"ã":162,"ä":163,"å":164,"æ":165,"ç":166,"è":167,"é":168,"ê":169,"ë":170,"ì":171,"í":172,"î":173,"ï":174,"ð":175,"ñ":176,"ó":177,"Ā":178,"ā":179,"Ă":180,"ă":181,"Ą":182,"ą":183,"Ć":184,"ć":185,"Ĉ":186,"ĉ":187,"Ċ":188,"ċ":189,"Č":190,"č":191,"Ď":192,"ď":193,"Đ":194,"đ":195,"Ē":196,"ē":197,"Ĕ":198,"ĕ":199,"Ė":200,"ė":201,"Ę":202,"ę":203,"Ě":204,"ě":205,"Ĝ":206,"ĝ":207,"Ğ":208,"Ġ":209,"ġ":210,"Ģ":211,"ģ":212,"Ĥ":213,"ĥ":214,"Ħ":215,"ħ":216,"Ĩ":217,"ĩ":218,"Ī":219,"ī":220,"Ĭ":221,"ĭ":222,"Į":223,"į":224,"İ":225,"ı":226,"Ĳ":227,"ĳ":228,"Ĵ":229,"ĵ":230,"Ķ":231,"ķ":232,"ĸ":233,"Ĺ":234,"ĺ":235,"Ļ":236,"ļ":237,"Ľ":238,"ľ":239,"Ŀ":240,"ŀ":241,"Ł":242,"ł":243,"Ń":244,"ĠĠ":245,"Ġt":246,"Ġa":247,"in":248,"he":249,"re":250,"on":251,"ĠĠĠĠ":252,"Ġthe":253,"er":254,"at":255,"Ġs":256,"en":257,"Ġo":258,"Ġc":259,"Ġw":260,"is":261,"it":262,"or":263,"es":264,"ed":265,"al":266,"an":267,"Ġp":268,"Ġf":269,"Ġb":270,"Ġan":271,"ing":272,"Ġin":273,"Ġof":274,"ar":275,"ion":276,"ou":277,"Ġm":278,"Ġd":279,"--":280,"ic":281,"Ġto":282,"le":283,"as":284,"Ġand":285,"ĠĠĠĠĠĠĠĠ":286,"ro":287,"Ġth":288,"Ġh":289,"ent":290,"ct":291,"Ġre":292,"et":293,"el":294,"Ġn":295,"st":296,"om":297,"Ġe":298,"il":299,"Ġl":300,"id":301,"ot":302,"im":303,"ig":304,"ve":305,"Ġis":306,"ut":307,"----":308,"Ġg":309,"Ġ(":310,"ĠT":311,"ol":312,"am":313,"ĠI":314,"ation":315,"se":316,"ce":317,"ly":318,"âĢ":319,"Ġfor":320,"ur":321,"Ġbe":322,"ĠS":323,"ow":324,"ĠĠĠ":325,"Ġthat":326,"Ġu":327,"ad":328,"Ġon":329,"ĠA":330,"ĠC":331,"Ġst":332,"ch":333,"ver":334,"ay":335,"ul":336,"ith":337,"if":338,"Ġ1":339,"Ġcon":340,"Ġwith":341,"ra":342,"Ġy":343,"Ġas":344,"ĠĠĠĠĠĠĠĠĠĠĠĠĠĠĠĠ":345,"ir":346,"od":347,"ter":348,"Ġpro":349,"Ġ\"":350,"00":351,"ate":352,"Ġ$":353,"Ġit":354,"her":355,"ĠM":356,"pe":357,"Ġal":358,"um":359,"ab":360,"Ġwe":361,"ri":362,"nd":363,"ge":364,"Ġv":365,"Ġwh":366,"Ġ2":367,"ĠP":368,"==":369,"res":370,"em":371,"pp":372,"qu":373,"Ġyou":374,"ac":375,"--------":376,"Ġex":377,"Ġde":378,"os":379,"Ġwas":380,"ĠThe":381,"est":382,"ist":383,"ĠB":384,"us":385,"Ġhe":386,"ment":387,"ht":388,"Ġcom":389,"Ġor":390,"ant":391,"Ġ\\":392,"Ġare":393,"th":394,"Ġat":395,"oc":396,"un":397,"ers":398,"iv":399,"Ġ=":400,"Ġsu":401,"ess":402,"ity":403,"ain":404,"ĠD":405,"ĠH":406,"ĠF":407,"Ġby":408,"Ġr":409,"ld":410,"op":411,"Ġse":412,"ill":413,"rom":414,"ction":415,"ore":416,"and":417,"ĠW":418,"**":419,"nt":420,"Ġ-":421,"ke":422,"Ġnot":423,"ĠR":424,"ive":425,"Ġha":426,"end":427,"ĠL":428,"ort":429,"pt":430,"Ġne":431,"Ġthis":432,"ĠN":433,"ight":434,"ĊĠĠĠĠ":435,"Ġfrom":436,"âĢĻ":437,"art":438,"ud":439,"red":440,"ell":441,"ial":442,"pl":443,"Ġsh":444,"ies":445,"ĊĠĠĠ":446,"te":447,"ĠG":448,"ated":449,"Ġch":450,"Ġhave":451,"ĠE":452,"fe":453,"ure":454,"Ġ*":455,"ould":456,"'s":457,"all":458,"our":459,"ine":460,"per":461,"Ġle":462,"ag":463,"Ġ0":464,"og":465,"{\\":466,"ust":467,"ical":468,").":469,"ame":470,"ue":471,"Ġcan":472,"iz":473,"ich":474,"ĠO":475,"age":476,"rou":477,"cl":478,"ib":479,"Ġus":480,"out":481,"Ġ3":482,"ard":483,"able":484,"ase":485,"ome":486,"ie":487,"Ġcl":488,"Ġres":489,"Ġwhe":490,"Ġab":491,");":492,"ĊĠĠĠĠĠĠĠĠ":493,"ult":494,"Ġj":495,"ass":496,"act":497,".\"":498,"ost":499,"ack":500,"ath":501,"01":502,"Ġ{":503,"====":504,"Ġcomp":505,"Ġk":506,"ans":507,"ide":508,"ther":509,"Ġme":510,"Ġpl":511,"Ġad":512,"orm":513,"Ġcont":514,"Ġwere":515,"ast":516,"=\"":517,"The":518,"ĠJ":519,"ĊĠ":520,"Ġim":521,"Ġtr":522,"Ġall":523,"ub":524,"ap":525,"Ġdo":526,"ign":527,"ĠU":528,"ind":529,"Ġ[":530,"ition":531,"ĊĠĠĠĠĠĠĠ":532,"ĠâĢ":533,"ip":534,"ak":535,"Ġwhich":536,"ice":537,"ph":538,"----------------":539,"..":540,"Ġ+":541,"Ġhas":542,"one":543,"cc":544,"ary":545,"ous":546,"Ġbut":547,"Ġint":548,"ime":549,"_{":550,"ens":551,"ĠIn":552,"ĉĉ":553,"Ġwor":554,"//":555,"Ġdis":556,"ress":557,"con":558,"du":559,"ĠĠĠĠĠĠĠĠĠĠĠĠĠĠĠĠĠĠĠĠĠĠĠĠĠĠĠĠĠĠĠĠ":560,"are":561,"ations":562,"ong":563,"ence":564,"int":565,"ty":566,"Ġ4":567,"Ġwill":568,"ile":569,"ff":570,"ne":571,"ok":572,"Ġgo":573,"ru":574,"Ġout":575,"),":576,"ose":577,"ents":578,"gh":579,"ance":580,"ep":581,"Ġ<":582,"Ġif":583,"Ġper":584,"Ġen":585,"ally":586,"au":587,"Ġhis":588,"ĠTh":589,"av":590,"ber":591,"Ġ5":592,"so":593,"ace":594,"Ġun":595,"Âł":596,"Ġone":597,"}}":598,"ely":599,"port":600,"ord":601,"ia":602,"xt":603,"ory":604,"ear":605,"ire":606,"Ġthey":607,"ach":608,"ect":609,"Ġapp":610,"ions":611,"Ġev":612,"Ġso":613,"ry":614,"form":615,"Ġup":616,"ang":617,"Ġar":618,"Ġtheir":619,"Ġmore":620,"lic":621,"âĢĿ":622,"Ġqu":623,"Ġpart":624,"ail":625,"ĠK":626,"Ġag":627,"ll":628,"ite":629,"Ġthere":630,"ft":631,"ors":632,"ake":633,"ys":634,"Ġpre":635,"Ġother":636,"cre":637,"Ġhad":638,"ound":639,"Ġ$\\":640,"Ġli":641,"own":642,"fere":643,"very":644,"urn":645,"vel":646,"Ġsa":647,"ata":648,"Ġyour":649,"ount":650,"Ġ}":651,"ĠSt":652,"Ġbeen":653,"ĠĠĠĠĠĠĠ":654,"Ġman":655,"ree":656,"erv":657,"com":658,"Ġsp":659,"ks":660,"Ġalso":661,"Ġwould":662,"Ġwho":663,"Ġany":664,"ates":665,"we":666,"ĠV":667,"eth":668,"Ġno":669,"Ġmy":670,"Ġ'":671,"ĊĊ":672,"de":673,"[@":674,"Ġabout":675,"math":676,"nder":677,"Ġwhen":678,"low":679,"ject":680,"ific":681,"Ġtime":682,"Ġob":683,"ook":684,"Ġthan":685,"10":686,"erm":687,"ple":688,"\\]":689,"ict":690,"'t":691,"wo":692,"ref":693,"Ġass":694,"ater":695,"Ġover":696,"row":697,"Ġ6":698,"Ġits":699,"ring":700,"ck":701,"}$":702,"Ġ19":703,"clud":704,"Ġsome":705,"ob":706,"ĠâĢľ":707,"rib":708,"Ġspe":709,"fter":710,"</":711,"lect":712,"Ġgen":713,"ces":714,"Ġsc":715,"ays":716,"Ġbet":717,"Ġsy":718,"Ġdif":719,"Ġ&":720,"In":721,"Ġnew":722,"get":723,"^{":724,"fect":725,"ove":726,"old":727,"Ġam":728,"irst":729,"ĊĠĠĠĠĠĠĠĠĠĠĠ":730,"ied":731,"hat":732,"Ġsub":733,"vers":734,"Ġte":735,"Ġinter":736,"ode":737,"ild":738,"Ġfe":739,"Ġacc":740,"Ġkn":741,"Ġget":742,"Ġdef":743,"reat":744,"ps":745,"ĠY":746,"ause":747,"Ġcomm":748,"Ġour":749,"Ġact":750,"ced":751,"ov":752,"Ġoff":753,"Ġinto":754,"Ġher":755,"Ġunder":756,"19":757,"Ġro":758,"Ġrel":759,"Ġmay":760,"ings":761,"ink":762,"Ġcons":763,"ĠIt":764,"iss":765,"Ġpe":766,"Ġrec":767,"ick":768,"ual":769,"Ġdes":770,"ative":771,"Ġsaid":772,"Ġtwo":773,"pon":774,"Ġonly":775,"iew":776,"ari":777,"Ġval":778,"ma":779,"Ġwork":780,"Ġstud":781,"ert":782,"Ġthem":783,"pect":784,"Ġyear":785,"12":786,"ular":787,"========":788,"Ġwhat":789,"Ġadd":790,"Ġmod":791,"Ġbec":792,"Ġret":793,"Ġlike":794,"Ġind":795,"Ġ7":796,"hed":797,"ark":798,"igh":799,"Ġ201":800,"unction":801,"Ġpos":802,"Ġtrans":803,"ĠCh":804,"Ġreg":805,"elf":806,"Ġem":807,"##":808,"pro":809,"Ġinv":810,"ĠThis":811,"cess":812,"stem":813,"Ġbl":814,"oint":815,"ating":816,"Ġsuch":817,"ased":818,"Ġuse":819,"ish":820,"Ġco":821,"ef":822,"}\\":823,"Ġfirst":824,"ock":825,"Ġjust":826,"Ġph":827,"ex":828,"itt":829,"Ġform":830,"Ġpres":831,"ĠWe":832,"Ġthese":833,"ont":834,"ian":835,"Ġdiffere":836,"Ġprov":837,"Ġ8":838,"Ġpr":839,"ade":840,"ility":841,"Ġwhere":842,"ient":843,"\",":844,"ĠHe":845,"Ġafter":846,"ments":847,"Ġsign":848,"Ġdet":849,"Ġpat":850,"right":851,"Ġpol":852,"der":853,"ĊĠĠĠĠĠ":854,"olog":855,"Ġhow":856,"ize":857,"ood":858,"Ġcol":859,"ffect":860,"oth":861,"Ġexp":862,"type":863,"ec":864,"Ġ10":865,"ween":866,"Ċĉĉ":867,"ident":868,"ss":869,"Ġcell":870,"Ġshe":871,"Ġneed":872,"Ġcould":873,"rac":874,"__":875,"ption":876,"Ġthen":877,"gr":878,"Ġclass":879,"Ġset":880,"aw":881,"ople":882,"11":883,"the":884,"fig":885,"ution":886,"Ġresult":887,"](":888,"ough":889,"ange":890,"Ġbetween":891,"Ċĉ":892,"ublic":893,"Ġ9":894,"()":895,"Ġatt":896,"Ġrem":897,"St":898,".,":899,"ious":900,"000":901,"ble":902,"ollow":903,"Ġ\\[":904,"ise":905,"Ġsupp":906,"ix":907,"ype":908,"round":909,"sp":910,"les":911,"Ġused":912,"iel":913,"Ġinclud":914,"20":915,"ourt":916,"Ġdata":917,"ible":918,"Ġdid":919,"ax":920,"Ġknow":921,"up":922,"){":923,"ons":924,"ues":925,"Ġshow":926,"als":927,"Ġnum":928,"Ġfl":929,"eg":930,"ĊĠĠĠĠĠĠĠĠĠĠĠĠĠĠĠ":931,"ER":932,"cy":933,"Ġfact":934,"oy":935,"ull":936,"--------------------------------":937,"Ġhim":938,"ox":939,"Ġshould":940,"ics":941,"Ġac":942,"ract":943,"Ġpeople":944,"tern":945,"rough":946,"Ġcor":947,"Ġsim":948,"ning":949,"\">":950,"Ġspec":951,"Ġrequ":952,"hen":953,"its":954,"Ġsur":955,"Ġusing":956,"Ġback":957,"ruct":958,"Ġfollow":959,"Ġfunction":960,"ms":961,"Ġsee":962,"Ġi":963,"fore":964,"Ġdist":965,"Ġbecause":966,"ield":967,"Ġconst":968,"inal":969,"ren":970,"ined":971,"Ġsystem":972,")$":973,"pos":974,"ities":975,"Ġ.":976,"ool":977,"ful":978,"Ġmost":979,"ever":980,"Ġinst":981,"rit":982,"****":983,"li":984,"sc":985,"ited":986,"13":987,"ĊĠĠĠĠĠĠĠĠĠĠĠĠĠĠĠĠ":988,"\"}":989,"Ġwell":990,"14":991,"Ġsm":992,"ins":993,"uring":994,"put":995,"->":996,"Ġend":997,"IN":998,"15":999,"Ġreturn":1000,"ures":1001,"Ġthrough":1002,"Ġgener":1003,"Ġprodu":1004,"ĠUn":1005,"Ġright":1006,"Ġbu":1007,"16":1008,"Ġtra":1009,"Ġchar":1010,"Ġtest":1011,"]{":1012,"Ġagain":1013,"Ġext":1014,"25":1015,"Ġwant":1016,"Ġ[@":1017,"roup":1018,"hes":1019,"(\\":1020,"Ġdifferent":1021,"Ġeach":1022,"ized":1023,"mer":1024,"Ġhigh":1025,"ator":1026,"ational":1027,"ower":1028,"io":1029,"err":1030,"ew":1031,"ically":1032,"to":1033,"Ġeffect":1034,"cond":1035,"Ġcase":1036,"Ġstate":1037,"Th":1038,"Ġent":1039,"Ġ200":1040,"imes":1041,"Ġdoes":1042,"wn":1043,"ĠĠĠĠĠ":1044,"ON":1045,"ĠSe":1046,"ric":1047,"other":1048,"Ġeven":1049,"uch":1050,"],":1051,"nce":1052,"ctions":1053,"ork":1054,"ily":1055,"Ġmake":1056,"let":1057,"par":1058,"ethod":1059,"vent":1060,"Ġ:":1061,"text":1062,"ients":1063,"riv":1064,"rol":1065,"uc":1066,"...":1067,"Ġmin":1068,"_{\\":1069,"set":1070,"Ġke":1071,"Ġevery":1072,"Ġsame":1073,"ta":1074,"cal":1075,"](#":1076,"Ġcur":1077,"ants":1078,"read":1079,"sh":1080,"Ġnow":1081,"Ġap":1082,"Ġcall":1083,"Ġway":1084,"23":1085,"Ġra":1086,"Ġ@":1087,"Ġincre":1088,"aint":1089,"Ġanal":1090,"Ġ|":1091,"str":1092,"ute":1093,"Ġloc":1094,"18":1095,"Ġfind":1096,"ng":1097,"Ġlook":1098,"cept":1099,"ince":1100,"cent":1101,"arch":1102,"Ġdon":1103,"ward":1104,"left":1105,"?\"":1106,"))":1107,"velop":1108,"Ġthose":1109,"Ġpoint":1110,"val":1111,"Ġ/":1112,"frac":1113,"ug":1114,"ason":1115,"Ġyears":1116,"Ġlong":1117,"pr":1118,"Ġpar":1119,"Ġboth":1120,"oid":1121,"::":1122,"oci":1123,"Ġhere":1124,"Ġvari":1125,"Ġpartic":1126,"Ġinte":1127,"17":1128,"Ġmat":1129,"Ġmon":1130,"irect":1131,"day":1132,"ense":1133,"Ġexper":1134,"Ġvery":1135,"ases":1136,"und":1137,"Ġfound":1138,"Ġtri":1139,"Ġbel":1140,"Ġaut":1141,"ife":1142,"ines":1143,"ample":1144,"yp":1145,"rent":1146,"Ġdi":1147,"led":1148,"ting":1149,"Ġfil":1150,"AT":1151,"Ġmed":1152,"24":1153,"Ġbeing":1154,"Ġcar":1155,"rm":1156,"air":1157,"rest":1158,"]{}":1159,"Ġdec":1160,"Ġmem":1161,"Ġappro":1162,"ages":1163,"ym":1164,"erg":1165,"Ġx":1166,"Ġplay":1167,"atic":1168,"Ġpers":1169,"Ġ//":1170,"ature":1171,"Ġmany":1172,"Ġbefore":1173,"ices":1174,"Ġprote":1175,"It":1176,"Ġnumber":1177,"ared":1178,"eng":1179,"Ġel":1180,"Ġgr":1181,"$\\":1182,"ĠCom":1183,"\":":1184,"]\\]":1185,"alth":1186,"cer":1187,"yl":1188,"ified":1189,"Ġser":1190,"over":1191,"Ġmodel":1192,"ĠQ":1193,"Ġrespon":1194,"Ġop":1195,"50":1196,"ateg":1197,"fl":1198,"Ġhel":1199,"upp":1200,"aking":1201,"Ġ_":1202,"ES":1203,"tr":1204,"app":1205,"ody":1206,"Ġthink":1207,"âĢī":1208,"AR":1209,"ression":1210,"ave":1211,"arg":1212,"formation":1213,"Ġpublic":1214,"Ġrep":1215,"Ġgood":1216,"ĠFor":1217,"We":1218,"Ġstr":1219,"Ġcourt":1220,"Ġins":1221,"ism":1222,"min":1223,"ĠĠĠĠĠĠ":1224,"Ġdown":1225,"Ġvalue":1226,"ĠĠĠĠĠĠĠĠĠĠĠĠĠĠĠĠĠĠĠĠĠĠĠĠĠĠĠĠĠĠĠĠĠĠĠĠĠĠĠĠĠĠĠĠĠĠĠĠĠĠĠĠĠĠĠĠĠĠĠĠĠĠĠĠ":1227,"ale":1228,"Ġprocess":1229,"Ġche":1230,"Ġgu":1231,"Ġmade":1232,"of":1233,"Ġreport":1234,"ash":1235,"NA":1236,"ank":1237,"ively":1238,"ired":1239,"Ġgiv":1240,"view":1241,"ann":1242,"gg":1243,"Ġwhile":1244,"ven":1245,"Ġlevel":1246,"ness":1247,"ved":1248,"ĠLet":1249,"30":1250,"ually":1251,"Ġ\\[[@":1252,"Ġdevelop":1253,"Ġsol":1254,"Ġpresent":1255,"Ġstudy":1256,"201":1257,"ret":1258,"way":1259,"Ġstart":1260,"ĊĊĠĠĠ":1261,"ght":1262,"://":1263,"ained":1264,"cul":1265,"dition":1266,"line":1267,"',":1268,"Ġequ":1269,"32":1270,"lement":1271,"}{":1272,"Ġet":1273,"Ġsecond":1274,"Ġdisc":1275,"Ġsupport":1276,"mathb":1277,"Ġcount":1278,"ĠPro":1279,"Ġref":1280,"Ġmuch":1281,"Ġterm":1282,"Ġown":1283,"Ġcells":1284,"OR":1285,".âĢĿ":1286,"ray":1287,"ĠRe":1288,"Ġhand":1289,"CR":1290,"Ġthree":1291,"ole":1292,"ars":1293,"ision":1294,"Ġserv":1295,"ization":1296,"Ġmethod":1297,"oad":1298,"ĠâĢĵ":1299,"ĠAl":1300,"ument":1301,"ĠIf":1302,"Ġread":1303,"Ġposs":1304,"gan":1305,"ffic":1306,"Ġorder":1307,"Ġant":1308,"ider":1309,"(\"":1310,"Ġ12":1311,"Ġdep":1312,"Ġpatients":1313,"Ġwithout":1314,"any":1315,"Ġduring":1316,"ams":1317,"Ġnon":1318,",\"":1319,"ality":1320,"ency":1321,"$.":1322,"Ġname":1323,"ĠÂ":1324,"Ġest":1325,"What":1326,"uss":1327,"abel":1328,"ential":1329,"ton":1330,"amp":1331,"eta":1332,"ĠAnd":1333,"ns":1334,"cri":1335,"$,":1336,"ner":1337,"med":1338,"ĠAs":1339,"igned":1340,"80":1341,"Ġhelp":1342,"ource":1343,"arly":1344,",\\":1345,"Ġcre":1346,"Ġactiv":1347,"Ġline":1348,"Ġ20":1349,"0000":1350,"Ġproper":1351,"cial":1352,"Ġperform":1353,"ify":1354,"ĠHow":1355,"ST":1356,"Ġgroup":1357,"ided":1358,"ists":1359,"name":1360,"tt":1361,"Ġlead":1362,"99":1363,"ron":1364,"EN":1365,"Ġimport":1366,"ather":1367,"(-":1368,"IT":1369,"idence":1370,"Ġz":1371,"alk":1372,"be":1373,"Re":1374,"ability":1375,"Ġproble":1376,"ters":1377,"Ġcle":1378,"man":1379,"Ġlast":1380,"ond":1381,"ving":1382,"ane":1383,"Ġrun":1384,"Ġiss":1385,"Ġsay":1386,"raph":1387,"Ġagainst":1388,"Ġsignific":1389,"Ġmust":1390,"ouse":1391,"ulation":1392,"aim":1393,"âĢĵ":1394,"Ġsmall":1395,"acter":1396,"ah":1397,"Ġav":1398,"Ġgl":1399,"ĠBut":1400,"pha":1401,"34":1402,"Ġ**":1403,"ross":1404,"ames":1405,"Ġoper":1406,"Ġstill":1407,"amb":1408,"use":1409,"Ġtake":1410,"not":1411,"ĠAn":1412,"22":1413,"Let":1414,"Ġconf":1415,"Ġlet":1416,"Ġtype":1417,"itive":1418,"64":1419,"serv":1420,"AN":1421,"Ġappe":1422,"Ġmet":1423,"Ġcontrol":1424,"Fig":1425,"hip":1426,"Ġsom":1427,"Ġlaw":1428,"Ġexpl":1429,"\\[":1430,"ĠYou":1431,"He":1432,"Ġperson":1433,"Ġcou":1434,"Ġpur":1435,"irc":1436,"Ġchild":1437,"oh":1438,"Ġ15":1439,"ml":1440,"Ġdirect":1441,"ention":1442,"();":1443,"Ġinformation":1444,"oot":1445,"ger":1446,"Ġinc":1447,"ysis":1448,"ww":1449,"ination":1450,"Ġday":1451,"ology":1452,"Ġed":1453,"Con":1454,"Ġwr":1455,"urther":1456,"].":1457,"âĢľ":1458,"Ġelect":1459,"Ġfin":1460,"Ġtreat":1461,"Ġquest":1462,"yn":1463,"chn":1464,"ier":1465,"ides":1466,"Ġident":1467,"Ġcent":1468,"ĊĠĠ":1469,"Ġstand":1470,"Ġresults":1471,"atch":1472,"Ġpost":1473,"40":1474,"less":1475,"ek":1476,"ience":1477,"vious":1478,"60":1479,"---":1480,"Ġca":1481,"AL":1482,"Ġmeas":1483,"Ġsignificant":1484,"Ex":1485,"for":1486,"Ġmult":1487,"ets":1488,"Ġfam":1489,"br":1490,"Ġerr":1491,"ĠNew":1492,"mathcal":1493,"agn":1494,"gen":1495,"Pro":1496,"Ġdeterm":1497,"ium":1498,"Ġdem":1499,"Ġfollowing":1500,"ĠDe":1501,"ots":1502,"Ġ,":1503,"This":1504,"ote":1505,"ately":1506,"Ġallow":1507,"200":1508,"}(":1509,"ts":1510,")\\":1511,"work":1512,"CT":1513,"Ġgoing":1514,"me":1515,"Ġbre":1516,"Ġwithin":1517,"Ġlife":1518,"ording":1519,"alpha":1520,"ission":1521,"ploy":1522,"arge":1523,"htt":1524,"Ġ18":1525,"Ġcondition":1526,"ital":1527,"aterial":1528,"dd":1529,"Ġredu":1530,"ior":1531,"aj":1532,"ured":1533,"FF":1534,"ished":1535,"Ġlim":1536,"eral":1537,"ivers":1538,"Ġfr":1539,"land":1540,"ional":1541,"Ġhum":1542,"ĠTr":1543,"'m":1544,"33":1545,"meric":1546,"ural":1547,"iff":1548,"27":1549,"Ġrece":1550,"ule":1551,"Ġreal":1552,"ration":1553,"Ġcontin":1554,"Ġsince":1555,"ains":1556,"duct":1557,"Ġworld":1558,"Ġcare":1559,"resent":1560,"Ġaround":1561,"Ġdev":1562,"Ġstruct":1563,"Ġstat":1564,"ĠX":1565,"Ġ*/":1566,"Ġaddition":1567,"que":1568,"Ġcurrent":1569,"self":1570,"ived":1571,"Ġinterest":1572,"ently":1573,"Ġanother":1574,"Ġ14":1575,"crib":1576,",âĢĿ":1577,"ID":1578,"ral":1579,"Ġmark":1580,"Ġpass":1581,"chool":1582,"You":1583,"ĠWh":1584,"Ġfield":1585,"bl":1586,"da":1587,"Ġopen":1588,"fer":1589,"Ġhealth":1590,"Ġself":1591,"az":1592,"tic":1593,"akes":1594,"Ġinvest":1595,"Ġgover":1596,"================":1597,"Ġcommun":1598,"lex":1599,"arm":1600,"arent":1601,"Ġarg":1602,"Ġgreat":1603,"28":1604,"ĠZ":1605,"Ġtry":1606,"35":1607,"Ġexample":1608,"SE":1609,"ĠCon":1610,"bers":1611,"Ġimp":1612,"Ġlist":1613,"ives":1614,"ither":1615,"05":1616,"Ġpower":1617,"^{\\":1618,"rel":1619,"Ġclaim":1620,"ves":1621,"ott":1622,"Ġbas":1623,"gram":1624,"Ġdel":1625,"Ġincluding":1626,"amet":1627,"Ġcr":1628,"Ġmight":1629,"Ġtem":1630,"sec":1631,"ds":1632,"ways":1633,"ething":1634,"Ġocc":1635,"Ġbeh":1636,"face":1637,"Ġtoo":1638,"Ġmean":1639,"ĠCl":1640,"LE":1641,"icro":1642,"arget":1643,"Ġgiven":1644,"]\\].":1645,"here":1646,"ribut":1647,"Ġless":1648,"Ġ</":1649,"lease":1650,"Ġchang":1651,"Ġsl":1652,"ably":1653,"def":1654,"Ġhead":1655,"iness":1656,"ope":1657,"Ch":1658,"Ġrespect":1659,"Ġreally":1660,"ury":1661,"alse":1662,"26":1663,"ining":1664,"ought":1665,"rap":1666,"ĠHowever":1667,"Ġassoci":1668,"ĠSh":1669,"Ġhig":1670,"âĢĶ":1671,"Ġadv":1672,"stand":1673,"ault":1674,"Ġhapp":1675,"Ġ16":1676,"Ġfile":1677,"Ġ{#":1678,"29":1679,"Ġlow":1680,"Ġ#":1681,"ump":1682,"ĠIs":1683,"lection":1684,"Ġplace":1685,"aining":1686,"roll":1687,"els":1688,"ety":1689,"********":1690,"Ġbased":1691,"Ġmonth":1692,"Ġgovern":1693,"Ġve":1694,"Ġhome":1695,"vert":1696,"RE":1697,"ĠThey":1698,"Ġapplic":1699,"ĠAmeric":1700,"Ġpot":1701,"ategory":1702,"Ġvis":1703,"Ġobserv":1704,"alcul":1705,"hor":1706,"arn":1707,"ends":1708,"'re":1709,"ength":1710,"ference":1711,"Ġ--":1712,"thing":1713,"37":1714,"('":1715,"ĊĊĠ":1716,"Ġgrow":1717,"36":1718,"Ġsing":1719,"rt":1720,"Ġtop":1721,"####":1722,"Ġfew":1723,"ivid":1724,"by":1725,"IC":1726,"Ġwom":1727,"Ġmot":1728,"ãģ":1729,"ser":1730,"Ġcap":1731,"Ġpath":1732,"Ġprob":1733,"94":1734,"ĠNo":1735,"Ġanalysis":1736,"Ġindic":1737,"osed":1738,"Ġbus":1739,"reg":1740,"Ġobject":1741,"Ġsomething":1742,"Ġpop":1743,"21":1744,"Ġbest":1745,"38":1746,"requ":1747,"Ġ$$\\":1748,"leg":1749,"ext":1750,"ery":1751,"att":1752,"Ġnext":1753,"Ġview":1754,"ackage":1755,"AC":1756,"Ġimportant":1757,"ised":1758,"oss":1759,"Ġtechn":1760,"Ġcommon":1761,"mu":1762,"Ġwhether":1763,"ĠPh":1764,"Ġfour":1765,"Cl":1766,"ittle":1767,"Ġobt":1768,"Ġproduct":1769,"ertain":1770,"part":1771,"mun":1772,"Ġchange":1773,"Ġopt":1774,"Ġleft":1775,"ats":1776,"Ġbelie":1777,"Ġexpect":1778,")/":1779,"Ġput":1780,"ĠLe":1781,"70":1782,"Ġsugg":1783,"Ġseem":1784,"cur":1785,"Ġsuggest":1786,"ĠEx":1787,"Ġleg":1788,"ĠWhat":1789,"ĠThere":1790,"cing":1791,"AS":1792,"plic":1793,"used":1794,"mb":1795,"Ġevidence":1796,"Ġbi":1797,"Ġfail":1798,"âĪ":1799,"Ġprof":1800,"ergy":1801,"90":1802,"hib":1803,"Ġparticular":1804,"label":1805,"ccess":1806,"ware":1807,"por":1808,"ĠĠĠĠĠĠĠĠĠĠĠĠĠĠĠĠĠĠĠĠĠĠĠĠ":1809,"ification":1810,"che":1811,"abl":1812,"Ġdescrib":1813,"45":1814,"Ġturn":1815,"75":1816,"To":1817,"ocument":1818,"opy":1819,"Ġsk":1820,"Ġlight":1821,"Ġunt":1822,"Com":1823,"Ġabove":1824,"Ġask":1825,"Ġ30":1826,"action":1827,"elta":1828,"95":1829,"Ġnever":1830,"mathbb":1831,"$$":1832,"Ġbetter":1833,"div":1834,"IS":1835,"Ġinvol":1836,"Ġconne":1837,"ended":1838,"version":1839,"Ġreason":1840,"new":1841,"}^{":1842,"rop":1843,"Ġlarge":1844,"ending":1845,"ĠSo":1846,"Ġbo":1847,"ĠInd":1848,"pi":1849,"Ġtrue":1850,"ĠPl":1851,"ormal":1852,"cont":1853,"Ġproblem":1854,"rain":1855,"bs":1856,"):":1857,"},":1858,"Ġtreatment":1859,"add":1860,"ples":1861,"ird":1862,"data":1863,"Ġeas":1864,"ered":1865,"!\"":1866,"ene":1867,"Ġsit":1868,"ilar":1869,"ambda":1870,"amma":1871,"Ġleast":1872,"Ġgot":1873,"Ġmov":1874,"igma":1875,"Ġsize":1876,"Ġpossible":1877,"Ġbuild":1878,"col":1879,"Ġdue":1880,"Ġrese":1881,"Ġrepresent":1882,"Name":1883,"ask":1884,"Ġconsider":1885,"Ġimpro":1886,"Ġ11":1887,"ailable":1888,"As":1889,"Ġcharacter":1890,"Ġlocal":1891,"Ġthings":1892,"Ġpay":1893,"Ġtyp":1894,"inf":1895,"Ġtot":1896,"Ġposition":1897,"Ġopp":1898,"Ġhy":1899,"ik":1900,"ĠAll":1901,"Ġide":1902,"Ġwater":1903,"ED":1904,"Ġcome":1905,"Ġlittle":1906,"illion":1907,"son":1908,"=\\":1909,"ĊĠĠĠĠĠĠĠĠĠ":1910,"epend":1911,"ividual":1912,"____":1913,"ĠUS":1914,"ological":1915,"co":1916,"Ġrest":1917,"play":1918,"iod":1919,"orn":1920,"Ġris":1921,"back":1922,"iron":1923,"Ġelse":1924,"Ġcy":1925,"Ġhuman":1926,"Ġinit":1927,"Ġold":1928,"ctor":1929,"aring":1930,"ĠShe":1931,"Ġquestion":1932,"Ġshown":1933,"ĠâĢĶ":1934,"ĠTo":1935,"idth":1936,"Ġbr":1937,"Ġbig":1938,"Ġfree":1939,"ances":1940,"atory":1941,"ina":1942,"ajor":1943,"Ġ17":1944,"Ġsever":1945,"Ġdefend":1946,"sum":1947,"ream":1948,"Ġhaving":1949,"org":1950,"Ġ==":1951,"Ġprom":1952,"HE":1953,"Ġbro":1954,"etic":1955,"ĠApp":1956,"ush":1957,"Ġgive":1958,"Ġfurther":1959,"Ġdays":1960,"Ġrecord":1961,"98":1962,"48":1963,"ĠOn":1964,"Ġemploy":1965,"mon":1966,"Ġes":1967,"Ġtrial":1968,"uck":1969,"aps":1970,"Ġ25":1971,"Ġgre":1972,"ids":1973,"Ġrad":1974,"Ġexpression":1975,"ĠState":1976,"nal":1977,"Ġhist":1978,"Ġorgan":1979,"Se":1980,"Ġprevious":1981,"Ġsum":1982,"Ġnet":1983,"Ġ{\\":1984,"ho":1985,"If":1986,"Ġsw":1987,"Ġgame":1988,"Id":1989,"Ġprovide":1990,"Ġoffic":1991,"uro":1992,"Ġ13":1993,"Ġjud":1994,"mod":1995,"ĠAr":1996,"imal":1997,"66":1998,"Ġcode":1999,"];":2000,"Ġprogram":2001,"čĊ":2002,"Ġgovernment":2003,"aut":2004,"Ġhard":2005,"Ġkeep":2006,"clude":2007,"Ġpa":2008,"Ġindividual":2009,"And":2010,"egin":2011,"Ġweek":2012,"Ġdiv":2013,"itor":2014,"ental":2015,"usion":2016,"Ġ)":2017,"Ġalways":2018,"Ġdise":2019,"Ġden":2020,"Ġinf":2021,"Ġeither":2022,"ocial":2023,"But":2024,"Ġcost":2025,"Ġmain":2026,"uff":2027,"Ġcalled":2028,"inc":2029,"iple":2030,"ead":2031,"ĠThese":2032,"bar":2033,"Ġknown":2034,"key":2035,"Ġsimilar":2036,"Ġschool":2037,"Type":2038,"Ġcomb":2039,"âĪĴ":2040,"}_":2041,"ĠAd":2042,"Ġpotential":2043,"lev":2044,"LL":2045,"Ġfeel":2046,"44":2047,"Ġ!":2048,"Ġgeneral":2049,"roups":2050,"ception":2051,"Ã©":2052,"Ġavailable":2053,"Ġuntil":2054,"Ġsequ":2055,"><":2056,"Ġpred":2057,"ĠCourt":2058,"Ġwon":2059,"opt":2060,"Category":2061,"indow":2062,"Ġside":2063,"though":2064,"Ġsingle":2065,"yle":2066,"Ġmeans":2067,"ĊĠĠĠĠĠĠĠĠĠĠĠĠĠĠĠĠĠĠĠ":2068,"Ġben":2069,"Ġcho":2070,"Ġvalues":2071,"RO":2072,"string":2073,"Ġable":2074,"AP":2075,"96":2076,"Ġpriv":2077,"Ġaction":2078,"ĠRes":2079,"Ġlik":2080,"Ġspecific":2081,"For":2082,"ĠUnited":2083,"Ġvol":2084,"phi":2085,"ten":2086,"this":2087,"oney":2088,"mit":2089,"ĠĠĠĠĠĠĠĠĠĠĠ":2090,"ystem":2091,"Ġmaterial":2092,"Ġder":2093,"Ġteam":2094,"oor":2095,"Ġfac":2096,"Ġproject":2097,"88":2098,"Ġfamily":2099,"}_{":2100,"oper":2101,"ĠFr":2102,"Ġkey":2103,"Ġphys":2104,"ready":2105,"raw":2106,"Ġ%":2107,"iversity":2108,"respon":2109,"97":2110,"Ġinfl":2111,"Ġmajor":2112,"ours":2113,"Ġstudies":2114,"Ġunderstand":2115,"ern":2116,"unt":2117,"Ġorig":2118,"Ġtimes":2119,"Ġseveral":2120,"100":2121,"cle":2122,"class":2123,"Ġcases":2124,"angle":2125,"var":2126,"Ġhold":2127,"itted":2128,"Ġplan":2129,"ourse":2130,"import":2131,"Ċĉĉĉĉ":2132,"gment":2133,"span":2134,"Ġhigher":2135,"Ġabs":2136,"ison":2137,"hy":2138,"begin":2139,"essage":2140,"Ġcirc":2141,"ressed":2142,"ĠThat":2143,"ries":2144,"lected":2145,"itle":2146,"Ġperiod":2147,"ĊĊĠĠĠĠĠĠĠ":2148,"Ġsuper":2149,"iction":2150,"Ġarea":2151,"pone":2152,"ĠCol":2153,"65":2154,"Ġtarget":2155,"ĠSc":2156,"http":2157,"Ġchildren":2158,"iting":2159,"iol":2160,"Ġbody":2161,"pped":2162,"ored":2163,"ences":2164,"ney":2165,"idd":2166,"Ġmove":2167,"osp":2168,"String":2169,"cript":2170,"conom":2171,"'ve":2172,"AD":2173,"ustom":2174,"ling":2175,"Ġ24":2176,"Ġtre":2177,"Ġstandard":2178,"Ġenergy":2179,"04":2180,"Ġfull":2181,"Ġwhy":2182,"Tr":2183,"ember":2184,"Ġexist":2185,"Ġerror":2186,"Ġtotal":2187,"test":2188,"rict":2189,"fficient":2190,"ister":2191,"Ġ100":2192,"Ġ=>":2193,"ĠBl":2194,"Ġspace":2195,"Ġreview":2196,"An":2197,"77":2198,"Ġrate":2199,"aintiff":2200,"mm":2201,"Ġprim":2202,"rior":2203,"Ġbusiness":2204,"ume":2205,"Res":2206,"ering":2207,"oun":2208,"Ġlater":2209,"})":2210,"Ġaccess":2211,"Ġfar":2212,"Ġneg":2213,"uppose":2214,"Ġdidn":2215,"Ġlevels":2216,"Ġsure":2217,"Ċĉĉĉ":2218,"ĠAt":2219,"Ġinvestig":2220,"Ġdiff":2221,"}$$":2222,"ibility":2223,"ged":2224,"pm":2225,"Ġthought":2226,"Ġlot":2227,"ET":2228,"sub":2229,"ued":2230,"alf":2231,"go":2232,"ION":2233,"Ġinj":2234,"empt":2235,"Ġresponse":2236,"ape":2237,"chan":2238,"Ġalready":2239,"Ġshort":2240,"Ġassociated":2241,"----------------------------------------------------------------":2242,"Val":2243,"AM":2244,"ayer":2245,"}^":2246,"55":2247,"Ġreported":2248,"ables":2249,"nces":2250,"Ġcrit":2251,"ivity":2252,"utes":2253,"cription":2254,"ators":2255,"verage":2256,"Ġdiscuss":2257,"ĠStates":2258,"ift":2259,"Ġmen":2260,"return":2261,"aken":2262,"eps":2263,"Ġamong":2264,"Ġstrong":2265,"Ġamount":2266,"arrow":2267,"Ġcertain":2268,"Ġrequired":2269,"ement":2270,"Ġparamet":2271,"-\\":2272,"ĠSp":2273,"olution":2274,"mission":2275,"outh":2276,"Ġexperim":2277,"Ġalong":2278,"asing":2279,"Ġsent":2280,"iving":2281,"sq":2282,"Ġage":2283,"Ġdone":2284,"aligned":2285,"'ll":2286,"package":2287,"side":2288,"viron":2289,"></":2290,"Ġsubject":2291,"ler":2292,"Ġaway":2293,"Ġmass":2294,"ĠWhen":2295,"rug":2296,"rist":2297,"Ġoccur":2298,"Ġ>":2299,"Ġissue":2300,"Ġpress":2301,"Ġpract":2302,"Ġfinal":2303,"table":2304,"osis":2305,"Ġterms":2306,"78":2307,"cd":2308,"lambda":2309,"rect":2310,"Ġfri":2311,"II":2312,"Ġmicro":2313,"lete":2314,"Ġpercent":2315,"Ġrequire":2316,"ension":2317,"sequ":2318,"Ġwomen":2319,"_\\":2320,"icy":2321,"Ġdom":2322,"Ġoften":2323,"Ġsays":2324,"IG":2325,"place":2326,"Ġcheck":2327,"Ġdevelopment":2328,"Ġgroups":2329,"ogn":2330,"../":2331,"Ġdesign":2332,"sw":2333,"Ġthing":2334,"ising":2335,"ograph":2336,"iver":2337,"ands":2338,"aster":2339,"39":2340,"Ġhowever":2341,"Ġ([":2342,"68":2343,"ga":2344,"ley":2345,"uation":2346,"Ġvir":2347,"Ġlog":2348,"UT":2349,"Ġtell":2350,"Ġsens":2351,"Ġdr":2352,"31":2353,"Is":2354,"Cont":2355,"ey":2356,"amples":2357,"Ġid":2358,"Ġthough":2359,"Ġactivity":2360,"Ġpolit":2361,"rem":2362,"Ġevent":2363,"Ġsuccess":2364,"Ġenough":2365,"omet":2366,"ribution":2367,"Ġeng":2368,"ava":2369,"eb":2370,"Ġfore":2371,"Ġenc":2372,"Ġrelations":2373,"List":2374,"acy":2375,"stit":2376,"ched":2377,"Ġlower":2378,"Ġcompared":2379,"Ġstring":2380,"Ġuser":2381,"Ġsal":2382,"orth":2383,"ript":2384,"Ġ`":2385,"Col":2386,"Ġport":2387,"ung":2388,"Ġwar":2389,"Ġcourse":2390,"Ġ50":2391,"Ġsat":2392,"Ġaccording":2393,"Ġworking":2394,"ique":2395,"ores":2396,"Ġkind":2397,"Ġtold":2398,"Ġconditions":2399,"Ġprovided":2400,"Ġrisk":2401,"pecial":2402,"Ġflu":2403,"Ġaccount":2404,"\")":2405,"ding":2406,"Ar":2407,"Ġfood":2408,"ories":2409,"aces":2410,"order":2411,"Ġrole":2412,"ĠĠĠĠĠĠĠĠĠ":2413,"AG":2414,"Ġmaking":2415,"ources":2416,"ĠOr":2417,"ING":2418,"ival":2419,"Ġ${\\":2420,"Ġprotein":2421,"Ġfund":2422,"Ġaff":2423,"How":2424,"////":2425,"Ġinclude":2426,"Ġincrease":2427,"iation":2428,"Ġupon":2429,"ĠCo":2430,"Ġeffects":2431,"cret":2432,"67":2433,"^{-":2434,"Ġchanges":2435,"Ġla":2436,"ilon":2437,"Ġnecess":2438,"mathbf":2439,"Ġcomput":2440,"date":2441,"85":2442,"Ġbase":2443,"ground":2444,"time":2445,"Ġseen":2446,"beta":2447,"sigma":2448,"gin":2449,"Ġtax":2450,"ges":2451,"Ġdou":2452,"most":2453,"code":2454,"Ġcompon":2455,"uture":2456,"Ġjob":2457,"{{\\":2458,"Ġvoid":2459,"DE":2460,"OT":2461,"UR":2462,"Ġrange":2463,"Ġagre":2464,"Ġincreased":2465,"Ġbenef":2466,"Ġrespons":2467,"angu":2468,"td":2469,"Ġtext":2470,"Al":2471,"Ġcomplex":2472,"ubl":2473,"Ġmoney":2474,"Ġmor":2475,"Ġobserved":2476,"Ġresearch":2477,"vironment":2478,"âĢ¦":2479,"Ġlove":2480,"Ġdisease":2481,"Ġ([@":2482,"Ġpast":2483,"Ġbit":2484,"ĠâĢĺ":2485,"ee":2486,"bib":2487,"Ġsource":2488,"02":2489,"na":2490,"istic":2491,"]).":2492,"CC":2493,"Ġtalk":2494,"Ġproperty":2495,"Ġbecome":2496,"Ġann":2497,"Ġsection":2498,"rodu":2499,"Ġauthor":2500,"ĠÐ":2501,"Ġdoesn":2502,"ties":2503,"inter":2504,"ij":2505,"ev":2506,"Ġmechan":2507,"gether":2508,"Ġtogether":2509,"ĠRep":2510,"ĠÎ":2511,"Ġservice":2512,"Ġcomplet":2513,"Ġcannot":2514,"ucle":2515,"Ġfactors":2516,"medi":2517,"ĊĠĠĠĠĠĠĠĠĠĠĠĠĠĠĠĠĠĠĠĠĠĠĠĠĠĠĠĠĠĠĠĠ":2518,"ache":2519,"Ġsocial":2520,"ror":2521,"ession":2522,"On":2523,"iles":2524,"Ġep":2525,"\"}).":2526,"Ġlarg":2527,"atures":2528,"08":2529,"Ġdetail":2530,"Ġmom":2531,"Ġnormal":2532,"No":2533,"Ġrequest":2534,"anc":2535,"ilit":2536,"ĠUniversity":2537,"Ġcontent":2538,"Ġcalcul":2539,"mp":2540,")*":2541,"Ġparticip":2542,"Ġmonths":2543,"Ġsepar":2544,"CH":2545,"ortun":2546,"ians":2547,"Ġclin":2548,"Ġphot":2549,"Ġconduct":2550,"file":2551,"ection":2552,"Ġfrequ":2553,"umber":2554,"Ġeconom":2555,"ried":2556,"Ġthird":2557,"Ġdoing":2558,"artment":2559,"Ġcreate":2560,"Ġbook":2561,"Ġmeasure":2562,"Ġair":2563,"head":2564,"Ġcountry":2565,"Ġcult":2566,"Ġfoc":2567,"Ġexc":2568,"Ġstructure":2569,"mat":2570,"uit":2571,"Ġmultiple":2572,"Ġimage":2573,"imate":2574,"\\_":2575,"minist":2576,"Ġwa":2577,"html":2578,"Ġinde":2579,"Ġdescribed":2580,"usepackage":2581,"Ġestabl":2582,"wh":2583,"bt":2584,"uration":2585,"ependent":2586,"View":2587,"ony":2588,"icense":2589,"Ġlo":2590,"ened":2591,"bo":2592,"ules":2593,"47":2594,"Ġearly":2595,"Ġcompany":2596,"www":2597,"Ġregard":2598,"rix":2599,"eq":2600,"ruction":2601,"pper":2602,"pec":2603,"09":2604,"posed":2605,"Ġclear":2606,"Ġbehav":2607,"ĠSee":2608,"Ġspecial":2609,"Ġprior":2610,"af":2611,"Sh":2612,"Ġsignal":2613,"Ġspect":2614,"mber":2615,"App":2616,"sqrt":2617,"Ġsurface":2618,"There":2619,"Ġdecre":2620,"Ġfactor":2621,"Ġacross":2622,"Ġpositive":2623,"Ġmeet":2624,"Ġear":2625,"Ob":2626,"ĠGen":2627,"Ġseason":2628,"ixed":2629,"Ġey":2630,"comm":2631,"uf":2632,"CO":2633,"Ġdeath":2634,"cted":2635,"Data":2636,"load":2637,"Ġversion":2638,"itch":2639,"ceed":2640,"Ġprivate":2641,"Ġactually":2642,"icult":2643,"Ġq":2644,"mathrm":2645,"Ġdam":2646,"Ġweight":2647,"ĠAN":2648,"ogen":2649,"ires":2650,"imum":2651,"%)":2652,"Ġmax":2653,"oms":2654,"const":2655,"Ġperformed":2656,"Ġpoints":2657,"ĠBe":2658,"Ġred":2659,"Ġdefendant":2660,"amm":2661,"Ġothers":2662,"ibr":2663,"ĠMar":2664,"Ġrather":2665,"roid":2666,"ĠFig":2667,"Ġviol":2668,"Ph":2669,"Ġlikely":2670,"log":2671,"07":2672,"ude":2673,"Ġmillion":2674,"Ġmut":2675,"ounds":2676,"Ġonce":2677,"69":2678,"off":2679,"partial":2680,"}{\\":2681,"ening":2682,"Ġconcer":2683,"cular":2684,"Ġmar":2685,"ĊĠĠĠĠĠĠ":2686,"inary":2687,"Ġbelow":2688,"Ġdemon":2689,"ĠCan":2690,"Ġbreak":2691,"Ġfive":2692,"Ġcame":2693,"Ġinitial":2694,"value":2695,"Ġquant":2696,"ĠMay":2697,"Ġshows":2698,".)":2699,"Ġdetect":2700,"AB":2701,"Ġcorrespon":2702,"Ġshowed":2703,"Ġmatter":2704,"Ġtemper":2705,"Ġeval":2706,"Ġmembers":2707,"Ġcause":2708,"uses":2709,"Ġscre":2710,"Ġcut":2711,"Ġart":2712,"Ġhtt":2713,"Ġmarket":2714,"iter":2715,"03":2716,"Ġpick":2717,"irm":2718,"Ġaffect":2719,"ensity":2720,"\");":2721,"ĠĠĠĠĠĠĠĠĠĠ":2722,")(":2723,"Ġtook":2724,"equ":2725,"+\\":2726,"Ġaddress":2727,"ĠJoh":2728,"Ġblood":2729,"hing":2730,"atter":2731,"Ġapproach":2732,"Ġdri":2733,"Ð¾":2734,"Ġfalse":2735,"So":2736,"Ġver":2737,"Ġmus":2738,"Ġsystems":2739,"Ġbar":2740,"rad":2741,"Ġvarious":2742,"ager":2743,"bit":2744,"ĠAss":2745,"Ġsite":2746,"Ġsoft":2747,"Ġapplication":2748,"ĠAmerican":2749,"001":2750,"enc":2751,"sy":2752,"Ġ(*":2753,"Ġnight":2754,"Ġobtained":2755,"Ġdrug":2756,"year":2757,"oph":2758,"Ġwrit":2759,"OS":2760,"Ġexperience":2761,"obal":2762,"Ġwhole":2763,"ones":2764,"MP":2765,"Ġever":2766,"idered":2767,"Ġele":2768,"Ġmakes":2769,"Ã¡":2770,"no":2771,"onal":2772,"hold":2773,"AA":2774,"Ġlimit":2775,"....":2776,"Ġadded":2777,"ĠMr":2778,"Ġnull":2779,"Ġrelated":2780,"Figure":2781,"Ġtaken":2782,"Ġflow":2783,"Ġ$(":2784,"ino":2785,"Ġanti":2786,"57":2787,"'d":2788,"Ġfuture":2789,"Ġdemonstr":2790,"Ġconsidered":2791,"raft":2792,"Ġdeal":2793,"ĠOne":2794,"Ġparent":2795,"Ġyet":2796,"Ġconsist":2797,"abor":2798,"Ġyoung":2799,"ĠGod":2800,"Ġloss":2801,"Ġcancer":2802,"uild":2803,"Un":2804,"now":2805,"Ġconcent":2806,"ĠIN":2807,"Ġhouse":2808,"urs":2809,"Ġdefined":2810,"------------":2811,"Ġrelationship":2812,"ama":2813,"illed":2814,"plement":2815,"Ġcommunity":2816,"oll":2817,"*,":2818,"Ġhom":2819,"Ġassess":2820,"ĠTe":2821,"Ġbelieve":2822,"Ġanaly":2823,"$-":2824,"anguage":2825,"my":2826,"Ġimmun":2827,"Ġartic":2828,"ĠWith":2829,"Ðµ":2830,"dis":2831,"Ġvar":2832,"Ġclos":2833,"54":2834,"lim":2835,"93":2836,"Ġface":2837,"ĠCar":2838,"ledge":2839,"Ġrat":2840,"andom":2841,"rim":2842,"Ġfra":2843,"PS":2844,"ãĤ":2845,"wards":2846,"ĠChrist":2847,"Ġblock":2848,"ĠAfter":2849,"ches":2850,"ĠPat":2851,"ĠĠĠĠĠĠĠĠĠĠĠĠĠĠĠ":2852,"ply":2853,"Ġcamp":2854,"Ġmaint":2855,"gamma":2856,"iding":2857,"ulated":2858,"til":2859,"Ġdevice":2860,"verse":2861,"Ġsolution":2862,"86":2863,"nb":2864,"IL":2865,"ĠOb":2866,"ball":2867,"aged":2868,"87":2869,"etition":2870,"Ġstates":2871,"Ġwent":2872,"Ġsex":2873,"ĠThen":2874,"Ġsus":2875,"Ġdat":2876,"pping":2877,"Ġground":2878,"ĠCal":2879,"ĠCO":2880,"theta":2881,"ideo":2882,"Ġcustom":2883,"tes":2884,"ero":2885,"Ġtoday":2886,"84":2887,"umn":2888,"see":2889,"Ġland":2890,"ĠCent":2891,"')":2892,"Ġincluded":2893,"enn":2894,"Ġdifficult":2895,"rec":2896,"US":2897,"Ġinhib":2898,"ĠInt":2899,"ĠEn":2900,"aff":2901,"size":2902,"UN":2903,"dro":2904,"chie":2905,"ai":2906,"Ġcross":2907,"ME":2908,"aging":2909,"Ġdecision":2910,"Ġtrying":2911,"Ġminutes":2912,"Ġdecl":2913,"Ġchall":2914,"ĠĊ":2915,"xi":2916,"atus":2917,"Ġsix":2918,"inding":2919,"Ġexam":2920,"Ġasked":2921,"Ġclose":2922,"Ġreceived":2923,"include":2924,"Ġcard":2925,"Ġappl":2926,"ĠFl":2927,"itting":2928,"Ġhalf":2929,"Ġrespectively":2930,"ober":2931,"Ġmagn":2932,"Ġpatient":2933,"``":2934,"Ġadditional":2935,"Ġdig":2936,"avor":2937,"ocal":2938,"times":2939,"Ġcontract":2940,"leq":2941,"Ġgrowth":2942,"ĠMore":2943,"Ġenvironment":2944,"Get":2945,"pose":2946,"Ġmind":2947,"odes":2948,"ĠÂ§":2949,"Ġur":2950,"Ð°":2951,"hel":2952,"Ġentire":2953,"Ġanything":2954,"Ġregion":2955,"ached":2956,"Ġitem":2957,"rc":2958,"izing":2959,"Ġintegr":2960,"ĠÃ":2961,"Ġindu":2962,"Ġlink":2963,"Ġdefin":2964,"ĠMy":2965,"Ġsignificantly":2966,"Ġbound":2967,"ribute":2968,"Ġtrad":2969,"istance":2970,"rho":2971,"body":2972,"Ġsimple":2973,"IR":2974,"Ġnat":2975,"apt":2976,"Ġill":2977,"lying":2978,"mitted":2979,"wise":2980,"where":2981,"ender":2982,"gl":2983,"])":2984,"^\\":2985,"util":2986,"Ġbring":2987,"Ġlooking":2988,"92":2989,"Ġaccept":2990,"Im":2991,"Ġnetwork":2992,"Ġtable":2993,"ĠAct":2994,"Ġroom":2995,"],[@":2996,"Ġ...":2997,"ederal":2998,"Ġcompl":2999,"position":3000,"using":3001,"ris":3002,"pecially":3003,"ication":3004,"delta":3005,"state":3006,"}}\\":3007,"unc":3008,"ensive":3009,"By":3010,"gress":3011,"ike":3012,"Table":3013,"Ġmethods":3014,"ternal":3015,"Ġgetting":3016,"Ġcity":3017,"Ġelement":3018,"ĠMed":3019,"Ġneeds":3020,"une":3021,"agement":3022,"Ġwin":3023,"Ġdifference":3024,"Value":3025,"46":3026,"based":3027,"Ġattack":3028,"infty":3029,"Ġ},":3030,"Ġseries":3031,"++":3032,"Ġimprove":3033,"PE":3034,"Ġfilm":3035,"olve":3036,"big":3037,"Ġhistory":3038,"Ġvia":3039,"Ġlength":3040,"Ġalmost":3041,"Ġnothing":3042,"rapy":3043,"~~":3044,"Ġpan":3045,"Ġtw":3046,"net":3047,"ief":3048,"Ġpattern":3049,"sel":3050,"Ġnear":3051,"ÂłÂł":3052,"06":3053,"/*":3054,"Ġplaintiff":3055,"aced":3056,"ĠEng":3057,"pre":3058,"ĠMan":3059,"91":3060,"ops":3061,"Ġgene":3062,"Ġcorrect":3063,"Ġheart":3064,"but":3065,"All":3066,"ros":3067,"Ġsubst":3068,"With":3069,"Ġparty":3070,"Ġneeded":3071,"Ġproblems":3072,"Ġmiss":3073,"Ġeduc":3074,"ĠĠĠĠĠĠĠĠĠĠĠĠ":3075,"Ġtum":3076,"Ġprevent":3077,"Ġexpected":3078,"Ġissues":3079,"omega":3080,"Ġcontact":3081,"mary":3082,"ips":3083,"Ġemb":3084,"56":3085,"function":3086,"miss":3087,"Ġheld":3088,"Ġexec":3089,"fully":3090,"Ġthus":3091,"42":3092,"Ġmodels":3093,"xim":3094,"isf":3095,"CL":3096,"rid":3097,"Ġadj":3098,"Ġperformance":3099,"ĠDep":3100,"Ġinvolved":3101,"Set":3102,"IV":3103,"uly":3104,"nu":3105,"ĠBy":3106,"Ġeff":3107,"Ġtherefore":3108,"uments":3109,"That":3110,"comes":3111,"Ġdeg":3112,"lt":3113,"width":3114,"When":3115,"Ġpaper":3116,"ĠSte":3117,"ster":3118,"Ġ(-":3119,"atal":3120,"Ġworks":3121,"Ġhref":3122,"Pl":3123,"oo":3124,"erc":3125,"uth":3126,"box":3127,"Ġremov":3128,"Ġadminist":3129,"orld":3130,"more":3131,"Ġinflu":3132,"field":3133,"Ġhost":3134,"Ġansw":3135,"43":3136,"Ġmotion":3137,"Ġshall":3138,"ram":3139,"list":3140,"Ġinput":3141,"Ġ21":3142,"px":3143,"Ġfall":3144,"come":3145,"ging":3146,"Ġattempt":3147,"Wh":3148,"Ġidea":3149,"Ġlines":3150,"Ġang":3151,"nbsp":3152,"xy":3153,"Ġachie":3154,"ĠMc":3155,"Ġassum":3156,"tau":3157,"****************":3158,"ĠCount":3159,"ii":3160,"Ġrecent":3161,"Ġservices":3162,"MS":3163,"Ġpopulation":3164,"atively":3165,"Ġpubl":3166,"ENT":3167,"irl":3168,"Ġseems":3169,"ynam":3170,"Ġinstead":3171,"Ġitself":3172,"76":3173,"Ġtool":3174,"ilt":3175,"Ġdisplay":3176,"Ġintrodu":3177,"ĠDef":3178,"ĠNot":3179,"Ġce":3180,"Ġbegin":3181,"Ġofficial":3182,"Ġcomes":3183,"top":3184,"like":3185,"Ġstudents":3186,"ĠCor":3187,")}":3188,"ĠMon":3189,"Ġcoll":3190,"Ġhours":3191,"Ġbad":3192,"Ġstory":3193,"uk":3194,"anks":3195,"ales":3196,"ĠYork":3197,"itten":3198,"Ġproduction":3199,"ĠCont":3200,"}$,":3201,"Ġstep":3202,"Ġsomeone":3203,"));":3204,"Ġstarted":3205,"Ġload":3206,"ensure":3207,"Ġquality":3208,"Ġimplement":3209,"Ġreve":3210,"čĊĠĠĠ":3211,"anced":3212,"Ġ28":3213,"with":3214,"ills":3215,"script":3216,"selves":3217,"Mod":3218,"Ġste":3219,"Ġtaking":3220,"Ġmedia":3221,"rror":3222,"Ġpredict":3223,"ĠMin":3224,"![":3225,"Ġnucle":3226,"ux":3227,"ulations":3228,"Ġprovides":3229,"Ġ40":3230,"aled":3231,"IP":3232,"Ġclinical":3233,"Ġblack":3234,"ĠEuro":3235,"Ġ$$":3236,"https":3237,"eks":3238,"53":3239,"icle":3240,"Ġfunctions":3241,"Ġpolice":3242,"ĠThus":3243,"ĠIm":3244,"ilities":3245,"Ġrecogn":3246,"ĠDo":3247,"Ġaverage":3248,"ãĥ":3249,"Ġ/*":3250,"RNA":3251,"Ġtemperature":3252,"Ġsearch":3253,"ĠAm":3254,"Ġdocument":3255,"des":3256,"ĠTHE":3257,"cm":3258,"($":3259,"ĠPol":3260,"ĠĠĠĠĠĠĠĠĠĠĠĠĠ":3261,"Ġoutput":3262,"Ġfig":3263,"ĠĠĠĠĠĠĠĠĠĠĠĠĠĠĠĠĠĠĠĠĠĠĠĠĠĠĠĠĠĠĠĠĠĠĠĠĠĠĠĠĠĠĠĠĠĠĠĠĠĠĠĠĠĠĠĠĠĠĠĠĠĠĠĠĠĠĠĠĠĠĠĠĠĠĠĠĠĠĠĠĠĠĠĠĠĠĠĠĠĠĠĠĠĠĠĠĠĠĠĠĠĠĠĠĠĠĠĠĠĠĠĠĠĠĠĠĠĠĠĠĠĠĠĠĠĠĠĠ":3264,"Ġfront":3265,"ying":3266,"word":3267,"Ġmoment":3268,"rown":3269,"En":3270,"Ġcolor":3271,"osition":3272,"Ġnecessary":3273,"^*":3274,"ocy":3275,"Delta":3276,"Ġproced":3277,"Ġarray":3278,"Object":3279,"Ġcorrel":3280,"Text":3281,"astic":3282,"Ġ22":3283,"hers":3284,"Ġdistribution":3285,"Ġalleg":3286,"Ġindust":3287,"Ġprobably":3288,"Ġrights":3289,"Int":3290,"Ġsequence":3291,"Ġappear":3292,"istics":3293,"89":3294,"Ġdepend":3295,"Ġdim":3296,"Ġconfig":3297,"Ġcontext":3298,"Ġlearn":3299,"Ġderiv":3300,"ĠNational":3301,"Ġcompar":3302,"Ġinstall":3303,"LO":3304,"arc":3305,"param":3306,"utions":3307,"down":3308,"Ġpoly":3309,"trans":3310,"Ġ\\\\":3311,"hem":3312,"Ġwalk":3313,"Ġproducts":3314,"eration":3315,"âĢĲ":3316,"Ġsil":3317,"pri":3318,"ĠCD":3319,"Ġlive":3320,"Ġdiagn":3321,"41":3322,"49":3323,"Ġess":3324,"}$.":3325,"Ġoriginal":3326,"rs":3327,"Ġexact":3328,"ĠJan":3329,"Ġmice":3330,"book":3331,"Ġimpact":3332,"Ġespecially":3333,"Ġindex":3334,"\";":3335,"Ġpolicy":3336,"ributed":3337,"Ġsimply":3338,"Ind":3339,"fr":3340,"Ġchem":3341,"amed":3342,"Ġmole":3343,"ĠCity":3344,"unch":3345,"Ġdire":3346,"error":3347,"overed":3348,"Ġcomplete":3349,"elt":3350,"su":3351,"clusion":3352,"ites":3353,"ccording":3354,"TR":3355,"Ġ!=":3356,"Ġfoot":3357,"ospital":3358,"Ġsample":3359,"ĠPres":3360,"ĠTrump":3361,"83":3362,"Ġpage":3363,"Ġpret":3364,"ecause":3365,"perty":3366,"actions":3367,"Ġphase":3368,"Ġwords":3369,"|\\":3370,"My":3371,"Ġeffort":3372,"Ġpressure":3373,"SS":3374,"Ġproperties":3375,"Ġestim":3376,"Ġ27":3377,"Ġdetermined":3378,"augh":3379,"Ġdistrict":3380,"ĠMe":3381,"ÑĤ":3382,"Ġvalid":3383,"iqu":3384,"olic":3385,"Ġsense":3386,"ĠOF":3387,"ocr":3388,"Ġgra":3389,"dom":3390,"Ġgenes":3391,"ĠBo":3392,"light":3393,"Ġpresence":3394,"Ġprimary":3395,"iddle":3396,"Ġconsum":3397,"Ġpersonal":3398,"Ġdest":3399,"point":3400,"arily":3401,"inally":3402,"Ġcopy":3403,"Ġquick":3404,"\\*":3405,"Ġoutside":3406,"ults":3407,"ĊĠĠĠĠĠĠĠĠĠĠĠĠĠĠĠĠĠĠĠĠĠĠĠ":3408,"52":3409,"refore":3410,"icon":3411,"Ġeffective":3412,"Ġcal":3413,"Ġlack":3414,"struct":3415,"array":3416,"Ġpolitical":3417,"Ġdate":3418,"sim":3419,"Ġmemory":3420,"Ġformer":3421,"inks":3422,"Ġfire":3423,"Ġevents":3424,"Ġcred":3425,"Ġtypes":3426,"path":3427,"chi":3428,"do":3429,"eter":3430,"\\\\":3431,"ronic":3432,"Ġeverything":3433,"Ġstrateg":3434,"Ġmedical":3435,"Ġpain":3436,"Ġcreat":3437,"ĠInc":3438,"ĠEurope":3439,"Ġ26":3440,"Ġ23":3441,"Ġselect":3442,"item":3443,"Ġpresented":3444,"82":3445,"Ġ&&":3446,"Ġjudgment":3447,"Ġacid":3448,"Ġlanguage":3449,"OP":3450,"Ġwrong":3451,"oke":3452,"ili":3453,"File":3454,"ze":3455,"Ġidentified":3456,"Ġconv":3457,"bor":3458,"Ġlonger":3459,"Ġremain":3460,"Ġwanted":3461,"Ġcontroll":3462,"Ġprint":3463,"Ġtiss":3464,"Ġdetermine":3465,"Ġquite":3466,"Ġelements":3467,"Ġinside":3468,"Ġphysical":3469,"comp":3470,"Â±":3471,"Ġsatisf":3472,"Ġsurv":3473,"MA":3474,"ien":3475,"Ġhyp":3476,"]{},":3477,"Ġnews":3478,"ards":3479,"72":3480,"Ġcreated":3481,"Ġstop":3482,"sl":3483,"Ġrunning":3484,"Ġevalu":3485,"Ġconstit":3486,"ran":3487,"Ġincreasing":3488,"rast":3489,"Ġfeatures":3490,"ĠÂ±":3491,"Ġparameters":3492,"Ġrandom":3493,"Ġbasis":3494,"Ad":3495,"itude":3496,"ĠĠĠĠĠĠĠĠĠĠĠĠĠĠ":3497,"Ġstra":3498,"Ġeasy":3499,"Ġassert":3500,"ĠDr":3501,"oat":3502,"quad":3503,"print":3504,"ervice":3505,"bf":3506,"Ð¸":3507,"uous":3508,"rite":3509,"asons":3510,"Ġsamples":3511,"Ġhope":3512,"Ġstay":3513,"aving":3514,"fection":3515,"ises":3516,"At":3517,"alculate":3518,"Ġweeks":3519,"ags":3520,"FFFF":3521,"ĠSystem":3522,"rack":3523,"ĠPar":3524,"ottom":3525,"rial":3526,"public":3527,"81":3528,"Ġpair":3529,"ese":3530,"Ġstatic":3531,"Ġareas":3532,"Ġ?":3533,"79":3534,"Not":3535,"ellant":3536,"isms":3537,"lementary":3538,"74":3539,"Ġmember":3540,"ĠPart":3541,"dev":3542,"ĠSuppose":3543,"Ġund":3544,"Ġstatus":3545,"Ġstatement":3546,"cell":3547,"lier":3548,"Ġâ":3549,"ĠPr":3550,"Ġframe":3551,"plate":3552,"59":3553,"ĠGu":3554,"Ġknowledge":3555,"Ġdirectly":3556,"Ġ2012":3557,"ancial":3558,"ana":3559,"void":3560,"ogle":3561,"ĠGe":3562,"lig":3563,"ĠLicense":3564,".'":3565,"annel":3566,"ĠJohn":3567,"user":3568,"Ġfun":3569,"Par":3570,"Ġunit":3571,"Ġago":3572,"urch":3573,"63":3574,"}(\\":3575,"Ġfollows":3576,"sk":3577,"Ġconstant":3578,"Ġtheory":3579,"73":3580,"earch":3581,"ĠAb":3582,"ĠAP":3583,"Ġpack":3584,"ethyl":3585,"________":3586,"Ġpie":3587,"Ġisn":3588,"acc":3589,"vere":3590,"Ġtraining":3591,"Ġsem":3592,"clus":3593,"ĠString":3594,"Ġwhite":3595,"../../":3596,"Ġcry":3597,"Ġnatural":3598,"ĠDNA":3599,"Ġquestions":3600,"Ġbehind":3601,"Ġprinc":3602,"/>":3603,"Ġopportun":3604,"Ġsett":3605,"Ġreduced":3606,"iet":3607,"gn":3608,"Ġmi":3609,"Ġcoun":3610,"from":3611,"Ġsaw":3612,"CA":3613,"Ġgrad":3614,"ocol":3615,"cdot":3616,"ially":3617,"document":3618,"Â°":3619,"Ġoil":3620,"Ġbuilding":3621,"ayout":3622,"ĠHar":3623,"erson":3624,"Ġdefault":3625,"Ġmap":3626,"ha":3627,"era":3628,"Ed":3629,"isions":3630,"Ġrecomm":3631,"Ġnational":3632,"Ġpreviously":3633,"Ġcontain":3634,"ĠHis":3635,"Ġvideo":3636,"Ġple":3637,"Ġextra":3638,"Ġavoid":3639,"roph":3640,"Or":3641,"Ġsecur":3642,"Ġbrain":3643,"met":3644,"Ġincludes":3645,"orks":3646,"Ġstri":3647,"osph":3648,"ula":3649,"IM":3650,"58":3651,"51":3652,"ĠQu":3653,"rote":3654,"ĠNe":3655,"Ġlimited":3656,"ague":3657,"ymb":3658,"Ġapplied":3659,"ferences":3660,"mpt":3661,"OD":3662,"CD":3663,"Ġforce":3664,"\".":3665,"pite":3666,"ĠPe":3667,"pen":3668,"Ġmessage":3669,"Ġreplace":3670,"ML":3671,"Ġ(\\[":3672,"Ġclaims":3673,"Key":3674,"Ġgas":3675,"cho":3676,"otic":3677,"Ġrelease":3678,"Ġdeveloped":3679,"Ġ/>":3680,"Item":3681,"aign":3682,"Ġcontinue":3683,"Ġfem":3684,"ader":3685,"Ġword":3686,"ĠOur":3687,"ĠDes":3688,"Ġtransfer":3689,"define":3690,"...\"":3691,"Ġveh":3692,"Ġgames":3693,"Ġbehavior":3694,"Ġexpress":3695,"ĠId":3696,"Ġability":3697,"Ġgreater":3698,"ega":3699,"\\])":3700,"ĠAg":3701,"Ġshare":3702,"Ġ2016":3703,"ĊĊĊ":3704,"Ġantib":3705,"rows":3706,"hood":3707,"ĠTherefore":3708,"map":3709,"Ġdouble":3710,"Ġsoftware":3711,"ĠSim":3712,"reet":3713,"Ġrev":3714,"Ġfavor":3715,"EL":3716,"Ġfriend":3717,"iber":3718,"Ġtitle":3719,")$.":3720,"Ġaccom":3721,"fered":3722,"Ġimmedi":3723,"rightarrow":3724,"arning":3725,"oles":3726,"lation":3727,"Ġmis":3728,"Ġopin":3729,"max":3730,"Ġ2013":3731,"TH":3732,"ĠIntern":3733,"Ġreference":3734,"().":3735,"Ġbur":3736,"SD":3737,"Ġautom":3738,"osure":3739,"Ġpresident":3740,"Ġjo":3741,"Ġarticle":3742,"Ġful":3743,"fo":3744,"ĠDem":3745,"umb":3746,"Ġindependent":3747,"Ġwindow":3748,"lege":3749,"Ġplayers":3750,"rief":3751,"Ġmach":3752,"Ġmother":3753,"Ġinvention":3754,"Ġ2014":3755,"Def":3756,"Ġge":3757,"aches":3758,"62":3759,"Ġ[*":3760,"msg":3761,"aves":3762,"Ġspecies":3763,"Ġslow":3764,"Ġcompan":3765,"Ġprec":3766,"ishing":3767,"ĠFurther":3768,"ocation":3769,"ĠST":3770,"ĠWhile":3771,"term":3772,"ĠAf":3773,"uary":3774,"elling":3775,"Ġvict":3776,"ĠSouth":3777,"Ġoption":3778,"Ġ;":3779,"abase":3780,"Ġhot":3781,"]^":3782,"Ġlayer":3783,"rupt":3784,"Ġnumbers":3785,"ĠWill":3786,"Ġmatch":3787,"Add":3788,"oma":3789,"Ġnature":3790,"Ġ2015":3791,"ĠSince":3792,"ners":3793,"ament":3794,"Ġvot":3795,"71":3796,"Ġfollowed":3797,"quest":3798,"ĠGr":3799,"De":3800,"Ġcoming":3801,"Ġhttp":3802,"Ġcand":3803,"Ġwritten":3804,"Ġappropri":3805,"iven":3806,"Ġprotect":3807,"Ġleave":3808,"IF":3809,"Ġapproxim":3810,"Ġforward":3811,"ĠPresident":3812,"inate":3813,"Suppose":3814,"Ġstress":3815,"She":3816,"Ġanim":3817,"Qu":3818,"psilon":3819,"rangle":3820,"gor":3821,"Ġwrite":3822,"apter":3823,"Ġdifferences":3824,"ĠDist":3825,"supp":3826,"ada":3827,"Ġobtain":3828,"Ġir":3829,"Ps":3830,"Ġonline":3831,"Ġstyle":3832,"Ġprep":3833,"hest":3834,"js":3835,"Ġtried":3836,"ĠCounty":3837,"atform":3838,"Ġ60":3839,"atives":3840,"ĠPer":3841,"ĠComp":3842,"Ġlost":3843,"Ġconstruct":3844,"Ġwhose":3845,"inated":3846,"Ġnegative":3847,"BC":3848,"itness":3849,"range":3850,"Ġbackground":3851,"Ġrepe":3852,"Ġparticularly":3853,"ĠJust":3854,"Ġsecurity":3855,"Ġrule":3856,"ĠPa":3857,"Ġusually":3858,"ste":3859,"Ġimpl":3860,"Des":3861,"orph":3862,"Ġoffice":3863,"Ġlate":3864,"Ġbir":3865,"ĠEd":3866,"Ġrefer":3867,"Ġcorresponding":3868,"Ġhimself":3869,"levant":3870,"kn":3871,"Ġargument":3872,"Ġmention":3873,"nsel":3874,"}=":3875,"Ġrot":3876,"Exception":3877,"ĠRuss":3878,"GF":3879,"Ġglobal":3880,"Ġgirl":3881,"non":3882,"ĠReg":3883,"Ġliving":3884,"Ġanswer":3885,"bb":3886,"erve":3887,"Error":3888,"Ġclean":3889,"Ġanyone":3890,"encies":3891,"ĠGo":3892,"ashing":3893,"ĠNorth":3894,"Ġaltern":3895,"vention":3896,"Ġagreement":3897,"ĠHere":3898,"Ġproposed":3899,"lor":3900,"Ġbox":3901,"Ġwatch":3902,"Ġaccur":3903,"psi":3904,"Ġalthough":3905,"Ġdynam":3906,"tilde":3907,"ĠOR":3908,"reng":3909,"Ġcompet":3910,"Ġrecently":3911,"pret":3912,"och":3913,"OL":3914,"Ġetc":3915,"Ġgrant":3916,"Ġactive":3917,"base":3918,"61":3919,"ĠSm":3920,"ĠPhys":3921,"sm":3922,"\"><":3923,"Ġwebs":3924,"Ġoffer":3925,"Ġregular":3926,"Ġresid":3927,"Ġtakes":3928,"urb":3929,"SP":3930,"âĢĥ":3931,"Ġinstance":3932,"oe":3933,"Ġnote":3934,"Ġgenerally":3935,"sing":3936,"leep":3937,"Ġwall":3938,"čĊč":3939,"joy":3940,"ener":3941,"ĠDis":3942,"Gamma":3943,"['":3944,"Ġrates":3945,"length":3946,"Ġclust":3947,"link":3948,"New":3949,"Ġexcept":3950,"ivil":3951,"aries":3952,"Ġthemselves":3953,")=":3954,"group":3955,"Ġderivative":3956,"Ġball":3957,"Ġpurch":3958,"ĠâĪĴ":3959,"resh":3960,"ees":3961,"apan":3962,"index":3963,"Ġorg":3964,"ĠSome":3965,"*~":3966,"gorith":3967,"Ġsaying":3968,"Ġessential":3969,"Ġpractice":3970,"Ġdensity":3971,"vey":3972,"Ġdriv":3973,"Ġselected":3974,"ĠOct":3975,"Ġheav":3976,"Ġenh":3977,"ufact":3978,"Ġsort":3979,"bi":3980,"ĠWorld":3981,"Ġphen":3982,"Ġcountries":3983,"Ġ2011":3984,"Test":3985,"eline":3986,"urance":3987,"mega":3988,"pril":3989,"Le":3990,"rew":3991,"ĠMarch":3992,"uel":3993,"Ġpo":3994,"Man":3995,"Ġrele":3996,"operator":3997,"style":3998,"CE":3999,"Ġfeed":4000,"Ġspeed":4001,"ĠII":4002,"ĠFirst":4003,"Ġfailed":4004,"ĠAug":4005,"oon":4006,"den":4007,"change":4008,"Ġ2010":4009,"Ġtreated":4010,"Ġdeep":4011,"Ġpsy":4012,"State":4013,"pan":4014,"igen":4015,"pace":4016,"ĠAmerica":4017,"Ġallowed":4018,"Ġeyes":4019,"ĠBar":4020,"Ġfederal":4021,"Ġpublished":4022,"Ġstar":4023,"Ġways":4024,"ulate":4025,"Ð¾Ð":4026,"py":4027,"UL":4028,"Ġcampaign":4029,"Ġlegal":4030,"Ġmilit":4031,"ULL":4032,"Ġcomponent":4033,"Ġfindings":4034,"Ġpurpose":4035,"((":4036,"Ġfinancial":4037,"Ġdirection":4038,"^[@":4039,"vare":4040,"oice":4041,"Ġrelative":4042,"Ġpict":4043,"}}$":4044,"Ġhyper":4045,"ĠDav":4046,"ĠChina":4047,"Ġprice":4048,"Ġbecame":4049,"ï¼":4050,"Ġhydro":4051,"ius":4052,"Ġsituation":4053,"ĠSu":4054,"illing":4055,"anger":4056,"itation":4057,"acity":4058,"Ġ);":4059,"Ġrespond":4060,"Time":4061,"Ġdegree":4062,"Ġfiles":4063,"Ġvers":4064,"Ġround":4065,"Ġpretty":4066,"Ġrestr":4067,"ĠVal":4068,"Ġserious":4069,"Ġ__":4070,"lin":4071,"Ġgave":4072,"Ġsn":4073,"ned":4074,"Ġsufficient":4075,"aching":4076,"reme":4077,"Ġlocation":4078,"rought":4079,"ĠJune":4080,"Ġhighly":4081,"oding":4082,"ĠHouse":4083,"Ġcover":4084,"Ġcomponents":4085,"\\].":4086,"Ġfast":4087,"Ġcharge":4088,"init":4089,"ĠDepartment":4090,"Ġcomment":4091,"One":4092,"Ġperfect":4093,"ĠAp":4094,"ÂŃ":4095,"Ġmeasured":4096,"ĠAust":4097,"Ġisol":4098,"ĠSch":4099,"Ġgraph":4100,"Ġwoman":4101,"Ġ29":4102,"TT":4103,"Ġdesigned":4104,"EX":4105,"Ġidentify":4106,"cil":4107,"Ġstage":4108,"ports":4109,"fra":4110,"Ġhor":4111,"df":4112,"Ġcenter":4113,"rate":4114,"Ġalone":4115,"Ġprofess":4116,"ĠSer":4117,"Do":4118,"Ġcaused":4119,"Ġsaf":4120,"cast":4121,"Ġindividuals":4122,"Ġintern":4123,"iated":4124,"izes":4125,"varepsilon":4126,"Ġknew":4127,"Ġauth":4128,"ĠGerm":4129,"Ġsoon":4130,"ĠNow":4131,"Ġ[**":4132,"Ġ2017":4133,"Ġfriends":4134,"uge":4135,"Ġdraw":4136,"that":4137,"Ġtradition":4138,"Ġ:=":4139,"Ġrequires":4140,"ibrary":4141,"omy":4142,"pat":4143,"Ġeveryone":4144,"Ġgives":4145,"Ġsubstant":4146,"haps":4147,"Ġwasn":4148,"ae":4149,")$,":4150,"Ġcommand":4151,"Ġaud":4152,"anch":4153,"Ġproteins":4154,"lock":4155,"Ġproceed":4156,"Ġlabel":4157,"Ġlarger":4158,"Ġsqu":4159,"iency":4160,"Ġpromot":4161,"ĠAlthough":4162,"Ġfre":4163,"////////":4164,"Ġfocus":4165,"Ġpoor":4166,"Ġcommit":4167,"Ġprot":4168,"aily":4169,"ociety":4170,"Ġcurrently":4171,"Ġnode":4172,"Ġpull":4173,"ĠRepublic":4174,"olds":4175,"orage":4176,"Ġdetails":4177,"Ġ||":4178,"Ġmatrix":4179,"Of":4180,"Class":4181,"ades":4182,"Ġstim":4183,"Ġsynt":4184,"Ġnotice":4185,"hesis":4186,"iring":4187,"Ġord":4188,"True":4189,"aur":4190,"NS":4191,"Ġstreng":4192,"semb":4193,"ournal":4194,"spec":4195,"================================":4196,"Ġleading":4197,"ĠIS":4198,"ĊĠĠĠĠĠĠĠĠĠĠĠĠĠ":4199,"Ġsuit":4200,"Ġappeal":4201,"Ġfrequency":4202,"lib":4203,"Ġexerc":4204,"ersion":4205,"Ġeducation":4206,"Ġimages":4207,"Omega":4208,"Ġcandid":4209,"itter":4210,"CS":4211,"ÑĢ":4212,"Ġtrack":4213,"Ġfixed":4214,"Ġ\"\"":4215,"ocks":4216,"};":4217,"Ġroad":4218,"ouch":4219,"unk":4220,"Ġque":4221,"Ġscale":4222,"Ġchoice":4223,"Ġuseful":4224,"Ġemerg":4225,"efore":4226,"Ġ///":4227,"Ġled":4228,"Ġvisit":4229,"estern":4230,"Ġunique":4231,"}^{\\":4232,"wide":4233,"ously":4234,"ĠGeneral":4235,"Ġbegan":4236,"vec":4237,"Ġdeb":4238,"Ġrecept":4239,"Ġcompanies":4240,"ĠSept":4241,"Ġbank":4242,"ios":4243,"rael":4244,"ifically":4245,"bra":4246,"mar":4247,"Ð½":4248,"istry":4249,"Ġoperation":4250,"ffer":4251,"Ġapply":4252,"zed":4253,"Ġten":4254,"bon":4255,"obile":4256,"ĠĠĠĠĠĠĠĠĠĠĠĠĠĠĠĠĠĠĠ":4257,"ĠGl":4258,"From":4259,"ĠJanuary":4260,"orney":4261,"Ġsche":4262,"Ġ($":4263,"active":4264,"HO":4265,"osing":4266,"coming":4267,"ming":4268,"ait":4269,"hern":4270,"Ġcontains":4271,"Sec":4272,")-":4273,"Ġmanagement":4274,"Ġjury":4275,"PA":4276,"Ġusers":4277,"ĠSen":4278,"^+":4279,"Ġdevices":4280,"Ġratio":4281,"Ġdistance":4282,"They":4283,"ography":4284,"Ġheat":4285,"reen":4286,"Now":4287,"Ġparts":4288,"Ġcompletely":4289,"nes":4290,"Ġfair":4291,"oud":4292,"EM":4293,"Ġthreat":4294,"čĊĠ":4295,"Ġoptions":4296,"ä¸":4297,"ights":4298,"aker":4299,"Ġparties":4300,"ĠHealth":4301,"tee":4302,"fn":4303,"known":4304,"ĠCir":4305,";&":4306,"###":4307,"argin":4308,"Ġcapt":4309,"ĠApril":4310,"Ġtechnology":4311,"vis":4312,"ĠJapan":4313,"ĠBr":4314,"orem":4315,"BS":4316,"Ġcook":4317,"irmed":4318,"Ġexpressed":4319,"(),":4320,"omen":4321,"Ġbal":4322,"ĠMich":4323,"Be":4324,"Ġenjoy":4325,"Ġdead":4326,"uted":4327,"operatorname":4328,"Ġcontaining":4329,"exp":4330,"Ġvector":4331,"Ġfather":4332,"Ġfailure":4333,"Ġcosts":4334,"fil":4335,"Ġtrust":4336,"Ġreasons":4337,"Ġeconomic":4338,"Ġindustry":4339,"ube":4340,"Ġmanufact":4341,"Ġbuy":4342,"urity":4343,"zz":4344,"static":4345,"Ġgenerated":4346,"Ġbed":4347,"Ġpen":4348,"oring":4349,"Ġsound":4350,"Ġdivided":4351,"ĠWest":4352,"čĊĠĠĠĠĠĠĠ":4353,"Ġallows":4354,"Ġ----------------":4355,"Ġweb":4356,"Ġearlier":4357,"Ġfiled":4358,"Ġengine":4359,"ancy":4360,"Ġacqu":4361,"Ġinform":4362,"PR":4363,"Ġleaders":4364,"ellow":4365,"athe":4366,"Ġlocated":4367,"Ġgoal":4368,".*":4369,"());":4370,"');":4371,"Ġaim":4372,"Ġ->":4373,"Ġhighest":4374,"Dis":4375,"Ġserver":4376,"varphi":4377,"Ġparameter":4378,"Ġcircum":4379,"Ġestablished":4380,"ĠRed":4381,"Ġattention":4382,"Path":4383,"Ġcentral":4384,"force":4385,"}.":4386,"ham":4387,"Ġ2008":4388,"Ġoverall":4389,"Ġneigh":4390,"ĠWar":4391,"dim":4392,"Ġ\\<":4393,"Ġappropriate":4394,"enses":4395,"cember":4396,"Ġlat":4397,"Cs":4398,"Sc":4399,"Form":4400,"ride":4401,"Ġmys":4402,"plit":4403,"Ġtim":4404,"Ġconnection":4405,"Ġeasily":4406,"section":4407,"Ġchalleng":4408,"Ġclearly":4409,"_.":4410,"ken":4411,"ĠFeb":4412,"Ġdefinition":4413,"Ñģ":4414,"band":4415,"Ġexperiments":4416,"ĠJuly":4417,"Ġnames":4418,"Ġelectro":4419,"Ġtherapy":4420,"Ġmeaning":4421,"Ġdog":4422,"Ġbroad":4423,"men":4424,"bre":4425,"cap":4426,"Ġrelevant":4427,"Ġwidth":4428,"Ġdiscl":4429,"ĠMod":4430,"Ġhospital":4431,"call":4432,"Ġsites":4433,"Ġfinding":4434,"king":4435,"ĠStud":4436,"ĠTrans":4437,"Ġimm":4438,"Ġson":4439,"Ġstated":4440,"yond":4441,"Ġhit":4442,"stream":4443,"Ġemail":4444,"fs":4445,"eed":4446,"PL":4447,"Ġequal":4448,"Ġcritical":4449,"ĠJud":4450,"Ġworth":4451,"Info":4452,"count":4453,"abled":4454,"hand":4455,"Fl":4456,"Ġmulti":4457,"works":4458,"Ġprime":4459,"overy":4460,"Ġreceive":4461,"related":4462,"epsilon":4463,"Ġsympt":4464,"Ġdoor":4465,"eah":4466,"Ġcomputer":4467,"Ġreduce":4468,"Ġlooked":4469,"Ġcounsel":4470,"Ġfine":4471,"Ġauthors":4472,"iate":4473,"rant":4474,"Ġax":4475,"odies":4476,"pid":4477,"Over":4478,"\\<":4479,"Ġproduced":4480,"Ġconcept":4481,"Ġhar":4482,"Ġliter":4483,"DA":4484,"Ġsupported":4485,"Ġfelt":4486,"Ġcontrast":4487,"){#":4488,"Ġones":4489,"Ġactual":4490,"Ġactivities":4491,"Ġvariable":4492,"Ġboard":4493,"!!":4494,"Ġopinion":4495,"Ġinjury":4496,"Ġ31":4497,".[":4498,"Ġwriting":4499,"config":4500,"ibly":4501,"Supp":4502,"Ġtransition":4503,"Ġinn":4504,"Ġ2009":4505,"ĠCons":4506,"Ġfat":4507,"Ġ32":4508,"Ġmode":4509,"Ġtown":4510,"ĠAND":4511,"Ġunderstanding":4512,"Ġappears":4513,"Ġfight":4514,"*-":4515,"Ġstore":4516,"gu":4517,"Ġlinear":4518,"Ġrelig":4519,"Ġbrought":4520,"Ġhands":4521,"Ġwebsite":4522,"Ġuses":4523,"ĠBig":4524,"Ġhon":4525,"Ġbeyond":4526,"':":4527,"Ġrepl":4528,"Ġmid":4529,"Ġtumor":4530,"Ġstaff":4531,"Ġturned":4532,"Ġheard":4533,"aling":4534,"FL":4535,"ovember":4536,"ille":4537,"Ġdark":4538,"Ġshowing":4539,"Ġeffic":4540,"Ġchanged":4541,"fort":4542,"Ġlooks":4543,"Ġ<<":4544,"overn":4545,"Ġinfection":4546,"ĠEl":4547,"Ġtransport":4548,"Ġbenefits":4549,"Ġheight":4550,"gest":4551,"Ġtissue":4552,"Ġnumer":4553,"bin":4554,"ĠGet":4555,"._":4556,"oura":4557,"Ġsurpr":4558,"cluded":4559,"iam":4560,"Ġlearning":4561,"Ġ2018":4562,"rum":4563,"Ġalgorith":4564,"Ġskin":4565,"othe":4566,"Ġgun":4567,"ATE":4568,"Ġinterpret":4569,"Ġqual":4570,"False":4571,"Ġremains":4572,"';":4573,"Ġgoes":4574,"Ġtask":4575,"lish":4576,"After":4577,"Ġtravel":4578,"Ġadvant":4579,"ech":4580,"space":4581,"ica":4582,"ĠFrom":4583,"free":4584,"======":4585,"pol":4586,"Ġculture":4587,"Ġdrive":4588,"ÃŃ":4589,")).":4590,"Ab":4591,"Ġplant":4592,"Ġhearing":4593,"Ġmajority":4594,"Ġadjust":4595,"ĠAugust":4596,"Ġdro":4597,"itro":4598,"\\,":4599,"Ġbeaut":4600,"Ġsecret":4601,"*.":4602,"ĠSw":4603,"Sim":4604,"Ġconnect":4605,"}_{\\":4606,"Ġvs":4607,"Ġproof":4608,"rier":4609,"ĠĠĠĠĠĠĠĠĠĠĠĠĠĠĠĠĠ":4610,"oul":4611,"rence":4612,"Ġroot":4613,"Ġbinding":4614,"Ġplease":4615,"\"/>":4616,"Ġsmaller":4617,"ashington":4618,"ĠData":4619,"Ġtowards":4620,"Ġinternal":4621,"ĠIsrael":4622,"enge":4623,"ymbol":4624,"Ġmedium":4625,"Ġcarry":4626,"Ġmaterials":4627,"Ġbuilt":4628,"Ġ35":4629,"ĠTH":4630,"pective":4631,"Ġconcentration":4632,"ĠBrit":4633,"Ġextract":4634,"Event":4635,"ford":4636,"Ġprefer":4637,"Ġsubsequ":4638,"Ġresulting":4639,"RA":4640,"Ã³":4641,"Ġworked":4642,"Ġfields":4643,"Ġcontribut":4644,"Ġcoord":4645,"Ġprogress":4646,"mark":4647,"Ġindicated":4648,"raz":4649,"info":4650,"Ġproduce":4651,"cules":4652,"Ġutil":4653,"Ġpul":4654,"char":4655,"Ġvariables":4656,"Ġparents":4657,"Ġconstruction":4658,"utive":4659,"Ġregions":4660,"adem":4661,"Ġeight":4662,"Ġlov":4663,"rag":4664,"Ġwonder":4665,"Ġprop":4666,"\\'":4667,"attle":4668,"erved":4669,"Ġregarding":4670,"inct":4671,"irt":4672,"Ġreports":4673,"ĠOctober":4674,"ares":4675,"Ġaw":4676,"grams":4677,"Ġox":4678,"ĠCong":4679,"Ġreaction":4680,"icted":4681,"Ġcounter":4682,"ĠAD":4683,"ifier":4684,"Ġdecided":4685,"Ġmaximum":4686,"Ġconsequ":4687,"ĠChe":4688,"room":4689,"iday":4690,"Ġmount":4691,"ĠDecember":4692,"IA":4693,"Ġexactly":4694,"Ġobvious":4695,"oses":4696,"ĠDistrict":4697,"Ġrules":4698,"Ġmess":4699,"ĠPublic":4700,"Ġvehicle":4701,"asis":4702,"oken":4703,"Ġsources":4704,"langle":4705,"Ġfully":4706,"Ġdamage":4707,"='":4708,"erate":4709,"]:":4710,"alt":4711,"Ġmilitary":4712,"Ġwild":4713,"lick":4714,"002":4715,"Ġreasonable":4716,"Ġer":4717,"ĠAccording":4718,"arter":4719,"Ġformation":4720,"Ġwrote":4721,"Ġbirth":4722,"material":4723,"ĠDemocr":4724,"Ġcool":4725,"Ġexists":4726,"Ġsetting":4727,",-":4728,"Ġcouple":4729,"icip":4730,"Ġsomet":4731,"geq":4732,"title":4733,"ĠPark":4734,"Ġinteresting":4735,"mail":4736,"color":4737,"anged":4738,"Ġmorning":4739,"input":4740,"Config":4741,"osite":4742,"Ġitems":4743,"long":4744,"^{(":4745,"Ġreading":4746,"Ġfa":4747,"Ġvirt":4748,"Ġneut":4749,"Ġsec":4750,"ĠSchool":4751,"Ġcollect":4752,"PD":4753,"Ġtests":4754,"ãĢ":4755,"Ġdomain":4756,"ĠSeptember":4757,"Ġcam":4758,"SA":4759,"Ġgets":4760,"Ġseparate":4761,"tered":4762,"iences":4763,"Ġyield":4764,"Ġsold":4765,"Context":4766,"Ġplayed":4767,"Out":4768,"ANT":4769,"Ġstarting":4770,"MM":4771,"BA":4772,"Ġgiving":4773,"undred":4774,"Ġeth":4775,"Ġparticipants":4776,"inst":4777,"Ġfeature":4778,"Ġplayer":4779,"java":4780,"Ġclosed":4781,"Ġsolid":4782,")^":4783,"ĠĊĠĠĠĠĠĠĠĠĠĠĠĠĠĠĠ":4784,"omic":4785,"']":4786,"iforn":4787,"grad":4788,"Ġapplications":4789,"Ġrevealed":4790,"ĠDet":4791,"EST":4792,"Ġscore":4793,"Ġhear":4794,"icit":4795,"Ġhous":4796,"Ãĥ":4797,"Ċĉĉĉĉĉĉ":4798,"Ġbecomes":4799,"ils":4800,"Ġagree":4801,"Size":4802,"Ġcit":4803,"------":4804,"ĠCenter":4805,"Ġinterview":4806,"Ġnor":4807,"CK":4808,"Ġlaws":4809,"ruary":4810,"Ġsafe":4811,"Ġconsistent":4812,"Ġphone":4813,"Ġthroughout":4814,"Ġ/**":4815,"ĠUSA":4816,"cos":4817,"Ġformed":4818,"pling":4819,"ĠSub":4820,"Ġtoward":4821,"Ġsafety":4822,"HT":4823,"Ġprocesses":4824,"Ġresistance":4825,"Ġnoted":4826,"Ġabsol":4827,"ĠID":4828,"Ġaspect":4829,"Ġequation":4830,"RI":4831,"Ġ(**":4832,"cin":4833,"Ġscient":4834,"Ġpaid":4835,"Ġstru":4836,"Ġadministration":4837,"VER":4838,"Inst":4839,"ĠNovember":4840,"Ġforms":4841,"ett":4842,"Ġlives":4843,"Ġliqu":4844,"Ġotherwise":4845,"Ġtransform":4846,"Ġzero":4847,"Ġphosph":4848,"Ġarrest":4849,"Ġinstit":4850,"check":4851,"ounced":4852,"Ġfit":4853,"Ġcombination":4854,"ico":4855,"board":4856,")**":4857,"Ġslight":4858,"Ġvolume":4859,"Ġimmediately":4860,"GL":4861,"cons":4862,"Ġactions":4863,"Ġswitch":4864,"pc":4865,"ĠAfric":4866,"Ġopportunity":4867,"db":4868,"Ġrob":4869,"Ġroll":4870,"cles":4871,"ĠMark":4872,"pir":4873,"Ġreleased":4874,"Ġdefine":4875,"Ġ90":4876,"Ġmeeting":4877,"ĠBecause":4878,"ĠRec":4879,"Ġcyt":4880,"Ġconnected":4881,"rab":4882,"conne":4883,"Index":4884,"Ġdu":4885,"Ct":4886,"Ġlif":4887,"Ġunits":4888,"Ġreduction":4889,"Ġ80":4890,"Ġswe":4891,"Color":4892,"Ġinternational":4893,"ifornia":4894,"font":4895,"ĊĊĠĠĠĠĠĠĠĠĠĠĠ":4896,"iance":4897,"ĠSy":4898,"object":4899,"ctors":4900,"Ġspeak":4901,"ĠTable":4902,"ĠOf":4903,"Ġandroid":4904,"Ġdemand":4905,"true":4906,"Ġblog":4907,"Ġlay":4908,"Ġmetab":4909,"Ġinfluence":4910,"Ġarch":4911,"ĠAT":4912,"indows":4913,"[]":4914,"ny":4915,"Ġcolumn":4916,"Ġult":4917,"Ġreflect":4918,"Ġmechanism":4919,"Ġcommer":4920,"00000000":4921,"Ġmer":4922,"which":4923,"uffer":4924,"Oh":4925,"Ġmyself":4926,"ESS":4927,"MO":4928,"soft":4929,"sembly":4930,"Ġbasic":4931,"Ġign":4932,"Ġtruth":4933,"ĠMoreover":4934,"ĠWashington":4935,"Ġwide":4936,"otal":4937,"Ġinteraction":4938,"gery":4939,"Ġthous":4940,"ĠLa":4941,"Ġhappen":4942,"Ġfix":4943,"Ġmembr":4944,"Ġalleged":4945,"bm":4946,"Ġremove":4947,"Ġcalculated":4948,"Ġportion":4949,"ael":4950,"tem":4951,"case":4952,"ĠSection":4953,"Ġthinking":4954,"Ġbottom":4955,"Ġfunctional":4956,"FA":4957,"Ġensure":4958,"ĠSan":4959,"urt":4960,"ĠNet":4961,"raint":4962,"Ġquickly":4963,"Ġdetected":4964,"[^":4965,"Ġanimals":4966,"oz":4967,"Ġfigure":4968,"Ġremember":4969,"Ġincor":4970,"Ġpopular":4971,"start":4972,"Ġrelatively":4973,"Ġ(\\":4974,"ĠHigh":4975,"Ġenter":4976,"alle":4977,"Ġcapital":4978,"Here":4979,"Ġstd":4980,"ĠAng":4981,"bur":4982,"ĠInst":4983,"Ġresources":4984,"500":4985,"atur":4986,"Ġyes":4987,"Ġcore":4988,"Node":4989,"Ġhappened":4990,"asm":4991,"Big":4992,"Ġreach":4993,"Ġexisting":4994,"ĠList":4995,"Ġpetition":4996,"Ġvictim":4997,"uced":4998,"CP":4999,"Ġmiddle":5000,"Ġworkers":5001,"Ġter":5002,"aly":5003,"Ġdefense":5004,"ĠChar":5005,"Ġmoving":5006,"Exp":5007,"poses":5008,"Ġtesting":5009,"Ġwave":5010,"Ġmur":5011,"Ġmoved":5012,"iform":5013,"ĠHol":5014,"Ġstrength":5015,"amin":5016,"Ġaware":5017,"%,":5018,"Ġdatabase":5019,"/(-":5020,"iable":5021,"stitute":5022,"arest":5023,"Ġnearly":5024,"Ġmort":5025,"ithub":5026,"Ġmovement":5027,"Ġsyn":5028,"Ġdemonstrated":5029,"ponent":5030,"Ġsleep":5031,"Ġjur":5032,"image":5033,"airs":5034,"Fr":5035,"ensions":5036,"lo":5037,"ĠIL":5038,"enty":5039,"imony":5040,"Ġchance":5041,"Ġready":5042,"Ġexhib":5043,"DS":5044,"ĠTex":5045,"ky":5046,"ameter":5047,"Field":5048,"Ġprocedure":5049,"Ġproviding":5050,"Ġgreen":5051,"Ġbacter":5052,"Ġachieve":5053,"Ġsusp":5054,"Ġsometimes":5055,"otype":5056,"Ġlegis":5057,"Ġspin":5058,"ĠĠĠĠĠĠĠĠĠĠĠĠĠĠĠĠĠĠ":5059,".\\":5060,"ooth":5061,"omin":5062,"iful":5063,"ilies":5064,"ĠNULL":5065,"003":5066,"level":5067,"Ġplaying":5068,"Ġobjects":5069,"Ġfinally":5070,"Ġfib":5071,"zym":5072,"Ġcollection":5073,"aste":5074,"Ġbrief":5075,"Ġvariety":5076,"Ġ2007":5077,"untu":5078,"Ġconducted":5079,"Ġremoved":5080,"eria":5081,"Ġestablish":5082,"Ġanalys":5083,"EC":5084,"dot":5085,"\"},":5086,"Ġ]":5087,"ĠRev":5088,"Ġhundred":5089,"Ġchoose":5090,"Ġequival":5091,"Ġcomments":5092,"Ġconcentr":5093,"dered":5094,"LA":5095,"ialog":5096,"overline":5097,"Yes":5098,"Ġindicate":5099,"Ġchannel":5100,"node":5101,"olved":5102,"Ġwitness":5103,"Ġscreen":5104,"gs":5105,"ĊĠĠĠĠĠĠĠĠĠĠĠĠĠĠĠĠĠĠĠĠĠĠĠĠĠĠĠ":5106,"ida":5107,"Ġregul":5108,"ship":5109,"Ġfear":5110,"Ġseven":5111,"prime":5112,"circ":5113,"Ġsteps":5114,"Up":5115,"endant":5116,"jection":5117,"Ġupper":5118,"itors":5119,":\"":5120,"}}(":5121,"Ġrow":5122,"ĠSec":5123,"atin":5124,"Ġplatform":5125,"ĊĊĠĠĠĠĠ":5126,"Ġselection":5127,"ĠHer":5128,"ĠTw":5129,"())":5130,"ĠFebruary":5131,"lication":5132,"Ġblue":5133,"EE":5134,"atever":5135,"Ġplaced":5136,"Ġcert":5137,"Ġfacts":5138,"Sub":5139,"Ġpow":5140,"ls":5141,"Ġoperator":5142,"ĠAlso":5143,"Ġclient":5144,"Ġpeak":5145,"Ġnorm":5146,"ipe":5147,"######":5148,"Ġprocessing":5149,"thon":5150,"ĠCalifornia":5151,"Ġsend":5152,"Trans":5153,"ĠAssoci":5154,"parent":5155,"Ġlabor":5156,"encing":5157,"Ġpsych":5158,"Ġcivil":5159,"Ġonto":5160,"ensional":5161,"Ġcircumst":5162,"*(":5163,"Ġneur":5164,"host":5165,"Ġshape":5166,"pected":5167,"Ġdoc":5168,"Ġletter":5169,"aught":5170,"Ġmusic":5171,"\\],":5172,"ado":5173,"Ġdistributed":5174,"ipp":5175,"Ġstation":5176,")/(-":5177,"Me":5178,"Ġcarried":5179,"Code":5180,"iment":5181,"ĠObama":5182,"ĠAustral":5183,"Ġimag":5184,"Ġband":5185,"Ġmal":5186,"vest":5187,"Ġsets":5188,"Ġextrem":5189,"Ġyourself":5190,"rome":5191,"Ġcomplic":5192,"Ġstuff":5193,"ĠAdd":5194,"Ġsuggested":5195,"Ġconflic":5196,"Att":5197,"ocket":5198,"Ġcircuit":5199,"kay":5200,"Ġpackage":5201,"Ġcomparison":5202,"Ġ37":5203,"ĠCommission":5204,"ĠEven":5205,"well":5206,"Ġcrim":5207,"ĠSupp":5208,"Ġstatist":5209,"pass":5210,"igation":5211,"icity":5212,"Ġprove":5213,"ĠOther":5214,"urrent":5215,"ĠKing":5216,"FT":5217,"Ġcapacity":5218,"iques":5219,"ĠAc":5220,"dict":5221,"ĠĠĠĠĠĠĠĠĠĠĠĠĠĠĠĠĠĠĠĠ":5222,"uman":5223,"Rec":5224,"Ġincreases":5225,"Ġdaily":5226,"Ġdiet":5227,"Ġmanner":5228,"coh":5229,"Ġcharacteristics":5230,"ano":5231,"ipment":5232,"Ġbenefit":5233,"ĠFigure":5234,"Request":5235,"atically":5236,"irit":5237,"Ġexposure":5238,"uty":5239,"User":5240,"php":5241,"Ġsen":5242,"Ġ45":5243,"ĠRNA":5244,"Ġemot":5245,"CI":5246,"Ġactivation":5247,"Ġsave":5248,"Array":5249,"Ġaward":5250,"source":5251,"Ġapparent":5252,"Ġsymptoms":5253,"Ġtrade":5254,"olar":5255,"Ġborder":5256,"Ġhair":5257,"004":5258,"cor":5259,"Ġut":5260,"Ġnut":5261,"acing":5262,"omas":5263,"Ġwife":5264,"roy":5265,"Ġweak":5266,"Ġapproximately":5267,"Ġshoot":5268,"Ġmachine":5269,"Ġshot":5270,"ifying":5271,"}}_":5272,"ails":5273,"Ġmagnetic":5274,"Ġnamed":5275,"Ġvisual":5276,"Ġresponsible":5277,"NO":5278,"Map":5279,"čĊĉ":5280,"Ġmale":5281,"Ġpassed":5282,"umin":5283,"ĠBoard":5284,"Ġupdate":5285,"ĠCON":5286,"Ġclub":5287,"Reg":5288,"]\\],":5289,"*)":5290,"Ġbill":5291,"roller":5292,"asp":5293,"Ġ70":5294,"Ġhealthy":5295,"reate":5296,"Ġ2000":5297,"iers":5298,"Ġplaces":5299,"Ġmac":5300,"Ġnation":5301,"Ġmeasures":5302,"stitution":5303,"ĠAut":5304,"Ġupd":5305,"last":5306,"Ġletters":5307,"ĠAM":5308,"arr":5309,"Ġ^":5310,"Ġdiscussed":5311,"Ġtalking":5312,"Equ":5313,"Ġexpand":5314,">>":5315,"Ġmaybe":5316,"PO":5317,"PT":5318,"race":5319,"Ġadopt":5320,"onic":5321,"ĠIll":5322,"Ġpicked":5323,"Ġstraight":5324,"Ġsevere":5325,"ĠResearch":5326,"/(":5327,"num":5328,"aughter":5329,"Ġprograms":5330,"ĠJe":5331,"uing":5332,"Ġassume":5333,"Ġcontinued":5334,"ĠPM":5335,"ondon":5336,"ĠInter":5337,"SI":5338,"Ġrecommend":5339,"Ġmit":5340,"current":5341,"Ġbud":5342,"apping":5343,"Ġmag":5344,"berg":5345,"rie":5346,"github":5347,"Ġcontinuous":5348,"Î²":5349,"omb":5350,"Ġrace":5351,"Ġincome":5352,"Ġreplacement":5353,"Ġpanel":5354,"Ġreturned":5355,"Ġedge":5356,"Ġdiss":5357,"Ġdelay":5358,"Ġexercise":5359,"oto":5360,"Ġchemical":5361,"Ġnovel":5362,"Ġnearest":5363,"Ġ~":5364,"ĠMor":5365,"Ġarriv":5366,"ĠWhite":5367,"Ġjudge":5368,"Ġinvestigation":5369,"Ġfresh":5370,"EG":5371,"build":5372,"CON":5373,"Ġspread":5374,"Ġchallenge":5375,"ĠFurthermore":5376,"Ġ2006":5377,"ĠTO":5378,"Ġhappy":5379,"Ġclick":5380,"Ġkids":5381,"Ġadapt":5382,"Log":5383,"Ġlip":5384,"idden":5385,"ĠLaw":5386,"Ġvoice":5387,"Ġmg":5388,"Ġunf":5389,"Ġdetection":5390,"Ġdie":5391,"Ġrapid":5392,"ĠIndia":5393,"was":5394,"*]{}":5395,"ĠBro":5396,"Ġtree":5397,"istant":5398,"Ġwid":5399,"icles":5400,"Ġbeginning":5401,"ĠEuropean":5402,"arian":5403,"Ġprem":5404,"ventional":5405,"aa":5406,"ĠFound":5407,"Ġstructures":5408,"Ġsubstr":5409,"Act":5410,"Model":5411,"ruit":5412,"Ġlib":5413,"Ġimproved":5414,"Ġinsurance":5415,"car":5416,"Ġinterface":5417,"Ġtend":5418,"Ġbab":5419,"itis":5420,"Ġampl":5421,"Ġmodern":5422,"ptr":5423,"Ġ95":5424,"ĠUK":5425,"Ġcorpor":5426,"Ġscen":5427,"Ġbillion":5428,"iders":5429,"Ser":5430,"Ġexperiment":5431,"Ġtherm":5432,"iled":5433,"Ġsexual":5434,"flow":5435,"Comp":5436,"ĠNS":5437,"ĠEnglish":5438,"Ġspecifically":5439,"Ġvote":5440,"########":5441,"Ġwait":5442,"},\\":5443,"Ġnice":5444,"Ġtestimony":5445,"Ġhour":5446,"Ġtypically":5447,"Ġbul":5448,"Ġpark":5449,"Ġcouldn":5450,"Ġrul":5451,"Ġfilter":5452,"Ġinsert":5453,"RS":5454,"Ġpush":5455,"run":5456,"Hand":5457,"Count":5458,"len":5459,"core":5460,"normal":5461,"ĠAtt":5462,"Ġles":5463,"Î±":5464,"Sigma":5465,"ded":5466,"Ġ48":5467,"**)":5468,"Ġmill":5469,"rench":5470,"ĠInternational":5471,"Ġ});":5472,"Ġuns":5473,"ĊĊĉ":5474,"ota":5475,"Ġbond":5476,"ĠMI":5477,"Ġexception":5478,"elle":5479,"orter":5480,"Ġelection":5481,"icks":5482,"Ġ\\,":5483,"Ġstrategy":5484,"under":5485,"Ġsummary":5486,"ptions":5487,"Ġsell":5488,"Ġ36":5489,"rav":5490,"orb":5491,"Ġelectr":5492,"Ġnil":5493,"Ġtested":5494,"url":5495,"Ġsolutions":5496,"itivity":5497,"Ġexperimental":5498,"Ġcareer":5499,"wood":5500,"ĠMus":5501,"post":5502,"aser":5503,"Ġleads":5504,"ascular":5505,"CM":5506,"INT":5507,"Ġalternative":5508,"Ġtour":5509,"CG":5510,"Ġforeign":5511,"Ġsurvival":5512,"Ġfemale":5513,"icial":5514,"Ġsto":5515,"asion":5516,"ĠPlaintiff":5517,"lam":5518,"Ġstudied":5519,"Ġfamilies":5520,"Ġshift":5521,"arant":5522,"Ġdespite":5523,"Ġprepared":5524,"ignment":5525,"Ġscript":5526,"Ġdrugs":5527,"Ġdenied":5528,"ĠPal":5529,"Ġcommercial":5530,"iced":5531,"Ġarm":5532,"Method":5533,"ometry":5534,"Calculate":5535,"Ġri":5536,"ĠPaul":5537,"Ġnuclear":5538,"Ġmolecular":5539,"ĠPre":5540,"Ġsuccessful":5541,"Ġinduced":5542,"Ġexplain":5543,"frame":5544,"Ġunless":5545,"going":5546,"Ġnone":5547,"ario":5548,"la":5549,"ĠGovern":5550,"ĠĠĠĠĠĠĠĠĠĠĠĠĠĠĠĠĠĠĠĠĠ":5551,"md":5552,"content":5553,"Ġcommunication":5554,"DO":5555,"214":5556,"Ġwants":5557,"Ġthrow":5558,"Ġserve":5559,"rely":5560,"Ġoperations":5561,"ĠTest":5562,"abs":5563,"Ġunc":5564,"Ġhttps":5565,"Ġ(!":5566,"Ġliquid":5567,"iant":5568,"Ġthick":5569,"Ġstudent":5570,"Ġmentioned":5571,"Ġguy":5572,"Ġmodule":5573,"Fil":5574,"Ġcomplaint":5575,"Ġspent":5576,"fected":5577,"Ġtrig":5578,"Ġtransl":5579,"Ġagent":5580,"dir":5581,"edom":5582,"0001":5583,"rient":5584,"Ġreached":5585,"Ġcorrelation":5586,"cs":5587,"Ġsurgery":5588,"igration":5589,"Ġrout":5590,"block":5591,"ART":5592,"Ġplate":5593,"Ġ((":5594,"ync":5595,"api":5596,"Ġcombined":5597,"Ġplans":5598,"ĠDavid":5599,"cher":5600,"ivery":5601,"Ġded":5602,"Ġprofessional":5603,"Ġofficials":5604,"icrosoft":5605,"Ġmovie":5606,"Ġinflamm":5607,"ĠCongress":5608,"Ġprotocol":5609,"Ġeye":5610,"Ġdescription":5611,"Ġstock":5612,"Ġconfirmed":5613,"ara":5614,"za":5615,"mem":5616,"write":5617,"Ġlock":5618,"anned":5619,"Ġwhereas":5620,"create":5621,"Ġcop":5622,"ĠAnt":5623,"olean":5624,"LI":5625,"enced":5626,"Ġaffected":5627,"izer":5628,"Ġentry":5629,"Ġkin":5630,"ĠOff":5631,"Ġsup":5632,"Ġcru":5633,"^âĪĴ":5634,"Ġpiece":5635,"acters":5636,"Ġoptim":5637,"Ġmotor":5638,"Service":5639,"ĠYour":5640,"Ġdismiss":5641,"Ġvac":5642,"ĠSup":5643,"Ġdebt":5644,"Ass":5645,"Ġimplic":5646,"ĠPost":5647,"osen":5648,"van":5649,"Ġmental":5650,"Ġ33":5651,"Well":5652,"reshold":5653,"greg":5654,"ingu":5655,"ustr":5656,"rary":5657,"Ġhop":5658,"can":5659,"ferent":5660,"inity":5661,"Ġgrowing":5662,"Ġcauses":5663,"ĠCoun":5664,"Ġwouldn":5665,"DR":5666,"Ġkill":5667,"Ġsentence":5668,"ĠHam":5669,"ĠRel":5670,"Ġtouch":5671,"Why":5672,"assert":5673,"Ġtools":5674,"stract":5675,"Ġconver":5676,"Ġlinks":5677,"Ġexplained":5678,"Ġperhaps":5679,"ĠNews":5680,"Ġraised":5681,"Ġencoura":5682,"produ":5683,"Ġcollected":5684,"Ġsrc":5685,"Ġmonitor":5686,"ĠÎ¼":5687,"Ġdanger":5688,"Ġdied":5689,"Ġkilled":5690,"iling":5691,"open":5692,"Ġharm":5693,"ĠJack":5694,"Ġstorage":5695,"Ġkept":5696,"Property":5697,"ellig":5698,"actor":5699,"ria":5700,"det":5701,"Ġminimum":5702,"[\\":5703,"Ġclasses":5704,"Ġintroduced":5705,"Ġneuro":5706,"racy":5707,"&\\":5708,"''":5709,"gar":5710,"ĠTV":5711,"Ġprepar":5712,"ĠIndian":5713,"Ġremaining":5714,"Ġsociety":5715,"Ent":5716,"Ġanalyzed":5717,"Ġagreed":5718,"ĠSuper":5719,"opyright":5720,"VE":5721,"Ġmedic":5722,"ĠDon":5723,"QL":5724,"Ġhandle":5725,"Ġcontrols":5726,"Build":5727,"Ġemployees":5728,"Image":5729,"Ġfaith":5730,"RT":5731,"Ġchrom":5732,"Ġvan":5733,"Ġolder":5734,"idel":5735,"/**":5736,"Ġcalls":5737,"inese":5738,"arth":5739,"ingly":5740,"{{":5741,"Element":5742,"Ġ2005":5743,"mand":5744,"Ġcycle":5745,"Ġrequirements":5746,".](":5747,"Ġbiggest":5748,"Ġcast":5749,"Ġproport":5750,"itz":5751,"ĠMost":5752,"Ġefficient":5753,"Ġ(\"":5754,"Aut":5755,"Ġrelation":5756,"Ġsun":5757,"bolds":5758,"Ġseed":5759,"Ġtraditional":5760,"inger":5761,"Ġcardi":5762,"Ġefforts":5763,"specific":5764,")?":5765,"actory":5766,"Ġprotection":5767,"Ġdrink":5768,"Ġcircumstances":5769,"Ġbehavi":5770,"Ġdiagnosis":5771,"}}}":5772,"ui":5773,"ading":5774,"Ġradio":5775,"Ġhistor":5776,"Bl":5777,"SC":5778,"Ġcredit":5779,"orge":5780,"wid":5781,"Ġtechniques":5782,"Can":5783,"Ġenzym":5784,"Ġ-->":5785,"Ġminor":5786,"Ġsurround":5787,"Ġstream":5788,"Ġkid":5789,"Ġabsence":5790,"ĠTexas":5791,"Ġdiscussion":5792,"Ġgeneration":5793,"zon":5794,"Ġanimal":5795,"005":5796,"Ġsuggests":5797,"Ġauto":5798,"induced":5799,"local":5800,"Ġexternal":5801,"Ġoptical":5802,"cohol":5803,"Ġstatute":5804,"Ġresponses":5805,"Ġpun":5806,"Ġmist":5807,"Ġwel":5808,"Ġtempor":5809,"Ġevolution":5810,"Lambda":5811,"Inter":5812,"Ġappellant":5813,"Ġmetal":5814,"Ġtrou":5815,"ĠEach":5816,"Our":5817,"itled":5818,"Ġcertainly":5819,"uate":5820,"Ġfeet":5821,"KE":5822,"Ġgone":5823,"Ġ()":5824,"eless":5825,"Ġschools":5826,"Ġvirus":5827,"Ġadvantage":5828,"Ġhuge":5829,"Ġassociation":5830,"ensuremath":5831,"ĠLondon":5832,"Ġoccurred":5833,"Message":5834,"Ġprobability":5835,"ulf":5836,"Ġbrother":5837,"izations":5838,"boldsymbol":5839,"ĠCode":5840,"ira":5841,"Ġmanif":5842,"ouble":5843,"ĠGroup":5844,"Ġelectric":5845,"Ġcatch":5846,"Ġpicture":5847,"xx":5848,"BI":5849,"Ġbuffer":5850,"Ġbelong":5851,"Ġtal":5852,"Ġrecords":5853,"ĠCH":5854,"Ġwhom":5855,"While":5856,"Ġmissing":5857,"Ġmix":5858,"Ġofficer":5859,"Source":5860,"istan":5861,"Ġfootball":5862,"Ġcreating":5863,"Ġequipment":5864,"ĠNote":5865,"po":5866,"Ġscience":5867,"Ġalgorithm":5868,"Ġteac":5869,"------------------------------------------------":5870,"Ġmechanisms":5871,"Ġ34":5872,"Ġpros":5873,"âĢ¢":5874,"Ġguess":5875,"Ġderived":5876,"reek":5877,"Ġresolution":5878,"Ġbeautiful":5879,"Ġformat":5880,"Ġcitiz":5881,"BL":5882,"Ġoccup":5883,"otyp":5884,"ĠDan":5885,"inte":5886,"Ġsust":5887,"asc":5888,"aud":5889,"Ġfold":5890,"Ġestimated":5891,"Ġvert":5892,"Ġ42":5893,"asma":5894,"resents":5895,"subset":5896,"ymph":5897,"Ġchain":5898,"ĠEm":5899,"Ġsubjects":5900,"Ste":5901,"Ġpurposes":5902,"lif":5903,"âĢ²":5904,"Ġfloor":5905,"ĠBank":5906,"SU":5907,"Ġcoe":5908,"Line":5909,"Rep":5910,"ĠBlack":5911,"ban":5912,"ĠNOT":5913,"ĠOh":5914,"Ġideas":5915,"Ġgal":5916,"ographic":5917,"reated":5918,"Ġjava":5919,"ĠEast":5920,"Ġpool":5921,"Ġprosec":5922,"Ġadding":5923,"See":5924,"unday":5925,"Ġattorney":5926,"tical":5927,"Ġpolic":5928,"Ġeat":5929,"allel":5930,"isation":5931,"Ġplus":5932,"PP":5933,"Ġmouse":5934,"Ġcontained":5935,"Ġproperly":5936,"rian":5937,"rivate":5938,"default":5939,"ĠAny":5940,"Ġdoll":5941,"Ġforces":5942,"First":5943,"Ġcriminal":5944,"Ġserved":5945,"Ġintended":5946,"server":5947,"idge":5948,"appa":5949,"\"></":5950,"nam":5951,"otimes":5952,"what":5953,"acebook":5954,"ĠSet":5955,"Ġempt":5956,"Ġeconomy":5957,"cence":5958,"inner":5959,"dots":5960,"Ġcold":5961,")[":5962,"Ġil":5963,"orry":5964,"model":5965,"Ġextent":5966,"Ġdirector":5967,"Ġelectron":5968,"gebra":5969,"ilos":5970,"Ġnan":5971,"Ġexperien":5972,"ologies":5973,"Ġcharacters":5974,"(&":5975,"SO":5976,"cknow":5977,"ĠRap":5978,"}-":5979,"Ġcomposition":5980,"Ġbreast":5981,"Ġregist":5982,"Ġdefendants":5983,"Ġerrors":5984,"rees":5985,"sole":5986,"čĊĠĠĠĠĠĠĠĠĠĠĠ":5987,"how":5988,"esis":5989,"Ġdecreased":5990,"while":5991,"Ġgenetic":5992,"func":5993,"Ġbool":5994,"231":5995,"ĠGoogle":5996,"Ġmembrane":5997,"Ġconvers":5998,"frak":5999,"opic":6000,"Ġsales":6001,"Ġorganization":6002,"Ġthank":6003,"ALL":6004,"ĠRem":6005,"result":6006,"oute":6007,"FI":6008,"kg":6009,"anging":6010,"Ġagency":6011,"Ġfeeling":6012,"Ġrise":6013,"Ġwat":6014,"ĊĠĠĠĠĠĠĠĠĠĠĠĠĠĠĠĠĠĠĠĠĠĠĠĠĠĠĠĠĠĠĠ":6015,"**]{},":6016,"Per":6017,"Ġdistinct":6018,"MT":6019,"Ġfinite":6020,".[@":6021,"][":6022,"Ġglass":6023,"rich":6024,"Ġ\"[":6025,"248":6026,"Ġcommunic":6027,"ago":6028,"Ġthread":6029,"Ð»":6030,"Ġdrop":6031,"ilk":6032,"Ġshared":6033,"Ġrepresents":6034,"rd":6035,"Ġannounced":6036,"ĠCR":6037,"System":6038,"ĠJames":6039,"Ġoffers":6040,"Ġepis":6041,"Ġtechnique":6042,"Ġhol":6043,"Group":6044,"lebr":6045,"ugin":6046,"ĠSuch":6047,"iny":6048,"Ġcat":6049,"ÂłÂłÂłÂł":6050,"Ġ2004":6051,"Ġstrugg":6052,"Ġ${":6053,"nonumber":6054,"ĠSupreme":6055,"Ġvent":6056,"Ġunivers":6057,"Ġlargest":6058,")\"":6059,"eturn":6060,"310":6061,"src":6062,"ĠKore":6063,"Ġdescribe":6064,"ĠCa":6065,"\\!":6066,"cks":6067,"Ġinteractions":6068,"orders":6069,"Ġprojects":6070,"valid":6071,"ldots":6072,"ĠJew":6073,"ariant":6074,"Ġauthority":6075,"Ġexpert":6076,"However":6077,"Ġhypot":6078,"Ġcir":6079,"IO":6080,"rape":6081,"poss":6082,".$$":6083,"Ġearn":6084,"Ġspectrum":6085,"Ġsav":6086,"dt":6087,"Ġslightly":6088,"Ġdecrease":6089,"aper":6090,"cel":6091,"Ġcomfort":6092,"ename":6093,"Ġstars":6094,"Che":6095,"hi":6096,"TO":6097,"Ġdiseases":6098,"Pr":6099,"Ġreceptor":6100,"Ġjuris":6101,"Ġholding":6102,"Some":6103,"ĠDirect":6104,"CF":6105,"âĢĬ":6106,"Ġwish":6107,"itory":6108,"ĠOver":6109,"Ġteams":6110,"Ġinterests":6111,"typ":6112,"Ġentered":6113,"Ġsmooth":6114,"Ġlatest":6115,"Ġconventional":6116,"ĊĊĊĊ":6117,"Ġoutcome":6118,"Ġsequences":6119,"ĠCommun":6120,"Ġune":6121,"$(":6122,"Ġopening":6123,"ca":6124,"doc":6125,"page":6126,"Ġtox":6127,"ĠMac":6128,"uesday":6129,"232":6130,"Ġgold":6131,"child":6132,"ilarly":6133,"ĠTwo":6134,"Ġcharged":6135,"Ġpossibility":6136,"Ġsymm":6137,"ĠPD":6138,"Ġoffered":6139,"âĢĿ.":6140,"just":6141,"ĠGreen":6142,"Ġvel":6143,"ĠCouncil":6144,"ĠRE":6145,"pled":6146,"Ġprofile":6147,"sens":6148,"mittee":6149,"ato":6150,"Ġwind":6151,"ansion":6152,"icians":6153,"Ġanalyses":6154,"ĠEq":6155,"ĠFriday":6156,"Ġsymmet":6157,"Ġheavy":6158,"BO":6159,"Ġsignals":6160,"ĠDay":6161,"Ġneighbor":6162,"Ġsummer":6163,"Ġabuse":6164,"Ġarbit":6165,"000000":6166,"ponse":6167,"Ġboy":6168,"Ġstable":6169,"xml":6170,"Ġconcentrations":6171,"Ġdriver":6172,"SH":6173,"Ġmeant":6174,"ĠStreet":6175,"imer":6176,"Ġpy":6177,"Ġvolt":6178,"Ġ--------":6179,"Ġconserv":6180,"Ġofficers":6181,"ĠCirc":6182,"NE":6183,"Ġexistence":6184,"Ġjoint":6185,"venue":6186,"AND":6187,"Ġcryst":6188,"Ġdoubt":6189,"ĠCalculate":6190,"jected":6191,"ĠDel":6192,"Ġcompens":6193,"query":6194,"uations":6195,"oted":6196,"ĠChinese":6197,"mic":6198,"Ġinvolve":6199,"anges":6200,"Ġpatterns":6201,"È±":6202,"xture":6203,"mbox":6204,"ĠBritish":6205,"PH":6206,"Box":6207,"XX":6208,"nel":6209,"Ġplants":6210,"ĠMart":6211,"mathfrak":6212,"Call":6213,"Ġwhatever":6214,"organ":6215,"di":6216,"ructions":6217,"PC":6218,"oman":6219,"Ġowners":6220,"kin":6221,"Ġweap":6222,"ĠClass":6223,"Ġguys":6224,"ĠĠĠĠĠĠĠĠĠĠĠĠĠĠĠĠĠĠĠĠĠĠĠ":6225,"Ġelim":6226,"Ġcontrolled":6227,"Ġhus":6228,"Ġ};":6229,"Ġring":6230,"Ġdra":6231,"omorph":6232,"asks":6233,"utor":6234,"Sp":6235,"UD":6236,"ĠDi":6237,"abet":6238,"iveness":6239,"Ġexchange":6240,".</":6241,"ston":6242,"Manager":6243,"Ġsymb":6244,"Ġkit":6245,"Ġgenerate":6246,"Ġprotected":6247,"crete":6248,"ka":6249,"ainer":6250,"Ġcoverage":6251,"Ġcompleted":6252,"ĠSO":6253,"height":6254,"iler":6255,"Ġloop":6256,"Ġquantum":6257,"after":6258,"ville":6259,"Ġindicates":6260,"ĠSur":6261,"target":6262,"Ġdry":6263,"onald":6264,"ĠService":6265,"}}{":6266,"Phi":6267,"101":6268,"jo":6269,"Ġrepresentation":6270,"Ġidentity":6271,"ĠCA":6272,"({":6273,"you":6274,"ki":6275,"ursday":6276,"Ġincorpor":6277,"Ġimmune":6278,"Ġconfirm":6279,"Ġdigital":6280,"ql":6281,"Date":6282,"PRO":6283,"ĠWed":6284,"Ġfluid":6285,"Ġaren":6286,"Ġseemed":6287,"Ġholds":6288,"faces":6289,"Ġrepeated":6290,"Ġcrime":6291,"Ġ38":6292,"Co":6293,"Ġbutton":6294,"ĠFoundation":6295,"Bar":6296,"ĠPeople":6297,"Ġequivalent":6298,"Ġmeasurements":6299,"MR":6300,"ĠWestern":6301,"ĠEv":6302,"Ġdose":6303,"Ġexcess":6304,"istent":6305,"Ġrank":6306,"Ġlit":6307,"Ġappeared":6308,"Ġgain":6309,"ĠUnder":6310,"Ġinterested":6311,"Ġsupply":6312,"opl":6313,"Ġburn":6314,"MI":6315,"Ġpure":6316,"hent":6317,"ĠAddition":6318,"Ġoperating":6319,"inder":6320,"End":6321,"Ġhappens":6322,"Ġconclusion":6323,"})$":6324,"ĠAL":6325,"ĠRich":6326,"/\\":6327,"ĠDE":6328,"sem":6329,"\").":6330,"Ġ2003":6331,"Any":6332,"ua":6333,"Ġlung":6334,"Ġagents":6335,"Ġnetworks":6336,"Ġdriving":6337,"Pre":6338,"ĠMA":6339,"Ġpregn":6340,"UE":6341,"ĠFOR":6342,"ĠĠĠĠĠĠĠĠĠĠĠĠĠĠĠĠĠĠĠĠĠĠ":6343,"ĊĠĠĠĠĠĠĠĠĠĠĠĠ":6344,"Ġstatements":6345,"Ġjobs":6346,"chen":6347,"Ġsecondary":6348,"Ġprison":6349,"ĠMichael":6350,"Ġfirm":6351,"==========":6352,"ln":6353,"Ġmaintain":6354,"nesday":6355,"Net":6356,"ĠCanada":6357,"Ġcustomers":6358,"illa":6359,"349":6360,"çļ":6361,"ailed":6362,"appro":6363,"EO":6364,"ĠER":6365,"ĠRober":6366,"Ġreferred":6367,"Ġcatal":6368,"pack":6369,"Ġ------------":6370,"Ġsession":6371,"Ġdisp":6372,"Ġmuscle":6373,"Ġinstr":6374,"Ġviews":6375,"ĠBoth":6376,"Ġreturns":6377,"ĠFe":6378,"ĠFin":6379,"Ġorigin":6380,"osc":6381,"Ġpeace":6382,"elled":6383,"SON":6384,"Ġempty":6385,"UG":6386,"ĠĊĠ":6387,"ĠInstitute":6388,"Ġapprec":6389,"Ġtrend":6390,"Ġassessment":6391,"Ġmobile":6392,"********************************":6393,")/(":6394,"çļĦ":6395,"Â»":6396,"Ġquarter":6397,";\\":6398,"Ġconfiguration":6399,"aneous":6400,"FP":6401,"Ġdiag":6402,"ĠMonday":6403,"draw":6404,"sey":6405,"Ċĉĉĉĉĉ":6406,"Ġparticles":6407,"Ġheter":6408,"Ġ2019":6409,"idem":6410,"Ġruns":6411,"false":6412,"Ġimportance":6413,"Button":6414,"Ġdownload":6415,"Ġlibrary":6416,"ĠNO":6417,"Ġpartners":6418,"Don":6419,"ĠTechn":6420,"Ġgrand":6421,"othing":6422,"uries":6423,"Ġquery":6424,"Ġsuff":6425,"Î¼":6426,"ba":6427,"yr":6428,"ĠArm":6429,"oom":6430,"Ġdigit":6431,"ĠEX":6432,"Ġdeveloping":6433,"Ġreality":6434,"cluding":6435,"Ġdelivery":6436,"ady":6437,"riage":6438,"raction":6439,"Ġcovered":6440,"ĠSmith":6441,"anes":6442,"ridge":6443,"Ġalcohol":6444,"Ġing":6445,"Ġopened":6446,"web":6447,"ĠYes":6448,"arp":6449,"]),":6450,"ĠBen":6451,"Ġrac":6452,"Ġissued":6453,"Ġliterature":6454,"ĠOut":6455,"ATION":6456,"ĠSunday":6457,"Ġconvert":6458,"sor":6459,"tex":6460,"\\{":6461,"Ġchronic":6462,"Ġknows":6463,"Ġextension":6464,"Ġhighlight":6465,"kappa":6466,"icated":6467,"({\\":6468,"Ġmixed":6469,"ĠIns":6470,"ĠĠĠĠĠĠĠĠĠĠĠĠĠĠĠĠĠĠĠĠĠĠĠĠĠĠĠĠĠĠĠĠĠĠĠĠĠĠĠĠĠĠĠĠĠĠĠĠĠĠĠĠĠĠĠĠ":6471,"look":6472,"ih":6473,"Ġassay":6474,"ĠAre":6475,"RL":6476,"-------":6477,"Ġ500":6478,"825":6479,"stein":6480,"win":6481,"amine":6482,"Ġthreshold":6483,"Ġapproved":6484,"Ġmm":6485,"Ġformula":6486,"Ġborn":6487,"Ġcateg":6488,"Ġlatter":6489,"Ġremainder":6490,"UM":6491,"Ġtransmission":6492,"Ġintent":6493,"Ġbra":6494,"\\|":6495,"ĠWell":6496,"ORT":6497,"Ġsurvey":6498,"care":6499,"ocytes":6500,"ĠTra":6501,"ulin":6502,"Ġextended":6503,"ilty":6504,"Ã¶":6505,"asure":6506,"gments":6507,"ĠFacebook":6508,"ancing":6509,"Ġsquare":6510,"Ġcalling":6511,"ĠEvery":6512,"ĠChristian":6513,"edy":6514,"Ġpolar":6515,"ĠSecond":6516,"duc":6517,"946":6518,"Ġwire":6519,"Ġoccurs":6520,"Ġaccum":6521,"process":6522,"itect":6523,"orrow":6524,"Ġexplicit":6525,"ĠPort":6526,"Ġleader":6527,"Ġinner":6528,"abilities":6529,":\\":6530,"ĠMal":6531,"Ġpercentage":6532,"hetic":6533,"}=\\":6534,"Ġexcell":6535,"}+":6536,"SM":6537,"Ġahead":6538,"TA":6539,"Ġvacc":6540,"alysis":6541,"ITY":6542,"img":6543,"ĠCommittee":6544,"Ġcharges":6545,"ĠAR":6546,"ĠUnion":6547,"Ġextremely":6548,"select":6549,"Ġcollege":6550,"Ġsubsequent":6551,"ocity":6552,"Ref":6553,"Pe":6554,")*(":6555,"Ġflex":6556,"Ġ+=":6557,"Ġcarbon":6558,"ĠKe":6559,"onna":6560,"aming":6561,"Ġallowing":6562,"apache":6563,"olf":6564,"Ġregulation":6565,"Ġuniform":6566,"Ġsigned":6567,"Ġefficiency":6568,"Ġbow":6569,"supplementary":6570,"Ġoutcomes":6571,"Ġexamples":6572,"Ġhelped":6573,"Ġcelebr":6574,"main":6575,"Ġestimate":6576,"Ġhab":6577,"Ġbalance":6578,"aturday":6579,"Ġleaving":6580,"Ġgreatest":6581,"ads":6582,"ogene":6583,"edia":6584,"2016":6585,"ifications":6586,"ĠLeague":6587,"ĠDO":6588,"Ġreceiving":6589,"ĠCompany":6590,"Ġspot":6591,"Ġterror":6592,"Ġevaluated":6593,"ortunately":6594,"Ġappoint":6595,"nson":6596,"Ġsubstrate":6597,"TE":6598,"ishes":6599,"Ġlicense":6600,"antly":6601,"Ġinteger":6602,"ĠFrench":6603,"summary":6604,"ĠScience":6605,"names":6606,"rypt":6607,"ĠWhy":6608,"Ġcluster":6609,"Ġrecorded":6610,"=======":6611,"Vert":6612,"Ġcandidate":6613,"Ġarguments":6614,"house":6615,"Ġspirit":6616,"Ġenvironmental":6617,"Ġfish":6618,"Ġelev":6619,"eric":6620,"Ġsubstantial":6621,"amily":6622,"Ġtrain":6623,"Ġfilms":6624,"lem":6625,"wed":6626,"ĠFinally":6627,"Ġrepresented":6628,"has":6629,"ributes":6630,"omes":6631,"Then":6632,"plify":6633,"Ġscene":6634,"Ġunderlying":6635,"Ġhusband":6636,"Ġthousands":6637,"à¤":6638,"bal":6639,"Ġcentury":6640,"Ġfuel":6641,"Ġstre":6642,"Ġhaven":6643,"Ġconcerns":6644,"Ġrelief":6645,"Ġattract":6646,"Ġdecisions":6647,"std":6648,"Ġarr":6649,"Ġfraction":6650,"2015":6651,"ĠMet":6652,"ĠMiss":6653,"Ġ2001":6654,"Ġmostly":6655,"Ġexamined":6656,"Ġcurve":6657,"Ġ44":6658,"Ġnoise":6659,"format":6660,"Ġguarant":6661,"Ġimplementation":6662,"Ġbeg":6663,"Ã¤":6664,"ias":6665,"zen":6666,"gers":6667,"Ġdiscrim":6668,"first":6669,"'.":6670,"According":6671,"otherapy":6672,"!--":6673,"ĠAir":6674,"?âĢĿ":6675,"\"),":6676,"Ġspeech":6677,"legal":6678,"Ġraise":6679,"ĠTR":6680,"Ðº":6681,"Ġbooks":6682,"ĠBre":6683,"Ġpathway":6684,"del":6685,"ĠPress":6686,"Ġmaster":6687,"Ã¼":6688,"Ġbudget":6689,"ĠAssociation":6690,"dr":6691,"Ġcompounds":6692,"Ġowner":6693,"Ġtens":6694,"${":6695,"Ġmorph":6696,"Ġwood":6697,"Ġlymph":6698,"dependent":6699,"property":6700,"itative":6701,"ows":6702,"DB":6703,"Ġpowerful":6704,"ï¼Į":6705,"itely":6706,"ĠSolve":6707,"ette":6708,"**(-":6709,"Ġplasma":6710,"Ġstored":6711,"real":6712,"Ġlearned":6713,"ini":6714,"ya":6715,"Ġfol":6716,"CTION":6717,"Ġfreedom":6718,"author":6719,"erest":6720,"cat":6721,"ĠWindows":6722,"Ġchurch":6723,"Ġspecified":6724,"ĠJer":6725,"button":6726,"Us":6727,"diction":6728,"Click":6729,"Ġpositions":6730,"lets":6731,"phone":6732,"Ġappar":6733,"Just":6734,"Ġcup":6735,"ĠTuesday":6736,"Ġfans":6737,"lands":6738,"event":6739,"^+^":6740,"Part":6741,"standing":6742,"Ġpayment":6743,"Ġstandards":6744,"Ġvill":6745,"ipped":6746,"ivo":6747,"Ġsupposed":6748,"Ġvary":6749,"rowser":6750,"Ġplane":6751,"ĠDuring":6752,"ERT":6753,"akers":6754,"Ġ75":6755,"Ġrecovery":6756,"sive":6757,"ipal":6758,"Ġpolicies":6759,"VA":6760,"Ġshut":6761,"ĠUsing":6762,"ĠGermany":6763,"DL":6764,"ĠTom":6765,"ĠArt":6766,"\",\"":6767,"-----":6768,"Ġgoals":6769,"**]{}":6770,"Ġscheme":6771,"okes":6772,"Ġmetabol":6773,"Number":6774,"Ġserum":6775,"rig":6776,"Ġviolence":6777,"endment":6778,"2017":6779,"Input":6780,"search":6781,"product":6782,"ĠâĢ¦":6783,"message":6784,"ipl":6785,"Ġdepends":6786,"ĠTheorem":6787,"AY":6788,"oking":6789,"Ġeventually":6790,"Ġcriteria":6791,"Ġprocedures":6792,"ĠServ":6793,"dimensional":6794,"ĊĊĠĠĠĠĠĠ":6795,"Ġpert":6796,"ĠIran":6797,"Ġgranted":6798,"zeta":6799,"Ġachieved":6800,"Ġmanufacture":6801,"Ġchosen":6802,"Ġ00":6803,"ĠLou":6804,"Ġlimitations":6805,"Ġfarm":6806,"Ġlab":6807,"Ġmanager":6808,"Ġevaluation":6809,"Ġincub":6810,"rapeut":6811,"Ġtypical":6812,"Ġdesired":6813,"Ġinvestigated":6814,"Ġpaint":6815,"endif":6816,"Ġacts":6817,"These":6818,"ĠMem":6819,"Ġsale":6820,"ĠJudge":6821,"}}_{":6822,"Ġobservations":6823,"isted":6824,"Ġaccord":6825,"ĠIP":6826,"abla":6827,"Ġindeed":6828,"Ġseeing":6829,"Ġcycl":6830,"--------------------------------------------------------------------------------------------------------------------------------":6831,"Ġentitled":6832,"Ġstrongly":6833,"Ġincident":6834,"Ġconstitution":6835,"het":6836,"ĠBel":6837,"Ġadult":6838,"2013":6839,"gression":6840,"ĠRapids":6841,"Ġsch":6842,"isher":6843,"\"}.":6844,"Ġapplicable":6845,"Ġreligious":6846,"night":6847,">(":6848,"ĠMany":6849,"sd":6850,")=\\":6851,"Ġversus":6852,"Ġcompr":6853,"Ġacknow":6854,"ĠBay":6855,"Ġecho":6856,"ĠCell":6857,"ĠJes":6858,"Ġrestaur":6859,"ĠMat":6860,"Ġenforce":6861,"itable":6862,"ructure":6863,"ĠPet":6864,"Ġfourth":6865,"Ġvoltage":6866,"annels":6867,"Ġleaves":6868,"ĠAmericans":6869,"Ġhousing":6870,"cretion":6871,"ampions":6872,"Ġinsp":6873,"Ġeasier":6874,"Back":6875,"Ġdetermination":6876,"aid":6877,"Ġoxid":6878,"ĠÃĹ":6879,"fold":6880,"Ġspend":6881,"Ġtestified":6882,"dem":6883,"flu":6884,"Ġdirected":6885,"Pol":6886,"Ġ64":6887,"Ġisolated":6888,"Ġbaby":6889,"rl":6890,"Ġliver":6891,"bert":6892,"Ġsections":6893,"Ġlisted":6894,"Ġpropos":6895,"Ġchanging":6896,"Ġequations":6897,"Ġtub":6898,"break":6899,"ector":6900,"Ġwarm":6901,"weight":6902,"ĠThursday":6903,"Rem":6904,"Ġspring":6905,"request":6906,"Ġdamages":6907,"Ġskills":6908,"Ġdefect":6909,"Ġcategory":6910,"Point":6911,"hab":6912,"oday":6913,"Ġ39":6914,"ĠFlor":6915,"Ġstimul":6916,"Ġconflict":6917,"ĠBrown":6918,"Ġjournal":6919,"Ġstrain":6920,"ups":6921,"2012":6922,"Ġalter":6923,"INE":6924,"Ġtele":6925,"sg":6926,"Stream":6927,"Ġsensitivity":6928,"Ġflat":6929,"ĠChurch":6930,"bed":6931,"Ġwarrant":6932,"Ġdaughter":6933,"Ġdocuments":6934,"Ġfees":6935,"ĠParty":6936,"clusive":6937,"Ġmodified":6938,"Ext":6939,"Ġearth":6940,"ĠHill":6941,"Ġconsidering":6942,"Ġrestrict":6943,"Ġ2002":6944,"ĠAS":6945,"ĠEngland":6946,"åı":6947,"velopment":6948,"Ġaccident":6949,"Ġelectronic":6950,"gy":6951,"Start":6952,"Ġresulted":6953,"Are":6954,"Ġemph":6955,"imately":6956,"Ġ65":6957,"cp":6958,"ceived":6959,"oster":6960,"Ġfloat":6961,"Ġboundary":6962,"Filter":6963,"ĠCopyright":6964,"Ġtraffic":6965,"Ġsignaling":6966,"ĠMo":6967,"Ġpurchase":6968,"Ġrevers":6969,"Ġamaz":6970,"she":6971,"ĠRob":6972,"Ġdatas":6973,"Ġduty":6974,"ĠNone":6975,"Ġresearc":6976,",'":6977,"ĠUN":6978,"alty":6979,"Ġgar":6980,"Ġcommunities":6981,"Ġwaiting":6982,"Ġhumans":6983,"Ġforth":6984,"mt":6985,"ateral":6986,"activ":6987,"ĠCollege":6988,"otes":6989,"Te":6990,"Ġfif":6991,"plet":6992,"ĠWednesday":6993,"ĠMS":6994,"levision":6995,"pg":6996,"entry":6997,"Ġfocused":6998,"Ġapproaches":6999,"HS":7000,"amental":7001,"Ġlose":7002,"Ġprices":7003,"Ġpossibly":7004,"Ġrecip":7005,"unit":7006,"]--":7007,"else":7008,"ĉĉĉĉ":7009,"Ġthanks":7010,"Ġodd":7011,"riend":7012,"iverse":7013,"Ġfill":7014,"Ġdetailed":7015,"Ġdys":7016,"null":7017,"ĠCT":7018,"300":7019,"Ġshock":7020,"Ġangle":7021,"eles":7022,"Ġdisch":7023,"scale":7024,"BP":7025,"Ġemployed":7026,"nabla":7027,"uns":7028,"itions":7029,"Ġ55":7030,"ĠWeb":7031,":**":7032,"Ġdraft":7033,"ĠIII":7034,"Ġdepth":7035,"inton":7036,"ĠGovernment":7037,"Ġradiation":7038,"Result":7039,"ostic":7040,"Ġjoin":7041,"CN":7042,"2014":7043,"??":7044,"ĠFederal":7045,")^{":7046,"rog":7047,"Ġseek":7048,"Ġbranch":7049,"rive":7050,"UI":7051,"Ġplays":7052,"ushed":7053,"Ġexplan":7054,"Ġinvestigate":7055,"MD":7056,"stood":7057,"$$\\":7058,"icket":7059,"ĠSal":7060,"Ġsho":7061,"Ġconclude":7062,"ĠOpen":7063,"Ġemployee":7064,"law":7065,"inations":7066,"ĠWhich":7067,"ilde":7068,"Ġcompare":7069,"ĠSam":7070,"Ġreb":7071,"Ġion":7072,"operative":7073,"bug":7074,"Ġadults":7075,"json":7076,"ĠForm":7077,"pload":7078,"Ġafford":7079,"ipher":7080,"Ġtag":7081,"ĠPR":7082,"Ġcommitted":7083,"Ġrelationships":7084,"ounce":7085,"lang":7086,"ĠCP":7087,"Ġbelieved":7088,"Ġdepending":7089,"ĠSN":7090,"Ġrich":7091,"Ø§":7092,"Ġtwice":7093,"Ġforced":7094,"Ġcris":7095,"Ġaccuracy":7096,"Ġwilling":7097,"Ġmo":7098,"Ġspat":7099,"Ġcere":7100,"sf":7101,"tyle":7102,"dy":7103,"jud":7104,"ĠVir":7105,"Ġinvestment":7106,"Ġgalax":7107,"iot":7108,"Ġtrials":7109,"igr":7110,"\":\"":7111,"Ġtranscription":7112,"GB":7113,"]--[@":7114,"match":7115,"Ġexpansion":7116,"Ġneither":7117,"Ġbright":7118,"ĠTime":7119,"adding":7120,"Ġfunds":7121,"enance":7122,"Ġplanning":7123,"ĠUp":7124,"conf":7125,"png":7126,"Ġreplic":7127,"Ġfunding":7128,"gent":7129,"Ġmainly":7130,"Ġoblig":7131,"erated":7132,"context":7133,"FO":7134,"\"\"":7135,"Ġstories":7136,"Ġadvice":7137,"Ġassuming":7138,"Since":7139,"Ġexcellent":7140,"Gen":7141,"uster":7142,"Ġconcerned":7143,"Default":7144,"Controller":7145,"Ġstanding":7146,"Ġexposed":7147,"%.":7148,"Ġcogn":7149,"Ġgonna":7150,"Ġguilty":7151,"Ġstack":7152,"cr":7153,"........":7154,"Ġcapable":7155,"Ġmeasurement":7156,"-(":7157,"Ġexperienced":7158,"Ġintensity":7159,"iological":7160,"/-":7161,"2010":7162,"AGE":7163,"Ġminim":7164,"Ġapparatus":7165,"Ġsam":7166,"Ġinvolving":7167,"ĠGold":7168,"Ġsymbol":7169,"Ġbone":7170,"Ġnav":7171,"Ġbiological":7172,"Ġsettings":7173,"Ġconcern":7174,"Ge":7175,"ician":7176,"apers":7177,"small":7178,"Ġpartial":7179,"Ġstem":7180,"ĠWork":7181,"Ġrats":7182,"Ġimaging":7183,"ĠSum":7184,"Ġhelps":7185,"Ġfinished":7186,"Ġdemonstrate":7187,"enu":7188,"Ġconsult":7189,"Query":7190,"Ġcitizens":7191,"Ñĥ":7192,"ployment":7193,"Ġ120":7194,"More":7195,"Ġice":7196,"Ġpoll":7197,"ested":7198,"ĠRussia":7199,"Ġevaluate":7200,"________________":7201,"Ġnodes":7202,"Ġnine":7203,"Ġintellig":7204,"abetes":7205,"2011":7206,"Ġplaintiffs":7207,"ĠDiv":7208,"je":7209,"ju":7210,"inn":7211,"Ġintervention":7212,"Ġpreval":7213,"GA":7214,"Ġenhance":7215,"Ġmes":7216,"Ġdisk":7217,"ÃĹ":7218,"Ġoffense":7219,"ometric":7220,"media":7221,"press":7222,"Ġassessed":7223,"ĠIF":7224,"Ġstreet":7225,"Ġtun":7226,"Ġindepend":7227,"ĠSaturday":7228,"ĠHIV":7229,"only":7230,"Ġasking":7231,"Ġorient":7232,"abil":7233,"ontal":7234,"Ġphenomen":7235,"ĠRef":7236,"Ġcompetition":7237,"ĠMex":7238,"Ġclaimed":7239,"Ġframework":7240,"Ġcort":7241,"Ġextends":7242,"Version":7243,"utely":7244,"ĠLeg":7245,"Ġcellular":7246,"Ġsuitable":7247,"usiness":7248,"SL":7249,"Ġadvert":7250,"Content":7251,"ĠMot":7252,"Ġanalog":7253,"Ġordered":7254,"Ġscores":7255,"Conne":7256,"fee":7257,"method":7258,"aine":7259,"Ġideal":7260,"dat":7261,"Ġcritic":7262,"ellular":7263,"idelines":7264,"Ġsuggesting":7265,"Ġpotentially":7266,"roke":7267,"ket":7268,"Read":7269,"Ġsalt":7270,"Ġworse":7271,"ACK":7272,"Ġrelates":7273,"inv":7274,"ĠType":7275,"ĠFIG":7276,"Ġconfidence":7277,"SR":7278,"estic":7279,"ĠOffice":7280,"vin":7281,"anda":7282,"Ġiron":7283,"ilton":7284,"Ġplot":7285,"Ġcontribution":7286,"ochem":7287,"Ġbreath":7288,"Ġstability":7289,"ĠField":7290,"Ġ41":7291,"possible":7292,"outhern":7293,"ĠEnd":7294,"Load":7295,"istory":7296,"Ġphilos":7297,"iliar":7298,"Gl":7299,"Ġfab":7300,"Ġdoctor":7301,"Ġdefic":7302,"Ġconference":7303,"ftware":7304,"cuss":7305,"Ne":7306,"OK":7307,"Status":7308,"ker":7309,"ools":7310,"Ġchallenges":7311,"ĠHall":7312,"Create":7313,"Ġdil":7314,"TER":7315,"*^":7316,"FC":7317,"mas":7318,"wer":7319,"adata":7320,"_{{\\":7321,"output":7322,"dep":7323,"etime":7324,"Ġ46":7325,"Ġrock":7326,"Mon":7327,"Ġargues":7328,"appe":7329,"\"})":7330,"Ġgly":7331,"TY":7332,"Ġbatter":7333,"Ġadministr":7334,"}/":7335,"Ġfrequently":7336,"ĠCircuit":7337,"Ġtight":7338,"inates":7339,"Ġcash":7340,"rr":7341,"Ġaxis":7342,"xe":7343,"Ġpersons":7344,"Ġlic":7345,"============":7346,"Ġmel":7347,"Ġdeliver":7348,"Â»Â":7349,"cf":7350,"Ġrecall":7351,"missions":7352,"Ġresource":7353,"Ġfav":7354,"Ġduration":7355,"ifies":7356,"Frame":7357,"client":7358,"ĠRepublican":7359,"Ġguide":7360,"oded":7361,"Ġrent":7362,"Ġemployment":7363,"Ġantibody":7364,"Ġpept":7365,"Ġjump":7366,"Ġcontinues":7367,"cale":7368,"Ġstrict":7369,"Ġadvance":7370,"ella":7371,"helial":7372,"Ġ300":7373,"arks":7374,"Ġdepartment":7375,"Ġbrand":7376,"FIG":7377,"Ġdimension":7378,"ĠAlex":7379,"110":7380,"Ġaccepted":7381,"Ġadvanced":7382,"float":7383,"Ġvirtual":7384,"ROM":7385,"Ġuint":7386,"ĠFlorida":7387,"Ġtemplate":7388,"Ġ47":7389,"ifferent":7390,"Which":7391,"Script":7392,"Ġran":7393,"ĠMary":7394,"usal":7395,"âĢĿ,":7396,"Ġlegisl":7397,"antic":7398,"FFFFFFFF":7399,"ĠRussian":7400,"ĠGa":7401,"////////////////":7402,"Ġcos":7403,"Ġreverse":7404,"dden":7405,"Ġannual":7406,"Ġburden":7407,"2000":7408,"Ġlinked":7409,"Ġseconds":7410,"Ġ49":7411,"status":7412,"Ġstopped":7413,"ĠAustralia":7414,"Ġ43":7415,"Ġbag":7416,"Ġ56":7417,"Dec":7418,"iples":7419,"Ġnecessarily":7420,"Ġscope":7421,"ĠFile":7422,"Ġpolymer":7423,"ĠIslam":7424,"ĠFree":7425,"Ġpal":7426,"Ġast":7427,"ĊĠĠĠĠĠĠĠĠĠĠĠĠĠĠĠĠĠ":7428,"ĠIT":7429,"war":7430,"ĠSD":7431,"sin":7432,"ĠLin":7433,"Ġmixture":7434,"Det":7435,"raq":7436,"Ġadequ":7437,"Last":7438,"ĠRule":7439,"apped":7440,"Ġended":7441,"Ġmouth":7442,"ãĢĤ":7443,"ashed":7444,"orted":7445,"itud":7446,"ĠPlease":7447,"Ġjurisdiction":7448,"Ġcrow":7449,"Solve":7450,"Ġimprovement":7451,")]":7452,"Ġ&=":7453,"Ġconstraint":7454,"iller":7455,"Ġmurder":7456,"ĠUse":7457,"Ġlimits":7458,"umns":7459,"Ġthereby":7460,"iary":7461,"BR":7462,"Ġvitro":7463,"Ġchief":7464,"Ġsynd":7465,"Ġconsent":7466,"gt":7467,"Ġassembly":7468,"Ġthin":7469,"ĠANY":7470,"\"]":7471,"Ġremained":7472,"ĠPen":7473,"ĠMinister":7474,"Ġkeeping":7475,"clusions":7476,"tings":7477,"ĠOnce":7478,"Ġoral":7479,"plete":7480,"rip":7481,"ĠBer":7482,"Ġdecide":7483,"Ġcourts":7484,"ĠDefendant":7485,"module":7486,"ĠCI":7487,"Yeah":7488,"ĠLem":7489,"Ġsole":7490,"ĠJohnson":7491,"ears":7492,"ubuntu":7493,"Ġidentification":7494,"ĠSun":7495,"ĠGood":7496,"Ġassigned":7497,"Post":7498,"Ġparallel":7499,"ĠNa":7500,"Ġsigns":7501,"HA":7502,"})\\":7503,"Ġindicating":7504,"roduction":7505,"month":7506,"Ġrough":7507,"Ġmolecules":7508,"ABLE":7509,"root":7510,"rey":7511,"Go":7512,"Ġdiscovered":7513,"Check":7514,"ĠBur":7515,"Ġvelocity":7516,"Ġmand":7517,"Ġentirely":7518,"Ġegg":7519,"layout":7520,"Ġstatistical":7521,"Ġunknown":7522,"Ġrecognized":7523,"Ġ_{":7524,"Ġcontribute":7525,"ĠJapanese":7526,"Layout":7527,"ĠmRNA":7528,"END":7529,"Ġneurons":7530,"May":7531,"Override":7532,"ĠIR":7533,"NAME":7534,"mg":7535,"Ġprovision":7536,"life":7537,"Ġsides":7538,"Ġhence":7539,"ĠWIT":7540,"Ġstick":7541,"Ġmessages":7542,"rapeutic":7543,"rep":7544,"Ġformal":7545,"Ġacute":7546,"Ġmarked":7547,"ĠProject":7548,"ĠGeorge":7549,"Ġnumerous":7550,"Ġarms":7551,"References":7552,"Label":7553,"orthern":7554,"Ġdefinitely":7555,"cup":7556,"Ġwaste":7557,"ĠGerman":7558,"ĠAppe":7559,"Ġaspects":7560,"Ġdegrees":7561,"Ġinteract":7562,"mid":7563,"opath":7564,"Ġfacilit":7565,"alian":7566,"icago":7567,"Ġrare":7568,"Ġsudden":7569,"display":7570,"Response":7571,"ĠInternet":7572,"ĠHen":7573,"Ġspl":7574,"Ġpopulations":7575,"Util":7576,"Ġcamera":7577,"Ġwidely":7578,"Ġpossess":7579,"orters":7580,"ĠSecret":7581,"Ġunable":7582,"IST":7583,"ĠPC":7584,"ĠHence":7585,"2018":7586,"eding":7587,"uint":7588,"Ġphoto":7589,"road":7590,"Ġattacks":7591,"args":7592,"Ġpharm":7593,"Client":7594,"dule":7595,"Ġopposite":7596,"Ġens":7597,"Ġbinary":7598,"ĠOnly":7599,"icious":7600,"Ġdependent":7601,"Ġhem":7602,"Ġfundamental":7603,"ĠON":7604,"ĠSU":7605,"linear":7606,"Ġtables":7607,"Ġgluc":7608,"hether":7609,"ĠLike":7610,"Ġprotest":7611,"Ġillustr":7612,"([":7613,"Ġsan":7614,"Ġinterpretation":7615,"Ġepit":7616,"Ġ150":7617,"Ġgrav":7618,"gical":7619,"uled":7620,"Ġvariation":7621,"ĠSenate":7622,"Ġdisput":7623,"Ġbeat":7624,"Ġoxy":7625,"ĠCle":7626,"Please":7627,"Ġamounts":7628,"ita":7629,"Ġsensitive":7630,"ĠProgram":7631,"Ġreprodu":7632,"Ġnorth":7633,"tag":7634,"omal":7635,"ĠCN":7636,"Ġcommonly":7637,"Cell":7638,"Ġalgebra":7639,"ĠTwitter":7640,"ensed":7641,"Ġjustice":7642,"ophy":7643,"\\]).":7644,"Ġsupporting":7645,"ĠRad":7646,"Ġmicrosc":7647,"osh":7648,"Ġsimpl":7649,"Ġbecoming":7650,"Ġstrains":7651,"007":7652,"Ġarter":7653,"find":7654,"006":7655,"ĠFore":7656,"Ġcompound":7657,"ĠFrance":7658,"Ġnarrow":7659,"Char":7660,"Ġapopt":7661,"Ġton":7662,"Ġmanaged":7663,"Action":7664,"Ġaccompl":7665,"Ġinstructions":7666,"ests":7667,"Ġconven":7668,"ello":7669,"ernel":7670,"Ġsched":7671,"Ġends":7672,"control":7673,"adian":7674,"agon":7675,"iral":7676,"Ġcommission":7677,"Ġcorre":7678,"120":7679,"}|":7680,"ĠLog":7681,"Ġsuppl":7682,"IB":7683,"Ġunderstood":7684,"Simplify":7685,"Your":7686,"čĊĠĠĠĠĠ":7687,"sts":7688,"mut":7689,"ĠLord":7690,"Ġacadem":7691,"Ġfluores":7692,"Ġdestroy":7693,"Â·":7694,"Ġship":7695,"uh":7696,"ĠEarth":7697,"ĠStat":7698,"ĠGive":7699,"Ġconsideration":7700,"Ġscientific":7701,"ĠPA":7702,"(\\[":7703,"Ġabsolute":7704,"Ġstarts":7705,"chron":7706,"claim":7707,"next":7708,"Ġcharacterized":7709,"Ġtor":7710,"anning":7711,"Ġmission":7712,"~~~":7713,"ye":7714,"Ġsought":7715,"ĠSand":7716,"brid":7717,"Base":7718,"Ġconsc":7719,"ä»":7720,"DP":7721,"Ġsubset":7722,"Ġmotiv":7723,"Ġinterval":7724,"Ġaccel":7725,"Americ":7726,"GE":7727,"Ġminute":7728,"ĠTur":7729,"Ġaccurate":7730,"Ġcoh":7731,"Ġmassive":7732,"Ġtechnical":7733,"Ġattached":7734,"Ġestate":7735,"Ġgirls":7736,"ĠTheir":7737,"ERS":7738,"Ġdistingu":7739,"Ġpursu":7740,"lections":7741,"Ġsin":7742,"ĠWil":7743,"Ġsmart":7744,"yer":7745,"ws":7746,"Ġrender":7747,"ulating":7748,"omial":7749,"Ġtruly":7750,"Ġintra":7751,"Ġ72":7752,"Ġdecades":7753,"Ġcustomer":7754,"Ġvess":7755,"Ġemission":7756,"Ġnotes":7757,"Ġpix":7758,"Ġ[[":7759,"#:":7760,"Ġhole":7761,"coin":7762,"Ġrequirement":7763,"tra":7764,"Ġ$-":7765,"Ġpredicted":7766,"Ġfilled":7767,"Ġprolif":7768,"effect":7769,"cut":7770,"Ġgender":7771,"Ġul":7772,"Ġconcluded":7773,"Ġdynamic":7774,"Ġconj":7775,"oration":7776,"Ġconsumption":7777,"Ġsmallest":7778,"ĠDen":7779,"ASS":7780,"Ġseat":7781,"android":7782,"phen":7783,"wing":7784,"asy":7785,"sect":7786,"ĠInstead":7787,"Âº":7788,"uls":7789,"GR":7790,"ĠNor":7791,"ĠSE":7792,"Ġcm":7793,"osa":7794,"nav":7795,"ivered":7796,"ĠIraq":7797,"ĠProf":7798,"Ġsecure":7799,"exec":7800,"Ġseeking":7801,"Ġobservation":7802,"Ġplastic":7803,"ĠSing":7804,"LS":7805,"Psi":7806,"ERR":7807,"etilde":7808,"Ġappearance":7809,"widetilde":7810,"ĊĠĠĠĠĠĠĠĠĠĠ":7811,"Ġoffset":7812,"ĠJesus":7813,"Ġ1999":7814,"append":7815,"Ġassistance":7816,"clear":7817,"Ġresidents":7818,"oral":7819,"iability":7820,"Ġeffectively":7821,"amber":7822,"ĠHel":7823,"ashion":7824,"Ġsenior":7825,"Ġmiles":7826,"ĠStand":7827,"2009":7828,"Ġexpensive":7829,"nut":7830,"Ġdynamics":7831,"herent":7832,"Ġcolon":7833,"Ġcompact":7834,"Control":7835,"Ġusual":7836,"iams":7837,"ipping":7838,"rine":7839,"icken":7840,"grade":7841,"\\[[@":7842,"apse":7843,"Ġenable":7844,"prote":7845,"ĠpH":7846,"Ġviolation":7847,"ĠThomas":7848,"Ġ54":7849,"Ġsq":7850,"$)":7851,"GG":7852,"ĠPy":7853,"Ġobjective":7854,"FS":7855,"Ġtissues":7856,"Ġimplies":7857,"ĠSol":7858,"atric":7859,"ĠPRO":7860,"Ġpartner":7861,"ĠFrank":7862,"Ġstrategies":7863,"irty":7864,"128":7865,"scrib":7866,"Ġlaunch":7867,"Ġattend":7868,"DNA":7869,")}\\":7870,"ĠĊĠĠĠ":7871,"Ġintention":7872,"acent":7873,"Ġspending":7874,"Ġorders":7875,"FR":7876,"yan":7877,"ĠHy":7878,"ĠPCR":7879,"ĠObject":7880,"anta":7881,"Ġcoach":7882,"ĠJustice":7883,"Ġrelax":7884,"option":7885,"Ġarticles":7886,"ĠMont":7887,"ORD":7888,"Ġcausing":7889,"Ġroute":7890,"ERE":7891,"Ġfavorite":7892,"Ġtrip":7893,"ĠMethod":7894,"Ġadmitted":7895,"Ġesc":7896,"ĠIndeed":7897,"Ġmortality":7898,"Ġapart":7899,"Ġfan":7900,"Ġarchitect":7901,"Ġsouth":7902,"show":7903,"never":7904,"eness":7905,"Ġped":7906,"strong":7907,"Ġboot":7908,"Ġcorner":7909,"ĠRiver":7910,"Ġsweet":7911,"ĠTor":7912,"Web":7913,"ĠJava":7914,"Ġfell":7915,"umer":7916,"Ġpractices":7917,"ander":7918,"Ġinhibition":7919,"Ġarrange":7920,"Ġdiscretion":7921,"aked":7922,"Ġresponsibility":7923,"[\"":7924,"Ġtelevision":7925,"à¸":7926,"Ġnegot":7927,"Ġchair":7928,"Ġzone":7929,"Â¶":7930,"}},":7931,"eds":7932,"inson":7933,"Ġgap":7934,")|":7935,"}}{\\":7936,"Ġbroken":7937,"Ġcart":7938,"Two":7939,"mL":7940,"istor":7941,"zy":7942,"ĠBi":7943,"ĠMass":7944,"Ġpages":7945,"Ġmethyl":7946,"ĠSpec":7947,"Ġ52":7948,"css":7949,"Am":7950,"Ġorganic":7951,"Ġ${{\\":7952,"Ġperman":7953,"Ġnom":7954,"ĠView":7955,"ĠStr":7956,"Ġunion":7957,"QU":7958,"Ð°Ð":7959,"rency":7960,"ĠHuman":7961,"ĠDec":7962,"cdots":7963,"inite":7964,"ĠLouis":7965,"Ġoverl":7966,"number":7967,"Ġspaces":7968,"values":7969,"Ġantibodies":7970,"ARR":7971,"Ġanc":7972,"Ġchannels":7973,"ĠInformation":7974,"etch":7975,"bound":7976,"va":7977,"Ġrepair":7978,"prop":7979,"Ġdifferential":7980,"Ġinfo":7981,"oder":7982,"Ġamb":7983,"Ġestimates":7984,"hydro":7985,"ĠBill":7986,"Ġ51":7987,"ĠPH":7988,"creen":7989,"Ġvivo":7990,"ĠAnn":7991,"ura":7992,"ĠClinton":7993,"tab":7994,"Ġtoler":7995,"adow":7996,"').":7997,"Ġsector":7998,"arden":7999,"ani":8000,"ĠGal":8001,"Ġwatching":8002,"Instance":8003,"ĠAPI":8004,"Ġexceed":8005,"avel":8006,"*/":8007,"MC":8008,"IE":8009,"Ġinstalled":8010,"ressive":8011,"Ġknock":8012,"ĠAfrica":8013,"400":8014,"sign":8015,"ĠVol":8016,"Ġinformed":8017,"Ġabund":8018,"Note":8019,"ogenesis":8020,"NU":8021,"Ġprinciple":8022,"Su":8023,"Ġmutations":8024,"fections":8025,"ĠPhil":8026,"Ġtheore":8027,"ĠTimes":8028,"ao":8029,"]);":8030,"Ġhoriz":8031,"oxid":8032,"Ġcandidates":8033,"Ġperspective":8034,"private":8035,"TD":8036,"zing":8037,"uscript":8038,"high":8039,"Ġrepresentative":8040,"kes":8041,"msgid":8042,"ributions":8043,"omer":8044,"Ġdelet":8045,"Ġsuccessfully":8046,"Ġfont":8047,"ĠMath":8048,"ĠSoftware":8049,"Right":8050,"Ġstructural":8051,"ĠEduc":8052,"BD":8053,"msgstr":8054,"++)":8055,"ollowing":8056,"ogenic":8057,"Ġresearchers":8058,"Ġsea":8059,"Ġpairs":8060,"Ġpromote":8061,"ounter":8062,"Ġhomes":8063,"Where":8064,"Ġsitting":8065,"Ġmargin":8066,"otted":8067,"Ġworry":8068,"hal":8069,"Ġdesc":8070,"fa":8071,"Ġmaps":8072,"ĠProte":8073,"Ġrecommended":8074,"card":8075,"ĠChild":8076,"Ġsupra":8077,"**,":8078,"perties":8079,"Ġmarried":8080,"ora":8081,"Ġforg":8082,"MB":8083,"Ġmatters":8084,"oked":8085,"Ġ---":8086,"Ġgenome":8087,"google":8088,"GC":8089,"Ġreact":8090,"plex":8091,"Ġhundreds":8092,"Ġpet":8093,"LC":8094,"Ġautomatically":8095,"Gu":8096,"Thanks":8097,"Ġreducing":8098,"Ġturns":8099,"Ġinjection":8100,"ĠFed":8101,"pet":8102,"water":8103,"Ġimpossible":8104,"ords":8105,"Ġtargets":8106,"system":8107,"Ġ101":8108,"ymmet":8109,"Ġexamination":8110,"ĠUs":8111,"Ġsolve":8112,"TS":8113,"seud":8114,"Ġeditor":8115,"Ġvul":8116,"Ġdomin":8117,"Ġsupports":8118,"Ġsplit":8119,"Ġpp":8120,"Ġdetermining":8121,"Ġwrt":8122,"Hz":8123,"Ġoxygen":8124,"Ġobser":8125,"ĠSl":8126,"Ġsupplement":8127,"Ġprev":8128,"Ġbaseline":8129,"Format":8130,"neg":8131,"Ġlargely":8132,"Output":8133,"vant":8134,"Ġpassing":8135,"Ġju":8136,"Ġembed":8137,"spe":8138,"Ġmerely":8139,"Ġpieces":8140,"vol":8141,"Ġdebate":8142,"Ġterminal":8143,"Ġweekend":8144,"Ġconcerning":8145,"bour":8146,"Ġeating":8147,"otten":8148,"Ġpolitics":8149,"Ġassumed":8150,"ĠRobert":8151,"ptic":8152,"Ġtip":8153,"ĠCr":8154,"Although":8155,"ĠStar":8156,"ĠAppellant":8157,"ĠMedical":8158,"uum":8159,"Ġfaster":8160,"Ġscr":8161,"ĠMag":8162,"Fe":8163,"Ġtranscript":8164,"Ġsignificance":8165,"Ġloved":8166,"Ġluck":8167,"Ġ1998":8168,"Ġinvolves":8169,"ĠSP":8170,"Ġmarriage":8171,"ĠCarol":8172,"Ġreplaced":8173,"TC":8174,"Ġsegment":8175,"Ġvisible":8176,"Ġbath":8177,"Ġbattle":8178,"Ġalt":8179,"ĠChicago":8180,"Ġpathways":8181,"Ġxml":8182,"olecules":8183,"Ġinnov":8184,"Look":8185,"Ġforget":8186,"Ġlaser":8187,"Ġproved":8188,"template":8189,"Style":8190,"Ã§":8191,"Ġemergency":8192,"ĠMad":8193,"Page":8194,"igan":8195,"Ġrational":8196,"Ġcompre":8197,"Ġdivers":8198,"Ġcrisis":8199,"rer":8200,"]]":8201,"Ġaid":8202,"NF":8203,"Ġputting":8204,".âĢĻ":8205,"pert":8206,"ĠSecurity":8207,"ĠÎ±":8208,"Ġbehaviour":8209,"athered":8210,"obj":8211,"ola":8212,"Ġvision":8213,"&=":8214,"Ġfamiliar":8215,"rot":8216,"Ġdirectory":8217,"ĊĊĠĠ":8218,"fit":8219,"Ġflux":8220,"Ġstret":8221,"vo":8222,"weet":8223,"Ġleadership":8224,"Ġexperiences":8225,"Off":8226,"Ġacting":8227,"Ġje":8228,"aren":8229,"achment":8230,"Ġnative":8231,"Hel":8232,"Ġparticle":8233,"thm":8234,"Ġpropag":8235,"ĠSocial":8236,"Ġspectra":8237,"Ġlived":8238,"ĠLong":8239,"ĠLife":8240,"Ġcof":8241,"Ġmanuscript":8242,"Ġreson":8243,"Ġproportion":8244,"Ġsand":8245,"ĠAnother":8246,"Ġclosely":8247,"tw":8248,"Ġdream":8249,"Ġprimarily":8250,"contin":8251,"rition":8252,"Ġfinish":8253,"Arg":8254,"Ġlie":8255,"Ġ[]":8256,"Ġadm":8257,"Another":8258,"Ġexplore":8259,"Ġgate":8260,"Handler":8261,"Ġ\\>":8262,"ĠAfrican":8263,"Buffer":8264,"Ġelectrical":8265,"ĠNA":8266,"ancis":8267,"Ġregister":8268,"atrix":8269,"Rel":8270,"agger":8271,"aped":8272,"imb":8273,"ĠIts":8274,"Ã³n":8275,"ĠNE":8276,"Ġsuspect":8277,"Ġaccordance":8278,"Ġprincipal":8279,"star":8280,"ĠScott":8281,"OU":8282,"Ġ400":8283,"2008":8284,"Ġdisorder":8285,"Ġdiabetes":8286,"ĠGreat":8287,"Ġjoined":8288,"ĠCap":8289,"lements":8290,"Ġsimult":8291,"Ġdelivered":8292,"dist":8293,"Ġintr":8294,"Mode":8295,"Ġaggreg":8296,"Ġ1997":8297,"Ġdual":8298,"Ġpump":8299,"ether":8300,"OO":8301,"Ġath":8302,"Ġdangerous":8303,"Ġrail":8304,"Ġsorry":8305,"Ġ1990":8306,"Const":8307,"Ġsac":8308,"Ġtrees":8309,"Ġamazing":8310,"Ġ99":8311,"Ġcorrespond":8312,"Ġbio":8313,"Ġmaintenance":8314,"lee":8315,"Ġhonest":8316,"Ġouter":8317,"Ġdisorders":8318,"aneously":8319,"ĠIV":8320,"Ġlowest":8321,"racellular":8322,"mes":8323,"Mr":8324,"ĠEqu":8325,"oxy":8326,"ĠWall":8327,"Ġveget":8328,"Ġremoval":8329,"Ġpig":8330,"Ġwalking":8331,"ĠMuslim":8332,"orption":8333,"Ġthermal":8334,"ĠBE":8335,"Ġargue":8336,"Vis":8337,"iki":8338,"Ġdogs":8339,"Pat":8340,"friend":8341,"Ġinjuries":8342,"Ġlig":8343,"Ġgrown":8344,"Ġpor":8345,"Ġbott":8346,"Ġ*)":8347,"Ġneglig":8348,"Ġurl":8349,"ARE":8350,"sa":8351,"Ġcloser":8352,"then":8353,"ĠSpring":8354,"Ġcontainer":8355,"Ġmilk":8356,"(*":8357,"FOR":8358,"Ġhell":8359,"ented":8360,"}}^":8361,"ĠEU":8362,"Ġfacilities":8363,"Ġbusinesses":8364,"Ġauthorities":8365,"Ġenhanced":8366,"idential":8367,"Next":8368,"Ġconsists":8369,"sn":8370,"Ġlocations":8371,"Ġvit":8372,"plant":8373,"Ġcomposite":8374,"Ġcorrectly":8375,"Ġ2020":8376,"Ġinitially":8377,"Ġbind":8378,"ĠAcc":8379,"lik":8380,"DC":8381,"čĊĉĉ":8382,">,":8383,"Ġcities":8384,"Ġsensor":8385,"fast":8386,"kl":8387,"ĠExt":8388,"sche":8389,"ĠArab":8390,"Tem":8391,"ACE":8392,"Ġflag":8393,"icular":8394,"ĊĠĠĠĠĠĠĠĠĠĠĠĠĠĠ":8395,"ellar":8396,"Ġshell":8397,"Ġcontributions":8398,"Ġoperators":8399,"Ġlots":8400,"etal":8401,"urally":8402,"vi":8403,"Ġposted":8404,"ĠMicrosoft":8405,"Ġble":8406,"150":8407,"lines":8408,"Ġmenu":8409,"Ġconversation":8410,"Ġintegrated":8411,"Select":8412,"Cons":8413,"Ġblocks":8414,"Ġfraud":8415,"ĠFour":8416,".-":8417,"Ġexecutive":8418,"Ġdress":8419,"theless":8420,"Ġrub":8421,"WS":8422,"Ġdollars":8423,"Ġske":8424,"isc":8425,"ðŁ":8426,"ĠBack":8427,"oly":8428,"Ġtelling":8429,"uzz":8430,"ameters":8431,"Ġconsequences":8432,"Ġcreation":8433,"lectric":8434,"Ġpractical":8435,"PCR":8436,"Ġ53":8437,"Ġinequ":8438,"ĠWal":8439,"ĠQue":8440,"Ġsolar":8441,"description":8442,"ZE":8443,"Ġarrived":8444,"```":8445,"IES":8446,"Ġcoupling":8447,"III":8448,"kins":8449,"ĠPut":8450,"Ġmine":8451,"Other":8452,"Ġdefe":8453,"9999":8454,"008":8455,"ĠCentral":8456,"Ġmonitoring":8457,"element":8458,"Ġwear":8459,"Ġcharacteristic":8460,"ochond":8461,"Ġleague":8462,"Ġlayers":8463,"Ġguard":8464,"ĠCy":8465,"mann":8466,"Ġasc":8467,"xiety":8468,"Ġopportunities":8469,"Ġextend":8470,"ayers":8471,"mo":8472,"ĠRichard":8473,"Ġbeam":8474,"Ġbacteria":8475,"ĠWhere":8476,"Ñı":8477,"Ġsyndrome":8478,"Ġpointed":8479,"]$":8480,"hr":8481,"Ġbias":8482,"Ġclar":8483,"andon":8484,"ĠMax":8485,"ĠJones":8486,"\\*\\*":8487,"La":8488,"Ġâī":8489,"ĠNav":8490,"Ġfeedback":8491,"irus":8492,"Ġaging":8493,"ĠÂµ":8494,"\\^":8495,"Ġprohib":8496,"Ġjour":8497,"Before":8498,"eli":8499,"Ġbodies":8500,"Ġdisplayed":8501,"ampionship":8502,"eger":8503,"bool":8504,"ena":8505,"Ġreform":8506,"ĠHospital":8507,"mediate":8508,"Ġneutral":8509,"Ġevening":8510,"Ġupdated":8511,"Ġcaught":8512,"Results":8513,"ĠWH":8514,"Ġmeat":8515,"reatment":8516,"ĠRT":8517,"Ġbund":8518,"Ġspatial":8519,"Ġinstitution":8520,"ortion":8521,"Ġimplemented":8522,"options":8523,"isting":8524,"Ġabsolutely":8525,"CIT":8526,"idents":8527,"called":8528,"rovers":8529,"Ġinstant":8530,"ICE":8531,"Ġdepression":8532,"}+\\":8533,"Max":8534,"untime":8535,"Ġ1996":8536,"Ġ\"(":8537,"pdf":8538,"Ġtherapeutic":8539,"Ġstages":8540,"Ġrig":8541,"Ġorganizations":8542,"Ġscal":8543,"ĠRead":8544,"zer":8545,"Ġ1000":8546,"ruption":8547,"Ġidentical":8548,"Ġillegal":8549,"Ġserving":8550,"ĠName":8551,"attice":8552,"ulture":8553,"Ġtrouble":8554,"Ġcounts":8555,"Ġthoughts":8556,"Ġsqrt":8557,"ijms":8558,"Ġspectral":8559,"Ġpip":8560,"ĠCommon":8561,"Ġconstructed":8562,"Ġsynthesis":8563,"Ġbigger":8564,"ĠDemocratic":8565,"ĠPolice":8566,"asive":8567,"./":8568,"Ġhelping":8569,"00000":8570,"Ġtaxes":8571,"Ġembod":8572,"ĠColor":8573,"});":8574,"Ġclients":8575,"Ġtotally":8576,"ĠWilliams":8577,"Ġkick":8578,"Ġuncertain":8579,"ĠCamp":8580,"ĠOffic":8581,"Ġcontroller":8582,"ĠSk":8583,"Ġsubmitted":8584,"Ġadopted":8585,"oting":8586,"pers":8587,"^-":8588,"ĠChief":8589,"home":8590,"mosp":8591,"Ġclassical":8592,"avas":8593,"rolog":8594,"ĠÂ£":8595,"Ġassault":8596,"Ġapparently":8597,"Ġfuck":8598,"Ġsurrounding":8599,"txt":8600,"1000":8601,"Ġfiber":8602,"Ġrecover":8603,"liament":8604,"Ġdesire":8605,"LR":8606,"Ġphotos":8607,"Ġamino":8608,"Ġdenote":8609,"Ġtom":8610,"Ġban":8611,"ĠRoy":8612,"ĠCath":8613,"project":8614,"DI":8615,"Ġspeaking":8616,"Ġwealth":8617,"Eng":8618,"ĠAv":8619,"Ġmaintained":8620,"Ġsubt":8621,"matrix":8622,"Ġconviction":8623,"Ġsuc":8624,"Ġemotional":8625,"cers":8626,"Ġminimal":8627,"sv":8628,"**(":8629,"Ġinternet":8630,"Ġtasks":8631,"Ġmetast":8632,"ĠLO":8633,"icate":8634,"ohn":8635,"Ñĭ":8636,"rolled":8637,"Ġsurve":8638,"erves":8639,"ttp":8640,"Ġmarkets":8641,"sup":8642,"Ġcoron":8643,"Ġcollabor":8644,"Ġremark":8645,"Ġhousehold":8646,"ĠFrancis":8647,"ĠMcC":8648,"Ġsports":8649,"Ġclassification":8650,"gence":8651,"Ġrid":8652,"Ġpulled":8653,"ĠControl":8654,"Ġ58":8655,"ĠĠĠĠĠĠĠĠĠĠĠĠĠĠĠĠĠĠĠĠĠĠĠĠĠĠĠĠĠĠĠĠĠĠĠĠĠĠĠĠĠĠĠĠĠĠĠĠĠĠĠĠĠĠĠĠĠĠĠĠĠĠĠĠĠĠĠĠĠĠĠĠĠĠĠĠĠĠĠĠĠĠĠĠĠĠĠĠĠĠĠĠĠĠĠĠ":8656,"Ġmedian":8657,"Ġherself":8658,"Ġ{{\\":8659,"Ġprevalence":8660,"Phys":8661,"Ġneighborhood":8662,"Ã£":8663,"Ġargued":8664,"odium":8665,"ĠBit":8666,"ĠĠĠĠĠĠĠĠĠĠĠĠĠĠĠĠĠĠĠĠĠĠĠĠĠĠĠ":8667,"Ġscreening":8668,"Ġultimately":8669,"Ġposts":8670,"Ġ\"\"\"":8671,"ĠKorea":8672,"ĠFire":8673,"âĸ":8674,"Ġpreparation":8675,"ĠĠĠĠĠĠĠĠĠĠĠĠĠĠĠĠĠĠĠĠĠĠĠĠĠ":8676,"buf":8677,"Ġdram":8678,"Ġkne":8679,"Ġmanage":8680,"Ġliability":8681,"Ġfigures":8682,"Ġoptimal":8683,"ski":8684,"sensors":8685,"Gener":8686,"yles":8687,"åĪ":8688,"Ġfabric":8689,"Ġinstrument":8690,"ĠHE":8691,"Ġcataly":8692,"agen":8693,"Ġexplanation":8694,"\\\"":8695,"ĠVirgin":8696,"Ġrotation":8697,"Thread":8698,"Ġcoc":8699,"Sm":8700,"ums":8701,"ĠJose":8702,"common":8703,"Ġfacility":8704,"æľ":8705,"Ġprompt":8706,"Ġdepos":8707,"Ġepisode":8708,"ĠSH":8709,"Ġaccounts":8710,"vider":8711,"unte":8712,"Ã¡Âº":8713,"Ġhypothesis":8714,"anol":8715,"Ġnm":8716,"Mar":8717,"]^.":8718,"Ġessentially":8719,"Options":8720,"ĠÎ²":8721,"ĠBas":8722,"ĠMedic":8723,"Row":8724,"Ġadvoc":8725,"erry":8726,"isor":8727,"Ġ96":8728,"Ġimplied":8729,"Ġdepart":8730,"Ġsugar":8731,"2006":8732,"second":8733,"erman":8734,"URL":8735,"Ġregulations":8736,"otypes":8737,"Ġsounds":8738,"Ġcognitive":8739,"Ġdescribes":8740,"Ġapproval":8741,"Ġclusters":8742,"Open":8743,"Ġprofession":8744,"Tex":8745,"ĠPlan":8746,"yg":8747,"ĠCorp":8748,"ĠFA":8749,"endants":8750,"stack":8751,"Ġfinds":8752,"ailability":8753,"Min":8754,"response":8755,"riers":8756,"OH":8757,"riter":8758,"Ġpictures":8759,"widehat":8760,"eting":8761,"2007":8762,"ĠVis":8763,"Ġprovisions":8764,"ĠServices":8765,"approx":8766,"equiv":8767,"uke":8768,"scill":8769,"onym":8770,"Ġneck":8771,"agraph":8772,"None":8773,"ĠCheck":8774,"Ġwarn":8775,"Ġhal":8776,"Ġassign":8777,"bel":8778,"Ġfellow":8779,"Ġvoters":8780,"Every":8781,"uated":8782,"Ġmodify":8783,"rics":8784,"foot":8785,"allow":8786,"ifts":8787,"Ġquiet":8788,"Ġencoding":8789,"atural":8790,"Ġenem":8791,"ĠLemma":8792,"\\]),":8793,"Ġsong":8794,"rb":8795,"Ġcurves":8796,"bered":8797,"Ġuniversal":8798,"Ġcopyright":8799,"sur":8800,"avascript":8801,"Ġclosest":8802,"Ġcategories":8803,"born":8804,"Ġprinciples":8805,"spring":8806,"Ġradi":8807,"Ġhero":8808,"Ġlob":8809,"Ġrecording":8810,"ĠApple":8811,"uable":8812,"Ġimmediate":8813,"125":8814,"service":8815,"Ġdiffer":8816,"Ġpossession":8817,"Function":8818,"inet":8819,"ĠHome":8820,"Ġ85":8821,"Ġremote":8822,"BM":8823,"ĠNY":8824,"ĠDemocrats":8825,"Ġexamine":8826,"split":8827,"Ġtro":8828,"Ġincidence":8829,"ĠDevelopment":8830,"}\\,":8831,"Ġenzyme":8832,"Ġpin":8833,"Ġrealize":8834,"ffered":8835,"Ġlogic":8836,"Ġtit":8837,"Ġillness":8838,"Ġteaching":8839,"ĠSign":8840,"Find":8841,"ÑĮ":8842,"erior":8843,"Ġlies":8844,"Ġdiscovery":8845,"Because":8846,"Ġobviously":8847,"={":8848,"ĠAdditionally":8849,"aded":8850,"Ġcov":8851,"Ġworst":8852,"Ġnormally":8853,"Dev":8854,"Ġconsole":8855,"Ġpurs":8856,"Ġyouth":8857,"bottom":8858,"ĠVer":8859,"ĠMult":8860,"Ġrecognition":8861,"âĢĺ":8862,"ala":8863,"mode":8864,"Ġtreatments":8865,"Ġingred":8866,"Ġregression":8867,"ĠĠĠĠĠĠĠĠĠĠĠĠĠĠĠĠĠĠĠĠĠĠĠĠĠĠĠĠĠĠĠĠĠĠĠĠĠĠĠĠĠĠĠĠĠĠĠĠĠĠĠĠĠĠĠĠĠĠĠĠĠĠĠĠĠĠĠĠĠĠĠĠĠĠĠĠĠĠĠĠĠĠĠĠĠĠĠĠĠĠĠĠĠĠĠĠĠĠĠĠĠĠĠĠĠĠĠĠĠĠĠĠĠĠĠĠĠĠĠĠĠĠĠĠĠĠĠĠĠĠĠĠĠĠĠĠĠĠĠĠĠĠĠĠĠĠĠĠĠĠĠĠĠĠĠĠĠĠĠĠĠĠĠĠĠĠĠĠĠĠĠĠĠĠĠĠĠĠĠĠĠĠĠĠĠĠĠĠĠĠĠĠĠĠĠĠĠĠĠĠĠĠĠĠĠĠĠĠĠĠĠĠĠĠĠĠĠĠĠĠĠĠĠĠĠĠĠĠĠĠĠĠĠĠĠĠĠĠĠĠĠĠĠĠĠĠĠĠĠĠĠĠĠĠĠĠ":8868,"obs":8869,"ĠPo":8870,"Ġrequests":8871,"2019":8872,"Ġdependence":8873,"Ġtail":8874,"Ġtrigger":8875,"terday":8876,"Ġ110":8877,"Ġalloc":8878,"ificate":8879,"cribed":8880,"ĠCup":8881,"omatic":8882,"eller":8883,"double":8884,"Ġmic":8885,"ĠOS":8886,"note":8887,"Ġbought":8888,"Ġcrucial":8889,"Ġcommittee":8890,"Ġkitchen":8891,"Ġpit":8892,"chain":8893,"ĠFre":8894,"ensus":8895,"Ġmask":8896,"vm":8897,"emia":8898,"Ġglucose":8899,"vector":8900,"Ġtransformation":8901,"Ġhurt":8902,"Ke":8903,"Ġruling":8904,"aph":8905,"isters":8906,"Ġplain":8907,"ĠLib":8908,"mi":8909,"~,":8910,"Ġloan":8911,"Ġmutant":8912,"Ġregistered":8913,"inical":8914,"Ġsheet":8915,"ĠReview":8916,"ĠIsland":8917,"Ġsubstance":8918,"Who":8919,"teen":8920,"ĠBuild":8921,"loc":8922,"160":8923,"Mult":8924,"Ġplanet":8925,"ÐµÐ":8926,"Ġfashion":8927,"BE":8928,"Supplementary":8929,"utory":8930,"Ġtransaction":8931,"Ġreporting":8932,"ben":8933,"Ġpri":8934,"ĠLabor":8935,"pa":8936,"Ġrealized":8937,"Ġtells":8938,")+":8939,"Ġraw":8940,"Ġperipher":8941,"eper":8942,"LECT":8943,"Ġok":8944,"ĠFil":8945,"buffer":8946,"Ġthr":8947,"Ġeigen":8948,"009":8949,"ĠFund":8950,"GS":8951,"Ġ$(\\":8952,"Ġdriven":8953,"Ġdrawn":8954,"Ġinfections":8955,"Init":8956,"Ġpromise":8957,"Ġokay":8958,"kt":8959,"ĠDirector":8960,"ATA":8961,"Attribute":8962,"čĊĠĠĠĠĠĠĠĠĠĠĠĠĠĠĠ":8963,"010":8964,"neq":8965,"About":8966,"///":8967,"Ġnoticed":8968,"header":8969,"PI":8970,"Ġrequested":8971,"Ġcapture":8972,"si":8973,"Ġspoke":8974,"ĠØ":8975,"Ġcontrovers":8976,"Work":8977,"prot":8978,"idity":8979,"ĠTem":8980,"ila":8981,"center":8982,"ĠReport":8983,"ĠInterest":8984,"icide":8985,"Ver":8986,"bling":8987,"Ġhelpful":8988,"Ġ59":8989,"Ġchart":8990,"there":8991,"Ġbars":8992,"Ġrespective":8993,"Ġsituations":8994,"ements":8995,"Ġinfected":8996,"Ġroles":8997,"Factory":8998,"Ġng":8999,"250":9000,"Ġarrested":9001,"Ġshooting":9002,":(":9003,"Ġreactions":9004,"ĠZe":9005,"ĠMer":9006,"Ġsomewhat":9007,"ĠmM":9008,"Ġcas":9009,"Ġinfer":9010,"NR":9011,"Ġretrie":9012,"ĊĊĉĉ":9013,"Ġcomprehen":9014,"Ġcompliance":9015,"ductor":9016,"Ġmechanical":9017,"vision":9018,"iser":9019,"Ġfruit":9020,"Current":9021,"esides":9022,"ĠCare":9023,"ĠHT":9024,"Ġexperts":9025,"essions":9026,"Length":9027,"fortunately":9028,"Ġiniti":9029,"Ġsubstantially":9030,"Ġ57":9031,"Ġhate":9032,"Ġradical":9033,"Ġpreced":9034,"HC":9035,"ĠAri":9036,"UP":9037,"Ġourselves":9038,"Ġmail":9039,"Ġoscill":9040,"ĠSecretary":9041,"HL":9042,"Ġcounty":9043,"before":9044,"Ġsick":9045,"Spec":9046,"Ġcompensation":9047,"Ġreads":9048,"ĠWilliam":9049,"ĠSpe":9050,"Ġfee":9051,"Ġpermit":9052,"iner":9053,"ĠRoad":9054,"Ġdegrad":9055,"akistan":9056,"Component":9057,"Ġsuperior":9058,"SV":9059,"Ġking":9060,"||":9061,"fill":9062,"Ġtopic":9063,"Ġblow":9064,"Ġcontents":9065,"Ġ1995":9066,"ĠHaw":9067,"Ġapoptosis":9068,"Ġguidelines":9069,"cussion":9070,"Ġexcited":9071,"Ġpil":9072,"ĠEducation":9073,"Thank":9074,"uma":9075,"ĠThose":9076,"Ġdropped":9077,"sen":9078,"aven":9079,"Ġregime":9080,"everal":9081,"oston":9082,"unched":9083,"%),":9084,"Run":9085,"255":9086,"Ġacids":9087,"ĠHenry":9088,"ruptcy":9089,"STR":9090,"Mem":9091,"ermine":9092,"Ġpresum":9093,"ĠCL":9094,"direct":9095,"Ġhappening":9096,"ĠĠĠĠĠĠĠĠĠĠĠĠĠĠĠĠĠĠĠĠĠĠĠĠĠĠ":9097,"&&":9098,"Ġ\\-":9099,"Ġgro":9100,"Ġcorrelated":9101,"Ġreligion":9102,"Ġsister":9103,"Ġassets":9104,"Ġboost":9105,"MENT":9106,"ĠLake":9107,"ĠDev":9108,"Ġgau":9109,"quare":9110,"Ġatmosp":9111,"ventions":9112,"Ġfails":9113,"ĠTim":9114,"ĠWho":9115,"Ġlen":9116,"Ġdisag":9117,"Ġthor":9118,"ĠMel":9119,"Ġ66":9120,"Ġoffering":9121,"ĠText":9122,"Ġment":9123,"Ġoccasion":9124,".**":9125,"Ġuniversity":9126,"Ġsurgical":9127,"Ġrend":9128,"Ġhall":9129,"Ġviral":9130,"Ġseparated":9131,"Ġfurn":9132,"ĠNon":9133,"update":9134,"Hey":9135,"Update":9136,"Resource":9137,"Ġdeaths":9138,"Ġapplying":9139,"ĠThanks":9140,"azine":9141,"Ġ>=":9142,"ĠMur":9143,")*(-":9144,"----------":9145,"Direct":9146,"Ġattempts":9147,"close":9148,"Ġcohort":9149,"Ġcircul":9150,"ĠAma":9151,"utch":9152,"Ġcalc":9153,"Oper":9154,"Width":9155,"Ġcontem":9156,"FE":9157,"Ġenforcement":9158,"Ġlisten":9159,"ĠAdminist":9160,"Pa":9161,"Ġproliferation":9162,"Ġpassword":9163,"VD":9164,"Ġsoul":9165,"Ptr":9166,"ĠSociety":9167,"Ġgast":9168,"TI":9169,"Ġcarcin":9170,"Ġincred":9171,"Ġcultural":9172,"Ġcarrying":9173,"ĠPower":9174,"Ġ63":9175,"Ġimagine":9176,"ARRANT":9177,"Ġmanip":9178,"Child":9179,"Tab":9180,"ynomial":9181,"Ġpreferred":9182,"Core":9183,"enter":9184,"ibilities":9185,"Ġsustain":9186,"ĠPeter":9187,"Ġinstruction":9188,"=\"#":9189,"ĠTre":9190,"Ġrect":9191,"Ġlens":9192,"Ġclimate":9193,"Ġtransferred":9194,"Ġchapter":9195,"Ġrapidly":9196,"Ġye":9197,"Builder":9198,"ĠBet":9199,"}^\\":9200,"enger":9201,"Ġmillions":9202,"Ġknowing":9203,"Ġextensive":9204,"WE":9205,"Link":9206,"rh":9207,"ci":9208,"Ġmedicine":9209,"Ġdivision":9210,"Ġvertical":9211,"ND":9212,"Ġopposition":9213,"Ġtaste":9214,"Ġalpha":9215,"attering":9216,"Ġinflammation":9217,"Ġaudience":9218,"Ġweapons":9219,"ĠMartin":9220,"ishment":9221,"````":9222,"Ġelectrode":9223,"Ġorth":9224,"ĊČ":9225,"Ġfo":9226,"outs":9227,"ĠGL":9228,"Ġwherein":9229,"Ã£o":9230,"Token":9231,"iture":9232,"2005":9233,"Ġpicking":9234,"ighter":9235,"Ġtumors":9236,"][@":9237,"ãģ®":9238,"ĠNever":9239,"estion":9240,"ĠDivision":9241,"Ġdiameter":9242,"=\"../../":9243,"ATH":9244,"ĠWARRANT":9245,"Process":9246,"ĠLi":9247,"Command":9248,"ĠSil":9249,"Ġacquired":9250,"\"}),":9251,"han":9252,"Ġhidden":9253,"Ġretail":9254,"}^{(":9255,"Ġpurchased":9256,"ĠCorpor":9257,"Ġmomentum":9258,"Ġconversion":9259,"People":9260,"Ġauthent":9261,"Ġconsumer":9262,"Str":9263,"Ġinduction":9264,"pin":9265,"Ġaver":9266,"Ġmitochond":9267,"Ġshel":9268,"Equal":9269,"Ġcoffee":9270,"Ġ\\{":9271,"Window":9272,"ĠWood":9273,"Ġpermission":9274,"ĠDonald":9275,"Ġ\\*":9276,"Ġaffirm":9277,"ĠHamilton":9278,"Ġ62":9279,"Ġslowly":9280,"Ġconscious":9281,"Ġanswers":9282,"ĠMs":9283,"ĠCall":9284,"Ġsurfaces":9285,"Ġdeclared":9286,"Ġsport":9287,"ympt":9288,"xp":9289,"ĠExp":9290,"some":9291,"Ġaddressed":9292,"Ag":9293,"Ġplanned":9294,"Ġinstitutions":9295,"Ġ}}":9296,"Ġdocumentation":9297,"attr":9298,"Ġvide":9299,"empty":9300,"Ġgrid":9301,"ariable":9302,"ĠJackson":9303,"Ġintroduce":9304,"Ġmoral":9305,"mond":9306,"ĠJo":9307,"Ġwindows":9308,"Ġinflammatory":9309,"ester":9310,"Ġlegislation":9311,"Ġpowers":9312,"%%":9313,"power":9314,"AK":9315,"tx":9316,"Ġbrowser":9317,"Ġwalked":9318,"Ġ67":9319,"Ġcomplicated":9320,"Ġreliable":9321,"WH":9322,"ĠGrand":9323,"isely":9324,"Ġserial":9325,"ĠLee":9326,"orne":9327,"Ġanxiety":9328,"Ġaccused":9329,"ĠPan":9330,"ĊĊĠĠĠĠĠĠĠĠĠĠĠĠĠĠĠĠĠĠĠĠĠĠĠĠĠĠĠĠĠĠĠĠ":9331,"Ġforming":9332,"Ġstatistics":9333,"Ġ\"\\":9334,"Ġfighting":9335,"Ġrein":9336,"Ġ{{":9337,"Ġven":9338,"haust":9339,"Ġincreasingly":9340,"Ġans":9341,"buntu":9342,"Ġcoal":9343,"]\\":9344,"actic":9345,"ĠJournal":9346,"graph":9347,"***":9348,"Ġgrade":9349,"BB":9350,"rients":9351,"Ġpayments":9352,"Ġtemperatures":9353,"SY":9354,"ĠAtl":9355,"Ġrecognize":9356,"Ġ68":9357,"uy":9358,"olid":9359,"Ġnic":9360,"Ġcompat":9361,"Ġbuildings":9362,"Ġcrystal":9363,"---------":9364,"aks":9365,"fficients":9366,"orig":9367,"Ġdivide":9368,"files":9369,"ĠArch":9370,"(_":9371,"Ġreviewed":9372,"fix":9373,"256":9374,"Ġfault":9375,"Ġsoil":9376,"ĠME":9377,"Ident":9378,"Ġoriginally":9379,"Also":9380,"Ġcoupled":9381,"inition":9382,"ĠConst":9383,"Ġfeels":9384,"Ġevident":9385,"Ġassumption":9386,"dx":9387,"OM":9388,"bles":9389,"ĠModel":9390,"ĠIg":9391,"ologic":9392,"Ġpublication":9393,"Ġbiom":9394,"column":9395,"Description":9396,"IND":9397,"Ġowned":9398,"qquad":9399,"Ġmir":9400,"Ġlift":9401,"Ġcircle":9402,"ĠReturn":9403,"åĲ":9404,"Ġdischarge":9405,"ĠDC":9406,"Ġradius":9407,"Ġintelligence":9408,"Ġweather":9409,"Ġsetup":9410,"IGHT":9411,"types":9412,"VID":9413,"Ġturning":9414,"Ġfeat":9415,"2001":9416,"pop":9417,"Ġpaying":9418,"menu":9419,"Ġteachers":9420,"avelength":9421,"click":9422,"Dialog":9423,"Ġsharing":9424,"Ġdecreasing":9425,"Ġ1994":9426,"Ġboolean":9427,"å®":9428,"associ":9429,"Ġwinning":9430,">&":9431,"rif":9432,"Ġtwenty":9433,"Ġtrac":9434,"}}^{":9435,"Ġanyway":9436,"Ġintegration":9437,"Ġtheorem":9438,"Ġsizes":9439,"Ġedges":9440,"Listener":9441,"Ġaged":9442,"icing":9443,"Ġparticipate":9444,"rible":9445,"annot":9446,"Good":9447,"Location":9448,"irable":9449,"ONT":9450,"Ġbin":9451,"ĠLos":9452,"Does":9453,"ĠAff":9454,"015":9455,"Ġwine":9456,"Ġcalculation":9457,"aus":9458,"Ġcorporate":9459,"push":9460,"Ġuniverse":9461,"Ġ--------------------------------":9462,"amination":9463,"anner":9464,"Ġextreme":9465,"ĠAttorney":9466,"Ġrisks":9467,"Ġcab":9468,"Ġclock":9469,".$":9470,";</":9471,"ĠTop":9472,"Ġsuffered":9473,"]\"":9474,"Ġattempted":9475,"Ġhun":9476,"ĠNov":9477,"Ġ61":9478,"Ġpursuant":9479,"'$":9480,"Ġtract":9481,"rosc":9482,"Ġstood":9483,"Ġcentre":9484,"Ġmetric":9485,"ĠDaniel":9486,"2004":9487,"Ġ),":9488,"GT":9489,"comment":9490,"çĶ":9491,"axis":9492,"appoint":9493,"ussian":9494,"ARY":9495,"ĠIC":9496,"Ġcars":9497,"Ġ],":9498,"Ġcoefficient":9499,"sequently":9500,"Ġkinds":9501,"Ġregulatory":9502,"razil":9503,"Ġiter":9504,"Ġmoves":9505,"Configuration":9506,"Ġwarning":9507,"Did":9508,"Ġgift":9509,"Ġrespir":9510,"Ġvast":9511,"Ġhur":9512,"iana":9513,"Server":9514,",$":9515,"rium":9516,"Ġcrypt":9517,"Ġvictims":9518,"Ġlaboratory":9519,"reement":9520,"amely":9521,"Ġalert":9522,"ĠGNU":9523,"014":9524,"Ġdecline":9525,"Ġcalculate":9526,"Ġseparation":9527,"vy":9528,"Ġfant":9529,"Ġboys":9530,"Ġobserve":9531,"ENSE":9532,"Ġscenario":9533,"Ġflo":9534,"NOT":9535,"Ġaside":9536,"His":9537,"uting":9538,"ĠDate":9539,"ĠMexico":9540,"tmp":9541,"ĠIr":9542,"ĠDoes":9543,"Ġinstruct":9544,"Ġbelief":9545,"URE":9546,"Ġengaged":9547,"Ġfairly":9548,"600":9549,"Ġyounger":9550,"Ġrows":9551,"Ġhydrogen":9552,"Ġteacher":9553,"Ġpatent":9554,"ULT":9555,"ocracy":9556,"asts":9557,"Ġschedule":9558,"regulated":9559,"EXT":9560,"Ġdecade":9561,"ĠOhio":9562,"Ġwra":9563,"Ġcolumns":9564,"HR":9565,"=(":9566,"Ġchoices":9567,"Ġrestaurant":9568,"ja":9569,"Ġsimulation":9570,"Block":9571,"agues":9572,"tml":9573,"Ġgod":9574,"vas":9575,"ĠMount":9576,"Address":9577,"ĠAcadem":9578,"Ġregardless":9579,"bial":9580,"aration":9581,"Ġlattice":9582,"SF":9583,"Ġsi":9584,"device":9585,"Ġbattery":9586,"roud":9587,"Ġhotel":9588,")))":9589,"west":9590,"ĠMaybe":9591,"Ġintake":9592,"Ġindustrial":9593,"cert":9594,"Ġster":9595,"Ġsubsequently":9596,"PM":9597,"Target":9598,"Ġpresentation":9599,"Ġconstitutional":9600,"nic":9601,"gage":9602,"Ġconnections":9603,"%;":9604,"PAR":9605,"ald":9606,")}$":9607,"DD":9608,"gi":9609,"ted":9610,"Ġprobe":9611,"deg":9612,"Ġcolle":9613,"Ġrefused":9614,"Ġshop":9615,"Cor":9616,"Ġperforming":9617,"Ġdomestic":9618,"ĠURL":9619,"Ġhybrid":9620,"ĠMean":9621,"El":9622,"Ã¨":9623,"Ġinqu":9624,"Ġregional":9625,"gener":9626,"Ġmutation":9627,"Ġproposal":9628,"Ġcorresponds":9629,"Ġ1992":9630,"GET":9631,"ĠWater":9632,"pool":9633,"################":9634,"Pi":9635,"Ġstead":9636,"env":9637,"infl":9638,"Ġdisappe":9639,"Ġ&\\":9640,"ni":9641,"river":9642,"Ġvehicles":9643,"Ġbeta":9644,"Ġnod":9645,"ellee":9646,"Ġentity":9647,"American":9648,"Ġrepresenting":9649,"Ġproceedings":9650,"Ġbacterial":9651,"ĠAppeals":9652,"Ġreceptors":9653,"Ġnewsp":9654,"Ġmeth":9655,"Ġsuffering":9656,"Ġvulner":9657,"Ġsimulations":9658,"chem":9659,"Ġ1980":9660,"Ġremind":9661,"Ġadjacent":9662,"Ġstores":9663,"Ġcomfortable":9664,"ema":9665,"Ġchamber":9666,"Ġtube":9667,"ĠSC":9668,"Ġsemi":9669,"Ġaccommod":9670,"Ġintegral":9671,"Ġdelete":9672,"ĠGame":9673,"sid":9674,"Ġbare":9675,"ospit":9676,"Ġneu":9677,"align":9678,"ĠTrust":9679,"ĠConstitution":9680,"Ġsad":9681,"VAL":9682,"ĠCard":9683,"oids":9684,"ĠVersion":9685,"ĠFind":9686,"ĠAmong":9687,"ĠRam":9688,"ĠAccordingly":9689,"ictionary":9690,"Ġsaved":9691,"Ġbegins":9692,"Ġacknowled":9693,"ĠInit":9694,"inois":9695,"dl":9696,"Ġcond":9697,"\"}](":9698,"Ġbasically":9699,"Ġresc":9700,"Ġattribute":9701,"mult":9702,"Ġgrounds":9703,"Ġsuppress":9704,"operation":9705,"Ġalk":9706,"Ġmarketing":9707,"ĠThree":9708,"bc":9709,"inals":9710,"-----------":9711,"ĠExper":9712,"ĠVirginia":9713,"aylor":9714,"Ġextracted":9715,"Ġ::":9716,"Ġagencies":9717,"Ġthickness":9718,"ĠNext":9719,"ĠBlue":9720,"ĠParis":9721,"{-":9722,"rivial":9723,"Ġmanufacturing":9724,"Ġfly":9725,"Ġproducing":9726,"Ġgoods":9727,"scriptstyle":9728,"Ġrepeat":9729,"Ġmodes":9730,"filter":9731,"Ġfoods":9732,"ĠĠĠĠĠĠĠĠĠĠĠĠĠĠĠĠĠĠĠĠĠĠĠĠĠĠĠĠĠ":9733,"osome":9734,"cpp":9735,"ORE":9736,"Ġprofiles":9737,"ĠOrgan":9738,"Ġwonderful":9739,"Ġequally":9740,"Ġprepare":9741,"Ġelig":9742,"Ġescape":9743,"Many":9744,"ĠPakistan":9745,"Ġdiscover":9746,"HD":9747,"Ġoperate":9748,"Ġpermanent":9749,"Ġprejud":9750,"ĠRepublicans":9751,"Ġmanifest":9752,"Null":9753,"Ġtoken":9754,"connect":9755,"Even":9756,"Second":9757,"ĠJeff":9758,"ĊĊĠĠĠĠĠĠĠĠĠĠĠĠĠĠĠ":9759,"ione":9760,"ĠMa":9761,"ĠED":9762,"formed":9763,"Ġapplies":9764,"minus":9765,"ĠPac":9766,"ĠâĢ¢":9767,"astern":9768,"Ġteach":9769,"Project":9770,"uity":9771,"Ġwed":9772,"Ġstands":9773,"queue":9774,"Ġemployer":9775,"terior":9776,"Ġconsequence":9777,"Header":9778,"Ġwinter":9779,"External":9780,"Ġphosphory":9781,"Met":9782,"Ġsemicon":9783,"ĠBoston":9784,"Deb":9785,"ĠÐ¿":9786,"olester":9787,"agnetic":9788,"Ġhypert":9789,"Ġsmoking":9790,"Ġpolym":9791,"Ġinhibitor":9792,"Ġstrike":9793,"Ġtough":9794,"Ġperiods":9795,"command":9796,"Ġpetitioner":9797,"Ġmob":9798,"112":9799,"lymp":9800,"Ġlosing":9801,"Ġoverride":9802,"Ġ1993":9803,"Ġvolunte":9804,"Ġcoefficients":9805,"iology":9806,"Ġstronger":9807,"105":9808,"Ca":9809,"minimal":9810,"burg":9811,"Ġadverse":9812,"ĠTrue":9813,"Ġactivated":9814,"Ġreserved":9815,"Rev":9816,"Ġwriter":9817,"Ġkilling":9818,"Ġprogression":9819,"ĠGeorg":9820,"Ġfro":9821,"Ġabnormal":9822,"Ġreviews":9823,"Ġsatisfied":9824,"Ġsucceed":9825,"Ġfaces":9826,"ĠJewish":9827,"report":9828,"noon":9829,"agers":9830,"Ġversions":9831,"Bo":9832,"Ġfer":9833,"Ġcontributed":9834,"Red":9835,"Ġdealing":9836,"Ġwal":9837,"Ġlaugh":9838,"Ġrequiring":9839,"omething":9840,"Ġ===":9841,"documentclass":9842,"make":9843,"ĠBush":9844,"Ġexcluded":9845,"Ġcomputed":9846,"Ġencourage":9847,"Ġkeys":9848,"Ġdimensions":9849,"Ġwound":9850,"ĠLine":9851,"Ġ<-":9852,"Ġcytok":9853,"ghan":9854,"Ġobst":9855,"Ġefficacy":9856,"}.$$":9857,"Ġbear":9858,"odds":9859,"Ġcalculations":9860,"ĠGiven":9861,"Ġexit":9862,"Ġplenty":9863,"Ġrobust":9864,"Ġdiversity":9865,"Ġsuscept":9866,"ĠFood":9867,"dp":9868,"Ġbrown":9869,"Ġguid":9870,"ĠNetwork":9871,"ĠLast":9872,"Ġstaining":9873,"ropy":9874,"Ġrefere":9875,"Ac":9876,"Ġongoing":9877,"Ġwalls":9878,"åħ":9879,"ching":9880,"Ġnewly":9881,"Ġinsulin":9882,"bro":9883,"nov":9884,"Ġtargeted":9885,"Ġmagnitude":9886,"Ġsurprising":9887,"fonts":9888,"Ġ$|":9889,"aft":9890,"none":9891,"Ġcomplexity":9892,"Local":9893,"ĠRock":9894,"Ġathlet":9895,"ifer":9896,"Ġmoderate":9897,"--------------":9898,"ONE":9899,"ĠCam":9900,"Ġthereof":9901,"Ġassist":9902,"namespace":9903,"Use":9904,"Ġopposed":9905,"Ġtranslation":9906,"Ġbringing":9907,"udd":9908,"alloc":9909,"Ġmeta":9910,"hemat":9911,"Ġperm":9912,"Ġminister":9913,"front":9914,"äº":9915,"Ġrenew":9916,"Ġ:)":9917,"Ġdenomin":9918,"Ġarbitrary":9919,"Ġchecked":9920,"Ġinjured":9921,"ko":9922,"yes":9923,"Ġcolors":9924,"Ġapartment":9925,"Dr":9926,"Ġpolynomial":9927,"ĠConne":9928,"Ġpregnancy":9929,"ctx":9930,"Ġec":9931,"Ġcontrary":9932,"Ġmissed":9933,"reason":9934,"meta":9935,"ĠUser":9936,"Ġinvolvement":9937,"Ġspokes":9938,"Ġreader":9939,"ĠCanadian":9940,"efined":9941,"ĠLand":9942,"Ġheader":9943,"Ġfort":9944,"aria":9945,"~~~~":9946,"Mark":9947,"Ġverdict":9948,"positive":9949,"Ġcreates":9950,"ican":9951,"nc":9952,"Ġinstances":9953,"Ġbridge":9954,"Ġfacing":9955,"è¿":9956,"-------------":9957,"Ġacademic":9958,"rices":9959,"AAAA":9960,"Ġincubated":9961,"enth":9962,"Ġusage":9963,"Ġbeer":9964,"Ġstatistically":9965,"Ġconsumers":9966,"gly":9967,"Ġcrack":9968,"Cal":9969,"cus":9970,"Expand":9971,"ä½":9972,"uality":9973,"Ġmoments":9974,")}{":9975,"Ġtort":9976,"ĠJim":9977,"Ġinfrast":9978,"asi":9979,"Sl":9980,"Ġflight":9981,"Ġadequate":9982,"Ġsight":9983,"800":9984,"Ġbrings":9985,"Ġnurs":9986,"ervation":9987,"Ġsummar":9988,"ĠMike":9989,"ilation":9990,"Ġtrained":9991,"Ġwearing":9992,"Ġmarkers":9993,"Ġsurprise":9994,"Ġvictory":9995,"lie":9996,"ĠYet":9997,"ĠRight":9998,"Ġpulse":9999,"OB":10000,"Ġfamous":10001,"step":10002,"ĠCarolina":10003,"estinal":10004,"ĠDespite":10005,"ĠSimilarly":10006,"Ġ\\\"":10007,"Ġdiagram":10008,"elihood":10009,"Ġdict":10010,"Ġexhaust":10011,"offset":10012,"otox":10013,"jpg":10014,"ensor":10015,"rin":10016,"Ġlaunched":10017,"ĠBased":10018,"Ġhorm":10019,"umes":10020,"Ġrib":10021,"Ġrounded":10022,"Ġveter":10023,"Ġterrit":10024,"Ġdiagnosed":10025,"ocyte":10026,"Ġemphas":10027,"ĠClub":10028,"ĠOper":10029,"Ġ250":10030,"Ġmatches":10031,"ansas":10032,"vals":10033,"Ġengage":10034,"ometimes":10035,"cit":10036,"Ġglut":10037,"razy":10038,"WR":10039,"Ġhistorical":10040,"ĠBook":10041,"Ġ74":10042,"ĠKey":10043,"NET":10044,"Will":10045,"Ġsatisfy":10046,"Entry":10047,"GO":10048,"ĠYear":10049,"itrogen":10050,"2003":10051,"likely":10052,"aved":10053,"Ġcarb":10054,"Ġcardiac":10055,"Application":10056,"Ġallegations":10057,"Ġstimulation":10058,"ĠPT":10059,"Ġreconst":10060,"redit":10061,"ĠmiR":10062,"Ġvillage":10063,"Most":10064,"Ġshouldn":10065,"ĠError":10066,"ĠAngeles":10067,"DM":10068,"Ġvaluable":10069,"Ġannounce":10070,"Ġsampling":10071,"Ġordinary":10072,"Ġdataset":10073,"ĠLo":10074,"Ġtechnologies":10075,"Â®":10076,"Ġyellow":10077,"Ġtruck":10078,"ĠAnalysis":10079,"Ġelected":10080,"Ġexplo":10081,"osity":10082,"Ġmovies":10083,"Ġchicken":10084,"ĠProfess":10085,"AF":10086,"adium":10087,"example":10088,"Ġlesions":10089,"Ġtheoretical":10090,"Â§":10091,"Ġrely":10092,"Ġpresents":10093,"Ġpartially":10094,"Ġfinger":10095,"should":10096,"Ġisland":10097,")$$":10098,"Ġthrows":10099,"Ġlipid":10100,"Ġsomewhere":10101,"Ġreferences":10102,"Ġbug":10103,"Ġstatutory":10104,"Ġalign":10105,"Like":10106,"Ġadhes":10107,"ĠYoung":10108,"Ġplur":10109,"SION":10110,"Ġrevenue":10111,"Ġacet":10112,"ĠLook":10113,"ĠAgain":10114,"Ġinval":10115,"ĠChristmas":10116,"Ġmagnet":10117,"Num":10118,"bot":10119,"eh":10120,"ĠPlay":10121,"Connection":10122,"ĠUV":10123,"ĠAmendment":10124,"apes":10125,"Ġfed":10126,"Ġloaded":10127,")âĢĵ":10128,"ilib":10129,"uan":10130,"ĠFROM":10131,"^{*":10132,"conomic":10133,"ocard":10134,"unct":10135,"RNAs":10136,"ĠComput":10137,"Ġtab":10138,".^[@":10139,"SQL":10140,"ĠBusiness":10141,"ĠNC":10142,"Ġabsorb":10143,"Ġwithdraw":10144,"NC":10145,"awa":10146,"ĊĠĠĠĠĠĠĠĠĠĠĠĠĠĠĠĠĠĠĠĠĠĠĠĠĠĠĠĠĠĠĠĠĠĠĠĠĠĠĠĠĠĠĠĠĠĠĠĠĠĠĠĠĠĠĠĠĠĠĠĠĠĠĠĠ":10147,"ĠOrder":10148,"when":10149,"Ġcorrection":10150,"ĠGR":10151,"pref":10152,"Ġdecay":10153,"molecules":10154,"ĠAmazon":10155,"Ġinduce":10156,"uction":10157,"Ġcro":10158,"ĠGO":10159,"mediated":10160,"Ġmerg":10161,"Ġbanks":10162,"ILITY":10163,"Typ":10164,"rage":10165,"ĠJul":10166,"107":10167,"ĠImage":10168,"Ġimposed":10169,"Ġcarefully":10170,"'),":10171,"endar":10172,"LY":10173,"ĠMake":10174,"Ġprediction":10175,"Ġpseud":10176,"Ġmigration":10177,"Ġdust":10178,"ĠHA":10179,"including":10180,"wered":10181,"ĠReal":10182,"limits":10183,"Ġelevated":10184,"Ġtou":10185,"Ġgel":10186,"Ġshares":10187,"Ġapproximation":10188,"remove":10189,"ĠArmy":10190,"Ġdifferentiation":10191,"Ġanywhere":10192,"Ġprivile":10193,"Ġsnow":10194,"eties":10195,"}_\\":10196,"iÃ³n":10197,"Ġwavelength":10198,"ĠForce":10199,"Come":10200,"Car":10201,"?'":10202,"Ġmild":10203,"Ġclassified":10204,"Ġspan":10205,"master":10206,"access":10207,"à¶":10208,"Ġsignature":10209,"ovascular":10210,"Ġyesterday":10211,"Ġrecom":10212,"Ġ<=":10213,"Ġembry":10214,"blue":10215,"Ġ..":10216,"Ġperfectly":10217,"ochemical":10218,"sys":10219,"ĠMAP":10220,"ĠĠĠĠĠĠĠĠĠĠĠĠĠĠĠĠĠĠĠĠĠĠĠĠĠĠĠĠ":10221,"Ġmetabolic":10222,"Write":10223,"oxide":10224,"irtual":10225,"Utils":10226,"yd":10227,"Ġexecution":10228,"ĠNumber":10229,"Ġdedicated":10230,"Ġhabit":10231,"conduct":10232,"2002":10233,"ĠBob":10234,"ĠMichigan":10235,"Order":10236,"Ġkernel":10237,"Ġnumerical":10238,"Ġtack":10239,"Ġevil":10240,"ĠAuthor":10241,"104":10242,"}^{-":10243,"Ġfragment":10244,"Reference":10245,"Ġcarrier":10246,"Non":10247,"Ġchose":10248,"ictor":10249,"iously":10250,"Ġabsorption":10251,"Ġdialog":10252,"ĠCase":10253,"Ġurban":10254,"ocus":10255,"Ġdisclosed":10256,"Ġcouncil":10257,"Ġgather":10258,"isition":10259,"Ġkinase":10260,"forward":10261,"Access":10262,"unicip":10263,"Ġcoast":10264,"params":10265,"Ġwheel":10266,"GP":10267,"Ġ77":10268,"Ġdiscipl":10269,"Ġintel":10270,"ĠValley":10271,"bul":10272,"iations":10273,"Ġneural":10274,"Ġgauge":10275,"Ġselling":10276,"clip":10277,"TYPE":10278,"Î³":10279,"stone":10280,"Ġintroduction":10281,"LD":10282,"Ġdinner":10283,"ona":10284,"Ġdomains":10285,"ogeneous":10286,"Ġvectors":10287,"address":10288,"PER":10289,"etry":10290,"Ġsteel":10291,"ĠArray":10292,"Ġbread":10293,"Ġwelcome":10294,"UST":10295,"Ġ97":10296,"Ġcoordinates":10297,"Ġchlor":10298,"Ġ{}":10299,"ysym":10300,"Ġhandling":10301,"Ġimpair":10302,"Ġeducational":10303,"Ġamplitude":10304,"Ġdispl":10305,"Ġseriously":10306,"rick":10307,"Range":10308,"Ġna":10309,"Ġresolve":10310,"Ġsubstit":10311,"Ġpapers":10312,"Ġmamm":10313,"stat":10314,"Ġblind":10315,"ĠSpecial":10316,"Ġafternoon":10317,"103":10318,">\\":10319,"Ġworker":10320,"Ġmathemat":10321,"Return":10322,"Left":10323,"ĠCharles":10324,"Ġmapping":10325,"),\\":10326,"Ġbelieves":10327,"Ġfluct":10328,"umps":10329,"Ġplug":10330,"Ġgalaxies":10331,"Ġsufficiently":10332,"ĠHand":10333,"Ġinfrastructure":10334,"During":10335,"ĠBefore":10336,"Ġtheme":10337,"ĠIllinois":10338,"Ġreveal":10339,"olt":10340,"Ġquad":10341,"Ġcontrolling":10342,"Ġexplicitly":10343,"ĠStart":10344,"points":10345,"through":10346,"Ġ98":10347,"cule":10348,"Ġbil":10349,"Okay":10350,"ĠBrazil":10351,"Ġatoms":10352,"Ġanticip":10353,"ĠMrs":10354,"Ġdistributions":10355,"ircraft":10356,"Ġol":10357,"Ġgenu":10358,"PV":10359,"Ġunex":10360,"blog":10361,"}{-":10362,"Ġgreatly":10363,"setlength":10364,"greek":10365,"ogether":10366,"Ġ180":10367,"Collect":10368,"ĠLight":10369,"amsmath":10370,"ĠLab":10371,"Ġ69":10372,"Ġdesk":10373,"ĠTeam":10374,"ĠGre":10375,"Ġimproving":10376,"final":10377,"plus":10378,"duction":10379,"Ġmales":10380,"gressive":10381,"elly":10382,"Ġunus":10383,"Ġbreaking":10384,"bsy":10385,"Position":10386,"Ġride":10387,"Ġdrinking":10388,"Ġimper":10389,"}})":10390,"Ġretire":10391,"Ġnerve":10392,"Ġvariations":10393,"Ġconstraints":10394,"Ġherein":10395,"ĠMO":10396,"IVE":10397,"Stud":10398,"Ġchallenging":10399,"Ġlegs":10400,"Ġroutine":10401,"dest":10402,"thread":10403,"Ġprofit":10404,"Ġcomparable":10405,"Ġrenal":10406,"Down":10407,"102":10408,"ureau":10409,"Ġalle":10410,"ĠLA":10411,"Ġcards":10412,"Ġorb":10413,"Ġstroke":10414,"olesterol":10415,"ĠRo":10416,"Ġdisturb":10417,"Dep":10418,"Ġthousand":10419,"person":10420,"two":10421,"onia":10422,"ctic":10423,"ierarch":10424,"ssymb":10425,"Ġcited":10426,").$$":10427,"Ġgrew":10428,"will":10429,"Ġtherap":10430,"amssymb":10431,"Ġintermediate":10432,"Ġglob":10433,"Ġrestricted":10434,"Ġdiscrimination":10435,"Ġmultip":10436,"Ġloading":10437,"Ġcomprehensive":10438,"Ġconsec":10439,"sql":10440,"ji":10441,"Ļª":10442,"Sch":10443,"scri":10444,"esome":10445,"ĠHO":10446,"ĠOld":10447,"Each":10448,"Ġos":10449,"Ġconform":10450,"aze":10451,"Ġdivisor":10452,"ĠTechnology":10453,"rsfs":10454,"$_":10455,"Ġconvin":10456,"kit":10457,"Ġ=\\":10458,"ĠCatholic":10459,"amsfonts":10460,"Ġ78":10461,"Ġsingular":10462,"idemargin":10463,"mathrsfs":10464,"oddsidemargin":10465,"DIR":10466,"wasysym":10467,"uct":10468,"amsbsy":10469,"Ġproud":10470,"ĠHot":10471,"upgreek":10472,"Ġtank":10473,"ergies":10474,"isons":10475,"ĠPO":10476,"Valid":10477,"Ġfunc":10478,"Ġdiverse":10479,"Ġsoc":10480,"Ġ$\\{":10481,"Ġfract":10482,"Ġprecisely":10483,"cean":10484,"auth":10485,"Ġcutting":10486,"Ġfrequencies":10487,"Ġnearby":10488,"Change":10489,"zero":10490,"ynt":10491,"ifact":10492,"ĠBow":10493,"Ġbits":10494,"ima":10495,"Ġmarker":10496,"Ġicon":10497,"Ġcache":10498,"ĠDetermine":10499,"foo":10500,"otion":10501,"ticle":10502,"Ġconservative":10503,"THE":10504,"Url":10505,"ĠPalest":10506,"%).":10507,"1999":10508,"super":10509,"Ġsimultaneously":10510,"alls":10511,"zo":10512,"Ġhospit":10513,"ĠLocal":10514,"afe":10515,"ĠĠĠĠĠĠĠĠĠĠĠĠĠĠĠĠĠĠĠĠĠĠĠĠĠĠĠĠĠĠ":10516,"Op":10517,"isk":10518,"ĠTown":10519,"Finally":10520,"Ġquantity":10521,"Ġcopies":10522,"Ġsymmetry":10523,"oprote":10524,"Ġindependently":10525,"Ġrestriction":10526,"ĠJr":10527,"ĠĠĠĠĠĠĠĠĠĠĠĠĠĠĠĠĠĠĠĠĠĠĠĠĠĠĠĠĠĠĠ":10528,"cludes":10529,"Ġpenalty":10530,"shot":10531,"Ġresponded":10532,"Ġinclusion":10533,"Ġcontrad":10534,"Ġserves":10535,"mean":10536,"aterials":10537,"API":10538,"inating":10539,"Ġsau":10540,"Ġcomparing":10541,"Ġnaturally":10542,"ses":10543,"ĠSupport":10544,"Ġda":10545,"Ġargs":10546,"ĠÏ":10547,"Ev":10548,"ĠKim":10549,"ĠCorporation":10550,"Ġdifficulty":10551,"Ġaccumulation":10552,"Ġmetabolism":10553,"\\.":10554,"ras":10555,"ethe":10556,"Height":10557,"Ġfewer":10558,"Sign":10559,"Ġsettlement":10560,"Ġsemiconductor":10561,"Ġ84":10562,"irms":10563,"123":10564,"romise":10565,"ĠMedia":10566,"location":10567,"Ġbroke":10568,"Ġalive":10569,"Ġadds":10570,"Ġdiagnostic":10571,"Ġ130":10572,"ito":10573,"ĠCivil":10574,"cler":10575,"Ġtiming":10576,"Ġsurprised":10577,"Ġperipheral":10578,"itan":10579,"Ġwatched":10580,"ĠPoint":10581,"Ġposit":10582,"Once":10583,"Ġrejected":10584,"fact":10585,"ĠFox":10586,"monary":10587,"such":10588,"}[":10589,"ĠHR":10590,"Ġclot":10591,"ĠInvest":10592,"Ġunsigned":10593,"ĠÙ":10594,"Ġ($\\":10595,"Ġclassic":10596,"CV":10597,"Ġbat":10598,"Ġwww":10599,"anna":10600,"world":10601,"Ġanymore":10602,"Acc":10603,"Ġexhibit":10604,"}-\\":10605,")âĢĵ(":10606,"ĠApplication":10607,"Ġbehalf":10608,"wan":10609,"Ġcloud":10610,"]{}]{}":10611,"Ġsky":10612,"Ġbuying":10613,"Addition":10614,"parse":10615,"Ġconsisting":10616,"Ġjourney":10617,"Ġrespiratory":10618,"Ġcontends":10619,"ÐµÐ½":10620,"UC":10621,"Ġnerv":10622,"Ġtrace":10623,"ĠWT":10624,"Ġaudio":10625,"Ġinsu":10626,"Ġcomplications":10627,"ĠSher":10628,"ĠChem":10629,"ĠColumb":10630,"Ġprovider":10631,"ĠWomen":10632,"orial":10633,"ACT":10634,"Ġdenominator":10635,"Ġreduces":10636,"Ġgeometry":10637,"ĠMil":10638,"Ġabandon":10639,"full":10640,"Ġleaf":10641,"aws":10642,"Ġpassion":10643,"Ġaer":10644,"Ġappell":10645,"Ġscheduled":10646,"Ġstabil":10647,"}\"":10648,"treated":10649,"minent":10650,"ICENSE":10651,"rical":10652,"Ġ94":10653,"Ġ73":10654,"ĠBest":10655,"leton":10656,"Ġbasket":10657,"Ġ76":10658,"scr":10659,"Ġdoct":10660,"Ġdysfunction":10661,"pres":10662,"Ġhasn":10663,"Ġenabled":10664,"Ġnamely":10665,"ĠKar":10666,"Ġdescript":10667,"backs":10668,"addr":10669,"TP":10670,"{\"":10671,"awn":10672,"Ġwaves":10673,"Ġomitted":10674,"Ġproven":10675,"Ġ71":10676,"Ġpartnership":10677,"Ġproviders":10678,"John":10679,"Ġwhenever":10680,"ĠJoe":10681,"<\\":10682,"Ġfifth":10683,"ĠProposition":10684,"anim":10685,"ĠJon":10686,"Ġphr":10687,"Ġfluorescence":10688,"Ġcream":10689,"ĠDescription":10690,"Pan":10691,"Ġprogn":10692,"esity":10693,"Exec":10694,"Ġannot":10695,"orse":10696,"Ġbytes":10697,"juana":10698,"aret":10699,"ĠALL":10700,"Ġyields":10701,"ĠPers":10702,"ĠHD":10703,"Tag":10704,"arijuana":10705,"ĠSQL":10706,"Case":10707,"iley":10708,"Po":10709,"Ġsending":10710,"Ġshoulder":10711,"ĠCEO":10712,"associated":10713,"æĸ":10714,"ĠToday":10715,"ĠOK":10716,"Ġelections":10717,"rained":10718,"har":10719,"ĠChris":10720,"Ġcapac":10721,"Ġmarg":10722,"Ġ88":10723,"Ġmeasuring":10724,"materials":10725,"\\}":10726,"Ġcoordinate":10727,"ĠNick":10728,"ologically":10729,"game":10730,"Ġteeth":10731,"iments":10732,"Ġforum":10733,"Ġgall":10734,"ĠMiddle":10735,"Ġhardware":10736,"Ġblank":10737,"ĠAge":10738,"nm":10739,"gypt":10740,"BU":10741,"Ġvo":10742,"ĠCreate":10743,"ĠEth":10744,"Ġprecise":10745,"ĠMD":10746,"ĠFar":10747,"ylvan":10748,"ĠEnergy":10749,"Ġvascular":10750,"Ġscientists":10751,"ĠPay":10752,"Ġ1991":10753,"utable":10754,"ĠRom":10755,"ARD":10756,"ILL":10757,"020":10758,"Ġinequality":10759,"km":10760,"PY":10761,"VM":10762,"Ġsear":10763,"Ġbutter":10764,"Stat":10765,"ĠSpan":10766,"omorphism":10767,"ĠBase":10768,"Ġlegit":10769,"Ġtalked":10770,"Bit":10771,"Ġ111":10772,"Top":10773,"aired":10774,"ucks":10775,"!âĢĿ":10776,"fc":10777,"opes":10778,"Ġrefers":10779,"Ġtrib":10780,"Ġmodification":10781,"Ġaccompan":10782,"Search":10783,"Ġobj":10784,"Ġvertex":10785,"---------------":10786,"Ġingredients":10787,"useum":10788,"ibration":10789,"Ġadministrative":10790,"+^":10791,"Ġcomposed":10792,"Only":10793,"Ġtick":10794,"dec":10795,"Ġchest":10796,"Make":10797,"ĠEll":10798,"install":10799,"mac":10800,"about":10801,"180":10802,"igrants":10803,"iry":10804,"onical":10805,"Ġundert":10806,"ĠYOU":10807,"wart":10808,"Ġbusy":10809,"Ġcultures":10810,"Ġfailing":10811,"Ġdrivers":10812,"Med":10813,"inction":10814,"Ġcable":10815,"ĠBrad":10816,"Ġinvestors":10817,"Ġswim":10818,"Ġduplic":10819,"Ġcommunications":10820,"Ġnotion":10821,"Ġentries":10822,"Ġcontinuing":10823,"Ġmachines":10824,"Ġsharp":10825,"insic":10826,"Ø±":10827,"HOUT":10828,"Ġbulk":10829,"hav":10830,"white":10831,"scriptscriptstyle":10832,"æķ":10833,"Sum":10834,"ĠAfghan":10835,"Ġplates":10836,"Ġprivacy":10837,"Ġparticipation":10838,"Ġantigen":10839,"IGN":10840,"Ġuncon":10841,"Ġinvent":10842,"scape":10843,"\\!\\!":10844,"anti":10845,"Ġfemales":10846,"Ġalgorithms":10847,"Ġdecom":10848,"prise":10849,"Ġ-\\":10850,"Module":10851,"Ġgran":10852,"site":10853,"Ġvariance":10854,"Ġcareful":10855,"Ġmarks":10856,"ĠDown":10857,"Ġcoinc":10858,"anguages":10859,"Ġmistake":10860,"Ġ}\\":10861,"Port":10862,"Ġpresidential":10863,"Ġinher":10864,"Task":10865,"Ġheads":10866,"wr":10867,"domain":10868,"fraid":10869,"018":10870,"Ġrain":10871,"Ġsuddenly":10872,"ubunt":10873,"ĠProv":10874,"isa":10875,"Ġlayout":10876,"ĠCurrent":10877,"uby":10878,"ergic":10879,"ĠÂ¶":10880,"Ġaimed":10881,"ĠJac":10882,"pie":10883,"ĠOlymp":10884,"Ġ**(":10885,"ĠAustralian":10886,"usr":10887,"ĠRet":10888,"Ġsodium":10889,"Ġsoci":10890,"Ġgiant":10891,"ĠRest":10892,"rams":10893,"Ġ93":10894,"ĠRun":10895,"neum":10896,"Ġstrange":10897,"ĠDavis":10898,"Ġreward":10899,"ĠBern":10900,"Column":10901,"Ġfeelings":10902,"Ġho":10903,"Ġwest":10904,"Ġorientation":10905,"<!--":10906,"framework":10907,"inflamm":10908,"Ġmedication":10909,"email":10910,"Ġopinions":10911,"Ġdoctors":10912,"Ġpriority":10913,"grav":10914,"ĠPrime":10915,"Ġparking":10916,"ĠProcess":10917,"Ġlosses":10918,"Option":10919,"ĠEngine":10920,"Ġrevolution":10921,"Put":10922,"Ġsulf":10923,"ITE":10924,"Ġadmission":10925,"Ġcuts":10926,"Ġ83":10927,"rous":10928,"ogenous":10929,"Ġadjusted":10930,"anted":10931,"Ġgang":10932,"pson":10933,"Ġcodes":10934,"ipt":10935,"Ġfrequent":10936,"ĠValue":10937,"ront":10938,"ĠChapter":10939,"Ġflash":10940,"Ġexcit":10941,"caps":10942,"Ġriver":10943,"Mac":10944,"ÎĶ":10945,"Ġafraid":10946,"Ġ\"/":10947,"ĠKn":10948,"oline":10949,"week":10950,"Ġattributes":10951,"Br":10952,"tk":10953,"ĠLie":10954,"ali":10955,"ez":10956,"yy":10957,"ogg":10958,"Ġlocally":10959,"Ġdish":10960,"irection":10961,"Ġadvent":10962,"Dir":10963,"Ġscored":10964,"icul":10965,"ponents":10966,"Ġtemporary":10967,"140":10968,"WN":10969,"Ġlists":10970,"Ġorganized":10971,"zone":10972,"Ġ})":10973,"Ġbomb":10974,"Ġhat":10975,"ĠWis":10976,"Provider":10977,"have":10978,"Ñĩ":10979,"ulty":10980,"background":10981,"Ġbench":10982,"Ġdisappoint":10983,"Ġru":10984,"Ġoppon":10985,"Ġeast":10986,"illance":10987,"ffff":10988,"prod":10989,"Ġprocessed":10990,"ĠResults":10991,"ourses":10992,"mpty":10993,"Ġvideos":10994,"Ġpushed":10995,"Ġseasons":10996,"Using":10997,"pot":10998,"Ġrear":10999,"Ġcolour":11000,"Ġtaught":11001,"Ġprospect":11002,"Ġrecur":11003,"Ġpitch":11004,"ylvania":11005,"security":11006,"Ġbarrier":11007,"replace":11008,"Fs":11009,"Xiv":11010,"years":11011,"Ġplurality":11012,"Menu":11013,"pu":11014,"Ġ115":11015,"ĠRights":11016,"TTP":11017,"fire":11018,"ĠCur":11019,"Ġinhibitors":11020,"ati":11021,"Ġarmy":11022,"]{}\\":11023,"Ġtalks":11024,"acle":11025,"older":11026,"ĠCancer":11027,",$$":11028,"emic":11029,"ĠItaly":11030,"Ġ79":11031,"ĠServer":11032,"mal":11033,"ori":11034,"ĠRO":11035,"Ġpowder":11036,"Ġreaders":11037,"fi":11038,"Ġsubmit":11039,"Ġcomprising":11040,"ĠPage":11041,"Ġpartition":11042,"Custom":11043,"ĠEnter":11044,"Ġexpenses":11045,"aver":11046,"Ġweapon":11047,"Ġcommitment":11048,"angers":11049,"Ġnamespace":11050,"Ġdominant":11051,"Ġreasonably":11052,"ĠConsider":11053,")),":11054,"Http":11055,"Ġdeploy":11056,"release":11057,"Ġsuffer":11058,"Ġsomehow":11059,"Ġreturning":11060,"023":11061,"Ġsed":11062,"etics":11063,"Ġparagraph":11064,"Ġclosing":11065,"Ġimprovements":11066,"Ġexport":11067,"ologist":11068,"Ġuncertainty":11069,"kind":11070,"lu":11071,"à®":11072,"Ġ82":11073,"Ġdeclare":11074,"Ġ125":11075,"Ġunderw":11076,"Ġdispute":11077,"Ġrecipe":11078,"ĠCook":11079,"ĠMiller":11080,"Ġcrimes":11081,"Ġtransplant":11082,"Ġchecks":11083,"aka":11084,"Ġreceiver":11085,"Ġwestern":11086,"Ġstruggle":11087,"Ġ112":11088,"ĠPolicy":11089,"oved":11090,"ĠExec":11091,"Ġmatching":11092,"Names":11093,"Ġcav":11094,"Ġexecuted":11095,"Ġwitnesses":11096,"stop":11097,"racle":11098,"Ġonset":11099,"Ġexplains":11100,"handle":11101,"Ġscattering":11102,"ĠBritain":11103,"Ġbundle":11104,"ĠUk":11105,"','":11106,"Ġupdates":11107,"Ġtargeting":11108,"Ap":11109,"FD":11110,"hash":11111,"ĠLow":11112,"nn":11113,"Ġrice":11114,"Ġmedi":11115,"ubuntor":11116,"rell":11117,"ĠManagement":11118,"Ġelder":11119,"Debug":11120,"Under":11121,"inking":11122,"Ġmeal":11123,"ĠJersey":11124,"istence":11125,"ariate":11126,"lers":11127,"they":11128,"Ġunw":11129,"Ġ++":11130,"ownt":11131,"108":11132,"Ġawareness":11133,"ĠStandard":11134,"PECT":11135,"Ġhouses":11136,"ĠWay":11137,"issions":11138,"Ġ87":11139,"shift":11140,"Ġcheap":11141,"Ġadvantages":11142,"ĠHTML":11143,"viously":11144,"wedge":11145,"Ġweren":11146,"Ġ89":11147,"found":11148,"ĠTaylor":11149,"Ġyards":11150,"Ġhealthcare":11151,"Ġprogramming":11152,"pad":11153,"Ġaircraft":11154,"putation":11155,"Ġsuppose":11156,"Ġunlikely":11157,"Ġthorough":11158,"Ġgenerating":11159,"Ġperturb":11160,"CB":11161,"Ġsatell":11162,"cb":11163,"Ġcovering":11164,"ĊĠĠĠĠĠĠĠĠĠĠĠĠĠĠĠĠĠĠĠĠĠĠĠĠĠĠĠĠĠĠĠĠĠĠĠ":11165,"Ġupload":11166,"Ġgoverning":11167,"Ġdump":11168,"Ġgeneric":11169,"Ġcrazy":11170,"Ġtrick":11171,"Ġignore":11172,"fd":11173,"Ġresolved":11174,"necess":11175,"pay":11176,"ĠEnt":11177,"ĠFunction":11178,"Ġcrew":11179,"HECK":11180,"Ġspons":11181,"ĠÐ²":11182,"ERROR":11183,"Ġyeah":11184,"unsigned":11185,"))/(":11186,"dra":11187,"Ġmanufacturer":11188,"ryst":11189,"cycl":11190,"Ġverify":11191,"ĠSM":11192,"Ġscan":11193,"Ġmaintaining":11194,"Ð²":11195,"ĠUI":11196,"Ġprevention":11197,"docs":11198,"ulator":11199,"_{(":11200,"Ġlawyer":11201,"Ġviewed":11202,"qq":11203,"inator":11204,"Settings":11205,"istical":11206,"ĊĉĠĠĠ":11207,"ãĢģ":11208,"}]":11209,"Ġ$[":11210,"Ġ92":11211,"EA":11212,"Ġ((-":11213,"Ġfalling":11214,"VV":11215,"angular":11216,"Ġproduces":11217,"FONT":11218,"NP":11219,"copy":11220,"ĠCast":11221,"ĠDR":11222,"Ġgay":11223,"Ġbroadcast":11224,"Ġovercome":11225,"ĠAction":11226,"door":11227,"keys":11228,"acer":11229,"Ġvalve":11230,"Ġkeeps":11231,"Ġstreets":11232,"Ġhide":11233,"å¤":11234,"store":11235,"Ġcompetitive":11236,"Ġpermitted":11237,"Ġextraction":11238,"ĠPlaintiffs":11239,"zona":11240,"Ġassays":11241,"who":11242,"Ġsnap":11243,"Ġdegradation":11244,"Level":11245,"ĠCustom":11246,"Ġholes":11247,"SIZE":11248,"ĠCommunity":11249,"Ġfusion":11250,"ĠOl":11251,"Ġphenomenon":11252,"rises":11253,"ĠEL":11254,"ped":11255,"Ġatmosphere":11256,"Ġpersonally":11257,"oured":11258,"EP":11259,"\\}$":11260,"Ġsystematic":11261,"ĠElect":11262,"à·":11263,"ĠBY":11264,"ĠWilson":11265,"Ġ123":11266,"Ġroughly":11267,"wealth":11268,"Ġhook":11269,"ĠColl":11270,"Ġgest":11271,"Ġdisability":11272,"eping":11273,"Ġprofessor":11274,"Ġutility":11275,"estival":11276,"forms":11277,"fields":11278,"Ġdirections":11279,"rat":11280,"Ġtheories":11281,"ĠItalian":11282,"Ġinterventions":11283,"Ġboat":11284,"Ġincorporated":11285,"ials":11286,"Ġfolder":11287,"owa":11288,"ECT":11289,"uties":11290,"Ġfavour":11291,"Ġnervous":11292,"urable":11293,"days":11294,"iotic":11295,"Ġcovers":11296,"Ġrefuge":11297,"Pass":11298,"Ġaffects":11299,"Ġquantitative":11300,"Tree":11301,"internal":11302,"119":11303,"sto":11304,"arters":11305,"ĠBa":11306,"Equals":11307,"undle":11308,"Ġflav":11309,"Ġownership":11310,"Ġpharmac":11311,"nsylvania":11312,"ĠEvent":11313,"Ġnutrition":11314,"fish":11315,"ador":11316,"ANG":11317,"Ġpersonnel":11318,"Ġgent":11319,"Ġregularly":11320,"Em":11321,"send":11322,"ioned":11323,"regulation":11324,"onymous":11325,"Ġavailability":11326,"methyl":11327,"Ġvaccine":11328,"plan":11329,"ITION":11330,"Ġdeviation":11331,"è¯":11332,"ĠHig":11333,"ĠThank":11334,"ĠVan":11335,"Ġpeptide":11336,"ĠGar":11337,"Ġoperated":11338,"Ġreject":11339,"ela":11340,"ificial":11341,"Ġcreative":11342,"ĠFO":11343,"ĠÂ°":11344,"Sche":11345,"diff":11346,"Ġpod":11347,"Ġentr":11348,"stron":11349,"Activity":11350,"advant":11351,"Ġ\\#":11352,"holder":11353,"Ġelsewhere":11354,"Ġsequencing":11355,"ÑģÑĤ":11356,"complete":11357,"Ġ(âĢľ":11358,"iest":11359,"making":11360,"ĠEgypt":11361,"Ġconve":11362,"container":11363,"bell":11364,"Ġplea":11365,"Ġqualified":11366,"git":11367,"Ġcrowd":11368,"Ġpassage":11369,"Ġcleaning":11370,"Ġsilver":11371,"Ġcooking":11372,"Ġfibers":11373,"130":11374,"Ġintellect":11375,"Inv":11376,"ropic":11377,".;":11378,"Ġhash":11379,"Ġdeem":11380,"ĠGlobal":11381,"Ġwet":11382,"Ġinnoc":11383,"Ġ1970":11384,"Ġmounted":11385,"ilibrium":11386,"ĠSat":11387,"adder":11388,"ĊĠĠĠĠĊĠĠĠ":11389,"Ġfiling":11390,"legate":11391,"activity":11392,"window":11393,"Ġcyl":11394,"Ġham":11395,"cmd":11396,"Ġmuc":11397,"vir":11398,"Section":11399,"Ġcenters":11400,"Ġconclusions":11401,"ĠMain":11402,"Ġvolunt":11403,"Ġdismissed":11404,"bas":11405,"ensities":11406,"agent":11407,"Ġthinks":11408,"Ġteen":11409,"endix":11410,"Ġflood":11411,"Ġsynchron":11412,"Ġtape":11413,"Ġ\\;":11414,"Ġdiscussions":11415,"erk":11416,"-*":11417,"Body":11418,"auto":11419,"Ġpromoter":11420,"Ġinvalid":11421,"ĠEffect":11422,"Ġtoxic":11423,"Ġappointed":11424,"ĠShow":11425,"porary":11426,"Ġfalls":11427,"Ġriv":11428,"Ġpsychological":11429,"Ġexem":11430,"Ġoxide":11431,"ĠFrancisco":11432,"1998":11433,"ĠCamb":11434,"Ġpackages":11435,"{(":11436,"016":11437,"Ġcolleagues":11438,"Ġfing":11439,"ĠMap":11440,"Ġspecim":11441,"ĠCross":11442,"Ġoverw":11443,"Ġoccas":11444,"Ġirre":11445,"Ġbankruptcy":11446,"Ġindirect":11447,"ÙĦ":11448,"Ġreaching":11449,"Ġcampus":11450,"Ġcompletion":11451,"Ġaddresses":11452,"enda":11453,"Ġpara":11454,"Ġconsiderable":11455,"Long":11456,"Ġgut":11457,"acher":11458,"Ġcompute":11459,"Ġ81":11460,"Ġentering":11461,"Ġtemporal":11462,"Sort":11463,"ĠHa":11464,"Ġphilosophy":11465,"Ġremoving":11466,"Ġstup":11467,"106":11468,"Ġawarded":11469,"ĠFL":11470,"tree":11471,"oving":11472,"Offset":11473,"season":11474,"Ġfel":11475,"ĠSar":11476,"Ġ119":11477,"Ġexclusive":11478,"ĠAsia":11479,"cam":11480,"Ġ91":11481,"groups":11482,"Ġinline":11483,"ĠLu":11484,"sch":11485,"iro":11486,"Ġappreciate":11487,"Total":11488,"Ġrecru":11489,"Ġmasses":11490,"ĠWITHOUT":11491,"Ġconcrete":11492,"Ġconfront":11493,"Ġtrading":11494,"SET":11495,"ĠStan":11496,"Ġportions":11497,"Entity":11498,"ĠSn":11499,"Ġguarantee":11500,"ĠLI":11501,"sex":11502,"changed":11503,"Ġjet":11504,"Ġconverted":11505,"ĠDid":11506,"}({\\":11507,"ibraries":11508,"ABILITY":11509,"Ġfle":11510,"ĠRod":11511,"cache":11512,"Ġanswered":11513,"Draw":11514,"Ġanalyze":11515,"support":11516,"Ġexpressions":11517,"rooms":11518,"idal":11519,"Ġabstract":11520,"Ġ{\"":11521,"family":11522,"Ġ140":11523,"Ġproceeding":11524,"Ġvacuum":11525,"hspace":11526,"component":11527,"Ġconvicted":11528,"<?":11529,"Ms":11530,"ialize":11531,"aug":11532,"Ġaf":11533,"Ġinterior":11534,"_+":11535,"atabase":11536,"}}}$":11537,"Ġdop":11538,"Graph":11539,"Ġprelim":11540,"VC":11541,"ĠPath":11542,"Ġmodules":11543,"Ġcoding":11544,"ĠWhether":11545,"Ġcomputing":11546,"success":11547,"ĠAbout":11548,"Further":11549,"ĠBra":11550,"Ġleuk":11551,"}}(\\":11552,"ultural":11553,"SELECT":11554,"Ġembodiment":11555,"ĠPL":11556,"custom":11557,"illy":11558,"ĠRay":11559,"ĠSource":11560,"appy":11561,"ailing":11562,"ĊĠĠĠĠĠĠĠĠĠĠĠĠĠĠĠĠĠĠĠĠĠ":11563,"ĠSpanish":11564,"Ġstuck":11565,"don":11566,"Ġsolely":11567,"acet":11568,"Ġbounded":11569,"uri":11570,"overty":11571,"hang":11572,"ĠRoman":11573,"ĠApache":11574,"ĠWalk":11575,"Ġcomprises":11576,"Ġ1989":11577,"lywood":11578,"Ġupt":11579,"Ġfired":11580,"Ġmanual":11581,"Ġexpanded":11582,"Ġfaced":11583,"PRE":11584,"Ġcompeting":11585,"Ġcaptured":11586,"craft":11587,"Ġcheese":11588,"estyle":11589,"genic":11590,"ĠTotal":11591,"ĠCou":11592,"Ġ104":11593,"Ġbeauty":11594,"Ġadministered":11595,"achine":11596,"Ġhack":11597,"ĠSpace":11598,"Ġchemotherapy":11599,"Ġera":11600,"ĠDou":11601,"condition":11602,"ĠGra":11603,"017":11604,"Ġstrings":11605,"evin":11606,"Ġconvenient":11607,"Rad":11608,"aceut":11609,"ĠAndroid":11610,"rosis":11611,"[[":11612,"ĠSouthern":11613,"Ġhonor":11614,"sis":11615,"edef":11616,"Ġnarr":11617,"TV":11618,"Ġnit":11619,"ĠMR":11620,"ĠMen":11621,"Ġshit":11622,"Ġseverity":11623,"ĠAndrew":11624,"ĠNFL":11625,"Ġlimitation":11626,"etary":11627,"Ġbyte":11628,"Ġimmunity":11629,"scribe":11630,"pgen":11631,"Ġinfinite":11632,"Ġsustained":11633,"aders":11634,"Ġpaths":11635,"ynamic":11636,"Ġtracking":11637,"Ġma":11638,"otide":11639,"binding":11640,"ĠHun":11641,"ulative":11642,"hus":11643,"Ġrural":11644,"ĠLew":11645,"ĠDar":11646,"Ġcraft":11647,"ĠDefendants":11648,"Ġdecreases":11649,"Grid":11650,"Ġ114":11651,"ĠEp":11652,"ĠSyria":11653,"Ġhorizontal":11654,"vs":11655,"Ġroof":11656,"being":11657,"Ġcontracts":11658,"Ġmarijuana":11659,"Ġinstallation":11660,"Ġappeals":11661,"Parameter":11662,"117":11663,"Gr":11664,"æĺ":11665,"Ġolig":11666,"Ġmalign":11667,"Ġfolks":11668,"ĠPatients":11669,"drop":11670,"ĠWild":11671,"Ġbeneficial":11672,"ĠGP":11673,"earing":11674,"Ġdestination":11675,"amps":11676,"Ġstorm":11677,"Ġrecruit":11678,"Ġadvertising":11679,"vironments":11680,"urd":11681,"Ġ01":11682,"Ġphenotype":11683,"debug":11684,"Ġdiver":11685,"Ġquestionna":11686,"worth":11687,"ĠDM":11688,"ĠKen":11689,"Ġmaxim":11690,"Ġliber":11691,"shape":11692,"Ġgovernments":11693,"ĠStudies":11694,"Ġ113":11695,"fin":11696,"wa":11697,"Ġpra":11698,"Ġinvasion":11699,"Ġarchitecture":11700,"fol":11701,"EQ":11702,"Vector":11703,"}\\\\":11704,"ropri":11705,"ĠOfficer":11706,"Ġtomorrow":11707,"arged":11708,"Ġreflected":11709,"Ġconstitute":11710,"ango":11711,"ĠPS":11712,"Ġroots":11713,"Ġrh":11714,"Ġmovements":11715,"Ġtelephone":11716,"Ġmacroph":11717,"Cle":11718,"|^":11719,"ĠTurn":11720,"asty":11721,"Enc":11722,"esh":11723,"Ġkidney":11724,"reland":11725,"instance":11726,"black":11727,"Ġresidual":11728,"green":11729,"token":11730,"Ġconce":11731,"ĠDesign":11732,"Ġ['":11733,"olving":11734,"}}$.":11735,"Ġbub":11736,"Ġrising":11737,"Ġimplications":11738,"Ġ86":11739,"ĠSir":11740,"Ġsizeof":11741,"Ġvotes":11742,"Ġprotective":11743,"Ġdefines":11744,"111":11745,"Ġworldwide":11746,"Ġdrawing":11747,"imp":11748,"ĠCru":11749,"Ġseparately":11750,"Ġtiny":11751,"Ġvice":11752,"ĠAsian":11753,"ĠCentre":11754,"ocolate":11755,"Ġcust":11756,"Ġassignment":11757,"Ġvalidation":11758,"jections":11759,"Ġgarden":11760,"ĠConf":11761,"ãĥ¼":11762,"Param":11763,"ĠSix":11764,"ĠCM":11765,"osomes":11766,"ISA":11767,"bet":11768,"ĠAdv":11769,"session":11770,"idget":11771,"Have":11772,"aska":11773,"ĠGeorgia":11774,"Ġagric":11775,"rule":11776,"Ġschem":11777,"Ġrelating":11778,"Ġcrash":11779,"ĠPennsylvania":11780,"Ġphysics":11781,"req":11782,"ĠConference":11783,"AMP":11784,"Ġconstantly":11785,"Ġgradient":11786,"Ġaltered":11787,"Ġaffili":11788,"Ġadmit":11789,"Ġlos":11790,"Ġfoundation":11791,"dig":11792,"athan":11793,"Ġinsufficient":11794,"negative":11795,"Ġconsecutive":11796,"stra":11797,"Ġhaz":11798,"Ġages":11799,"Edit":11800,"reams":11801,"Ġskill":11802,"KEY":11803,"Ġsees":11804,"Ġsimilarly":11805,"Ġoccurrence":11806,"aternal":11807,"ĠAcademy":11808,"Ġsessions":11809,"textrm":11810,"ĠTake":11811,"Ġflexible":11812,"ÂłÂłÂłÂłÂłÂłÂłÂł":11813,"ĠFollowing":11814,"=-":11815,"PG":11816,"cells":11817,"Spe":11818,"ĠStudy":11819,"ĠPatent":11820,"Ġhospitals":11821,"inflammatory":11822,"printf":11823,"ĠIsraeli":11824,"Ġ117":11825,"nament":11826,"Ġrooms":11827,"&#":11828,"tons":11829,"his":11830,"track":11831,"ĠĊĠĠĠĠĠĠĠ":11832,"Ġsmile":11833,"æĪ":11834,"Unit":11835,"Ġdetermin":11836,"Ġrestrictions":11837,"ĠColorado":11838,"oning":11839,"Ġvisited":11840,"Ġtet":11841,"Ġchildhood":11842,"Ġcycles":11843,"Ġlikelihood":11844,"Ġprofessionals":11845,"Ġsupporters":11846,"bind":11847,"ĠFred":11848,"ĠScient":11849,"Ġsubjected":11850,"export":11851,"Ġengineering":11852,"connection":11853,"Ġresidues":11854,"Ġswit":11855,"Ġratios":11856,".]":11857,"Ġenjoyed":11858,"aland":11859,"ĠTax":11860,"textbf":11861,"Ġ1988":11862,"ĠLett":11863,"border":11864,"ĠEV":11865,"Ġangular":11866,"Ġderivatives":11867,"IX":11868,"integr":11869,"115":11870,"missible":11871,"Ġintegrity":11872,"Ġdemands":11873,"help":11874,"rose":11875,"Ġbowl":11876,"ĠJoseph":11877,"Ġlunch":11878,"Ġvessel":11879,"FLAG":11880,"Ġfriendly":11881,"herence":11882,"ĠSA":11883,"onto":11884,"Ġbands":11885,"setminus":11886,"Ġheavily":11887,"pred":11888,"Ġprojection":11889,"athy":11890,"Tool":11891,"iva":11892,"Rect":11893,"Title":11894,"Ġbull":11895,"Ġmetall":11896,"Ġvarying":11897,"MAX":11898,"hol":11899,"Ġnormalized":11900,"mill":11901,"..\\":11902,"Ġlys":11903,"REG":11904,"total":11905,"uits":11906,"Â¡":11907,"Ġbike":11908,"Ġearned":11909,"gered":11910,"Ġhoping":11911,"Ġinfect":11912,"ĠNevertheless":11913,"ĠPass":11914,"dent":11915,"raine":11916,"ĠPython":11917,"Ġtur":11918,"eries":11919,"Ġsymmetric":11920,"obic":11921,"Pos":11922,"ĠFalse":11923,"Ġsatisfies":11924,"]-":11925,"GFP":11926,"Ġcomplexes":11927,"Ġpreliminary":11928,"Mc":11929,"Ġblot":11930,"Ġbunch":11931,"Ġheating":11932,"Ġaccessible":11933,"Ġacquisition":11934,"hour":11935,"uce":11936,"ĊĊĠĠĠĠ":11937,"COL":11938,"Ġaden":11939,"hire":11940,"elfare":11941,"ĠDie":11942,"ĠRyan":11943,"Ġdesirable":11944,"Phone":11945,"lower":11946,"Ġpasses":11947,"ĠRespon":11948,"Ġfeeding":11949,"dc":11950,"Ġrose":11951,"Ġmatrices":11952,"}}$,":11953,"depend":11954,"():":11955,"Ġscales":11956,"ĠUnfortunately":11957,"Ġlean":11958,"Ġgrass":11959,"ĠRepresent":11960,"Ġconsistently":11961,"THER":11962,"Ġsupplied":11963,"Ġconjug":11964,"ĠNorthern":11965,"}}}\\":11966,"Ġdiffusion":11967,"ĠArizona":11968,"Empty":11969,"ordan":11970,"formance":11971,"DER":11972,"Font":11973,"High":11974,"commun":11975,"defined":11976,"RES":11977,"layer":11978,"Show":11979,"Ġpregnant":11980,"Theta":11981,"Ġarc":11982,"Ġattended":11983,"Ġjudicial":11984,"Ġlaid":11985,"Ġrandomly":11986,"oir":11987,"Ġrom":11988,"omorphic":11989,"Ġpixel":11990,"BUG":11991,"hesized":11992,"Ġvoting":11993,"ÛĮ":11994,"Ġmonthly":11995,"Ĥ¬":11996,"reference":11997,"Ġnations":11998,"Ġranging":11999,"izz":12000,"Ġlights":12001,"Ġultr":12002,"adi":12003,"Ġtall":12004,"phy":12005,"NT":12006,"Ġ\\|":12007,"Ġinterference":12008,"Ġrecommendations":12009,"ĠJews":12010,"Eval":12011,"ashes":12012,"205":12013,"render":12014,"Ġjson":12015,"itudes":12016,"=\"../../../../":12017,"Ġadip":12018,"Ġdistinguish":12019,"ders":12020,"Ġ600":12021,"global":12022,"EV":12023,"Ġcholesterol":12024,"Ġfacilitate":12025,"~*":12026,"Ġ----------------------------------------------------------------":12027,"ĠPot":12028,"illary":12029,"_,":12030,"Ġbreach":12031,"Ġerred":12032,"een":12033,"late":12034,"edge":12035,"Ġstir":12036,"Ġbuck":12037,"Ġpromising":12038,"Ġ102":12039,"Ð¼":12040,"Ġease":12041,"Ġjail":12042,"Ġidentifying":12043,"Ġarrangement":12044,"Ġwake":12045,"ĠAccess":12046,"134":12047,"\\_[":12048,"ĠSTAT":12049,"Template":12050,"ĠMatt":12051,"ĠEst":12052,"Ġviolated":12053,"Ġsauce":12054,"ĠBal":12055,"Ġremand":12056,"Ġallegedly":12057,"effective":12058,"Ġmsg":12059,"uid":12060,"Ġdeposition":12061,"join":12062,"ĠMicro":12063,"Ġmolecule":12064,"Ġultimate":12065,"Ġunusual":12066,"Ġobesity":12067,"Ġlin":12068,"Ġdipl":12069,"Ġinsight":12070,"ĠScot":12071,"holders":12072,"rying":12073,"ught":12074,"Ġexplos":12075,"Container":12076,"ouston":12077,"ĠNAS":12078,"Ġphysician":12079,"Ġembedded":12080,"Ġoste":12081,"Ġhadn":12082,"USE":12083,"xs":12084,"ESM":12085,"Ġdecent":12086,"Ġparas":12087,"Ġclause":12088,"ublished":12089,"STAT":12090,"Ġbid":12091,"ĠEr":12092,"127":12093,"ĠRoyal":12094,"Ġpanels":12095,"Ġparad":12096,"ijer":12097,"Ġentertain":12098,"Ġclothes":12099,"Sw":12100,"ivariate":12101,"clipse":12102,"task":12103,"Ġending":12104,"Ġcalcium":12105,"Ġshorter":12106,"ami":12107,"113":12108,"Ġexpectations":12109,"anches":12110,"Ġ116":12111,"Ġacceptable":12112,"xc":12113,"Product":12114,"ĠJSON":12115,"Ġvariants":12116,"ĠTHIS":12117,"Ġeffectiveness":12118,"audi":12119,"ĠLim":12120,")_":12121,"ĠMic":12122,"Ġancient":12123,"icking":12124,"Ġforest":12125,"Ġstruck":12126,"Ġintervals":12127,"Ġpeer":12128,"Ġphotograph":12129,"Ġdesigns":12130,"Ġutilized":12131,"insert":12132,"Ġharvest":12133,"ĠPsy":12134,"oves":12135,"Ġarmed":12136,"Ġcum":12137,"ologists":12138,"Ġguns":12139,"Ġexhibited":12140,"asant":12141,"Ġhepat":12142,"Ġconcepts":12143,"ometer":12144,"Ġdb":12145,"gal":12146,"ĠVictor":12147,"Ġenzymes":12148,"Ġpadding":12149,"Ġsurge":12150,"hom":12151,"Ġ118":12152,"Ġdisadvant":12153,"124":12154,"Ġgear":12155,"ĠAdministration":12156,"ĠBru":12157,"ĠPalestin":12158,"Ġtensor":12159,"Ġmitochondrial":12160,"Ġ1986":12161,"ophag":12162,"ĠSteve":12163,"Ġstone":12164,"ictions":12165,"Ġinvariant":12166,"Ġspecify":12167,"Ġstudying":12168,"Ġabsent":12169,"Ġsurvive":12170,"ĠLinux":12171,"BT":12172,"Ġguidance":12173,"ĠTri":12174,"byte":12175,"ifiers":12176,"icker":12177,"Ġmeetings":12178,"Ġcollective":12179,"Document":12180,"even":12181,"stic":12182,"Ġautomatic":12183,"iem":12184,"Ġ160":12185,"Ġunclear":12186,"Ġwrites":12187,"Ġstrip":12188,"EF":12189,"ĠSpain":12190,"Ġtransportation":12191,"uv":12192,"ĠBR":12193,"ĠKenn":12194,"ĠAnderson":12195,"ĠSwed":12196,"Ġwashed":12197,"Ġalb":12198,"ĠIntroduction":12199,"Ġfunny":12200,"rend":12201,"Ġdoors":12202,"Ġ1983":12203,"rett":12204,">.":12205,"atile":12206,"Ġjoy":12207,"ponential":12208,"prov":12209,"Ġincons":12210,"Ġtreating":12211,"Step":12212,"othelial":12213,"Ġlabels":12214,"Ġruled":12215,"Ġactor":12216,"Ġglad":12217,"ĠHon":12218,"Ġpepper":12219,"*]{},":12220,"subseteq":12221,"Ġoverwhel":12222,"Ġeligible":12223,"ĠSeveral":12224,"Ġunlike":12225,"Ġvital":12226,"ĠCPU":12227,"ĠIslamic":12228,"[$":12229,"Ġ106":12230,"plugin":12231,"omers":12232,"Ġstations":12233,"represent":12234,"pton":12235,"Ġdiscrete":12236,"ĠIndust":12237,"_>":12238,"stable":12239,"ĠMaster":12240,"ĠFort":12241,"126":12242,"Ġaccompanied":12243,"agan":12244,"Three":12245,"iii":12246,"clusively":12247,"elli":12248,"Ġchip":12249,"Ġreveals":12250,"Ġeverywhere":12251,"odynam":12252,"Ġprecision":12253,"Ġmixing":12254,"Hi":12255,"Main":12256,"good":12257,"Files":12258,"izable":12259,"Ġoffensive":12260,"prim":12261,"Ġcarcinoma":12262,"Ġreporter":12263,"Ġpron":12264,"ãģĻ":12265,"Ġbless":12266,"irk":12267,"_{-":12268,"Ġì":12269,"Ġ105":12270,"Ġrarely":12271,"Ġharder":12272,"Ġdeeply":12273,"ĠTerm":12274,"psy":12275,"analysis":12276,"aron":12277,"Ġattitude":12278,"Ġnewspaper":12279,"Ġturb":12280,"resource":12281,"plot":12282,"doi":12283,"Ġlying":12284,"ova":12285,"Ġmodul":12286,"ucl":12287,"iration":12288,"Ġparse":12289,"Ġviolent":12290,"Ġimmigration":12291,"fusion":12292,"Ġpatch":12293,"Ġalignment":12294,"arious":12295,"Ġ>>":12296,"canc":12297,"arding":12298,"Device":12299,"wall":12300,"Ġresist":12301,"versely":12302,"ĠContin":12303,"Ġ(@":12304,"Ġasympt":12305,"Ġillust":12306,"Ġoccurring":12307,"Ġsurveillance":12308,"LP":12309,"Ġpredomin":12310,"ĠRog":12311,"Ġdisrupt":12312,"disp":12313,"uz":12314,"Ġgained":12315,"Ġreadily":12316,"Serv":12317,"116":12318,"Cache":12319,"Ġlanguages":12320,"(){":12321,"amic":12322,"'>":12323,"Sur":12324,"ĠSeries":12325,"Ġdad":12326,"Ġdisabled":12327,"Ġhorse":12328,"Ġexpressing":12329,"$^{-":12330,"may":12331,"mathsf":12332,"Ġbonds":12333,"Ġcorrelations":12334,"Ġsoldiers":12335,"enable":12336,"ĠWord":12337,"Ġpoliticians":12338,"osomal":12339,".),":12340,"âĢĶâĢĶ":12341,"ocratic":12342,"Ġphosphorylation":12343,"Ġloans":12344,"oa":12345,"ricular":12346,"Ġdestroyed":12347,"uset":12348,"Del":12349,"ĠMethods":12350,"asac":12351,"Ġincorrect":12352,"Ġmirror":12353,"ETH":12354,"Ġpneum":12355,"Ġsmoke":12356,"azz":12357,"Ġexciting":12358,"ĠBeach":12359,"Ġunexpected":12360,"enant":12361,"Ġrepresentations":12362,"Ġsuspension":12363,"vubuntor":12364,"ĠDA":12365,"ĠDig":12366,"$^{":12367,"elect":12368,"ijerph":12369,"Ġ[\"":12370,"Ġsystemic":12371,"ĠPacific":12372,"OUT":12373,"ĠDue":12374,"012":12375,"sters":12376,"images":12377,"yo":12378,"Ġstom":12379,"ĠLear":12380,"perp":12381,"Ġperceived":12382,"Ġenvironments":12383,"ĠCarl":12384,"ĠEnvironment":12385,"çĶ¨":12386,"hard":12387,"âī":12388,"1997":12389,"ĠLtd":12390,"plates":12391,"Ġcann":12392,"Ġeverybody":12393,"MOESM":12394,"Ġ1987":12395,"Ġrecovered":12396,"overs":12397,"ĠSR":12398,"Ġtopics":12399,"tn":12400,"Ġstellar":12401,"igate":12402,"Ġflavor":12403,"Ġputs":12404,"loop":12405,"Ġepisodes":12406,"ĠIreland":12407,"ãģ«":12408,"ĠMajor":12409,"Ġliked":12410,"oplus":12411,"Ġcontra":12412,"()->":12413,"ĠÂĹ":12414,"Ġknee":12415,"Ġvoted":12416,"Ġhierarch":12417,"Ġ124":12418,"obacter":12419,"Mean":12420,"Ġpm":12421,"Ġraising":12422,"Ġreversed":12423,"Impl":12424,"ĠAC":12425,"Ġforever":12426,"Ġpointer":12427,"Ġduties":12428,"Ġquot":12429,"Ġfitness":12430,"Ġeq":12431,"Ġtang":12432,"Ġtips":12433,"Ġinherent":12434,"Ġdental":12435,"ĠPART":12436,"CHAR":12437,"Ġshopping":12438,"ĠChildren":12439,"Ġslic":12440,"Ġswitching":12441,"Ġâī¥":12442,"Ġsteady":12443,"Ġpounds":12444,"ems":12445,"words":12446,"Ġprominent":12447,"cursor":12448,"Ġseeds":12449,"ĠCommand":12450,"flags":12451,"ĠÐ½":12452,"aque":12453,"Ġtea":12454,"ĠBrook":12455,"Ġpilot":12456,"Ġhtml":12457,"eling":12458,"Ġmere":12459,"Ġliberal":12460,"isl":12461,"derived":12462,"Ġhopes":12463,"isp":12464,"Ġtroops":12465,"dated":12466,"endor":12467,"0000000000000000":12468,"ĠHu":12469,"Ins":12470,"Ġcorporation":12471,"Ġovere":12472,"forall":12473,"Ġdoctrine":12474,"013":12475,"Ġexcessive":12476,"ushing":12477,"Ġdeclined":12478,"MEM":12479,"Ġpsychi":12480,"Ġlifetime":12481,"/âĪĴ":12482,"Ġtension":12483,"pection":12484,"bp":12485,"nesota":12486,"equal":12487,"Ġpython":12488,"echo":12489,"ĠCrit":12490,"ĠLove":12491,"away":12492,"Convert":12493,"Ġhits":12494,"ĠPrem":12495,"ĠThird":12496,"Ġamended":12497,"Ġexecute":12498,"blem":12499,"interface":12500,"nan":12501,"Ġvisits":12502,"Ġpulmonary":12503,"Ċĉĉĉĉĉĉĉ":12504,"Ġhang":12505,"Ġdebug":12506,"Ġ(%)":12507,"Ġarranged":12508,"orous":12509,"venth":12510,"Ġpending":12511,"iatric":12512,"Ġ128":12513,"ĠWel":12514,"Host":12515,"ĠAgreement":12516,"'(":12517,"FB":12518,"lab":12519,"$]{}":12520,"oli":12521,"Ġpropose":12522,"Types":12523,"VI":12524,"ĠCas":12525,"lat":12526,"'\\":12527,"ĠâĪ":12528,"Ġlegislative":12529,"Ġprospective":12530,"ĠLuc":12531,"Ġphysiological":12532,"acon":12533,"ĠWARRANTIES":12534,"Ġthy":12535,"Ġchecking":12536,"Ġsensors":12537,"ĠPrior":12538,"REF":12539,"Ġmunicip":12540,"Ġedit":12541,"Ġinterpreted":12542,"conv":12543,"ĠCu":12544,"ermined":12545,"Ġvertices":12546,"700":12547,"channel":12548,"orneys":12549,"bled":12550,"1996":12551,"Ġdefects":12552,"ications":12553,"ĠSY":12554,"ãĤĴ":12555,"Ġvalidity":12556,"Ġneighb":12557,";;":12558,"ĠThough":12559,"Ġamendment":12560,"Ġeggs":12561,"opp":12562,"READ":12563,"register":12564,"roat":12565,"ĠÃ©":12566,"Ġmortgage":12567,"109":12568,"Ġreplied":12569,"berry":12570,"Ġ109":12571,"Ġcooling":12572,"Ġthrom":12573,"ĠFBI":12574,"ĠEastern":12575,"Ġ1985":12576,"Ġcombine":12577,"011":12578,"ĠWithout":12579,"\\>":12580,"====================":12581,"Record":12582,"AME":12583,"Ġbirds":12584,"urations":12585,"Interface":12586,"ĠBon":12587,"erred":12588,"lined":12589,"Ġfeas":12590,"Ġregulated":12591,"Ġedition":12592,"Ġcardiovascular":12593,"Ġfranch":12594,"âĦ":12595,"Ġlumin":12596,"ĠAsh":12597,"Store":12598,"Ġgenerator":12599,"javascript":12600,"æķ°":12601,"acks":12602,"Ġfung":12603,"Ġcultiv":12604,"Ġabundance":12605,"category":12606,"Ġepidem":12607,"Ġcortex":12608,"iy":12609,"alities":12610,"Ġmad":12611,"Ġbeach":12612,"Ġblame":12613,"ĠMedicine":12614,"BV":12615,"ĠThrough":12616,"Nav":12617,"iscal":12618,"ĠTal":12619,"btn":12620,"Ġfatty":12621,"ĠAgency":12622,"Ġgenuine":12623,"HTML":12624,"Ġtonight":12625,"tbl":12626,"ĠMid":12627,"Ġresonance":12628,"ĠOx":12629,"Windows":12630,"udio":12631,"ĠGene":12632,"language":12633,"ĠKingdom":12634,"Ġsubsid":12635,"Ġblocked":12636,"rophy":12637,"ĠKorean":12638,"because":12639,"Ġarise":12640,"Ġsomebody":12641,"Ġty":12642,"Ġlogical":12643,"ĠHistory":12644,"engers":12645,"random":12646,"Ġillustrated":12647,"Hello":12648,"ĠCore":12649,"Ġ+/-":12650,"Ġtaxp":12651,"Ġbon":12652,"ãĤĭ":12653,"screen":12654,"Ġcord":12655,"Ġstupid":12656,"necessary":12657,"Ġfunctionality":12658,"Ġinfluenced":12659,"ĠQuant":12660,"Ġ1984":12661,"Ġcoli":12662,"chester":12663,"Ġdevelopers":12664,"Ġpermissions":12665,"parison":12666,"Ġboundaries":12667,"Ġrepeatedly":12668,"Ġdrag":12669,"ĠFamily":12670,"boot":12671,"ĠAG":12672,"phosph":12673,"Ġsubgroup":12674,"ennis":12675,"TL":12676,"hex":12677,"Ġisolation":12678,"Ġprinting":12679,"\"))":12680,"lob":12681,"mask":12682,"Bs":12683,"figure":12684,"scope":12685,"Ġpacket":12686,"Ġprosecutor":12687,"eman":12688,"Ġpreventing":12689,"ĠChampionship":12690,"Ġrecon":12691,"{}":12692,"Ġcurrency":12693,"gun":12694,"uble":12695,"Ġreliability":12696,"owski":12697,"ĠRound":12698,"Effect":12699,"Ġcompatible":12700,"POST":12701,"Ġdenial":12702,"ĠSche":12703,"opher":12704,"short":12705,"Ġeliminate":12706,"Ġspiritual":12707,"Ġ255":12708,"Ã¢":12709,"Ġprosecution":12710,"Ġfitting":12711,"168":12712,"Ġdelayed":12713,";\">":12714,"NN":12715,"Ġfert":12716,"ĠSort":12717,"ocker":12718,"gathered":12719,"Ġtone":12720,"ols":12721,"party":12722,"iger":12723,"aza":12724,"Ġinserted":12725,"Ġorbit":12726,"1995":12727,"ĠIndex":12728,"Ġdemocracy":12729,"**.":12730,"Ġattributed":12731,"Ġawesome":12732,"Di":12733,"egr":12734,"ando":12735,"FILE":12736,"Ġtransactions":12737,"Ġintracellular":12738,"ĉĉĉ":12739,"oup":12740,"adel":12741,"Ġgotten":12742,"ĠAz":12743,"Found":12744,"ĠYeah":12745,"Ġweights":12746,"ĠÑģ":12747,"Dav":12748,"Round":12749,"ĠPhot":12750,"ç»":12751,"čĊĉĉĉ":12752,"Ġpace":12753,"Ġunem":12754,"Ġaffecting":12755,"Ġconnecting":12756,"alling":12757,"Pref":12758,"Ġ('":12759,"Ġworried":12760,"Ġreflection":12761,"_[":12762,"delete":12763,"]{.":12764,"Ġwireless":12765,"ymmetric":12766,"Mat":12767,"1994":12768,"mons":12769,"Ġbottle":12770,"widget":12771,"Ġvitamin":12772,"Ġdoses":12773,"etc":12774,"ĠFair":12775,"Ġgravity":12776,"Ġshots":12777,"Ġlimiting":12778,"ĠZealand":12779,"enders":12780,"plicity":12781,"213":12782,"phal":12783,"ĠCrim":12784,"Ġsegments":12785,"Ġimproper":12786,"oi":12787,"Ġcontacts":12788,"ĠGames":12789,"nutrients":12790,"norm":12791,"ÂĹ":12792,"outer":12793,"licenses":12794,"Ġflags":12795,"Ġlateral":12796,"Ġdesignated":12797,"cover":12798,"Ġauthorized":12799,"transform":12800,"News":12801,"ĠSav":12802,"ĠDocument":12803,"Ġphysically":12804,"Author":12805,"Dem":12806,"Ġsouthern":12807,"ĠPrim":12808,"urer":12809,"Ġconspi":12810,"ucky":12811,"lot":12812,"Ġenum":12813,"'_":12814,"olecular":12815,"Ġtu":12816,"Ġuna":12817,"Ġobtaining":12818,"ĠSov":12819,"qual":12820,"Ġperception":12821,"aware":12822,"ĠCommonwealth":12823,"ĠĠĠĠĠĠĠĠĠĠĠĠĠĠĠĠĠĠĠĠĠĠĠĠĠĠĠĠĠĠĠĠĠĠĠ":12824,"ishop":12825,"Ġdenotes":12826,"uclear":12827,"Ġelderly":12828,"ĠMinistry":12829,"Ġaims":12830,"Ġshr":12831,"Ġsentencing":12832,"Anal":12833,"enum":12834,"Ġgross":12835,"âĢĻ.":12836,"Ġspecificity":12837,"Ġphases":12838,"Ġink":12839,"ĠAh":12840,"Ġproposition":12841,"Ġnorthern":12842,"Ġfi":12843,"Ġgalaxy":12844,"Ġepithelial":12845,"Ġcontest":12846,"pository":12847,"Ġartery":12848,"Ġenables":12849,"Ġdecor":12850,"ĠProduct":12851,"Ġcancel":12852,"ĠOp":12853,"Ġprinted":12854,"ĠGaussian":12855,"Ġscalar":12856,"dagger":12857,"closure":12858,"sky":12859,"Ġathe":12860,"Has":12861,"Ġoven":12862,"urse":12863,"ĠCat":12864,"uler":12865,"Ġdownt":12866,"Ġleak":12867,"Ġassumptions":12868,"Ġyeast":12869,"ĠGuard":12870,"Ġoxidative":12871,"204":12872,"Ġinterrupt":12873,".*]{}":12874,"LINE":12875,"Ġ\"$":12876,"Ġsearching":12877,"Ġinspired":12878,"Ġfits":12879,"Ġtill":12880,"Ġxe":12881,"Ġvessels":12882,"Ġhypertension":12883,"mentioned":12884,"Ġequality":12885,"ĠPerhaps":12886,"Ġpoverty":12887,"Ġresidence":12888,"Ġindices":12889,"Ġdamaged":12890,"imation":12891,"Ġsuicide":12892,"Que":12893,"Ġkiss":12894,"inance":12895,"Ġregistration":12896,",{\\":12897,"Ġmas":12898,"Ġretain":12899,"Ġcomputation":12900,"Ġcourses":12901,"Ġrating":12902,"Ġdifferently":12903,"anny":12904,"Ġmutants":12905,"++;":12906,"Bas":12907,"ĠSS":12908,"dam":12909,"*~*":12910,"Ġholiday":12911,"Ġov":12912,"ogram":12913,"Ġpolarization":12914,"Ġxmlns":12915,"rapper":12916,"also":12917,"Ġ103":12918,"Ġinvestigations":12919,"oned":12920,"Ġrum":12921,"ĠRather":12922,"Ġovernight":12923,"ãģĦ":12924,"/.":12925,"uilt":12926,"itical":12927,"ĠCost":12928,"tri":12929,"usp":12930,"Ġpublicly":12931,")}}":12932,"Ġvibr":12933,"Ġmatched":12934,"tool":12935,"Ġpel":12936,"Ġmath":12937,"Ġinflation":12938,"wd":12939,"rup":12940,"Ġelectrons":12941,"Background":12942,"Ġenemy":12943,"Ġunderwent":12944,"!)":12945,"immun":12946,"Ġnucleus":12947,"Ġmanually":12948,"Ġframes":12949,"Ġhardly":12950,"Ġborrow":12951,"Ġmodeling":12952,"Params":12953,"ĠHarris":12954,"ĠML":12955,"gged":12956,"Ġatom":12957,"ĠRA":12958,"ĠRa":12959,"Ġmold":12960,"Ġdrain":12961,"Ð´":12962,"ĠStill":12963,"ĠStephen":12964,"Ġmembership":12965,"Ġacknowledge":12966,"Maybe":12967,"Ġpour":12968,"Reader":12969,"offs":12970,"United":12971,"Ġmountain":12972,"phasis":12973,"\\,\\":12974,"Ġprogressive":12975,"Ġintellectual":12976,"Ġinjected":12977,"ĠWeek":12978,"Ġcallback":12979,"ãģĹ":12980,"Ġdisclosure":12981,"*(-":12982,"Ġbearing":12983,"Ġassociations":12984,"PORT":12985,"Ġpipe":12986,"Ġdeficiency":12987,"ĠUnivers":12988,"Ġclinic":12989,"ĠBitcoin":12990,"agram":12991,"Ġassistant":12992,"'}":12993,"Ġdial":12994,"idav":12995,"LED":12996,"^)":12997,"nex":12998,"INS":12999,"ĠFoot":13000,"Ġcomplement":13001,"ĠInclude":13002,"Ġbreaks":13003,"Ġpreferably":13004,"move":13005,"Ġassem":13006,"Ġignored":13007,"ĠPI":13008,"Ġdeals":13009,"each":13010,"Ġcod":13011,"rocy":13012,"Ġtrail":13013,"Ġplasm":13014,"Items":13015,"Ġdifficulties":13016,"ĠSaint":13017,"Ġ135":13018,"regular":13019,"cases":13020,"Session":13021,"tim":13022,"wait":13023,"Ġinverse":13024,"Ġ\"<":13025,"Ġpeaks":13026,"Ġboss":13027,"Ġdefensive":13028,"Ġdeliber":13029,"Ġlabeled":13030,"acco":13031,"Ġcoat":13032,"Av":13033,"Conf":13034,"Ġdescribing":13035,"Ġstretch":13036,"Ġguest":13037,"Ġvaried":13038,"ĠKit":13039,"ockey":13040,"Ġcaps":13041,"Ġinterviews":13042,"comfort":13043,"Ġregulate":13044,"ĠConsequently":13045,"scription":13046,"wrap":13047,"Ġresistant":13048,"chers":13049,"Ġrendered":13050,"lated":13051,"Iter":13052,"bad":13053,"appropri":13054,"Ġliterally":13055,"Editor":13056,"Ġemotion":13057,"aceutical":13058,"ulent":13059,"ĠHard":13060,"placement":13061,"role":13062,"eras":13063,"ĠTitle":13064,"Pres":13065,"ensing":13066,"Ġapps":13067,"views":13068,"Ġfocusing":13069,"á»":13070,"ĠBO":13071,"UND":13072,"itudinal":13073,"Ġgrate":13074,"prom":13075,"Ġplatforms":13076,"Ġfounded":13077,"ĠCapt":13078,"Ġmood":13079,"Ġcombinations":13080,"Integer":13081,"TEST":13082,"save":13083,"mates":13084,"izers":13085,"Ġretro":13086,"ĠRen":13087,"Ġdiscount":13088,"Ġcub":13089,"Orig":13090,"ĠSpecifically":13091,"132":13092,"240":13093,"Ġvulnerable":13094,"apor":13095,"application":13096,"requency":13097,"Ġpancre":13098,"Ġtolerance":13099,"0002":13100,"Ang":13101,"mathscr":13102,"Ġelectricity":13103,"ĠHave":13104,"Ġflour":13105,">();":13106,"114":13107,"engine":13108,"Ġreflects":13109,"area":13110,"profile":13111,"ĠSanta":13112,"Â´":13113,"Âĳ":13114,"Ġpocket":13115,"ĠAward":13116,"Ġentre":13117,"Ġboxes":13118,"\"));":13119,"gov":13120,"Ġloud":13121,"ĠEs":13122,"Ġwondering":13123,"Ġmagazine":13124,"Ġpushing":13125,"bes":13126,"ĠSi":13127,"Ġadoles":13128,"Ġdisplays":13129,"ĠHz":13130,"owed":13131,"imeq":13132,"cas":13133,"mn":13134,"ĠArk":13135,"Ġ{@":13136,"Ġanch":13137,"Ġcock":13138,"eld":13139,"Ġdestruction":13140,"Ġsupplies":13141,"large":13142,"Ġfactory":13143,"ĠAssembly":13144,"TM":13145,"human":13146,"jar":13147,"ĠPE":13148,"ĠProperty":13149,"Ġimplicit":13150,"ĊĠĠĠĠĠĠĠĠĠĠĠĠĠĠĠĠĠĠĠĠĠĠĠĠĠĠĠĠĠĠĠĠĠĠĠĠĠĠĠ":13151,"Ġcategor":13152,"Ġtrauma":13153,"Ġviruses":13154,"Ġsilicon":13155,"Ġpenet":13156,"ĠLy":13157,"bral":13158,"Ġmock":13159,"Ġgenomic":13160,"Ġterrible":13161,"ĠAdditional":13162,"Json":13163,"simeq":13164,"hh":13165,"Ġdates":13166,"Ġweird":13167,"riting":13168,"Ġisolates":13169,"ĠTer":13170,"aton":13171,"135":13172,"pletion":13173,"Flags":13174,"margin":13175,"ĠCS":13176,"Ġsilent":13177,"Ġemerging":13178,"ques":13179,"plane":13180,"Ġquote":13181,"Ġinvited":13182,"ONG":13183,"Ġweekly":13184,"~)":13185,"CODE":13186,"Ġdeeper":13187,"Ġlease":13188,"entials":13189,"Ġselective":13190,"ĠDifferent":13191,"Ġendothelial":13192,"Ġextending":13193,"Ġpredictions":13194,"è¡":13195,"Ġcombat":13196,"Ġlawsuit":13197,"Ġhung":13198,"atern":13199,"desc":13200,"Her":13201,"Ġlistening":13202,"Despite":13203,"Ġip":13204,"ĠArticle":13205,"ĠWITH":13206,"KS":13207,"hl":13208,"ĠDI":13209,"Ġabortion":13210,"ĠThom":13211,"DU":13212,"Ġexisted":13213,"Ġangry":13214,"Ġmethylation":13215,"åĬ":13216,"imm":13217,"children":13218,"025":13219,"Ġč":13220,"`,":13221,"ĠMinnesota":13222,"organisms":13223,"impl":13224,"ĠTour":13225,"yers":13226,"Ġcommands":13227,"ĠSciences":13228,"ĠAfghanistan":13229,"Ġcertificate":13230,"ĠMP":13231,"prison":13232,"ĠBrian":13233,"Ġattempting":13234,"password":13235,"Ġadapted":13236,"Panel":13237,"Ġestablishment":13238,"Ġdebtor":13239,"Ġcha":13240,"ĠPlace":13241,"Ġbehaviors":13242,"MAT":13243,"ograp":13244,"Ġattractive":13245,"Ġclimb":13246,"Ġsettled":13247,"Widget":13248,"Ġhint":13249,"Ġiso":13250,"ĠPBS":13251,"ĠLic":13252,"apsed":13253,"Ġbatch":13254,"Ġfingers":13255,"'],":13256,"Ġtow":13257,"ĠFord":13258,"Ġaggressive":13259,"Ġpromoting":13260,"Ġren":13261,"Ġmuscles":13262,"Ġretirement":13263,"ĠColumbia":13264,"Ġbasketball":13265,"Ġbatt":13266,"ĠHead":13267,"Ġions":13268,"Ġ134":13269,"Ġincent":13270,"Ġub":13271,"bigg":13272,"ĠImmun":13273,"Ġfilling":13274,"news":13275,"Ġlikes":13276,"Ġsuspended":13277,"=\"../":13278,"consin":13279,"Ġstrictly":13280,"forming":13281,"_-":13282,"Ġmotions":13283,"Ġmagic":13284,"ĠEXPECT":13285,"Ġnegligence":13286,"Ġtransformed":13287,"Ġvag":13288,"ĠGi":13289,"Ġlifestyle":13290,"strap":13291,"Ġ108":13292,"Ġengagement":13293,"utils":13294,"Ġuptake":13295,"NG":13296,"ĠMarket":13297,"Additional":13298,"Ġcig":13299,"ĠBell":13300,"Ġconfident":13301,"1991":13302,"Ġfluor":13303,"Ġcomputers":13304,"Ġcosm":13305,"Ġbills":13306,"Ġpotent":13307,"mass":13308,"Ġtweet":13309,"ĠWin":13310,"Ġtexture":13311,"Ġtoxicity":13312,"asia":13313,"hot":13314,"ĠDam":13315,"ĠJen":13316,"abling":13317,"Ġpreserve":13318,"Ġquantities":13319,"ĠImages":13320,"1993":13321,"metadata":13322,"estamp":13323,"ritis":13324,"Ġmaximal":13325,"Ġsynthetic":13326,"ĠRos":13327,"tration":13328,"Ġheaded":13329,"energy":13330,"allas":13331,"Ġcollapse":13332,"Ġgerm":13333,"aying":13334,"gex":13335,"čĊčĊ":13336,":#":13337,"your":13338,"Ġtied":13339,"ressing":13340,"ĠSon":13341,"Ġdip":13342,"abb":13343,"Ġenact":13344,"gra":13345,"Ġmicroscopy":13346,".).":13347,"Ġreply":13348,"Ġnons":13349,"âĦ¢":13350,"dk":13351,"made":13352,"Ġmeaningful":13353,"Ġconspiracy":13354,"fb":13355,"held":13356,"Args":13357,"Ġtransmitted":13358,"generation":13359,"Ġvisiting":13360,"Ġwaters":13361,"Ġdimin":13362,"Free":13363,"1990":13364,"Ġshoes":13365,"Ġobligation":13366,"mate":13367,"Ġseiz":13368,"unior":13369,"Float":13370,"ĠĠĠĠĠĠĠĠĠĠĠĠĠĠĠĠĠĠĠĠĠĠĠĠĠĠĠĠĠĠĠĠĠĠ":13371,"ĠProfessor":13372,"abc":13373,"Ġenergies":13374,"Ġequilibrium":13375,"alo":13376,"ĠÃł":13377,"Ġartificial":13378,"Ġphrase":13379,"Py":13380,"Ġkil":13381,"pur":13382,"tan":13383,"Ġfake":13384,"ĠHo":13385,"bery":13386,"=>":13387,"olly":13388,"Ġdefining":13389,"Ġtrem":13390,"Jo":13391,"Microsoft":13392,"Ġjunction":13393,"ĠKent":13394,"Ġrestaurants":13395,"_(":13396,"coll":13397,"Ġtrends":13398,"ĠĠĠĠĠĠĠĠĠĠĠĠĠĠĠĠĠĠĠĠĠĠĠĠĠĠĠĠĠĠĠĠĠ":13399,"hma":13400,"users":13401,"Ġstake":13402,"Jan":13403,"Sing":13404,"edu":13405,"ĠLC":13406,"ĠGC":13407,"Ġspont":13408,"ĠShould":13409,")}(":13410,"DF":13411,"yard":13412,"Ġscoring":13413,"}}_{\\":13414,"ancies":13415,"Ġticket":13416,"articles":13417,"Christ":13418,"Expression":13419,"ĠBul":13420,"Parent":13421,"Var":13422,"Stack":13423,"Auth":13424,"ouri":13425,"))/":13426,"Ġdenying":13427,"Ġinquiry":13428,"Ġdeemed":13429,"Ġconvey":13430,"Ġcondem":13431,"Ġempir":13432,"Ġspectrosc":13433,"ä¸Ģ":13434,"bec":13435,"Collection":13436,"phys":13437,"Ġpleasure":13438,"Ġdescending":13439,"Ġwins":13440,"Ġlect":13441,"program":13442,"Ġshaft":13443,"verted":13444,"ĠÃĦ":13445,"Ġexponential":13446,"Ġspinal":13447,"Ġentities":13448,"Ġasks":13449,"acket":13450,"Ġstayed":13451,"Ġdisagree":13452,"Ġsatisfying":13453,"Ġads":13454,"Ġinhibited":13455,"pow":13456,"ĠIowa":13457,"Ġdeny":13458,"romagnetic":13459,"Ġbranches":13460,"ĠSaf":13461,"ĠGreek":13462,"ĠHamiltonian":13463,"osin":13464,"ĠFather":13465,"Ġsmell":13466,"settings":13467,"ilst":13468,"Ġfavorable":13469,"ifting":13470,"Ġintense":13471,"ASE":13472,"Ġlon":13473,"ĠGall":13474,"ubs":13475,"ĠĠĠĠĠĠĠĠĠĠĠĠĠĠĠĠĠĠĠĠĠĠĠĠĠĠĠĠĠĠĠĠĠĠĠĠĠĠĠ":13476,"ĠFR":13477,"ĠVill":13478,"Ġdollar":13479,"Ġwedding":13480,"olves":13481,"phase":13482,"CONFIG":13483,"Ġtired":13484,"Ġvisitors":13485,"ĠJordan":13486,"Ġstudio":13487,"Ġbounds":13488,"endo":13489,"Ġ'\\":13490,"ĊĠĠĠĠĠĠĠĠĠĠĠĠĠĠĠĠĠĠĠĠ":13491,"ocyt":13492,"Handle":13493,"Game":13494,"Ġdistances":13495,"Ġdemonstrates":13496,"Ġdietary":13497,"[(":13498,"Ġagreements":13499,"ĠHay":13500,"ĠPetition":13501,"ĠChristians":13502,"AV":13503,"admin":13504,"Ġequipped":13505,"Ġlocalization":13506,"Ġsoph":13507,"Ġpill":13508,"GM":13509,"Ġwing":13510,"arios":13511,"Ġchoosing":13512,"Ġinduces":13513,"ĠATP":13514,"Ġpromised":13515,"Values":13516,"Ġprolong":13517,"heast":13518,"Today":13519,"Ġweigh":13520,"Ġmini":13521,"ĠTE":13522,"Ġexpense":13523,"ById":13524,"ĠFif":13525,"grid":13526,"Ġsuspected":13527,"Ġprogramme":13528,"Ġtransparent":13529,"Ġparticipated":13530,"Ġthreats":13531,"Ġtalent":13532,"avirus":13533,"Ġpointing":13534,"Ġirrad":13535,"connected":13536,"ĠMoore":13537,"Based":13538,"rowth":13539,"Ġsuppression":13540,"}:":13541,"elson":13542,"Ġscaling":13543,"},$$":13544,"Ġarrive":13545,"Ġfunded":13546,"Ġbehavioral":13547,"Ġdefeat":13548,"Ġtact":13549,"JS":13550,"Ġnp":13551,"Ġpersu":13552,"ĠHarry":13553,"ĠInterestingly":13554,"Ġsaving":13555,"Ġmanifold":13556,"Ġheading":13557,"nl":13558,"Ġbeliefs":13559,"ĠCondition":13560,"micro":13561,"amy":13562,"Tra":13563,"ĠHor":13564,"Ġpersonality":13565,"Ġlibraries":13566,"Ġsentences":13567,"ĠPop":13568,"hep":13569,"Ġremem":13570,"arry":13571,"ĠCambridge":13572,"åŃ":13573,"Ġreven":13574,"Ġconstitu":13575,"habilit":13576,"itage":13577,"ificant":13578,"Ġbelongs":13579,"Ġeveryday":13580,"Ġfinance":13581,"burgh":13582,"Ġdeveloper":13583,"Ġpremium":13584,".:":13585,"ÐµÑĤ":13586,"âĶ":13587,"Ġparticipant":13588,"220":13589,")</":13590,"Ġbird":13591,"450":13592,"Ġspray":13593,"Ġ1981":13594,"Ġantagon":13595,"Ġcultured":13596,"Ġbes":13597,"Ġlas":13598,"Ġ-------":13599,"Ġimpairment":13600,"bow":13601,"Ġdetermines":13602,"Introduction":13603,"terminal":13604,"Ġdefinitions":13605,"Root":13606,"ĠTenn":13607,"Ġprotocols":13608,"âĢ²-":13609,"Cr":13610,"TF":13611,"eval":13612,"arse":13613,"igm":13614,"ĠDaily":13615,"Ġtends":13616,"ĠNature":13617,"ĠÎĶ":13618,"Ġminority":13619,"Callback":13620,"ĠUnless":13621,"Ġsir":13622,"ĠFIT":13623,"Ġcomparisons":13624,"Ġaccurately":13625,"reasonable":13626,"ois":13627,"ĠFisher":13628,"Ġparam":13629,"Ġdocumented":13630,"amide":13631,"Ġcow":13632,"ceptions":13633,"ORY":13634,"inth":13635,"Ġalongside":13636,"Ġbirths":13637,"Ġwis":13638,"ĠMah":13639,"ĠLind":13640,"^,":13641,"Ġincl":13642,"tools":13643,"Properties":13644,"================================================================":13645,"Take":13646,"asted":13647,"aki":13648,"?)":13649,"Ġnitrogen":13650,"ĠAve":13651,"ococ":13652,"Ġindication":13653,"Ġsecured":13654,"RR":13655,"neur":13656,"Ġtheat":13657,"Ġsolved":13658,"selected":13659,"ulum":13660,"Ġbases":13661,"157":13662,"ĠQueen":13663,"ximate":13664,"Ġinputs":13665,"åĽ":13666,"ĠWE":13667,"nat":13668,"Ġbaseball":13669,"Ġconcur":13670,"opsy":13671,"âĻª":13672,"Ġprobable":13673,"Ġmothers":13674,"Ġfrozen":13675,"NULL":13676,"Ġupset":13677,"Ġmining":13678,"ĠRegister":13679,"activation":13680,"Ġspr":13681,"122":13682,"Ġposterior":13683,"sed":13684,"Ġnobody":13685,"topl":13686,"ĠTurkey":13687,"Ġconsensus":13688,"Ġvariant":13689,"Ġranges":13690,"Miss":13691,"Ġdent":13692,"Ġactors":13693,".\",":13694,"Ġdesper":13695,"@\"":13696,"Ġ&=&":13697,"pread":13698,"Ġfiring":13699,"Ġexclusively":13700,"Ġspots":13701,"Ġmyth":13702,"Ġindict":13703,"cribe":13704,"Ġcapabilities":13705,"Ð¾Ð²":13706,"175":13707,"Ġopens":13708,"ITED":13709,"Ġregarded":13710,"Ġcircles":13711,"Ġkm":13712,"Ġarising":13713,"Ġgentle":13714,"Ġreceives":13715,"elve":13716,"Ġlap":13717,"Ġadjustment":13718,"Ġvirtually":13719,"ĠToronto":13720,"olen":13721,"ĠHollywood":13722,"Ġneurolog":13723,"Ġimpressive":13724,"ĠPHP":13725,"Ġcomplaints":13726,"Ġpreparing":13727,"Ġdatasets":13728,"fall":13729,"ĠMill":13730,"Ġodds":13731,"walk":13732,"Ġthirty":13733,"Ġtraits":13734,"ĠIdent":13735,"iotics":13736,"odd":13737,"Ġdetector":13738,"aire":13739,"heet":13740,"ĠSem":13741,"Ġphysicians":13742,"hu":13743,"ycl":13744,"ĊĠĠĠĠĠĠĠĠĠĠĠĠĠĠĠĠĠĠĠĠĠĠĠĠĠ":13745,"Ġemerged":13746,"Ġoverlap":13747,"1992":13748,"had":13749,"hbox":13750,"mma":13751,"mitting":13752,"Ġisot":13753,"ĠIM":13754,"abeth":13755,"Ġgovernor":13756,"Ġobjection":13757,"Ġ1960":13758,"ÙĨ":13759,"emat":13760,"Ġvariability":13761,"Ġappreciated":13762,"Ġtransmit":13763,"Ġconserved":13764,"Ġeleg":13765,"Ġdonor":13766,"Changed":13767,"Ġperiodic":13768,"Ġencounter":13769,"Ġoh":13770,"ĠLittle":13771,"Ġcustody":13772,"\\)":13773,"bian":13774,"Ġ132":13775,"ĠIFN":13776,"Ãª":13777,"Ġtrav":13778,"REE":13779,"erer":13780,"Ġtrivial":13781,"Ġcot":13782,"ensively":13783,"Ġdimensional":13784,"Full":13785,"oton":13786,"Ġwheat":13787,"ĠParliament":13788,"Â£":13789,"ĠSaudi":13790,"ĠLibrary":13791,"Ġroy":13792,"Ġtimely":13793,"Ġmembranes":13794,"dh":13795,"ãģ§":13796,"Ġaffirmed":13797,"enza":13798,"Ġcin":13799,"Ġmim":13800,"ppers":13801,"Ġconstants":13802,"Ã±":13803,"aping":13804,"oni":13805,"Ġresin":13806,"ĠDise":13807,"192":13808,"hene":13809,"Ġinev":13810,"ogs":13811,"Ġcoating":13812,"Ġconfusion":13813,"ĠClinical":13814,"Ġcircular":13815,"Ġgraphs":13816,"oped":13817,"Ġperpet":13818,"Discussion":13819,"Ġwage":13820,"uters":13821,"mato":13822,"Ġcounterpart":13823,"Ġpolymorph":13824,"tocol":13825,"idx":13826,"Ġdecimal":13827,"Ġconvergence":13828,"Ġefficiently":13829,"generate":13830,"ĠDefense":13831,"ido":13832,"Ġseats":13833,"ĠRh":13834,"Ġsimilarity":13835,"makers":13836,"Ġdating":13837,"require":13838,"quot":13839,"ĠOpt":13840,"*=":13841,"itored":13842,"Ġreserv":13843,"angel":13844,"xf":13845,"Ġstimulus":13846,"Ġchances":13847,"Common":13848,"inely":13849,"Ġchains":13850,"Ġshortly":13851,"Ġreputation":13852,"Ġreset":13853,"Ġparams":13854,"ogeneity":13855,"sun":13856,"Ġcancell":13857,"ppat":13858,"shall":13859,"Ġstomach":13860,"0004":13861,"$:":13862,"ogens":13863,"Ġadmin":13864,"Ġml":13865,"ĠPB":13866,"Ġnonlinear":13867,"quant":13868,"Ġsatisfaction":13869,"////////////////////////////////":13870,"irth":13871,"ĠSea":13872,"ĠKnow":13873,"Ġalumin":13874,"Ġ107":13875,"Public":13876,"pany":13877,"Ġquasi":13878,"Ġmemor":13879,"ORS":13880,"Ġbold":13881,"Ġ1982":13882,"Ð°Ð½":13883,"Dist":13884,"Ġroads":13885,"Err":13886,"Ġshed":13887,"136":13888,"gb":13889,"imental":13890,"ĠBang":13891,"para":13892,"closed":13893,"Ġsuggestions":13894,"player":13895,"ĠSystems":13896,"Ġlands":13897,"Both":13898,"Tube":13899,"fileID":13900,"olis":13901,"arded":13902,"Media":13903,"Â½":13904,"ceive":13905,"Ġlocked":13906,"orient":13907,"ocom":13908,"iterator":13909,"Ġconfigured":13910,"ĠAst":13911,"Ġchocolate":13912,"idespread":13913,"OVA":13914,"oga":13915,"Ġhealing":13916,"Ġdance":13917,"ALSE":13918,"ĠCNN":13919,"ĠKevin":13920,"Ġbreakfast":13921,"Ġinitiated":13922,"ĠHouston":13923,"Ġhosts":13924,")_{":13925,"Hash":13926,"bury":13927,"ĠLink":13928,"ĠTB":13929,"Ġ133":13930,"ĠOUT":13931,"Ġfaculty":13932,"Ġconservation":13933,"bold":13934,"Ġrestore":13935,"Ġpeptides":13936,"court":13937,"lb":13938,"Ġ<!--":13939,"Ġinstruments":13940,"Ġdense":13941,"ĠMu":13942,"Ġtries":13943,"Ġestablishing":13944,"Ġsel":13945,"Ġstained":13946,"iah":13947,"modules":13948,"ĠHoly":13949,"General":13950,"present":13951,"Ġperme":13952,"Ġrespondent":13953,"abis":13954,"Ġterritory":13955,"ĠFull":13956,"Ġprescribed":13957,"144":13958,"Abstract":13959,"FFFFFFFFFFFFFFFF":13960,"ĠIgG":13961,"License":13962,"Ġhipp":13963,"ĠTNF":13964,"Ġbleeding":13965,"ĠSoviet":13966,"aden":13967,"ieve":13968,"Ġresident":13969,"Ġabdom":13970,"Ġmemories":13971,"Ġchallenged":13972,"Support":13973,"Ġcommunicate":13974,"Li":13975,"ĠTyp":13976,"ĠLess":13977,"Ġviewing":13978,"ĠÎ¼g":13979,"Ġinject":13980,"ĠMathe":13981,"Ġfactual":13982,"health":13983,"fficiency":13984,"quired":13985,"four":13986,"234":13987,"vature":13988,"utter":13989,"schema":13990,"Ð¿":13991,"ĠScale":13992,"Ġimpaired":13993,"standard":13994,"criptor":13995,"ĠChair":13996,"170":13997,"visor":13998,"UV":13999,"ÙĪ":14000,"=\"@":14001,"icture":14002,"Ġdivor":14003,"Ġsurely":14004,"Ġnose":14005,"Ġcanonical":14006,"Ġreferring":14007,"hop":14008,"Ġgrain":14009,"reak":14010,"adequ":14011,"Ġgeneralized":14012,"Ġfarmers":14013,"Ġfool":14014,"Ġlady":14015,"delim":14016,"Ġtooth":14017,"LOG":14018,"ĠTask":14019,"Helper":14020,"Ġtracks":14021,"Ġcalm":14022,"Day":14023,"Ġcharacterization":14024,"Ġflying":14025,"Ġundergo":14026,"Ġsentenced":14027,"itzer":14028,"Ġpixels":14029,"iating":14030,"Ġms":14031,"abetic":14032,"ĠPur":14033,"Ġelectrodes":14034,"$).":14035,"Sn":14036,"ummy":14037,"accept":14038,"Ġadvis":14039,"ĠCommissioner":14040,"people":14041,"ĠUnit":14042,"prefix":14043,"aux":14044,"Ġgrap":14045,"ĠGOP":14046,"ĠViet":14047,"GFR":14048,"Ġproportional":14049,"Ġbios":14050,"floor":14051,"Real":14052,"Ġasset":14053,"xff":14054,"Ġ------------------------------------------------":14055,"Ġathletes":14056,"rons":14057,"Ġmelan":14058,"letter":14059,"Rule":14060,"Ġdiscloses":14061,"è®":14062,"Ġblocking":14063,"ĠWisconsin":14064,"rus":14065,"ĠAllen":14066,"Ġaccomplish":14067,"ĠLewis":14068,"pd":14069,"ĠĠĠĠĠĠĠĠĠĠĠĠĠĠĠĠĠĠĠĠĠĠĠĠĠĠĠĠĠĠĠĠĠĠĠĠ":14070,"plements":14071,"Photo":14072,"Ġmediated":14073,"Ġredist":14074,"ĠIndiana":14075,"Super":14076,"ĠBox":14077,"Ġmodifications":14078,"Ġwinner":14079,"Ġbriefly":14080,"âĢĻ,":14081,"lium":14082,"Ġrecurrence":14083,"ntil":14084,"stitutional":14085,"OUR":14086,"Ġfibro":14087,"ĠRail":14088,"Ġresidential":14089,"Ġminds":14090,"mM":14091,"Ġlandscape":14092,"erator":14093,"ÐµÑĢ":14094,"FUN":14095,"Ġtomato":14096,"ĠLeft":14097,"Ġclaiming":14098,"posing":14099,"Ġaffidav":14100,"Stand":14101,"Global":14102,"Ġdramatic":14103,"ĠCommer":14104,"ASH":14105,"Adapter":14106,"ĠBible":14107,"Ġfilters":14108,"bean":14109,"alg":14110,"stage":14111,"uming":14112,"Ġwelfare":14113,"................":14114,"heres":14115,"sha":14116,"century":14117,"}^*":14118,"Ġwriters":14119,"filename":14120,"Ġcriticism":14121,"Ġfishing":14122,"Ġtherein":14123,"ariance":14124,"Ġprovince":14125,"Ġscenes":14126,"Ġpunishment":14127,"opathy":14128,"Ġacknowledged":14129,"Ġattachment":14130,"------------------------------------------------------------------------":14131,"Ġtraject":14132,"ANK":14133,"ĠAdam":14134,"Display":14135,"Ġships":14136,"Ġqueue":14137,"Ġoptimization":14138,"Ġindependence":14139,"Ġsymp":14140,"Ġubiqu":14141,"ĠCC":14142,"phia":14143,"2020":14144,"Ġacted":14145,"Register":14146,"cedure":14147,"ĠÐ¸":14148,"Factor":14149,"iano":14150,"Ġhistoric":14151,"Ġanger":14152,"Ġagenda":14153,"ĠFarm":14154,"seq":14155,"ĠMarg":14156,"Ġplugin":14157,"ĠAnth":14158,"ĠCoast":14159,"Ġslide":14160,"åľ":14161,"ĠSports":14162,"Ġspark":14163,"ĠSa":14164,"Ġstimuli":14165,"ĠBC":14166,"ĠBab":14167,"Ġtrim":14168,"fp":14169,"Ġfru":14170,"ĠIO":14171,"Ġthrown":14172,"Ġ137":14173,"019":14174,"Ġretained":14175,"Ġcapability":14176,"Ġsilence":14177,"Ġsurviv":14178,"DH":14179,"Îº":14180,"ĠOP":14181,"ĠABC":14182,"ĠEmp":14183,"^{+":14184,"ERV":14185,"Identifier":14186,"adelphia":14187,"Ġadvised":14188,"disc":14189,"items":14190,"idine":14191,"Ġharass":14192,"âĢ¯":14193,"eff":14194,"Ġconsciousness":14195,"ĠPK":14196,"+)":14197,"oric":14198,"idate":14199,"iaz":14200,"Ġmature":14201,"Runtime":14202,"Ġhemat":14203,"Ġseeks":14204,"Ġtriple":14205,"_;":14206,"enz":14207,"Ġ136":14208,"Ġarth":14209,"ICO":14210,"~\\":14211,"ĠASS":14212,"Ġprevented":14213,"Ġwidespread":14214,"Ġconvention":14215,"Ġpartly":14216,"Users":14217,"ĠOnt":14218,"Ġstriking":14219,"ÃŃa":14220,"ĠWat":14221,"Ġparliament":14222,"ĠShort":14223,"tail":14224,"Ġamend":14225,"Ġattorneys":14226,"Active":14227,"Ġhex":14228,"bus":14229,"ĠĠĠĠĠĠĠĠĠĠĠĠĠĠĠĠĠĠĠĠĠĠĠĠĠĠĠĠĠĠĠĠĠĠĠĠĠĠ":14230,"Ġthreatened":14231,"ĠFI":14232,"Ant":14233,"Ġcavity":14234,"sort":14235,"heimer":14236,"147":14237,"ĠObserv":14238,"Parameters":14239,"Ġdrove":14240,"Ġscroll":14241,"ĠSeattle":14242,"Ġfluctuations":14243,"Ġprejudice":14244,"AE":14245,"Lo":14246,"ĠWhe":14247,"ĠBlock":14248,"Ġjoining":14249,"ĠMas":14250,"Ġintersection":14251,"tah":14252,"Ġproxy":14253,"Ġ|\\":14254,"ividually":14255,"Ġencouraged":14256,"Ġaccompany":14257,"relation":14258,"Print":14259,"Life":14260,"Ġought":14261,"Ġincredible":14262,"Ġsatellite":14263,"omain":14264,"ĠDefault":14265,"Ġpotato":14266,"Cap":14267,"ophil":14268,"Ġflows":14269,"ĠES":14270,"Ġbreathing":14271,"Ġrelate":14272,"Ġgri":14273,"ĠĠĠĠĠĠĠĠĠĠĠĠĠĠĠĠĠĠĠĠĠĠĠĠĠĠĠĠĠĠĠĠĠĠĠĠĠ":14274,"Compile":14275,"Thus":14276,"Ġcookies":14277,"$_{":14278,"Ġdownstream":14279,"atson":14280,"Ġquestionnaire":14281,"uer":14282,"lict":14283,"fx":14284,"abama":14285,"Tim":14286,"Ġtie":14287,"Ġrescue":14288,"etheless":14289,"Ġgray":14290,"Ġemotions":14291,"Ġnavigation":14292,"Ġsli":14293,"Ġoutstanding":14294,"Ġfranchise":14295,"ilbert":14296,"Ġtech":14297,"Ġdistinction":14298,"edit":14299,"Ġanybody":14300,"Ġartist":14301,"Ð¾Ð»":14302,"ĠReturns":14303,"ĠDB":14304,"ĠClaim":14305,"article":14306,"Ġservers":14307,"Ġprotecting":14308,"oprotein":14309,"ĠCre":14310,"Ġoutbreak":14311,"Ãº":14312,"Ġconfused":14313,"atching":14314,"Close":14315,"ĠNavy":14316,"Ġbarely":14317,"Doc":14318,"ĠAnton":14319,"World":14320,"zan":14321,"enna":14322,"Ġunnecessary":14323,"Ġfrustr":14324,"ea":14325,"Ġlitigation":14326,"arer":14327,"colon":14328,"Delete":14329,"+-":14330,"ĠBoy":14331,"shaped":14332,"Ġrepresentatives":14333,"Ġrespondents":14334,"Ġvegetables":14335,"Ġstating":14336,"Ġseal":14337,"Ġpersistent":14338,"030":14339,"sample":14340,"0003":14341,"ĠXML":14342,"ĠArg":14343,"OLD":14344,"profit":14345,"Ġdecomposition":14346,"edly":14347,"Ġentrance":14348,"áĥ":14349,"usetts":14350,"ĠAltern":14351,"Ġsake":14352,"results":14353,"una":14354,"Ġwebsites":14355,"driv":14356,"achusetts":14357,"Ġpermits":14358,"IAL":14359,"ocl":14360,"attribute":14361,"Ġgradually":14362,"bits":14363,"Ġcancers":14364,"ICK":14365,"regon":14366,"Ġappointment":14367,"Ġexpertise":14368,"Ġmoon":14369,"URT":14370,"Ġcollision":14371,"Ġrelies":14372,"Ġemissions":14373,"Ġestimation":14374,"Ġmacrophages":14375,"Ġshadow":14376,"ailure":14377,"enny":14378,"Ġimplant":14379,"ĠCt":14380,"Ġ$('":14381,"Ġcircuits":14382,"ĠArea":14383,"Ġatomic":14384,"\"};":14385,"Methods":14386,"Report":14387,"Space":14388,"WT":14389,"UB":14390,"WA":14391,"Ġlum":14392,"ĠEric":14393,"Ġemphasis":14394,"Ġmanaging":14395,"Ġcul":14396,"Ġmerch":14397,"Ġenhancement":14398,"itarian":14399,"Icon":14400,"ĠmL":14401,"Ġprocessor":14402,"ĠExpl":14403,"-$":14404,"ĠKa":14405,"record":14406,"Ġmedications":14407,"Ġcrystall":14408,"ĠLatin":14409,"Ġtags":14410,"Ġ,\\":14411,"Ġceremon":14412,"Ġfunctioning":14413,"Ġlegitimate":14414,"Ġdy":14415,"}}^{\\":14416,"ĠScientific":14417,"ĠWas":14418,"Ġenrich":14419,
[...]
