#version: 0.2
Ġ Ġ
Ġ t
Ġ a
i n
h e
r e
o n
ĠĠ ĠĠ
Ġt he
e r
a t
Ġ s
e n
Ġ o
Ġ c
Ġ w
i s
i t
o r
e s
e d
a l
a n
Ġ p
Ġ f
Ġ b
Ġa n
in g
Ġ in
Ġo f
a r
i on
o u
Ġ m
Ġ d
- -
i c
Ġt o
l e
a s
Ġan d
ĠĠĠĠ ĠĠĠĠ
r o
Ġt h
Ġ h
en t
c t
Ġ re
e t
e l
Ġ n
s t
o m
Ġ e
i l
Ġ l
i d
o t
i m
i g
v e
Ġ is
u t
-- --
Ġ g
Ġ (
Ġ T
o l
a m
Ġ I
at ion
s e
c e
l y
â Ģ
Ġf or
u r
Ġb e
Ġ S
o w
ĠĠ Ġ
Ġth at
Ġ u
a d
Ġ on
Ġ A
Ġ C
Ġs t
c h
v er
a y
u l
it h
i f
Ġ 1
Ġc on
Ġw ith
r a
Ġ y
Ġa s
ĠĠĠĠĠĠĠĠ ĠĠĠĠĠĠĠĠ
i r
o d
t er
Ġp ro
Ġ "
0 0
at e
Ġ $
Ġ it
he r
Ġ M
p e
Ġa l
u m
a b
Ġw e
r i
n d
g e
Ġ v
Ġw h
Ġ 2
Ġ P
= =
re s
e m
p p
q u
Ġy ou
a c
---- ----
Ġe x
Ġd e
o s
Ġw as
ĠT he
es t
is t
Ġ B
u s
Ġ he
m ent
h t
Ġc om
Ġo r
an t
Ġ \
Ġa re
t h
Ġa t
o c
u n
er s
i v
Ġ =
Ġs u
es s
it y
a in
Ġ D
Ġ H
Ġ F
Ġb y
Ġ r
l d
o p
Ġs e
il l
ro m
ct ion
o re
an d
Ġ W
* *
n t
Ġ -
k e
Ġn ot
Ġ R
i ve
Ġh a
en d
Ġ L
or t
p t
Ġn e
Ġth is
Ġ N
ig ht
Ċ ĠĠĠĠ
Ġf rom
âĢ Ļ
ar t
u d
re d
el l
i al
p l
Ġs h
i es
Ċ ĠĠĠ
t e
Ġ G
at ed
Ġc h
Ġha ve
Ġ E
f e
u re
Ġ *
ou ld
' s
al l
ou r
in e
p er
Ġ le
a g
Ġ 0
o g
{ \
u st
ic al
) .
am e
u e
Ġc an
i z
ic h
Ġ O
a ge
r ou
c l
i b
Ġu s
ou t
Ġ 3
ar d
ab le
as e
om e
i e
Ġc l
Ġre s
Ġw he
Ġa b
) ;
Ċ ĠĠĠĠĠĠĠĠ
ul t
Ġ j
as s
a ct
. "
o st
ac k
at h
0 1
Ġ {
== ==
Ġcom p
Ġ k
an s
id e
t her
Ġm e
Ġp l
Ġa d
or m
Ġcon t
Ġwe re
as t
= "
T he
Ġ J
Ċ Ġ
Ġ im
Ġt r
Ġal l
u b
a p
Ġd o
ig n
Ġ U
in d
Ġ [
it ion
ĊĠĠĠĠ ĠĠĠ
Ġ âĢ
i p
a k
Ġwh ich
ic e
p h
-------- --------
. .
Ġ +
Ġh as
on e
c c
ar y
ou s
Ġb ut
Ġin t
im e
_ {
en s
ĠI n
ĉ ĉ
Ġw or
/ /
Ġd is
res s
c on
d u
ĠĠĠĠĠĠĠĠĠĠĠĠĠĠĠĠ ĠĠĠĠĠĠĠĠĠĠĠĠĠĠĠĠ
a re
ation s
on g
en ce
in t
t y
Ġ 4
Ġw ill
i le
f f
n e
o k
Ġg o
r u
Ġo ut
) ,
o se
ent s
g h
an ce
e p
Ġ <
Ġ if
Ġp er
Ġ en
al ly
a u
Ġh is
ĠT h
a v
b er
Ġ 5
s o
a ce
Ġu n
Â ł
Ġon e
} }
el y
p ort
or d
i a
x t
or y
e ar
i re
Ġthe y
a ch
e ct
Ġa pp
ion s
Ġe v
Ġs o
r y
f orm
Ġu p
an g
Ġa r
Ġthe ir
Ġm ore
l ic
âĢ Ŀ
Ġ qu
Ġp art
a il
Ġ K
Ġa g
l l
it e
Ġthe re
f t
or s
a ke
y s
Ġp re
Ġo ther
c re
Ġh ad
ou nd
Ġ$ \
Ġl i
ow n
fe re
ver y
ur n
v el
Ġs a
at a
Ġyou r
ou nt
Ġ }
ĠS t
Ġbe en
ĠĠĠĠ ĠĠĠ
Ġm an
re e
er v
c om
Ġs p
k s
Ġal so
Ġw ould
Ġwh o
Ġan y
at es
w e
Ġ V
et h
Ġn o
Ġm y
Ġ '
Ċ Ċ
d e
[ @
Ġab out
m ath
nd er
Ġwhe n
l ow
j ect
if ic
Ġt ime
Ġo b
o ok
Ġth an
1 0
er m
p le
\ ]
ic t
' t
w o
re f
Ġas s
at er
Ġo ver
ro w
Ġ 6
Ġit s
r ing
c k
} $
Ġ1 9
cl ud
Ġs ome
o b
ĠâĢ ľ
ri b
Ġs pe
f ter
< /
le ct
Ġg en
c es
Ġs c
ay s
Ġb et
Ġs y
Ġd if
Ġ &
I n
Ġne w
g et
^ {
fe ct
o ve
ol d
Ġa m
ir st
ĊĠĠĠĠĠĠĠĠ ĠĠĠ
i ed
h at
Ġsu b
ver s
Ġt e
Ġin ter
od e
il d
Ġf e
Ġa cc
Ġk n
Ġg et
Ġde f
re at
p s
Ġ Y
au se
Ġcom m
Ġo ur
Ġa ct
c ed
o v
Ġof f
Ġint o
Ġ her
Ġu nder
1 9
Ġ ro
Ġre l
Ġm ay
ing s
in k
Ġcon s
ĠI t
is s
Ġp e
Ġre c
ic k
u al
Ġd es
at ive
Ġsa id
Ġt wo
p on
Ġon ly
ie w
ar i
Ġv al
m a
Ġwor k
Ġst ud
er t
Ġthe m
pe ct
Ġy ear
1 2
ul ar
==== ====
Ġwh at
Ġad d
Ġm od
Ġbe c
Ġre t
Ġli ke
Ġin d
Ġ 7
he d
ar k
ig h
Ġ2 01
un ction
Ġp os
Ġtr ans
ĠC h
Ġre g
el f
Ġe m
# #
p ro
Ġin v
ĠTh is
c ess
st em
Ġb l
o int
at ing
Ġsu ch
as ed
Ġu se
is h
Ġc o
e f
} \
Ġf irst
oc k
Ġj ust
Ġp h
e x
it t
Ġfor m
Ġp res
ĠW e
Ġthe se
on t
i an
Ġdif fere
Ġpro v
Ġ 8
Ġp r
ad e
il ity
Ġwhe re
i ent
" ,
ĠH e
Ġa fter
ment s
Ġs ign
Ġd et
Ġp at
r ight
Ġp ol
d er
ĊĠĠĠĠ Ġ
ol og
Ġh ow
iz e
o od
Ġc ol
f fect
ot h
Ġex p
ty pe
e c
Ġ1 0
we en
Ċ ĉĉ
id ent
s s
Ġc ell
Ġs he
Ġne ed
Ġc ould
ra c
_ _
pt ion
Ġthe n
g r
Ġcl ass
Ġs et
a w
op le
1 1
t he
f ig
ut ion
Ġres ult
] (
ou gh
an ge
Ġbet ween
Ċ ĉ
ub lic
Ġ 9
( )
Ġat t
Ġre m
S t
. ,
i ous
00 0
b le
ol low
Ġ\ [
is e
Ġsu pp
i x
y pe
rou nd
s p
l es
Ġus ed
i el
Ġin clud
2 0
our t
Ġd ata
ib le
Ġd id
a x
Ġkn ow
u p
) {
on s
u es
Ġsh ow
al s
Ġn um
Ġf l
e g
ĊĠĠĠĠĠĠĠĠ ĠĠĠĠĠĠĠ
E R
c y
Ġf act
o y
ul l
---------------- ----------------
Ġh im
o x
Ġsh ould
ic s
Ġa c
ra ct
Ġpe ople
ter n
rou gh
Ġc or
Ġs im
n ing
" >
Ġspe c
Ġre qu
he n
it s
Ġs ur
Ġus ing
Ġb ack
ru ct
Ġf ollow
Ġf unction
m s
Ġse e
Ġ i
f ore
Ġd ist
Ġbec ause
iel d
Ġcon st
in al
re n
in ed
Ġsy stem
) $
p os
it ies
Ġ .
o ol
f ul
Ġm ost
e ver
Ġin st
r it
** **
l i
s c
it ed
1 3
Ċ ĠĠĠĠĠĠĠĠĠĠĠĠĠĠĠĠ
" }
Ġw ell
1 4
Ġs m
in s
ur ing
p ut
- >
Ġ end
I N
1 5
Ġret urn
u res
Ġth rough
Ġgen er
Ġpro du
ĠU n
Ġr ight
Ġb u
1 6
Ġt ra
Ġch ar
Ġt est
] {
Ġag ain
Ġex t
2 5
Ġw ant
Ġ[ @
rou p
he s
( \
Ġdiffere nt
Ġe ach
iz ed
m er
Ġh igh
at or
ation al
ow er
i o
er r
e w
ical ly
t o
Ġe ffect
con d
Ġc ase
Ġst ate
T h
Ġ ent
Ġ2 00
im es
Ġdo es
w n
ĠĠĠĠ Ġ
O N
ĠS e
r ic
ot her
Ġev en
u ch
] ,
n ce
ction s
or k
il y
Ġm ake
le t
p ar
eth od
v ent
Ġ :
te xt
i ents
ri v
ro l
u c
.. .
Ġm in
_ {\
s et
Ġ ke
Ġe very
Ġs ame
t a
c al
]( #
Ġc ur
ant s
re ad
s h
Ġn ow
Ġa p
Ġc all
Ġw ay
2 3
Ġ ra
Ġ @
Ġin cre
ain t
Ġan al
Ġ |
st r
ut e
Ġl oc
1 8
Ġf ind
n g
Ġl ook
ce pt
in ce
c ent
ar ch
Ġd on
w ard
le ft
? "
) )
vel op
Ġth ose
Ġp oint
v al
Ġ /
f rac
u g
as on
Ġyear s
Ġl ong
p r
Ġp ar
Ġb oth
o id
: :
oc i
Ġhe re
Ġv ari
Ġpart ic
Ġin te
1 7
Ġm at
Ġm on
ire ct
d ay
en se
Ġex per
Ġ very
as es
u nd
Ġf ound
Ġt ri
Ġb el
Ġa ut
if e
in es
am ple
y p
re nt
Ġd i
l ed
t ing
Ġf il
A T
Ġm ed
2 4
Ġbe ing
Ġc ar
r m
a ir
re st
]{ }
Ġde c
Ġm em
Ġapp ro
ag es
y m
er g
Ġ x
Ġpl ay
at ic
Ġp ers
Ġ //
at ure
Ġman y
Ġbe fore
ic es
Ġpro te
I t
Ġnum ber
a red
en g
Ġ el
Ġg r
$ \
ĠC om
" :
] \]
al th
c er
y l
if ied
Ġs er
o ver
Ġmod el
Ġ Q
Ġres pon
Ġo p
5 0
ate g
f l
Ġhe l
u pp
ak ing
Ġ _
E S
t r
a pp
od y
Ġth ink
âĢ ī
A R
ress ion
a ve
ar g
form ation
Ġp ublic
Ġre p
Ġgo od
ĠF or
W e
Ġst r
Ġc ourt
Ġin s
is m
m in
ĠĠĠĠ ĠĠ
Ġd own
Ġval ue
ĠĠĠĠĠĠĠĠĠĠĠĠĠĠĠĠĠĠĠĠĠĠĠĠĠĠĠĠĠĠĠĠ ĠĠĠĠĠĠĠĠĠĠĠĠĠĠĠĠĠĠĠĠĠĠĠĠĠĠĠĠĠĠĠĠ
al e
Ġpro cess
Ġc he
Ġg u
Ġm ade
o f
Ġre port
as h
N A
an k
iv ely
i red
Ġg iv
v iew
an n
g g
Ġwh ile
v en
Ġle vel
n ess
v ed
ĠL et
3 0
u ally
Ġ\[ [@
Ġde velop
Ġs ol
Ġpres ent
Ġstud y
2 01
re t
w ay
Ġst art
Ċ ĊĠĠĠ
g ht
: //
ain ed
c ul
d ition
l ine
' ,
Ġe qu
3 2
le ment
} {
Ġ et
Ġse cond
Ġdis c
Ġsupp ort
math b
Ġc ount
ĠP ro
Ġre f
Ġm uch
Ġt erm
Ġo wn
Ġcell s
O R
. âĢĿ
r ay
ĠR e
Ġh and
C R
Ġth ree
o le
ar s
is ion
Ġs erv
iz ation
Ġm ethod
o ad
ĠâĢ ĵ
ĠA l
um ent
ĠI f
Ġre ad
Ġpos s
g an
ff ic
Ġor der
Ġan t
id er
( "
Ġ1 2
Ġde p
Ġpat ients
Ġwith out
an y
Ġd uring
am s
Ġn on
, "
al ity
en cy
$ .
Ġn ame
Ġ Â
Ġ est
W hat
us s
ab el
ent ial
t on
am p
et a
ĠA nd
n s
c ri
$ ,
n er
m ed
ĠA s
ign ed
8 0
Ġhel p
our ce
ar ly
, \
Ġc re
Ġact iv
Ġl ine
Ġ2 0
00 00
Ġpro per
c ial
Ġper form
if y
ĠH ow
S T
Ġg roup
id ed
ist s
n ame
t t
Ġle ad
9 9
r on
E N
Ġim port
at her
( -
I T
id ence
Ġ z
al k
b e
R e
ab ility
Ġpro ble
ter s
Ġc le
m an
Ġl ast
on d
v ing
an e
Ġr un
Ġis s
Ġs ay
ra ph
Ġagain st
Ġsign ific
Ġm ust
ou se
ul ation
a im
âĢ ĵ
Ġsm all
act er
a h
Ġa v
Ġg l
ĠB ut
ph a
3 4
Ġ **
ro ss
am es
Ġo per
Ġst ill
am b
u se
Ġt ake
n ot
ĠA n
2 2
L et
Ġcon f
Ġle t
Ġt ype
it ive
6 4
s erv
A N
Ġap pe
Ġm et
Ġcont rol
F ig
h ip
Ġs om
Ġl aw
Ġex pl
\ [
ĠY ou
H e
Ġpers on
Ġc ou
Ġp ur
ir c
Ġch ild
o h
Ġ1 5
m l
Ġd irect
ent ion
( );
Ġin formation
o ot
g er
Ġin c
ys is
w w
in ation
Ġd ay
olog y
Ġ ed
C on
Ġw r
ur ther
] .
âĢ ľ
Ġe lect
Ġf in
Ġt reat
Ġqu est
y n
ch n
i er
id es
Ġ ident
Ġc ent
Ċ ĠĠ
Ġst and
Ġresult s
at ch
Ġp ost
4 0
l ess
e k
i ence
v ious
6 0
-- -
Ġc a
A L
Ġme as
Ġsignific ant
E x
f or
Ġm ult
et s
Ġf am
b r
Ġ err
ĠN ew
math cal
ag n
g en
P ro
Ġdet erm
i um
Ġd em
Ġfollow ing
ĠD e
ot s
Ġ ,
Th is
ot e
at ely
Ġall ow
2 00
} (
t s
) \
w ork
C T
Ġgo ing
m e
Ġb re
Ġwith in
Ġl ife
ord ing
al pha
iss ion
pl oy
ar ge
ht t
Ġ1 8
Ġcon dition
it al
ater ial
d d
Ġre du
i or
a j
u red
F F
is hed
Ġl im
er al
i vers
Ġf r
l and
ion al
Ġh um
ĠT r
' m
3 3
mer ic
ur al
if f
2 7
Ġre ce
u le
Ġre al
r ation
Ġcont in
Ġs ince
ain s
du ct
Ġwor ld
Ġc are
res ent
Ġa round
Ġde v
Ġst ruct
Ġst at
Ġ X
Ġ* /
Ġadd ition
qu e
Ġcur rent
s elf
iv ed
Ġinte rest
ent ly
Ġan other
Ġ1 4
c rib
, âĢĿ
I D
r al
Ġm ark
Ġp ass
ch ool
Y ou
ĠW h
Ġf ield
b l
d a
Ġop en
f er
Ġhe alth
Ġs elf
a z
t ic
ak es
Ġinv est
Ġgo ver
======== ========
Ġcomm un
le x
ar m
are nt
Ġar g
Ġg reat
2 8
Ġ Z
Ġtr y
3 5
Ġex ample
S E
ĠC on
b ers
Ġim p
Ġl ist
iv es
it her
0 5
Ġp ower
^ {\
re l
Ġcl aim
v es
ot t
Ġb as
gr am
Ġd el
Ġinclud ing
am et
Ġc r
Ġm ight
Ġt em
se c
d s
w ays
eth ing
Ġo cc
Ġbe h
f ace
Ġto o
Ġme an
ĠC l
L E
ic ro
ar get
Ġgiv en
]\] .
he re
rib ut
Ġl ess
Ġ< /
le ase
Ġch ang
Ġs l
ab ly
de f
Ġhe ad
in ess
o pe
C h
Ġres pect
Ġre ally
ur y
al se
2 6
in ing
ou ght
ra p
ĠHow ever
Ġass oci
ĠS h
Ġh ig
âĢ Ķ
Ġad v
st and
a ult
Ġha pp
Ġ1 6
Ġf ile
Ġ{ #
2 9
Ġl ow
Ġ #
um p
ĠI s
le ction
Ġpl ace
ain ing
ro ll
el s
et y
**** ****
Ġb ased
Ġmon th
Ġgover n
Ġ ve
Ġh ome
ver t
R E
ĠThe y
Ġapp lic
ĠA meric
Ġp ot
ateg ory
Ġv is
Ġob serv
al cul
h or
ar n
end s
' re
eng th
fere nce
Ġ --
th ing
3 7
( '
Ċ ĊĠ
Ġg row
3 6
Ġs ing
r t
Ġto p
## ##
Ġfe w
iv id
b y
I C
Ġw om
Ġm ot
ã ģ
s er
Ġc ap
Ġp ath
Ġpro b
9 4
ĠN o
Ġanal ysis
Ġind ic
os ed
Ġb us
re g
Ġob ject
Ġsom ething
Ġp op
2 1
Ġb est
3 8
re qu
Ġ$ $\
le g
e xt
er y
at t
Ġne xt
Ġv iew
ack age
A C
Ġimport ant
is ed
os s
Ġte chn
Ġcomm on
m u
Ġwhe ther
ĠP h
Ġf our
C l
itt le
Ġob t
Ġprodu ct
ert ain
p art
m un
Ġch ange
Ġo pt
Ġle ft
at s
Ġbel ie
Ġex pect
) /
Ġp ut
ĠL e
7 0
Ġsu gg
Ġse em
c ur
Ġsugg est
ĠE x
Ġle g
ĠW hat
ĠThe re
c ing
A S
pl ic
us ed
m b
Ġev idence
Ġb i
Ġf ail
â Ī
Ġpro f
erg y
9 0
h ib
Ġpartic ular
l abel
cc ess
w are
p or
ĠĠĠĠĠĠĠĠĠĠĠĠĠĠĠĠ ĠĠĠĠĠĠĠĠ
ific ation
c he
ab l
Ġdes crib
4 5
Ġt urn
7 5
T o
oc ument
op y
Ġs k
Ġl ight
Ġu nt
C om
Ġab ove
Ġas k
Ġ3 0
a ction
el ta
9 5
Ġne ver
mathb b
$ $
Ġbet ter
d iv
I S
Ġinv ol
Ġcon ne
end ed
vers ion
Ġre ason
ne w
} ^{
ro p
Ġl arge
end ing
ĠS o
Ġb o
ĠI nd
p i
Ġtr ue
ĠP l
orm al
con t
Ġproble m
ra in
b s
) :
} ,
Ġtreat ment
ad d
pl es
ir d
d ata
Ġe as
e red
! "
en e
Ġs it
il ar
amb da
am ma
Ġle ast
Ġg ot
Ġm ov
ig ma
Ġs ize
Ġposs ible
Ġbu ild
c ol
Ġd ue
Ġre se
Ġrep resent
N ame
as k
Ġcons ider
Ġim pro
Ġ1 1
ail able
A s
Ġchar acter
Ġloc al
Ġth ings
Ġp ay
Ġt yp
in f
Ġto t
Ġpos ition
Ġo pp
Ġh y
i k
ĠA ll
Ġ ide
Ġw ater
E D
Ġcom e
Ġl ittle
ill ion
s on
= \
ĊĠĠĠĠĠĠĠĠ Ġ
ep end
ivid ual
__ __
ĠU S
olog ical
c o
Ġre st
pl ay
i od
or n
Ġr is
b ack
ir on
Ġel se
Ġc y
Ġhum an
Ġin it
Ġo ld
ct or
ar ing
ĠS he
Ġquest ion
Ġsh own
ĠâĢ Ķ
ĠT o
id th
Ġb r
Ġb ig
Ġf ree
an ces
at ory
in a
aj or
Ġ1 7
Ġse ver
Ġdef end
s um
re am
Ġha ving
or g
Ġ ==
Ġpro m
H E
Ġb ro
et ic
ĠA pp
us h
Ġg ive
Ġf urther
Ġd ays
Ġrec ord
9 8
4 8
ĠO n
Ġem ploy
m on
Ġ es
Ġtri al
u ck
ap s
Ġ2 5
Ġg re
id s
Ġr ad
Ġexp ression
ĠSt ate
n al
Ġh ist
Ġor gan
S e
Ġpre vious
Ġs um
Ġn et
Ġ {\
h o
I f
Ġs w
Ġg ame
I d
Ġprov ide
Ġoff ic
u ro
Ġ1 3
Ġj ud
m od
ĠA r
im al
6 6
Ġc ode
] ;
Ġpro gram
č Ċ
Ġgovern ment
a ut
Ġh ard
Ġke ep
clud e
Ġp a
Ġind ividual
A nd
eg in
Ġwe ek
Ġd iv
it or
ent al
us ion
Ġ )
Ġal ways
Ġdis e
Ġd en
Ġin f
Ġe ither
oc ial
B ut
Ġc ost
Ġm ain
u ff
Ġcall ed
in c
ip le
e ad
ĠThe se
b ar
Ġkn own
ke y
Ġsim ilar
Ġs chool
T ype
Ġcom b
âĪ Ĵ
} _
ĠA d
Ġpot ential
le v
L L
Ġfe el
4 4
Ġ !
Ġgener al
rou ps
ce ption
Ã ©
Ġav ailable
Ġunt il
Ġse qu
> <
Ġp red
ĠC ourt
Ġw on
op t
C ategory
ind ow
Ġs ide
th ough
Ġsing le
y le
Ġme ans
ĊĠĠĠĠĠĠĠĠĠĠĠĠĠĠĠĠ ĠĠĠ
Ġb en
Ġch o
Ġval ues
R O
st ring
Ġab le
A P
9 6
Ġp riv
Ġa ction
ĠR es
Ġli k
Ġspec ific
F or
ĠUn ited
Ġv ol
ph i
t en
th is
one y
m it
ĠĠĠĠĠĠĠĠ ĠĠĠ
y stem
Ġm aterial
Ġd er
Ġte am
o or
Ġf ac
Ġpro ject
8 8
Ġfam ily
} _{
op er
ĠF r
Ġke y
Ġph ys
read y
ra w
Ġ %
ivers ity
res pon
9 7
Ġin fl
Ġm ajor
our s
Ġstud ies
Ġunder stand
er n
un t
Ġor ig
Ġt imes
Ġsever al
1 00
c le
cl ass
Ġc ases
ang le
v ar
Ġh old
itt ed
Ġpl an
our se
im port
Ċĉĉ ĉĉ
g ment
sp an
Ġhig her
Ġab s
is on
h y
b egin
ess age
Ġc irc
ress ed
ĠTh at
ri es
lect ed
it le
Ġper iod
Ċ ĊĠĠĠĠĠĠĠ
Ġsu per
ict ion
Ġare a
p one
ĠC ol
6 5
Ġt arget
ĠS c
htt p
Ġchild ren
it ing
i ol
Ġb ody
pp ed
ore d
en ces
ne y
id d
Ġm ove
os p
St ring
cri pt
con om
' ve
A D
ust om
l ing
Ġ2 4
Ġt re
Ġstand ard
Ġen ergy
0 4
Ġf ull
Ġwh y
T r
em ber
Ġex ist
Ġerr or
Ġtot al
t est
r ict
ffic ient
is ter
Ġ1 00
Ġ= >
ĠB l
Ġsp ace
Ġre view
A n
7 7
Ġr ate
aint iff
m m
Ġpr im
ri or
Ġbus iness
um e
R es
er ing
ou n
Ġl ater
} )
Ġacc ess
Ġf ar
Ġne g
upp ose
Ġdid n
Ġlevel s
Ġsu re
Ċĉĉ ĉ
ĠA t
Ġinvest ig
Ġdif f
}$ $
ib ility
g ed
p m
Ġth ought
Ġl ot
E T
s ub
u ed
al f
g o
I ON
Ġin j
em pt
Ġrespon se
a pe
ch an
Ġal ready
Ġsh ort
Ġassoci ated
-------------------------------- --------------------------------
V al
A M
ay er
} ^
5 5
Ġreport ed
ab les
n ces
Ġc rit
iv ity
ut es
cri ption
at ors
ver age
Ġdisc uss
ĠSt ates
if t
Ġm en
ret urn
ak en
ep s
Ġam ong
Ġstr ong
Ġam ount
ar row
Ġc ertain
Ġrequ ired
em ent
Ġpar amet
- \
ĠS p
ol ution
m ission
ou th
Ġexper im
Ġal ong
as ing
Ġs ent
iv ing
s q
Ġa ge
Ġd one
al igned
' ll
p ackage
s ide
v iron
> </
Ġsub ject
l er
Ġa way
Ġm ass
ĠW hen
ru g
r ist
Ġocc ur
Ġ >
Ġiss ue
Ġp ress
Ġp ract
Ġf inal
t able
os is
Ġterm s
7 8
c d
l ambda
re ct
Ġf ri
I I
Ġm icro
le te
Ġper cent
Ġrequ ire
ens ion
se qu
Ġwom en
_ \
ic y
Ġd om
Ġof ten
Ġs ays
I G
pl ace
Ġche ck
Ġdevelop ment
Ġg roups
og n
.. /
Ġdes ign
s w
Ġth ing
is ing
og raph
i ver
and s
as ter
3 9
Ġhow ever
Ġ( [
6 8
g a
le y
u ation
Ġv ir
Ġl og
U T
Ġt ell
Ġs ens
Ġd r
3 1
I s
C ont
e y
am ples
Ġ id
Ġth ough
Ġactiv ity
Ġpol it
re m
Ġev ent
Ġsu ccess
Ġen ough
om et
rib ution
Ġen g
av a
e b
Ġf ore
Ġen c
Ġrel ations
L ist
ac y
st it
c hed
Ġl ower
Ġcomp ared
Ġst ring
Ġus er
Ġs al
or th
ri pt
Ġ `
C ol
Ġp ort
un g
Ġw ar
Ġc ourse
Ġ5 0
Ġs at
Ġacc ording
Ġwork ing
i que
o res
Ġk ind
Ġto ld
Ġcondition s
Ġprov ided
Ġris k
pe cial
Ġfl u
Ġacc ount
" )
d ing
A r
Ġf ood
or ies
ac es
ord er
Ġro le
ĠĠĠĠĠĠĠĠ Ġ
A G
Ġm aking
our ces
ĠO r
IN G
iv al
Ġ$ {\
Ġprote in
Ġf und
Ġa ff
H ow
// //
Ġinclud e
Ġincre ase
i ation
Ġup on
ĠC o
Ġeffect s
cre t
6 7
^{ -
Ġchang es
Ġl a
il on
Ġne cess
mathb f
Ġcomp ut
d ate
8 5
Ġb ase
g round
t ime
Ġse en
b eta
s igma
g in
Ġt ax
g es
Ġd ou
m ost
c ode
Ġcomp on
ut ure
Ġj ob
{ {\
Ġv oid
D E
O T
U R
Ġr ange
Ġag re
Ġincre ased
Ġben ef
Ġrespon s
ang u
t d
Ġte xt
A l
Ġcomp lex
ub l
Ġm oney
Ġm or
Ġobserv ed
Ġrese arch
viron ment
âĢ ¦
Ġl ove
Ġdise ase
Ġ( [@
Ġp ast
Ġb it
ĠâĢ ĺ
e e
b ib
Ġs ource
0 2
n a
ist ic
] ).
C C
Ġt alk
Ġproper ty
Ġbec ome
Ġan n
Ġse ction
ro du
Ġaut hor
Ġ Ð
Ġdoes n
t ies
in ter
i j
e v
Ġme chan
get her
Ġto gether
ĠR ep
Ġ Î
Ġserv ice
Ġcomp let
Ġcan not
uc le
Ġfact ors
med i
Ċ ĠĠĠĠĠĠĠĠĠĠĠĠĠĠĠĠĠĠĠĠĠĠĠĠĠĠĠĠĠĠĠĠ
ac he
Ġs ocial
r or
ess ion
O n
il es
Ġe p
"} ).
Ġl arg
at ures
0 8
Ġdet ail
Ġm om
Ġn ormal
N o
Ġrequ est
an c
il it
ĠUn iversity
Ġcont ent
Ġc alcul
m p
) *
Ġpartic ip
Ġmonth s
Ġse par
C H
ort un
i ans
Ġcl in
Ġph ot
Ġcon duct
f ile
e ction
Ġf requ
um ber
Ġe conom
ri ed
Ġth ird
Ġdo ing
art ment
Ġcre ate
Ġb ook
Ġmeas ure
Ġa ir
he ad
Ġcount ry
Ġc ult
Ġf oc
Ġex c
Ġstruct ure
m at
u it
Ġmult iple
Ġim age
im ate
\ _
min ist
Ġw a
ht ml
Ġin de
Ġdescrib ed
use package
Ġest abl
w h
b t
ur ation
epend ent
V iew
on y
ic ense
Ġl o
en ed
b o
ul es
4 7
Ġe arly
Ġcomp any
ww w
Ġreg ard
ri x
e q
ru ction
pp er
pe c
0 9
pos ed
Ġcle ar
Ġbeh av
ĠSe e
Ġspec ial
Ġp rior
a f
S h
Ġsign al
Ġspe ct
m ber
A pp
sq rt
Ġsur face
The re
Ġde cre
Ġfact or
Ġac ross
Ġpos itive
Ġme et
Ġe ar
O b
ĠG en
Ġse ason
ix ed
Ġe y
com m
u f
C O
Ġde ath
ct ed
D ata
l oad
Ġ version
it ch
ce ed
Ġpriv ate
Ġact ually
ic ult
Ġ q
math rm
Ġd am
Ġwe ight
ĠA N
og en
i res
im um
% )
Ġm ax
om s
con st
Ġperform ed
Ġpoint s
ĠB e
Ġre d
Ġdefend ant
am m
Ġother s
ib r
ĠM ar
Ġr ather
ro id
ĠF ig
Ġv iol
P h
Ġlik ely
l og
0 7
ud e
Ġm illion
Ġm ut
ound s
Ġon ce
6 9
o ff
part ial
} {\
en ing
Ġcon cer
c ular
Ġm ar
ĊĠĠĠĠ ĠĠ
in ary
Ġbel ow
Ġdem on
ĠC an
Ġbre ak
Ġf ive
Ġc ame
Ġinit ial
val ue
Ġqu ant
ĠM ay
Ġshow s
. )
Ġdet ect
A B
Ġcor respon
Ġshow ed
Ġmat ter
Ġtem per
Ġev al
Ġmem bers
Ġc ause
us es
Ġs cre
Ġc ut
Ġar t
Ġh tt
Ġmark et
it er
0 3
Ġp ick
ir m
Ġa ffect
ens ity
" );
ĠĠĠĠĠĠĠĠ ĠĠ
) (
Ġto ok
e qu
+ \
Ġadd ress
ĠJ oh
Ġbl ood
h ing
at ter
Ġappro ach
Ġd ri
Ð ¾
Ġf alse
S o
Ġ ver
Ġm us
Ġsystem s
Ġb ar
r ad
Ġvari ous
ag er
b it
ĠA ss
Ġs ite
Ġso ft
Ġapplic ation
ĠAmeric an
00 1
en c
s y
Ġ( *
Ġn ight
Ġobt ained
Ġd rug
y ear
op h
Ġw rit
O S
Ġexper ience
ob al
Ġwho le
on es
M P
Ġe ver
ide red
Ġe le
Ġm akes
Ã ¡
n o
on al
h old
A A
Ġlim it
.. ..
Ġadd ed
ĠM r
Ġn ull
Ġrel ated
Fig ure
Ġt aken
Ġf low
Ġ$ (
in o
Ġant i
5 7
' d
Ġf uture
Ġdemon str
Ġcons idered
ra ft
Ġde al
ĠO ne
Ġp arent
Ġy et
Ġcons ist
ab or
Ġyou ng
ĠG od
Ġl oss
Ġcan cer
u ild
U n
n ow
Ġcon cent
ĠI N
Ġh ouse
ur s
Ġdef ined
-------- ----
Ġrelations hip
am a
ill ed
ple ment
Ġcommun ity
ol l
* ,
Ġh om
Ġass ess
ĠT e
Ġbelie ve
Ġanal y
$ -
angu age
m y
Ġim mun
Ġar tic
ĠW ith
Ð µ
d is
Ġv ar
Ġcl os
5 4
l im
9 3
Ġf ace
ĠC ar
led ge
Ġr at
and om
r im
Ġf ra
P S
ã Ĥ
ward s
ĠCh rist
Ġbl ock
ĠA fter
c hes
ĠP at
ĠĠĠĠĠĠĠĠ ĠĠĠĠĠĠĠ
p ly
Ġc amp
Ġm aint
g amma
id ing
ul ated
t il
Ġdev ice
ver se
Ġsol ution
8 6
n b
I L
ĠO b
b all
ag ed
8 7
et ition
Ġst ates
Ġw ent
Ġse x
ĠThe n
Ġs us
Ġd at
pp ing
Ġg round
ĠC al
ĠC O
the ta
ide o
Ġc ustom
t es
er o
Ġto day
8 4
um n
se e
Ġl and
ĠC ent
' )
Ġinclud ed
en n
Ġdiff icult
re c
U S
Ġin hib
ĠI nt
ĠE n
a ff
s ize
U N
d ro
ch ie
a i
Ġc ross
M E
ag ing
Ġdec ision
Ġtry ing
Ġmin utes
Ġde cl
Ġch all
Ġ Ċ
x i
at us
Ġs ix
ind ing
Ġex am
Ġask ed
Ġcl ose
Ġrece ived
in clude
Ġc ard
Ġapp l
ĠF l
itt ing
Ġh alf
Ġrespect ively
o ber
Ġm agn
Ġpat ient
` `
Ġaddition al
Ġd ig
av or
oc al
t imes
Ġcont ract
le q
Ġgrow th
ĠM ore
Ġen vironment
G et
p ose
Ġm ind
od es
ĠÂ §
Ġ ur
Ð °
he l
Ġent ire
Ġany thing
Ġreg ion
ac hed
Ġit em
r c
iz ing
Ġinte gr
Ġ Ã
Ġin du
Ġl ink
Ġdef in
ĠM y
Ġsignificant ly
Ġb ound
rib ute
Ġtr ad
ist ance
r ho
b ody
Ġsim ple
I R
Ġn at
a pt
Ġ ill
ly ing
m itted
w ise
w here
end er
g l
] )
^ \
ut il
Ġb ring
Ġlook ing
9 2
Ġac cept
I m
Ġnet work
Ġt able
ĠA ct
Ġro om
], [@
Ġ ...
ed eral
Ġcom pl
pos ition
us ing
r is
pecial ly
ic ation
d elta
st ate
}} \
un c
ens ive
B y
g ress
i ke
T able
Ġmethod s
tern al
Ġget ting
Ġc ity
Ġe lement
ĠM ed
Ġneed s
un e
age ment
Ġw in
Ġdiffere nce
Val ue
4 6
b ased
Ġatt ack
inf ty
Ġ} ,
Ġser ies
+ +
Ġimpro ve
P E
Ġfil m
ol ve
b ig
Ġhist ory
Ġv ia
Ġl ength
Ġal most
Ġnot hing
rap y
~ ~
Ġp an
Ġt w
n et
ie f
Ġpat tern
s el
Ġne ar
Âł Âł
0 6
/ *
Ġpl aintiff
ac ed
ĠE ng
p re
ĠM an
9 1
op s
Ġgen e
Ġcor rect
Ġhe art
b ut
A ll
ro s
Ġsub st
W ith
Ġpart y
Ġneed ed
Ġproble ms
Ġm iss
Ġed uc
ĠĠĠĠĠĠĠĠ ĠĠĠĠ
Ġt um
Ġpre vent
Ġexpect ed
Ġiss ues
ome ga
Ġcont act
m ary
ip s
Ġem b
5 6
f unction
m iss
Ġhe ld
Ġex ec
ful ly
Ġth us
4 2
Ġmodel s
x im
is f
C L
r id
Ġad j
Ġperform ance
ĠD ep
Ġinvol ved
S et
I V
u ly
n u
ĠB y
Ġe ff
Ġthere fore
um ents
T hat
com es
Ġde g
l t
w idth
W hen
Ġpa per
ĠS te
st er
Ġ( -
at al
Ġwor ks
Ġh ref
P l
o o
er c
ut h
b ox
Ġrem ov
Ġad minist
or ld
m ore
Ġinfl u
f ield
Ġh ost
Ġan sw
4 3
Ġmot ion
Ġsh all
r am
l ist
Ġin put
Ġ2 1
p x
Ġf all
c ome
g ing
Ġatt empt
W h
Ġide a
Ġl ines
Ġan g
nb sp
x y
Ġa chie
ĠM c
Ġass um
t au
******** ********
ĠC ount
i i
Ġrec ent
Ġserv ices
M S
Ġpop ulation
at ively
Ġp ubl
EN T
ir l
Ġseem s
yn am
Ġinst ead
Ġits elf
7 6
Ġto ol
il t
Ġdis play
Ġint rodu
ĠD ef
ĠN ot
Ġc e
Ġbe gin
Ġoffic ial
Ġcom es
t op
li ke
Ġstud ents
ĠC or
) }
ĠM on
Ġcol l
Ġh ours
Ġb ad
Ġst ory
u k
an ks
al es
ĠY ork
itt en
Ġprodu ction
ĠC ont
}$ ,
Ġst ep
Ġsome one
) );
Ġstart ed
Ġl oad
ens ure
Ġqu ality
Ġim plement
Ġre ve
č ĊĠĠĠ
an ced
Ġ2 8
w ith
ill s
sc ript
sel ves
M od
Ġst e
Ġt aking
Ġmed ia
r ror
Ġpred ict
ĠM in
! [
Ġn ucle
u x
ul ations
Ġprov ides
Ġ4 0
al ed
I P
Ġclin ical
Ġbl ack
ĠE uro
Ġ$ $
htt ps
e ks
5 3
ic le
Ġfunction s
Ġpol ice
ĠTh us
ĠI m
il ities
Ġrec ogn
ĠD o
Ġa verage
ã ĥ
Ġ/ *
R NA
Ġtemper ature
Ġse arch
ĠA m
Ġd ocument
d es
ĠT HE
c m
( $
ĠP ol
ĠĠĠĠĠĠĠĠ ĠĠĠĠĠ
Ġout put
Ġf ig
ĠĠĠĠĠĠĠĠĠĠĠĠĠĠĠĠĠĠĠĠĠĠĠĠĠĠĠĠĠĠĠĠĠĠĠĠĠĠĠĠĠĠĠĠĠĠĠĠĠĠĠĠĠĠĠĠĠĠĠĠĠĠĠĠ ĠĠĠĠĠĠĠĠĠĠĠĠĠĠĠĠĠĠĠĠĠĠĠĠĠĠĠĠĠĠĠĠĠĠĠĠĠĠĠĠĠĠĠĠĠĠĠĠĠĠĠĠĠĠĠĠĠĠĠĠĠĠĠĠ
Ġfr ont
y ing
w ord
Ġmom ent
row n
E n
Ġcol or
os ition
Ġnecess ary
^ *
oc y
D elta
Ġpro ced
Ġar ray
Ob ject
Ġcor rel
T ext
ast ic
Ġ2 2
her s
Ġdist ribution
Ġal leg
Ġind ust
Ġprob ably
Ġright s
I nt
Ġsequ ence
Ġappe ar
ist ics
8 9
Ġdep end
Ġd im
Ġcon fig
Ġcon text
Ġle arn
Ġder iv
ĠN ational
Ġcomp ar
Ġinst all
L O
ar c
par am
ut ions
d own
Ġpol y
tr ans
Ġ\ \
he m
Ġw alk
Ġproduct s
er ation
âĢ Ĳ
Ġs il
p ri
ĠC D
Ġl ive
Ġdi agn
4 1
4 9
Ġ ess
}$ .
Ġorig inal
r s
Ġex act
ĠJ an
Ġm ice
b ook
Ġimp act
Ġes pecially
Ġinde x
" ;
Ġpol icy
ribut ed
Ġsim ply
I nd
f r
Ġche m
am ed
Ġm ole
ĠC ity
un ch
Ġd ire
err or
ove red
Ġcomp lete
el t
s u
cl usion
it es
cc ording
T R
Ġ! =
Ġf oot
osp ital
Ġs ample
ĠP res
ĠTr ump
8 3
Ġp age
Ġpre t
ec ause
per ty
a ctions
Ġph ase
Ġwor ds
| \
M y
Ġeff ort
Ġpress ure
S S
Ġproper ties
Ġest im
Ġ2 7
Ġdeterm ined
au gh
Ġdist rict
ĠM e
Ñ Ĥ
Ġval id
i qu
ol ic
Ġs ense
ĠO F
oc r
Ġg ra
d om
Ġgen es
ĠB o
l ight
Ġpres ence
Ġprim ary
idd le
Ġcons um
Ġperson al
Ġd est
p oint
ar ily
in ally
Ġc opy
Ġqu ick
\ *
Ġout side
ult s
ĊĠĠĠĠĠĠĠĠĠĠĠĠĠĠĠĠ ĠĠĠĠĠĠĠ
5 2
ref ore
ic on
Ġeffect ive
Ġc al
Ġl ack
st ruct
ar ray
Ġpolit ical
Ġd ate
s im
Ġmem ory
Ġform er
in ks
Ġf ire
Ġev ents
Ġc red
Ġtyp es
p ath
ch i
d o
et er
\ \
ron ic
Ġevery thing
Ġstr ateg
Ġmed ical
Ġp ain
Ġc reat
ĠIn c
ĠEuro pe
Ġ2 6
Ġ2 3
Ġse lect
it em
Ġpresent ed
8 2
Ġ& &
Ġjud gment
Ġac id
Ġl anguage
O P
Ġwr ong
o ke
il i
F ile
z e
Ġident ified
Ġcon v
b or
Ġlong er
Ġrem ain
Ġwant ed
Ġcont roll
Ġpr int
Ġt iss
Ġdeterm ine
Ġqu ite
Ġele ments
Ġins ide
Ġphys ical
com p
Â ±
Ġsat isf
Ġsur v
M A
i en
Ġh yp
]{} ,
Ġnew s
ard s
7 2
Ġcre ated
Ġst op
s l
Ġrun ning
Ġeval u
Ġconst it
r an
Ġincre asing
r ast
Ġfe atures
ĠÂ ±
Ġparamet ers
Ġr andom
Ġbas is
A d
it ude
ĠĠĠĠĠĠĠĠ ĠĠĠĠĠĠ
Ġst ra
Ġeas y
Ġass ert
ĠD r
o at
qu ad
pr int
erv ice
b f
Ð ¸
u ous
r ite
as ons
Ġs amples
Ġh ope
Ġst ay
av ing
fe ction
is es
A t
alcul ate
Ġwe eks
ag s
FF FF
ĠS ystem
ra ck
ĠP ar
ott om
ri al
p ublic
8 1
Ġp air
es e
Ġst atic
Ġare as
Ġ ?
7 9
N ot
ell ant
is ms
lement ary
7 4
Ġmem ber
ĠP art
de v
ĠS uppose
Ġu nd
Ġstat us
Ġstate ment
c ell
li er
Ġ â
ĠP r
Ġfr ame
pl ate
5 9
ĠG u
Ġknow ledge
Ġdirect ly
Ġ201 2
an cial
an a
v oid
og le
ĠG e
l ig
ĠL icense
. '
ann el
ĠJoh n
us er
Ġf un
P ar
Ġun it
Ġag o
ur ch
6 3
} (\
Ġfollow s
s k
Ġconst ant
Ġthe ory
7 3
ear ch
ĠA b
ĠA P
Ġp ack
eth yl
____ ____
Ġp ie
Ġis n
ac c
ve re
Ġtra ining
Ġs em
cl us
ĠSt ring
Ġwh ite
../ ../
Ġc ry
Ġnat ural
ĠD NA
Ġquest ions
Ġbeh ind
Ġpr inc
/ >
Ġopp ortun
Ġset t
Ġredu ced
i et
g n
Ġm i
Ġcou n
f rom
Ġsa w
C A
Ġgr ad
oc ol
cd ot
ial ly
d ocument
Â °
Ġo il
Ġbuild ing
ay out
ĠH ar
ers on
Ġdef ault
Ġm ap
h a
er a
E d
is ions
Ġre comm
Ġn ational
Ġprevious ly
Ġcont ain
ĠH is
Ġv ideo
Ġp le
Ġext ra
Ġav oid
ro ph
O r
Ġse cur
Ġb rain
m et
Ġinclud es
or ks
Ġst ri
os ph
ul a
I M
5 8
5 1
ĠQ u
ro te
ĠN e
Ġlim ited
ag ue
ym b
Ġappl ied
fere nces
m pt
O D
C D
Ġfor ce
" .
p ite
ĠP e
p en
Ġm essage
Ġre place
M L
Ġ( \[
Ġclaim s
K ey
Ġg as
ch o
ot ic
Ġre lease
Ġdevelop ed
Ġ/ >
It em
a ign
Ġcontin ue
Ġf em
ad er
Ġwor d
ĠO ur
ĠD es
Ġtrans fer
def ine
.. ."
Ġve h
Ġg ames
Ġbehav ior
Ġexp ress
ĠI d
Ġab ility
Ġgre ater
eg a
\] )
ĠA g
Ġsh are
Ġ201 6
ĊĊ Ċ
Ġant ib
row s
h ood
ĠThe refore
m ap
Ġdou ble
Ġsoft ware
ĠS im
re et
Ġre v
Ġf avor
E L
Ġfri end
ib er
Ġt itle
)$ .
Ġacc om
fe red
Ġim medi
right arrow
ar ning
ol es
l ation
Ġm is
Ġop in
ma x
Ġ201 3
T H
ĠIn tern
Ġre ference
( ).
Ġb ur
S D
Ġaut om
os ure
Ġpres ident
Ġj o
Ġartic le
Ġf ul
f o
ĠD em
um b
Ġind ependent
Ġw indow
le ge
Ġplay ers
ri ef
Ġm ach
Ġm other
Ġinv ention
Ġ201 4
D ef
Ġg e
ac hes
6 2
Ġ[ *
ms g
av es
Ġspec ies
Ġs low
Ġcomp an
Ġpre c
ish ing
ĠF urther
oc ation
ĠS T
ĠWh ile
ter m
ĠA f
u ary
ell ing
Ġv ict
ĠS outh
Ġo ption
Ġ ;
ab ase
Ġh ot
] ^
Ġl ayer
ru pt
Ġnum bers
ĠW ill
Ġmat ch
A dd
om a
Ġn ature
Ġ201 5
ĠS ince
n ers
am ent
Ġv ot
7 1
Ġfollow ed
qu est
ĠG r
D e
Ġcom ing
Ġhtt p
Ġc and
Ġwr itten
Ġappro pri
iv en
Ġprote ct
Ġle ave
I F
Ġappro xim
Ġfor ward
ĠPres ident
in ate
S uppose
Ġst ress
S he
Ġan im
Q u
ps ilon
r angle
g or
Ġwr ite
ap ter
Ġdiffere nces
ĠD ist
s upp
ad a
Ġobt ain
Ġ ir
P s
Ġon line
Ġst yle
Ġpre p
he st
j s
Ġtri ed
ĠCount y
at form
Ġ6 0
at ives
ĠP er
ĠCom p
Ġl ost
Ġconst ruct
Ġwh ose
in ated
Ġneg ative
B C
it ness
r ange
Ġback ground
Ġre pe
Ġparticular ly
ĠJ ust
Ġsecur ity
Ġr ule
ĠP a
Ġus ually
st e
Ġim pl
D es
or ph
Ġoff ice
Ġl ate
Ġb ir
ĠE d
Ġref er
Ġcorrespon ding
Ġhim self
lev ant
k n
Ġarg ument
Ġm ention
ns el
} =
Ġro t
Ex ception
ĠR uss
G F
Ġgl obal
Ġg irl
n on
ĠR eg
Ġl iving
Ġansw er
b b
er ve
E rror
Ġcle an
Ġany one
enc ies
ĠG o
ash ing
ĠN orth
Ġal tern
vent ion
Ġagre ement
ĠHe re
Ġpro posed
l or
Ġb ox
Ġw atch
Ġacc ur
ps i
Ġal though
Ġd ynam
til de
ĠO R
ren g
Ġcomp et
Ġrec ently
p ret
o ch
O L
Ġet c
Ġgr ant
Ġact ive
b ase
6 1
ĠS m
ĠPh ys
s m
"> <
Ġwe bs
Ġoff er
Ġreg ular
Ġres id
Ġt akes
ur b
S P
âĢ ĥ
Ġinst ance
o e
Ġnot e
Ġgener ally
s ing
le ep
Ġw all
čĊ č
j oy
en er
ĠD is
G amma
[ '
Ġr ates
l ength
Ġcl ust
l ink
N ew
Ġex cept
iv il
ar ies
Ġthem selves
) =
g roup
Ġderiv ative
Ġb all
Ġpur ch
Ġ âĪĴ
res h
e es
ap an
ind ex
Ġor g
ĠS ome
* ~
gor ith
Ġsay ing
Ġess ential
Ġpract ice
Ġd ensity
ve y
Ġd riv
Ġse lected
ĠO ct
Ġhe av
Ġen h
uf act
Ġs ort
b i
ĠW orld
Ġp hen
Ġcount ries
Ġ201 1
T est
el ine
ur ance
m ega
pr il
L e
re w
ĠM arch
u el
Ġp o
M an
Ġre le
oper ator
st yle
C E
Ġfe ed
Ġspe ed
ĠI I
ĠF irst
Ġfail ed
ĠA ug
o on
d en
ch ange
Ġ201 0
Ġtre ated
Ġde ep
Ġp sy
St ate
p an
ig en
p ace
ĠAmeric a
Ġallow ed
Ġey es
ĠB ar
Ġf ederal
Ġpubl ished
Ġst ar
Ġw ays
ul ate
Ð¾ Ð
p y
U L
Ġcamp aign
Ġleg al
Ġm ilit
U LL
Ġcompon ent
Ġfind ings
Ġpur pose
( (
Ġfin ancial
Ġdire ction
^ [@
v are
o ice
Ġrel ative
Ġp ict
}} $
Ġhy per
ĠD av
ĠCh ina
Ġpr ice
Ġbec ame
ï ¼
Ġhy dro
i us
Ġsit uation
ĠS u
ill ing
ang er
it ation
ac ity
Ġ );
Ġrespon d
T ime
Ġdeg ree
Ġfil es
Ġ vers
Ġr ound
Ġpret ty
Ġre str
ĠV al
Ġser ious
Ġ __
l in
Ġg ave
Ġs n
n ed
Ġsu fficient
ach ing
re me
Ġloc ation
rou ght
ĠJ une
Ġhigh ly
od ing
ĠH ouse
Ġco ver
Ġcompon ents
\] .
Ġf ast
Ġchar ge
in it
ĠDep artment
Ġcom ment
O ne
Ġper fect
ĠA p
Â Ń
Ġmeas ured
ĠA ust
Ġis ol
ĠS ch
Ġg raph
Ġwom an
Ġ2 9
T T
Ġdes igned
E X
Ġident ify
c il
Ġst age
port s
f ra
Ġh or
d f
Ġcent er
r ate
Ġal one
Ġprof ess
ĠS er
D o
Ġca used
Ġsa f
c ast
Ġindividual s
Ġinter n
i ated
iz es
vare psilon
Ġk new
Ġaut h
ĠG erm
Ġso on
ĠN ow
Ġ[ **
Ġ201 7
Ġfri ends
u ge
Ġd raw
th at
Ġtrad ition
Ġ: =
Ġrequ ires
ibr ary
om y
p at
Ġevery one
Ġgiv es
Ġsubst ant
h aps
Ġwas n
a e
)$ ,
Ġcomm and
Ġa ud
an ch
Ġprote ins
l ock
Ġpro ceed
Ġl abel
Ġlarg er
Ġs qu
i ency
Ġprom ot
ĠAl though
Ġf re
//// ////
Ġfoc us
Ġp oor
Ġcomm it
Ġpro t
ail y
oci ety
Ġcurrent ly
Ġn ode
Ġp ull
ĠRep ublic
old s
or age
Ġdetail s
Ġ| |
Ġmat rix
O f
Cl ass
ad es
Ġst im
Ġsy nt
Ġnot ice
hes is
ir ing
Ġor d
Tr ue
a ur
N S
Ġst reng
se mb
our nal
s pec
================ ================
Ġlead ing
ĠI S
ĊĠĠĠĠĠĠĠĠ ĠĠĠĠĠ
Ġsu it
Ġappe al
Ġfrequ ency
l ib
Ġex erc
ers ion
Ġeduc ation
Ġim ages
O mega
Ġcand id
it ter
C S
Ñ Ģ
Ġtra ck
Ġf ixed
Ġ" "
oc ks
} ;
Ġro ad
ou ch
un k
Ġqu e
Ġsc ale
Ġcho ice
Ġuse ful
Ġem erg
ef ore
Ġ// /
Ġl ed
Ġvis it
es tern
Ġun ique
} ^{\
w ide
ous ly
ĠGen eral
Ġbe gan
ve c
Ġde b
Ġre cept
Ġcompan ies
ĠSe pt
Ġb ank
i os
ra el
if ically
b ra
m ar
Ð ½
ist ry
Ġoper ation
ff er
Ġapp ly
z ed
Ġt en
b on
ob ile
ĠĠĠĠĠĠĠĠĠĠĠĠĠĠĠĠ ĠĠĠ
ĠG l
F rom
ĠJan uary
or ney
Ġsc he
Ġ( $
act ive
H O
os ing
com ing
m ing
a it
her n
Ġcont ains
S ec
) -
Ġman agement
Ġj ury
P A
Ġus ers
ĠS en
^ +
Ġdev ices
Ġrat io
Ġdist ance
The y
ograph y
Ġhe at
re en
N ow
Ġpart s
Ġcomplet ely
n es
Ġf air
ou d
E M
Ġth reat
č ĊĠ
Ġopt ions
ä ¸
ight s
ak er
Ġpart ies
ĠHe alth
te e
f n
kn own
ĠC ir
; &
## #
arg in
Ġca pt
ĠA pril
Ġtechn ology
v is
ĠJ apan
ĠB r
ore m
B S
Ġc ook
ir med
Ġexp ressed
( ),
om en
Ġb al
ĠM ich
B e
Ġen joy
Ġde ad
ut ed
operator name
Ġcont aining
ex p
Ġve ctor
Ġf ather
Ġfail ure
Ġcost s
f il
Ġtr ust
Ġre asons
Ġeconom ic
Ġindust ry
ub e
Ġman ufact
Ġbu y
ur ity
z z
st atic
Ġgener ated
Ġb ed
Ġp en
or ing
Ġs ound
Ġdiv ided
ĠW est
č ĊĠĠĠĠĠĠĠ
Ġallow s
Ġ ----------------
Ġwe b
Ġear lier
Ġfil ed
Ġeng ine
an cy
Ġac qu
Ġin form
P R
Ġlead ers
ell ow
at he
Ġloc ated
Ġgo al
. *
() );
' );
Ġa im
Ġ- >
Ġhig hest
D is
Ġser ver
var phi
Ġparamet er
Ġcirc um
Ġestabl ished
ĠR ed
Ġatt ention
P ath
Ġcent ral
for ce
} .
h am
Ġ200 8
Ġover all
Ġne igh
ĠW ar
d im
Ġ\ <
Ġappropri ate
ens es
ce mber
Ġl at
C s
S c
F orm
r ide
Ġm ys
pl it
Ġt im
Ġconne ction
Ġeas ily
se ction
Ġchall eng
Ġcle arly
_ .
k en
ĠF eb
Ġdefin ition
Ñ ģ
b and
Ġexperim ents
ĠJ uly
Ġn ames
Ġelect ro
Ġthe rapy
Ġmean ing
Ġd og
Ġbro ad
m en
b re
c ap
Ġre levant
Ġw idth
Ġdis cl
ĠM od
Ġh ospital
c all
Ġsit es
Ġfind ing
k ing
ĠSt ud
ĠTr ans
Ġim m
Ġs on
Ġst ated
y ond
Ġh it
st ream
Ġem ail
f s
e ed
P L
Ġequ al
Ġcrit ical
ĠJ ud
Ġwor th
In fo
c ount
ab led
h and
F l
Ġmult i
w orks
Ġpr ime
o very
Ġrece ive
rel ated
eps ilon
Ġsy mpt
Ġdo or
e ah
Ġcomput er
Ġredu ce
Ġlook ed
Ġcou nsel
Ġf ine
Ġauth ors
i ate
r ant
Ġa x
od ies
p id
O ver
\ <
Ġprodu ced
Ġcon cept
Ġh ar
Ġl iter
D A
Ġsupport ed
Ġf elt
Ġcont rast
){ #
Ġon es
Ġact ual
Ġactiv ities
Ġvari able
Ġbo ard
! !
Ġopin ion
Ġinj ury
Ġ3 1
. [
Ġwrit ing
con fig
ib ly
S upp
Ġtrans ition
Ġin n
Ġ200 9
ĠC ons
Ġf at
Ġ3 2
Ġm ode
Ġto wn
ĠAN D
Ġunderstand ing
Ġappe ars
Ġf ight
* -
Ġst ore
g u
Ġline ar
Ġrel ig
Ġb rought
Ġhand s
Ġwebs ite
Ġus es
ĠB ig
Ġh on
Ġbe yond
' :
Ġre pl
Ġm id
Ġtum or
Ġst aff
Ġturn ed
Ġhe ard
al ing
F L
ove mber
il le
Ġd ark
Ġshow ing
Ġe ffic
Ġchang ed
f ort
Ġlook s
Ġ< <
over n
Ġin fection
ĠE l
Ġtrans port
Ġbenef its
Ġhe ight
g est
Ġtiss ue
Ġnum er
b in
ĠG et
. _
ou ra
Ġsur pr
clud ed
i am
Ġle arning
Ġ201 8
r um
Ġal gorith
Ġsk in
ot he
Ġg un
AT E
Ġinter pret
Ġqu al
F alse
Ġrem ains
' ;
Ġgo es
Ġt ask
l ish
A fter
Ġtra vel
Ġadv ant
e ch
sp ace
ic a
ĠF rom
f ree
==== ==
p ol
Ġcult ure
Ġdri ve
Ã Ń
) ).
A b
Ġpl ant
Ġhe aring
Ġmajor ity
Ġadj ust
ĠAug ust
Ġd ro
it ro
\ ,
Ġbe aut
Ġse cret
* .
ĠS w
S im
Ġconne ct
} _{\
Ġv s
Ġpro of
ri er
ĠĠĠĠĠĠĠĠĠĠĠĠĠĠĠĠ Ġ
ou l
ren ce
Ġro ot
Ġb inding
Ġp lease
" />
Ġsmall er
ashing ton
ĠD ata
Ġto wards
Ġinter nal
ĠIs rael
en ge
ymb ol
Ġmed ium
Ġcar ry
Ġmaterial s
Ġbu ilt
Ġ3 5
ĠT H
pect ive
Ġconcent ration
ĠB rit
Ġext ract
E vent
f ord
Ġpre fer
Ġsub sequ
Ġresult ing
R A
Ã ³
Ġwork ed
Ġfield s
Ġcont ribut
Ġco ord
Ġpro gress
m ark
Ġindic ated
ra z
inf o
Ġprodu ce
cul es
Ġ util
Ġp ul
ch ar
Ġvari ables
Ġparent s
Ġconst ruction
ut ive
Ġreg ions
ad em
Ġe ight
Ġl ov
ra g
Ġwon der
Ġpro p
\ '
att le
erv ed
Ġregard ing
in ct
ir t
Ġreport s
ĠOct ober
a res
Ġa w
gr ams
Ġo x
ĠC ong
Ġre action
ict ed
Ġcoun ter
ĠA D
if ier
Ġdec ided
Ġmax imum
Ġcon sequ
ĠC he
ro om
id ay
Ġm ount
ĠDe cember
I A
Ġexact ly
Ġob vious
os es
ĠDist rict
Ġr ules
Ġm ess
ĠP ublic
Ġveh icle
as is
ok en
Ġs ources
l angle
Ġful ly
Ġdam age
= '
er ate
] :
al t
Ġmilit ary
Ġw ild
lic k
00 2
Ġreason able
Ġ er
ĠA ccording
ar ter
Ġform ation
Ġw rote
Ġbir th
m aterial
ĠDem ocr
Ġco ol
Ġex ists
Ġset ting
, -
Ġcou ple
ic ip
Ġsom et
ge q
t itle
ĠP ark
Ġinterest ing
m ail
col or
ang ed
Ġmor ning
in put
Con fig
os ite
Ġitem s
l ong
^{ (
Ġread ing
Ġf a
Ġvir t
Ġne ut
Ġse c
ĠS chool
Ġcol lect
P D
Ġtest s
ã Ģ
Ġdom ain
ĠSept ember
Ġc am
S A
Ġget s
Ġsepar ate
te red
i ences
Ġy ield
Ġs old
Con text
Ġplay ed
O ut
AN T
Ġstart ing
M M
B A
Ġgiv ing
und red
Ġ eth
Ġparticip ants
in st
Ġfe ature
Ġplay er
j ava
Ġcl osed
Ġsol id
) ^
Ġ ĊĠĠĠĠĠĠĠĠĠĠĠĠĠĠĠ
om ic
' ]
if orn
gr ad
Ġapplic ations
Ġreve aled
ĠD et
ES T
Ġsc ore
Ġhe ar
ic it
Ġh ous
Ã ĥ
Ċĉĉĉĉ ĉĉ
Ġbe comes
il s
Ġag ree
S ize
Ġc it
---- --
ĠCent er
Ġinter view
Ġn or
C K
Ġlaw s
ru ary
Ġsa fe
Ġconsist ent
Ġph one
Ġthrough out
Ġ/ **
ĠUS A
c os
Ġform ed
pl ing
ĠS ub
Ġto ward
Ġsaf ety
H T
Ġprocess es
Ġres istance
Ġnot ed
Ġabs ol
ĠI D
Ġas pect
Ġequ ation
R I
Ġ( **
c in
Ġsc ient
Ġpa id
Ġst ru
Ġadminist ration
V ER
In st
ĠN ovember
Ġform s
et t
Ġl ives
Ġli qu
Ġother wise
Ġtrans form
Ġz ero
Ġph osph
Ġar rest
Ġinst it
che ck
oun ced
Ġf it
Ġcomb ination
ic o
bo ard
) **
Ġsl ight
Ġvol ume
Ġimmedi ately
G L
con s
Ġa ctions
Ġsw itch
p c
ĠAf ric
Ġopportun ity
d b
Ġro b
Ġro ll
cl es
ĠM ark
p ir
Ġrele ased
Ġdef ine
Ġ9 0
Ġmeet ing
ĠB ecause
ĠR ec
Ġcy t
Ġconne cted
ra b
con ne
Ind ex
Ġd u
C t
Ġl if
Ġun its
Ġredu ction
Ġ8 0
Ġs we
Col or
Ġintern ational
iforn ia
f ont
Ċ ĊĠĠĠĠĠĠĠĠĠĠĠ
i ance
ĠS y
ob ject
ct ors
Ġspe ak
ĠT able
ĠO f
Ġand roid
Ġdem and
tr ue
Ġbl og
Ġl ay
Ġmet ab
Ġinflu ence
Ġar ch
ĠA T
indow s
[ ]
n y
Ġcol umn
Ġu lt
Ġref lect
Ġmechan ism
Ġcomm er
0000 0000
Ġm er
wh ich
uff er
O h
Ġmys elf
ES S
M O
so ft
semb ly
Ġbas ic
Ġ ign
Ġtr uth
ĠMore over
ĠW ashington
Ġw ide
ot al
Ġinter action
ger y
Ġth ous
ĠL a
Ġhapp en
Ġf ix
Ġmem br
Ġalleg ed
b m
Ġrem ove
Ġcalcul ated
Ġport ion
a el
t em
c ase
ĠSe ction
Ġthink ing
Ġb ottom
Ġfunction al
F A
Ġ ensure
ĠS an
ur t
ĠN et
ra int
Ġquick ly
Ġdetect ed
[ ^
Ġanim als
o z
Ġfig ure
Ġrem ember
Ġinc or
Ġpop ular
st art
Ġrel atively
Ġ( \
ĠH igh
Ġent er
al le
Ġcap ital
He re
Ġst d
ĠA ng
b ur
ĠIn st
Ġres ources
5 00
at ur
Ġy es
Ġc ore
N ode
Ġhapp ened
as m
B ig
Ġre ach
Ġexist ing
ĠL ist
Ġp etition
Ġvict im
u ced
C P
Ġm iddle
Ġwork ers
Ġt er
al y
Ġdef ense
ĠCh ar
Ġmov ing
Ex p
pos es
Ġtest ing
Ġw ave
Ġm ur
Ġmov ed
if orm
ĠH ol
Ġstreng th
am in
Ġa ware
% ,
Ġdat abase
/ (-
i able
stit ute
are st
Ġne arly
Ġm ort
ith ub
Ġmove ment
Ġsy n
Ġdemonstr ated
pon ent
Ġs leep
Ġj ur
im age
air s
F r
ens ions
l o
ĠI L
ent y
im ony
Ġch ance
Ġread y
Ġex hib
D S
ĠT ex
k y
amet er
F ield
Ġproced ure
Ġprov iding
Ġgre en
Ġb acter
Ġachie ve
Ġsus p
Ġsomet imes
ot ype
Ġleg is
Ġsp in
ĠĠĠĠĠĠĠĠĠĠĠĠĠĠĠĠ ĠĠ
. \
o oth
om in
if ul
il ies
ĠN ULL
00 3
le vel
Ġplay ing
Ġobject s
Ġfin ally
Ġf ib
z ym
Ġcol lection
as te
Ġb rief
Ġvari ety
Ġ200 7
unt u
Ġconduct ed
Ġremov ed
er ia
Ġestabl ish
Ġanal ys
E C
d ot
"} ,
Ġ ]
ĠRe v
Ġh undred
Ġcho ose
Ġequ ival
Ġcom ments
Ġconcent r
de red
L A
ial og
over line
Y es
Ġindic ate
Ġch annel
n ode
ol ved
Ġw itness
Ġscre en
g s
ĊĠĠĠĠĠĠĠĠĠĠĠĠĠĠĠĠ ĠĠĠĠĠĠĠĠĠĠĠ
id a
Ġreg ul
sh ip
Ġf ear
Ġse ven
pr ime
c irc
Ġst eps
U p
end ant
j ection
Ġu pper
it ors
: "
}} (
Ġ row
ĠS ec
at in
Ġpl atform
Ċ ĊĠĠĠĠĠ
Ġse lection
ĠH er
ĠT w
() )
ĠFeb ruary
lic ation
Ġbl ue
E E
ate ver
Ġpl aced
Ġc ert
Ġfact s
S ub
Ġp ow
l s
Ġoper ator
ĠAl so
Ġcl ient
Ġpe ak
Ġn orm
i pe
#### ##
Ġprocess ing
th on
ĠCal ifornia
Ġs end
Tr ans
ĠAss oci
p arent
Ġl abor
en cing
Ġpsy ch
Ġc ivil
Ġon to
ens ional
Ġcircum st
* (
Ġne ur
h ost
Ġsh ape
pect ed
Ġd oc
Ġlet ter
au ght
Ġmus ic
\] ,
ad o
Ġdist ributed
i pp
Ġst ation
)/ (-
M e
Ġcar ried
C ode
im ent
ĠOb ama
ĠAust ral
Ġim ag
Ġb and
Ġm al
v est
Ġset s
Ġext rem
Ġyour self
rom e
Ġcom plic
Ġst uff
ĠA dd
Ġsuggest ed
Ġconf lic
A tt
ock et
Ġcirc uit
k ay
Ġp ackage
Ġcompar ison
Ġ3 7
ĠCom mission
ĠE ven
w ell
Ġcr im
ĠS upp
Ġstat ist
p ass
ig ation
ic ity
Ġpro ve
ĠO ther
ur rent
ĠK ing
F T
Ġcap acity
iqu es
ĠA c
d ict
ĠĠĠĠĠĠĠĠĠĠĠĠĠĠĠĠ ĠĠĠĠ
um an
R ec
Ġincre ases
Ġd aily
Ġdi et
Ġman ner
c oh
Ġcharacter istics
an o
ip ment
Ġbenef it
ĠFig ure
Re quest
at ically
ir it
Ġexp osure
ut y
U ser
ph p
Ġs en
Ġ4 5
ĠR NA
Ġem ot
C I
Ġactiv ation
Ġsa ve
Ar ray
Ġa ward
s ource
Ġapp arent
Ġsympt oms
Ġtr ade
ol ar
Ġb order
Ġha ir
00 4
c or
Ġ ut
Ġn ut
ac ing
om as
Ġw ife
ro y
Ġwe ak
Ġapproxim ately
Ġsh oot
Ġmach ine
Ġsh ot
ify ing
}} _
ail s
Ġmagn etic
Ġn amed
Ġvis ual
Ġrespons ible
N O
M ap
č Ċĉ
Ġm ale
Ġpass ed
um in
ĠBo ard
Ġup date
ĠC ON
Ġcl ub
R eg
]\] ,
* )
Ġb ill
roll er
as p
Ġ7 0
Ġhealth y
re ate
Ġ2 000
i ers
Ġpl aces
Ġm ac
Ġn ation
Ġmeas ures
stit ution
ĠA ut
Ġup d
l ast
Ġlet ters
ĠA M
ar r
Ġ ^
Ġdiscuss ed
Ġtalk ing
E qu
Ġexp and
> >
Ġmay be
P O
P T
ra ce
Ġad opt
on ic
ĠI ll
Ġpick ed
Ġstra ight
Ġse vere
ĠRes earch
/ (
n um
augh ter
Ġpro grams
ĠJ e
u ing
Ġass ume
Ġcontin ued
ĠP M
ond on
ĠIn ter
S I
Ġrecomm end
Ġm it
cur rent
Ġb ud
app ing
Ġm ag
ber g
ri e
g ithub
Ġcontin uous
Î ²
om b
Ġra ce
Ġinc ome
Ġreplace ment
Ġpan el
Ġreturn ed
Ġed ge
Ġdis s
Ġdel ay
Ġexerc ise
ot o
Ġchem ical
Ġno vel
Ġne arest
Ġ ~
ĠM or
Ġar riv
ĠWh ite
Ġjud ge
Ġinvestig ation
Ġf resh
E G
b uild
C ON
Ġsp read
Ġchall enge
ĠFurther more
Ġ200 6
ĠT O
Ġhapp y
Ġcl ick
Ġk ids
Ġad apt
L og
Ġl ip
idd en
ĠL aw
Ġv oice
Ġm g
Ġun f
Ġdet ection
Ġd ie
Ġra pid
ĠInd ia
w as
* ]{}
ĠB ro
Ġt ree
ist ant
Ġw id
ic les
Ġbegin ning
ĠEurope an
ari an
Ġpre m
vent ional
a a
ĠF ound
Ġstruct ures
Ġsub str
A ct
Mod el
ru it
Ġl ib
Ġimpro ved
Ġins urance
c ar
Ġinter face
Ġt end
Ġb ab
it is
Ġam pl
Ġmod ern
pt r
Ġ9 5
ĠU K
Ġcor por
Ġsc en
Ġb illion
id ers
S er
Ġexperim ent
Ġthe rm
il ed
Ġsex ual
f low
Com p
ĠN S
ĠEng lish
Ġspec ifically
Ġv ote
#### ####
Ġwa it
} ,\
Ġn ice
Ġtest imony
Ġh our
Ġtyp ically
Ġb ul
Ġp ark
Ġcould n
Ġr ul
Ġfil ter
Ġins ert
R S
Ġp ush
r un
H and
C ount
l en
c ore
n ormal
ĠA tt
Ġl es
Î ±
S igma
d ed
Ġ4 8
** )
Ġm ill
ren ch
ĠIntern ational
Ġ} );
Ġun s
ĊĊ ĉ
ot a
Ġb ond
ĠM I
Ġex ception
el le
or ter
Ġe lection
ic ks
Ġ\ ,
Ġstrateg y
u nder
Ġsum mary
pt ions
Ġs ell
Ġ3 6
ra v
or b
Ġelect r
Ġn il
Ġtest ed
ur l
Ġsol utions
it ivity
Ġexperim ental
Ġcare er
wo od
ĠM us
p ost
as er
Ġlead s
as cular
C M
IN T
Ġaltern ative
Ġt our
C G
Ġfore ign
Ġsurv ival
Ġfem ale
ic ial
Ġst o
as ion
ĠPl aintiff
l am
Ġstud ied
Ġfam ilies
Ġsh ift
ar ant
Ġdes pite
Ġprep ared
ign ment
Ġsc ript
Ġdrug s
Ġden ied
ĠP al
Ġcommer cial
ic ed
Ġar m
M ethod
omet ry
C alculate
Ġ ri
ĠPa ul
Ġnucle ar
Ġmole cular
ĠP re
Ġsuccess ful
Ġindu ced
Ġexpl ain
fr ame
Ġun less
go ing
Ġn one
ari o
l a
ĠG overn
ĠĠĠĠĠĠĠĠĠĠĠĠĠĠĠĠ ĠĠĠĠĠ
m d
cont ent
Ġcommun ication
D O
2 14
Ġwant s
Ġth row
Ġser ve
re ly
Ġoper ations
ĠT est
ab s
Ġun c
Ġhtt ps
Ġ( !
Ġliqu id
i ant
Ġth ick
Ġstud ent
Ġmention ed
Ġgu y
Ġmod ule
F il
Ġcompl aint
Ġsp ent
fect ed
Ġtr ig
Ġtrans l
Ġag ent
d ir
ed om
00 01
ri ent
Ġre ached
Ġcorrel ation
c s
Ġsur gery
ig ration
Ġr out
bl ock
AR T
Ġpl ate
Ġ( (
yn c
ap i
Ġcomb ined
Ġpl ans
ĠDav id
c her
i very
Ġd ed
Ġprofess ional
Ġofficial s
icro soft
Ġmov ie
Ġinfl amm
ĠCong ress
Ġprot ocol
Ġey e
Ġdes cription
Ġst ock
Ġconf irmed
ar a
z a
m em
w rite
Ġl ock
ann ed
Ġwhere as
cre ate
Ġc op
ĠA nt
ole an
L I
en ced
Ġaffect ed
iz er
Ġent ry
Ġk in
ĠO ff
Ġsu p
Ġc ru
^ âĪĴ
Ġpie ce
act ers
Ġopt im
Ġmot or
S ervice
ĠY our
Ġdis miss
Ġv ac
ĠS up
Ġde bt
A ss
Ġim plic
ĠP ost
os en
v an
Ġm ental
Ġ3 3
W ell
res hold
g reg
ing u
ust r
r ary
Ġh op
c an
fere nt
in ity
Ġgrow ing
Ġca uses
ĠC oun
Ġwould n
D R
Ġk ill
Ġsent ence
ĠH am
ĠR el
Ġt ouch
W hy
ass ert
Ġtool s
st ract
Ġcon ver
Ġl inks
Ġexpl ained
Ġper haps
ĠNew s
Ġra ised
Ġenc oura
pro du
Ġcol lected
Ġs rc
Ġmon itor
ĠÎ ¼
Ġd anger
Ġd ied
Ġk illed
il ing
op en
Ġh arm
ĠJ ack
Ġst orage
Ġke pt
Pro perty
ell ig
act or
ri a
d et
Ġmin imum
[ \
Ġclass es
Ġintrodu ced
Ġne uro
rac y
& \
' '
g ar
ĠT V
Ġpre par
ĠInd ian
Ġrem aining
Ġs ociety
E nt
Ġanaly zed
Ġagre ed
ĠSu per
opy right
V E
Ġmed ic
ĠD on
Q L
Ġhand le
Ġcontrol s
B uild
Ġemploy ees
Im age
Ġfa ith
R T
Ġch rom
Ġv an
Ġold er
id el
/ **
Ġcall s
ines e
ar th
ing ly
{ {
E lement
Ġ200 5
m and
Ġcy cle
Ġrequire ments
. ](
Ġbig gest
Ġc ast
Ġpro port
it z
ĠM ost
Ġe fficient
Ġ( "
A ut
Ġrel ation
Ġs un
b olds
Ġse ed
Ġtradition al
ing er
Ġcard i
Ġeffort s
spec ific
) ?
act ory
Ġprote ction
Ġdr ink
Ġcircumst ances
Ġbehav i
Ġdiagn osis
}} }
u i
ad ing
Ġrad io
Ġhist or
B l
S C
Ġcred it
or ge
w id
Ġtechn iques
C an
Ġen zym
Ġ-- >
Ġmin or
Ġsur round
Ġst ream
Ġk id
Ġabs ence
ĠTex as
Ġdiscuss ion
Ġgener ation
z on
Ġan imal
00 5
Ġsuggest s
Ġaut o
ind uced
l ocal
Ġex ternal
Ġopt ical
coh ol
Ġstat ute
Ġrespons es
Ġp un
Ġm ist
Ġw el
Ġtem por
Ġev olution
L ambda
In ter
Ġapp ellant
Ġmet al
Ġt rou
ĠE ach
O ur
it led
Ġcertain ly
u ate
Ġfe et
K E
Ġg one
Ġ( )
el ess
Ġschool s
Ġvir us
Ġadvant age
Ġh uge
Ġassoci ation
ensure math
ĠL ondon
Ġoccur red
M essage
Ġprob ability
ul f
Ġbro ther
iz ations
bolds ymbol
ĠC ode
i ra
Ġman if
ou ble
ĠG roup
Ġelect ric
Ġc atch
Ġpict ure
x x
B I
Ġbu ffer
Ġbel ong
Ġt al
Ġrecord s
ĠC H
Ġwh om
Wh ile
Ġmiss ing
Ġm ix
Ġoffic er
S ource
ist an
Ġfoot ball
Ġcreat ing
Ġequ ipment
ĠN ote
p o
Ġsc ience
Ġalgorith m
Ġte ac
-------------------------------- ----------------
Ġmechan isms
Ġ3 4
Ġpro s
âĢ ¢
Ġgu ess
Ġder ived
ree k
Ġres olution
Ġbeaut iful
Ġform at
Ġcit iz
B L
Ġocc up
ot yp
ĠD an
in te
Ġsu st
as c
a ud
Ġf old
Ġestim ated
Ġ vert
Ġ4 2
as ma
res ents
sub set
ym ph
Ġch ain
ĠE m
Ġsubject s
S te
Ġpur poses
l if
âĢ ²
Ġfl oor
ĠB ank
S U
Ġco e
L ine
R ep
ĠBl ack
b an
ĠN OT
ĠO h
Ġide as
Ġg al
ograph ic
re ated
Ġj ava
ĠE ast
Ġp ool
Ġpro sec
Ġadd ing
Se e
und ay
Ġatt orney
t ical
Ġpol ic
Ġe at
alle l
is ation
Ġpl us
P P
Ġm ouse
Ġcont ained
Ġproper ly
ri an
riv ate
def ault
ĠAn y
Ġd oll
Ġfor ces
F irst
Ġcrim inal
Ġserv ed
Ġint ended
ser ver
id ge
app a
"> </
n am
ot imes
w hat
ace book
ĠS et
Ġem pt
Ġeconom y
c ence
in ner
d ots
Ġc old
) [
Ġ il
or ry
mod el
Ġext ent
Ġdirect or
Ġelect ron
ge bra
il os
Ġn an
Ġexper ien
olog ies
Ġchar acters
( &
S O
ck now
ĠR ap
} -
Ġcomp osition
Ġbre ast
Ġreg ist
Ġdefend ants
Ġerr ors
re es
so le
č ĊĠĠĠĠĠĠĠĠĠĠĠ
h ow
es is
Ġdecre ased
wh ile
Ġgen etic
f unc
Ġb ool
23 1
ĠGo ogle
Ġmembr ane
Ġcon vers
fra k
op ic
Ġsal es
Ġorgan ization
Ġthan k
AL L
ĠR em
res ult
ou te
F I
k g
ang ing
Ġag ency
Ġfeel ing
Ġr ise
Ġw at
ĊĠĠĠĠĠĠĠĠĠĠĠĠĠĠĠĠ ĠĠĠĠĠĠĠĠĠĠĠĠĠĠĠ
** ]{},
P er
Ġdist inct
M T
Ġfin ite
. [@
] [
Ġgl ass
r ich
Ġ" [
24 8
Ġcommun ic
ag o
Ġth read
Ð »
Ġd rop
il k
Ġsh ared
Ġrep resents
r d
Ġann ounced
ĠC R
S ystem
ĠJ ames
Ġoff ers
Ġep is
Ġtechn ique
Ġh ol
G roup
le br
ug in
ĠS uch
in y
Ġc at
ÂłÂł ÂłÂł
Ġ200 4
Ġstru gg
Ġ$ {
non umber
ĠSup reme
Ġv ent
Ġun ivers
Ġlarg est
) "
et urn
3 10
s rc
ĠK ore
Ġdescrib e
ĠC a
\ !
c ks
Ġinter actions
ord ers
Ġproject s
val id
ld ots
ĠJ ew
ari ant
Ġauthor ity
Ġexper t
How ever
Ġhyp ot
Ġc ir
I O
ra pe
pos s
. $$
Ġe arn
Ġspect rum
Ġs av
d t
Ġslight ly
Ġdecre ase
a per
c el
Ġcom fort
en ame
Ġst ars
C he
h i
T O
Ġdise ases
P r
Ġrecept or
Ġjur is
Ġhold ing
S ome
ĠD irect
C F
âĢ Ĭ
Ġw ish
it ory
ĠO ver
Ġte ams
Ġinterest s
ty p
Ġent ered
Ġsm ooth
Ġlat est
Ġcon ventional
ĊĊ ĊĊ
Ġout come
Ġsequ ences
ĠCom mun
Ġu ne
$ (
Ġopen ing
c a
d oc
p age
Ġto x
ĠM ac
ues day
23 2
Ġg old
ch ild
il arly
ĠT wo
Ġchar ged
Ġposs ibility
Ġsy mm
ĠP D
Ġof fered
âĢĿ .
j ust
ĠG reen
Ġv el
ĠCoun cil
ĠR E
pl ed
Ġprof ile
s ens
mit tee
at o
Ġw ind
ans ion
ic ians
Ġanalys es
ĠE q
ĠFr iday
Ġsymm et
Ġheav y
B O
Ġsign als
ĠD ay
Ġneigh bor
Ġsum mer
Ġab use
Ġar bit
0000 00
pon se
Ġb oy
Ġst able
x ml
Ġconcentr ations
Ġdri ver
S H
Ġme ant
ĠSt reet
im er
Ġp y
Ġvol t
Ġ --------
Ġcons erv
Ġoffic ers
ĠC irc
N E
Ġexist ence
Ġj oint
ven ue
AN D
Ġcry st
Ġdou bt
ĠC alculate
ject ed
ĠD el
Ġcomp ens
qu ery
u ations
ot ed
ĠCh inese
m ic
Ġinvol ve
ang es
Ġpattern s
È ±
xt ure
mb ox
ĠBrit ish
P H
B ox
X X
n el
Ġpl ants
ĠM art
math frak
C all
Ġwh atever
or gan
d i
ru ctions
P C
om an
Ġown ers
k in
Ġwe ap
ĠCl ass
Ġgu ys
ĠĠĠĠĠĠĠĠĠĠĠĠĠĠĠĠ ĠĠĠĠĠĠĠ
Ġel im
Ġcontroll ed
Ġh us
Ġ} ;
Ġr ing
Ġd ra
om orph
as ks
ut or
S p
U D
ĠD i
ab et
iven ess
Ġex change
. </
st on
Man ager
Ġsy mb
Ġk it
Ġgener ate
Ġprote cted
cre te
k a
ain er
Ġco verage
Ġcomplet ed
ĠS O
he ight
il er
Ġlo op
Ġquant um
a fter
v ille
Ġindic ates
ĠS ur
t arget
Ġd ry
onal d
ĠS ervice
}} {
Ph i
1 01
j o
Ġrepresent ation
Ġident ity
ĠC A
( {
y ou
k i
urs day
Ġincor por
Ġimmun e
Ġconf irm
Ġdig ital
q l
D ate
P RO
ĠW ed
Ġflu id
Ġare n
Ġseem ed
Ġhold s
f aces
Ġrepe ated
Ġcr ime
Ġ3 8
C o
Ġbut ton
ĠFound ation
B ar
ĠPe ople
Ġequival ent
Ġmeasure ments
M R
ĠW estern
ĠE v
Ġdo se
Ġex cess
ist ent
Ġr ank
Ġl it
Ġappe ared
Ġg ain
ĠU nder
Ġinterest ed
Ġsupp ly
op l
Ġb urn
M I
Ġp ure
he nt
ĠAd dition
Ġoper ating
ind er
E nd
Ġhapp ens
Ġcon clusion
} )$
ĠA L
ĠR ich
/ \
ĠD E
se m
" ).
Ġ200 3
An y
u a
Ġl ung
Ġag ents
Ġnet works
Ġdriv ing
P re
ĠM A
Ġpre gn
U E
ĠF OR
ĠĠĠĠĠĠĠĠĠĠĠĠĠĠĠĠ ĠĠĠĠĠĠ
ĊĠĠĠĠĠĠĠĠ ĠĠĠĠ
Ġstate ments
Ġjob s
c hen
Ġsecond ary
Ġpr ison
ĠMich ael
Ġf irm
======== ==
l n
Ġmaint ain
nes day
N et
ĠCan ada
Ġcustom ers
ill a
34 9
ç ļ
ail ed
app ro
E O
ĠE R
ĠR ober
Ġrefer red
Ġc atal
p ack
Ġ ------------
Ġs ession
Ġdis p
Ġmus cle
Ġinst r
Ġview s
ĠB oth
Ġreturn s
ĠF e
ĠF in
Ġorig in
os c
Ġpe ace
ell ed
S ON
Ġempt y
U G
Ġ ĊĠ
ĠIn stitute
Ġapp rec
Ġtre nd
Ġassess ment
Ġm obile
**************** ****************
)/ (
çļ Ħ
Â »
Ġqu arter
; \
Ġconfig uration
ane ous
F P
Ġdi ag
ĠMon day
d raw
se y
Ċĉĉĉĉ ĉ
Ġpartic les
Ġhe ter
Ġ201 9
id em
Ġrun s
f alse
Ġimport ance
But ton
Ġdown load
Ġl ibrary
ĠN O
Ġpart ners
D on
ĠTe chn
Ġgr and
oth ing
ur ies
Ġqu ery
Ġsu ff
Î ¼
b a
y r
ĠA rm
o om
Ġdig it
ĠE X
Ġdevelop ing
Ġre ality
clud ing
Ġdel ivery
ad y
ri age
ra ction
Ġc overed
ĠSm ith
an es
rid ge
Ġal cohol
Ġ ing
Ġopen ed
we b
ĠY es
ar p
] ),
ĠB en
Ġ rac
Ġiss ued
Ġliter ature
ĠO ut
AT ION
ĠS unday
Ġcon vert
s or
te x
\ {
Ġch ronic
Ġknow s
Ġext ension
Ġhigh light
k appa
ic ated
( {\
Ġm ixed
ĠIn s
ĠĠĠĠĠĠĠĠĠĠĠĠĠĠĠĠĠĠĠĠĠĠĠĠĠĠĠĠĠĠĠĠ ĠĠĠĠĠĠĠĠĠĠĠĠĠĠĠĠĠĠĠĠĠĠĠĠ
l ook
i h
Ġass ay
ĠA re
R L
---- ---
Ġ5 00
8 25
ste in
w in
am ine
Ġth reshold
Ġappro ved
Ġm m
Ġform ula
Ġb orn
Ġc ateg
Ġl atter
Ġremain der
U M
Ġtrans mission
Ġint ent
Ġb ra
\ |
ĠW ell
OR T
Ġsur vey
c are
ocy tes
ĠT ra
ul in
Ġext ended
il ty
Ã ¶
as ure
g ments
ĠF acebook
an cing
Ġsqu are
Ġcall ing
ĠE very
ĠChrist ian
ed y
Ġpol ar
ĠSe cond
du c
94 6
Ġw ire
Ġoccur s
Ġacc um
pro cess
it ect
or row
Ġexpl icit
ĠP ort
Ġlead er
Ġin ner
ab ilities
: \
ĠM al
Ġpercent age
he tic
} =\
Ġexc ell
} +
S M
Ġa head
T A
Ġv acc
al ysis
IT Y
im g
ĠCom mittee
Ġchar ges
ĠA R
ĠUn ion
Ġextrem ely
se lect
Ġcol lege
Ġsubsequ ent
oc ity
R ef
P e
)* (
Ġf lex
Ġ+ =
Ġcar bon
ĠK e
on na
am ing
Ġallow ing
ap ache
ol f
Ġreg ulation
Ġun iform
Ġsign ed
Ġeffic iency
Ġb ow
supp lementary
Ġout comes
Ġex amples
Ġhelp ed
Ġce lebr
m ain
Ġest imate
Ġh ab
Ġbal ance
atur day
Ġle aving
Ġgreat est
ad s
og ene
ed ia
201 6
ific ations
ĠLe ague
ĠD O
Ġrece iving
ĠComp any
Ġsp ot
Ġt error
Ġevalu ated
ortun ately
Ġapp oint
ns on
Ġsubstr ate
T E
is hes
Ġl icense
ant ly
Ġinte ger
ĠF rench
sum mary
ĠSc ience
n ames
ry pt
ĠWh y
Ġclust er
Ġrecord ed
====== =
V ert
Ġcandid ate
Ġarg uments
h ouse
Ġsp irit
Ġenvironment al
Ġf ish
Ġe lev
er ic
Ġsubstant ial
am ily
Ġtra in
Ġfil ms
le m
w ed
ĠF inally
Ġrepresent ed
h as
ribut es
om es
The n
pl ify
Ġsc ene
Ġunder lying
Ġhus band
Ġthous ands
à ¤
b al
Ġcent ury
Ġf uel
Ġst re
Ġha ven
Ġconcer ns
Ġrel ief
Ġatt ract
Ġdec isions
st d
Ġar r
Ġfra ction
201 5
ĠM et
ĠM iss
Ġ200 1
Ġmost ly
Ġexam ined
Ġcur ve
Ġ4 4
Ġno ise
form at
Ġgu arant
Ġimplement ation
Ġbe g
Ã ¤
i as
z en
g ers
Ġdisc rim
f irst
' .
A ccording
othe rapy
! --
ĠA ir
? âĢĿ
" ),
Ġspe ech
leg al
Ġra ise
ĠT R
Ð º
Ġbook s
ĠB re
Ġpath way
d el
ĠP ress
Ġm aster
Ã ¼
Ġbud get
ĠAssoci ation
d r
Ġcomp ounds
Ġown er
Ġt ens
$ {
Ġmor ph
Ġw ood
Ġl ymph
d ependent
pro perty
it ative
ow s
D B
Ġpower ful
ï¼ Į
it ely
ĠS olve
et te
** (-
Ġpl asma
Ġst ored
re al
Ġlearn ed
in i
y a
Ġf ol
CT ION
Ġfre edom
aut hor
e rest
c at
ĠW indows
Ġch urch
Ġspec ified
ĠJ er
but ton
U s
d iction
C lick
Ġposition s
let s
ph one
Ġapp ar
J ust
Ġc up
ĠT uesday
Ġf ans
land s
e vent
^+ ^
P art
stand ing
Ġpay ment
Ġstandard s
Ġv ill
i pped
iv o
Ġsupp osed
Ġv ary
row ser
Ġpl ane
ĠD uring
ER T
ak ers
Ġ7 5
Ġrec overy
s ive
ip al
Ġpolic ies
V A
Ġsh ut
ĠU sing
ĠGerm any
D L
ĠT om
ĠA rt
", "
---- -
Ġgo als
** ]{}
Ġsche me
ok es
Ġmetab ol
N umber
Ġser um
r ig
Ġviol ence
end ment
201 7
In put
se arch
pro duct
ĠâĢ ¦
m essage
i pl
Ġdep ends
ĠThe orem
A Y
ok ing
Ġevent ually
Ġcrit eria
Ġproced ures
ĠS erv
dim ensional
Ċ ĊĠĠĠĠĠĠ
Ġper t
ĠI ran
Ġgrant ed
z eta
Ġachie ved
Ġmanufact ure
Ġch osen
Ġ 00
ĠL ou
Ġlimit ations
Ġf arm
Ġl ab
Ġman ager
Ġeval uation
Ġinc ub
rape ut
Ġtyp ical
Ġdes ired
Ġinvestig ated
Ġp aint
end if
Ġact s
The se
ĠM em
Ġs ale
ĠJud ge
}} _{
Ġobserv ations
ist ed
Ġacc ord
ĠI P
abl a
Ġinde ed
Ġsee ing
Ġcy cl
---------------------------------------------------------------- ----------------------------------------------------------------
Ġent itled
Ġstrong ly
Ġinc ident
Ġconstit ution
he t
ĠB el
Ġad ult
201 3
g ression
ĠRap ids
Ġs ch
is her
"} .
Ġapplic able
Ġrelig ious
n ight
> (
ĠM any
s d
) =\
Ġvers us
Ġcomp r
Ġa cknow
ĠB ay
Ġe cho
ĠC ell
ĠJ es
Ġrest aur
ĠM at
Ġen force
it able
ruct ure
ĠP et
Ġfour th
Ġvolt age
ann els
Ġle aves
ĠAmeric ans
Ġhous ing
cret ion
amp ions
Ġin sp
Ġeas ier
B ack
Ġdeterm ination
a id
Ġox id
ĠÃ Ĺ
f old
Ġsp end
Ġtest ified
d em
fl u
Ġdirect ed
P ol
Ġ6 4
Ġisol ated
Ġbab y
r l
Ġli ver
ber t
Ġse ctions
Ġlist ed
Ġpro pos
Ġchang ing
Ġequ ations
Ġt ub
bre ak
ect or
Ġw arm
we ight
ĠTh ursday
R em
Ġsp ring
requ est
Ġdam ages
Ġsk ills
Ġde fect
Ġc ategory
P oint
h ab
od ay
Ġ3 9
ĠFl or
Ġstim ul
Ġconflic t
ĠB rown
Ġj ournal
Ġst rain
u ps
201 2
Ġal ter
IN E
Ġte le
s g
St ream
Ġsens itivity
Ġfl at
ĠCh urch
b ed
Ġwar rant
Ġd aughter
Ġdoc uments
Ġfe es
ĠPart y
clus ive
Ġmod ified
E xt
Ġear th
ĠH ill
Ġconsider ing
Ġrestr ict
Ġ200 2
ĠA S
ĠEng land
å ı
velop ment
Ġacc ident
Ġelect ronic
g y
St art
Ġresult ed
A re
Ġem ph
im ately
Ġ6 5
c p
ce ived
ost er
Ġfl oat
Ġbound ary
Fil ter
ĠC opyright
Ġtra ffic
Ġsignal ing
ĠM o
Ġpurch ase
Ġre vers
Ġam az
s he
ĠR ob
Ġdat as
Ġd uty
ĠN one
Ġrese arc
, '
ĠU N
al ty
Ġg ar
Ġcommun ities
Ġwa iting
Ġhum ans
Ġfor th
m t
ater al
act iv
ĠCol lege
ot es
T e
Ġf if
ple t
ĠWed nesday
ĠM S
lev ision
p g
ent ry
Ġfoc used
Ġappro aches
H S
am ental
Ġl ose
Ġpr ices
Ġposs ibly
Ġrec ip
un it
] --
el se
ĉĉ ĉĉ
Ġthan ks
Ġo dd
ri end
iver se
Ġf ill
Ġdetail ed
Ġd ys
n ull
ĠC T
3 00
Ġsh ock
Ġang le
el es
Ġdis ch
sc ale
B P
Ġemploy ed
n abla
un s
ition s
Ġ5 5
ĠWe b
: **
Ġd raft
ĠI II
Ġdep th
int on
ĠGovern ment
Ġrad iation
Res ult
ost ic
Ġjo in
C N
201 4
? ?
ĠF ederal
) ^{
ro g
Ġsee k
Ġbr anch
ri ve
U I
Ġpl ays
us hed
Ġexpl an
Ġinvestig ate
M D
st ood
$ $\
ick et
ĠS al
Ġsh o
Ġcon clude
ĠO pen
Ġemploy ee
l aw
in ations
ĠWh ich
il de
Ġcomp are
ĠS am
Ġre b
Ġ ion
oper ative
b ug
Ġad ults
j son
ĠF orm
pl oad
Ġaff ord
ip her
Ġt ag
ĠP R
Ġcomm itted
Ġrelationship s
ou nce
l ang
ĠC P
Ġbelie ved
Ġdep ending
ĠS N
Ġr ich
Ø §
Ġtw ice
Ġfor ced
Ġcr is
Ġaccur acy
Ġwill ing
Ġm o
Ġsp at
Ġce re
s f
ty le
d y
j ud
ĠV ir
Ġinvest ment
Ġgal ax
i ot
Ġtri als
ig r
": "
Ġtrans cription
G B
]-- [@
m atch
Ġexp ansion
Ġne ither
Ġb right
ĠT ime
add ing
Ġfund s
en ance
Ġplan ning
ĠU p
con f
p ng
Ġre plic
Ġfund ing
g ent
Ġmain ly
Ġob lig
er ated
con text
F O
" "
Ġst ories
Ġadv ice
Ġassum ing
S ince
Ġexcell ent
G en
ust er
Ġconcer ned
Def ault
Cont roller
Ġstand ing
Ġexp osed
% .
Ġc ogn
Ġg onna
Ġgu ilty
Ġst ack
c r
.... ....
Ġcap able
Ġmeasure ment
- (
Ġexperien ced
Ġint ensity
i ological
/ -
201 0
AG E
Ġmin im
Ġappar atus
Ġs am
Ġinvol ving
ĠG old
Ġsymb ol
Ġb one
Ġn av
Ġbi ological
Ġsett ings
Ġconcer n
G e
ic ian
ap ers
sm all
Ġpart ial
Ġst em
ĠW ork
Ġr ats
Ġim aging
ĠS um
Ġhel ps
Ġfin ished
Ġdemonstr ate
en u
Ġcons ult
Qu ery
Ġcitiz ens
Ñ ĥ
ploy ment
Ġ1 20
M ore
Ġ ice
Ġpol l
est ed
ĠRuss ia
Ġevalu ate
________ ________
Ġn odes
Ġn ine
Ġint ellig
abet es
201 1
Ġplaintiff s
ĠD iv
j e
j u
in n
Ġinter vention
Ġpre val
G A
Ġenh ance
Ġm es
Ġdis k
Ã Ĺ
Ġoff ense
omet ric
med ia
p ress
Ġassess ed
ĠI F
Ġst reet
Ġt un
Ġind epend
ĠS aturday
ĠH IV
on ly
Ġask ing
Ġo rient
ab il
ont al
Ġphen omen
ĠR ef
Ġcomp etition
ĠM ex
Ġclaim ed
Ġframe work
Ġc ort
Ġext ends
V ersion
ut ely
ĠL eg
Ġcell ular
Ġsuit able
us iness
S L
Ġad vert
Cont ent
ĠM ot
Ġanal og
Ġor dered
Ġsc ores
Con ne
fe e
m ethod
ain e
Ġide al
d at
Ġcrit ic
ell ular
idel ines
Ġsuggest ing
Ġpotential ly
ro ke
k et
Re ad
Ġsal t
Ġwor se
AC K
Ġrel ates
in v
ĠT ype
ĠF IG
Ġconf idence
S R
est ic
ĠOff ice
v in
and a
Ġ iron
il ton
Ġpl ot
Ġcont ribution
oc hem
Ġbre ath
Ġst ability
ĠF ield
Ġ4 1
poss ible
out hern
ĠE nd
L oad
ist ory
Ġph ilos
ili ar
G l
Ġf ab
Ġdo ctor
Ġdef ic
Ġcon ference
ft ware
c uss
N e
O K
St atus
k er
ool s
Ġchalleng es
ĠH all
C reate
Ġd il
T ER
* ^
F C
m as
w er
ad ata
_{ {\
out put
d ep
et ime
Ġ4 6
Ġro ck
M on
Ġarg ues
ap pe
"} )
Ġg ly
T Y
Ġb atter
Ġadminist r
} /
Ġfrequ ently
ĠCirc uit
Ġt ight
in ates
Ġc ash
r r
Ġax is
x e
Ġpers ons
Ġl ic
======== ====
Ġm el
Ġdel iver
Â» Â
c f
Ġrec all
miss ions
Ġres ource
Ġf av
Ġd uration
if ies
Fr ame
cl ient
ĠRepublic an
Ġgu ide
od ed
Ġre nt
Ġemploy ment
Ġantib ody
Ġpe pt
Ġj ump
Ġcontin ues
cal e
Ġstr ict
Ġadv ance
ell a
hel ial
Ġ3 00
ar ks
Ġdep artment
Ġbr and
F IG
Ġdim ension
ĠA lex
1 10
Ġaccept ed
Ġadv anced
fl oat
Ġvirt ual
RO M
Ġu int
ĠFlor ida
Ġtem plate
Ġ4 7
if ferent
Wh ich
S cript
Ġr an
ĠM ary
us al
âĢĿ ,
Ġlegis l
ant ic
FFFF FFFF
ĠRuss ian
ĠG a
//////// ////////
Ġc os
Ġre verse
dd en
Ġann ual
Ġbur den
2 000
Ġlink ed
Ġsecond s
Ġ4 9
st atus
Ġsto pped
ĠAustral ia
Ġ4 3
Ġb ag
Ġ5 6
D ec
i ples
Ġnecess arily
Ġsc ope
ĠF ile
Ġpoly mer
ĠIs lam
ĠF ree
Ġp al
Ġa st
ĊĠĠĠĠĠĠĠĠĠĠĠĠĠĠĠĠ Ġ
ĠI T
w ar
ĠS D
s in
ĠL in
Ġmi xture
D et
ra q
Ġad equ
L ast
ĠR ule
app ed
Ġend ed
Ġm outh
ãĢ Ĥ
as hed
ort ed
it ud
ĠP lease
Ġjuris diction
Ġc row
S olve
Ġimprove ment
) ]
Ġ& =
Ġconst raint
ill er
Ġmur der
ĠU se
Ġlim its
um ns
Ġthere by
i ary
B R
Ġv itro
Ġch ief
Ġsy nd
Ġcons ent
g t
Ġas sembly
Ġth in
ĠAN Y
" ]
Ġrem ained
ĠP en
ĠMin ister
Ġkeep ing
clus ions
t ings
ĠO nce
Ġor al
ple te
ri p
ĠB er
Ġdec ide
Ġcourt s
ĠDef endant
mod ule
ĠC I
Y eah
ĠL em
Ġso le
ĠJoh nson
ear s
ub untu
Ġident ification
ĠS un
ĠG ood
Ġass igned
P ost
Ġpar allel
ĠN a
Ġsign s
H A
} )\
Ġindic ating
rodu ction
mon th
Ġr ough
Ġmole cules
AB LE
ro ot
re y
G o
Ġdisc overed
Che ck
ĠB ur
Ġvel ocity
Ġm and
Ġentire ly
Ġe gg
l ayout
Ġstatist ical
Ġun known
Ġrecogn ized
Ġ _{
Ġcont ribute
ĠJapan ese
L ayout
Ġm RNA
EN D
Ġneur ons
M ay
Over ride
ĠI R
NA ME
m g
Ġprov ision
l ife
Ġs ides
Ġhe nce
ĠW IT
Ġst ick
Ġmess ages
rapeut ic
re p
Ġform al
Ġac ute
Ġmark ed
ĠPro ject
ĠGe orge
Ġnumer ous
Ġar ms
Re ferences
L abel
ort hern
Ġdefin itely
c up
Ġwas te
ĠGerm an
ĠAp pe
Ġaspect s
Ġdeg rees
Ġinter act
m id
op ath
Ġfac ilit
al ian
ic ago
Ġra re
Ġsu dden
dis play
Res ponse
ĠIntern et
ĠH en
Ġs pl
Ġpop ulations
U til
Ġcam era
Ġwid ely
Ġposs ess
or ters
ĠSe cret
Ġun able
I ST
ĠP C
ĠH ence
201 8
ed ing
u int
Ġphot o
ro ad
Ġattack s
arg s
Ġph arm
Cl ient
du le
Ġopp osite
Ġ ens
Ġb inary
ĠOn ly
ic ious
Ġdepend ent
Ġhe m
Ġfund amental
ĠO N
ĠS U
line ar
Ġt ables
Ġgl uc
he ther
ĠL ike
Ġpro test
Ġill ustr
( [
Ġs an
Ġinterpret ation
Ġep it
Ġ1 50
Ġgra v
g ical
ul ed
Ġvari ation
ĠSen ate
Ġdis put
Ġbe at
Ġo xy
ĠC le
P lease
Ġamount s
it a
Ġsens itive
ĠPro gram
Ġre produ
Ġn orth
t ag
om al
ĠC N
Ġcommon ly
C ell
Ġal gebra
ĠTw itter
ens ed
Ġjust ice
op hy
\] ).
Ġsupport ing
ĠR ad
Ġmicro sc
os h
Ġsim pl
Ġbe coming
Ġstra ins
00 7
Ġar ter
f ind
00 6
ĠF ore
Ġcomp ound
ĠFr ance
Ġn arrow
Ch ar
Ġap opt
Ġt on
Ġman aged
A ction
Ġaccom pl
Ġinst ructions
est s
Ġcon ven
ell o
ern el
Ġsc hed
Ġend s
cont rol
ad ian
ag on
ir al
Ġcomm ission
Ġcor re
12 0
} |
ĠL og
Ġsupp l
I B
Ġunder stood
Sim plify
Y our
č ĊĠĠĠĠĠ
st s
m ut
ĠL ord
Ġac adem
Ġflu ores
Ġdest roy
Â ·
Ġsh ip
u h
ĠE arth
ĠSt at
ĠG ive
Ġconsider ation
Ġscient ific
ĠP A
(\ [
Ġabsol ute
Ġstart s
ch ron
cl aim
ne xt
Ġcharacter ized
Ġt or
an ning
Ġm ission
~~ ~
y e
Ġs ought
ĠS and
br id
B ase
Ġcons c
ä »
D P
Ġsub set
Ġmot iv
Ġinter val
Ġacc el
A meric
G E
Ġmin ute
ĠT ur
Ġaccur ate
Ġco h
Ġmass ive
Ġtechn ical
Ġatt ached
Ġest ate
Ġgirl s
ĠThe ir
ER S
Ġdist ingu
Ġpur su
le ctions
Ġs in
ĠW il
Ġsm art
y er
w s
Ġre nder
ul ating
om ial
Ġtr uly
Ġint ra
Ġ7 2
Ġdec ades
Ġcustom er
Ġv ess
Ġem ission
Ġnot es
Ġp ix
Ġ[ [
# :
Ġh ole
co in
Ġrequire ment
t ra
Ġ$ -
Ġpredict ed
Ġf illed
Ġpro lif
ef fect
c ut
Ġg ender
Ġu l
Ġcon cluded
Ġdynam ic
Ġcon j
or ation
Ġconsum ption
Ġsmall est
ĠD en
AS S
Ġse at
and roid
p hen
w ing
as y
se ct
ĠInst ead
Â º
ul s
G R
ĠN or
ĠS E
Ġc m
os a
n av
ive red
ĠI raq
ĠPro f
Ġsec ure
ex ec
Ġsee king
Ġobserv ation
Ġpl astic
ĠS ing
L S
Ps i
ER R
et ilde
Ġappear ance
wid etilde
ĊĠĠĠĠĠĠĠĠ ĠĠ
Ġoff set
ĠJes us
Ġ19 99
app end
Ġass istance
cle ar
Ġresid ents
or al
i ability
Ġeffect ively
am ber
ĠH el
ash ion
Ġsen ior
Ġm iles
ĠSt and
200 9
Ġexp ensive
n ut
Ġdynam ics
he rent
Ġcol on
Ġcomp act
Cont rol
Ġus ual
i ams
i pping
r ine
ick en
gr ade
\[ [@
ap se
Ġen able
pro te
Ġp H
Ġviol ation
ĠTh omas
Ġ5 4
Ġs q
$ )
G G
ĠP y
Ġobject ive
F S
Ġtiss ues
Ġimpl ies
ĠS ol
at ric
ĠP RO
Ġpart ner
ĠFr ank
Ġstrateg ies
ir ty
12 8
sc rib
Ġla unch
Ġatt end
D NA
) }\
Ġ ĊĠĠĠ
Ġint ention
ac ent
Ġsp ending
Ġord ers
F R
y an
ĠH y
ĠP CR
ĠOb ject
ant a
Ġco ach
ĠJust ice
Ġrel ax
opt ion
Ġartic les
ĠM ont
OR D
Ġca using
Ġr oute
ER E
Ġfavor ite
Ġtri p
ĠM ethod
Ġad mitted
Ġes c
ĠInd eed
Ġmort ality
Ġap art
Ġf an
Ġarch itect
Ġs outh
sh ow
ne ver
en ess
Ġp ed
str ong
Ġb oot
Ġcor ner
ĠR iver
Ġswe et
ĠT or
We b
ĠJ ava
Ġf ell
um er
Ġpract ices
and er
Ġinhib ition
Ġar range
Ġdis cretion
ak ed
Ġrespons ibility
[ "
Ġte levision
à ¸
Ġneg ot
Ġch air
Ġz one
Â ¶
}} ,
ed s
ins on
Ġg ap
) |
}} {\
Ġbro ken
Ġc art
T wo
m L
ist or
z y
ĠB i
ĠM ass
Ġp ages
Ġm ethyl
ĠS pec
Ġ5 2
c ss
A m
Ġorgan ic
Ġ$ {{\
Ġper man
Ġn om
ĠV iew
ĠSt r
Ġun ion
Q U
Ð° Ð
ren cy
ĠH uman
ĠD ec
cd ots
in ite
ĠLou is
Ġover l
n umber
Ġsp aces
val ues
Ġantib odies
AR R
Ġan c
Ġch annels
ĠIn formation
et ch
b ound
v a
Ġrep air
pro p
Ġdifferent ial
Ġinf o
od er
Ġam b
Ġestim ates
hy dro
ĠB ill
Ġ5 1
ĠP H
cre en
Ġv ivo
ĠAn n
ur a
ĠCl inton
t ab
Ġto ler
ad ow
' ).
Ġse ctor
ard en
an i
ĠG al
Ġwatch ing
Inst ance
ĠAP I
Ġex ceed
av el
* /
M C
I E
Ġinstall ed
ress ive
Ġkn ock
ĠAfric a
4 00
s ign
ĠV ol
Ġinform ed
Ġab und
N ote
ogen esis
N U
Ġprinc iple
S u
Ġmut ations
fe ctions
ĠPh il
Ġthe ore
ĠT imes
a o
] );
Ġhor iz
ox id
Ġcandid ates
Ġpers pective
p rivate
T D
z ing
us cript
h igh
Ġrepresent ative
k es
msg id
ribut ions
om er
Ġde let
Ġsuccess fully
Ġf ont
ĠM ath
ĠSo ftware
R ight
Ġstruct ural
ĠE duc
B D
msg str
++ )
ollow ing
ogen ic
Ġresearc hers
Ġse a
Ġpair s
Ġprom ote
oun ter
Ġhom es
W here
Ġs itting
Ġm argin
ott ed
Ġwor ry
h al
Ġdes c
f a
Ġm aps
ĠPro te
Ġrecomm ended
c ard
ĠCh ild
Ġsup ra
** ,
per ties
Ġmar ried
or a
Ġfor g
M B
Ġmat ters
ok ed
Ġ ---
Ġgen ome
go ogle
G C
Ġre act
ple x
Ġhundred s
Ġp et
L C
Ġautom atically
G u
Th anks
Ġredu cing
Ġturn s
Ġinj ection
ĠF ed
p et
w ater
Ġim possible
ord s
Ġtarget s
s ystem
Ġ1 01
ym met
Ġexam ination
ĠU s
Ġsol ve
T S
se ud
Ġed itor
Ġv ul
Ġdom in
Ġsupport s
Ġs plit
Ġp p
Ġdeterm ining
Ġwr t
H z
Ġoxy gen
Ġob ser
ĠS l
Ġsupp lement
Ġpre v
Ġbas eline
Form at
ne g
Ġlarg ely
Out put
v ant
Ġpass ing
Ġj u
Ġemb ed
s pe
Ġme rely
Ġpie ces
v ol
Ġdeb ate
Ġterm inal
Ġweek end
Ġconcer ning
b our
Ġe ating
ott en
Ġpolit ics
Ġassum ed
ĠRober t
pt ic
Ġt ip
ĠC r
Al though
ĠSt ar
ĠApp ellant
ĠMed ical
u um
Ġf aster
Ġsc r
ĠM ag
F e
Ġtrans cript
Ġsignific ance
Ġlov ed
Ġl uck
Ġ19 98
Ġinvol ves
ĠS P
Ġmar riage
ĠCar ol
Ġrepl aced
T C
Ġse gment
Ġvis ible
Ġb ath
Ġb attle
Ġal t
ĠCh icago
Ġpath ways
Ġx ml
ole cules
Ġinn ov
L ook
Ġfor get
Ġl aser
Ġprov ed
tem plate
S tyle
Ã §
Ġemerg ency
ĠM ad
P age
ig an
Ġr ational
Ġcomp re
Ġdi vers
Ġcris is
re r
] ]
Ġa id
N F
Ġput ting
. âĢĻ
per t
ĠSec urity
ĠÎ ±
Ġbehavi our
athe red
ob j
ol a
Ġv ision
& =
Ġfam iliar
ro t
Ġdirect ory
ĊĊ ĠĠ
f it
Ġflu x
Ġst ret
v o
we et
Ġleaders hip
Ġexper iences
O ff
Ġact ing
Ġj e
are n
ach ment
Ġn ative
H el
Ġpartic le
th m
Ġprop ag
ĠS ocial
Ġspect ra
Ġl ived
ĠL ong
ĠL ife
Ġco f
Ġman uscript
Ġres on
Ġproport ion
Ġs and
ĠAn other
Ġclos ely
t w
Ġd ream
Ġprim arily
cont in
r ition
Ġfin ish
Ar g
Ġl ie
Ġ[ ]
Ġad m
An other
Ġexpl ore
Ġg ate
Hand ler
Ġ\ >
ĠAfric an
B uffer
Ġelectr ical
ĠN A
anc is
Ġreg ister
at rix
R el
ag ger
ap ed
im b
ĠIt s
Ã³ n
ĠN E
Ġsus pect
Ġaccord ance
Ġprinc ipal
st ar
ĠSc ott
O U
Ġ4 00
200 8
Ġdis order
Ġdi abetes
ĠG reat
Ġjo ined
ĠC ap
le ments
Ġsim ult
Ġdel ivered
d ist
Ġint r
M ode
Ġag greg
Ġ19 97
Ġd ual
Ġp ump
et her
O O
Ġa th
Ġdanger ous
Ġra il
Ġs orry
Ġ19 90
Con st
Ġs ac
Ġtre es
Ġamaz ing
Ġ9 9
Ġcorrespon d
Ġb io
Ġmaint enance
le e
Ġhon est
Ġout er
Ġdis orders
ane ously
ĠI V
Ġlow est
rac ellular
m es
M r
ĠE qu
ox y
ĠW all
Ġve get
Ġremov al
Ġp ig
Ġwalk ing
ĠMus lim
or ption
Ġtherm al
ĠB E
Ġarg ue
V is
ik i
Ġdog s
P at
f riend
Ġinj uries
Ġl ig
Ġgrow n
Ġp or
Ġb ott
Ġ* )
Ġneg lig
Ġur l
AR E
s a
Ġclos er
the n
ĠSp ring
Ġcontain er
Ġm ilk
( *
F OR
Ġhe ll
ent ed
}} ^
ĠE U
Ġfac ilities
Ġbusiness es
Ġauthor ities
Ġenh anced
ident ial
N ext
Ġcons ists
s n
Ġloc ations
Ġv it
pl ant
Ġcomp osite
Ġcorrect ly
Ġ20 20
Ġinitial ly
Ġb ind
ĠA cc
li k
D C
č Ċĉĉ
> ,
Ġc ities
Ġsens or
f ast
k l
ĠE xt
sc he
ĠA rab
T em
AC E
Ġfl ag
ic ular
ĊĠĠĠĠĠĠĠĠ ĠĠĠĠĠĠ
ell ar
Ġshe ll
Ġcontribut ions
Ġoper ators
Ġl ots
et al
ur ally
v i
Ġpost ed
ĠM icrosoft
Ġb le
15 0
l ines
Ġmen u
Ġconvers ation
Ġintegr ated
Se lect
C ons
Ġbl ocks
Ġfra ud
ĠF our
. -
Ġexec utive
Ġd ress
the less
Ġr ub
W S
Ġdoll ars
Ġs ke
is c
ð Ł
ĠB ack
ol y
Ġtell ing
u zz
amet ers
Ġconsequ ences
Ġcre ation
lect ric
Ġpract ical
P CR
Ġ5 3
Ġin equ
ĠW al
ĠQ ue
Ġsol ar
des cription
Z E
Ġarriv ed
`` `
I ES
Ġcou pling
II I
k ins
ĠP ut
Ġm ine
O ther
Ġde fe
99 99
00 8
ĠCent ral
Ġmonitor ing
e lement
Ġwe ar
Ġcharacter istic
och ond
Ġle ague
Ġlay ers
Ġgu ard
ĠC y
m ann
Ġas c
xi ety
Ġopportun ities
Ġext end
ay ers
m o
ĠRich ard
Ġbe am
Ġbacter ia
ĠW here
Ñ ı
Ġsynd rome
Ġpoint ed
] $
h r
Ġbi as
Ġcl ar
and on
ĠM ax
ĠJ ones
\* \*
L a
Ġâ ī
ĠN av
Ġfeed back
ir us
Ġag ing
ĠÂ µ
\ ^
Ġpro hib
Ġj our
B efore
el i
Ġb odies
Ġdisplay ed
ampions hip
eg er
b ool
en a
Ġre form
ĠH ospital
medi ate
Ġneut ral
Ġeven ing
Ġupd ated
Ġc aught
Res ults
ĠW H
Ġme at
reat ment
ĠR T
Ġbu nd
Ġspat ial
Ġinstit ution
ort ion
Ġimplement ed
opt ions
ist ing
Ġabsol utely
C IT
id ents
call ed
ro vers
Ġinst ant
IC E
Ġdep ression
} +\
M ax
unt ime
Ġ19 96
Ġ" (
p df
Ġthe rapeutic
Ġst ages
Ġr ig
Ġorgan izations
Ġsc al
ĠRe ad
z er
Ġ1 000
ru ption
Ġident ical
Ġil legal
Ġserv ing
ĠN ame
att ice
ult ure
Ġtrou ble
Ġcount s
Ġthought s
Ġsq rt
ij ms
Ġspect ral
Ġp ip
ĠCom mon
Ġconstruct ed
Ġsynt hesis
Ġbig ger
ĠDemocr atic
ĠPol ice
as ive
. /
Ġhelp ing
00 000
Ġtax es
Ġemb od
ĠCol or
} );
Ġcl ients
Ġtot ally
ĠWill iams
Ġk ick
Ġunc ertain
ĠC amp
ĠO ffic
Ġcontroll er
ĠS k
Ġsub mitted
Ġadopt ed
ot ing
p ers
^ -
ĠCh ief
h ome
m osp
Ġclass ical
av as
rol og
ĠÂ £
Ġass ault
Ġapparent ly
Ġf uck
Ġsurround ing
t xt
1 000
Ġf iber
Ġrec over
li ament
Ġdes ire
L R
Ġphot os
Ġam ino
Ġden ote
Ġto m
Ġb an
ĠR oy
ĠC ath
pro ject
D I
Ġspe aking
Ġwe alth
E ng
ĠA v
Ġmaint ained
Ġsub t
mat rix
Ġconv iction
Ġsu c
Ġemot ional
c ers
Ġmin imal
s v
** (
Ġinter net
Ġt asks
Ġmet ast
ĠL O
ic ate
oh n
Ñ ĭ
roll ed
Ġsur ve
erv es
tt p
Ġmark ets
s up
Ġcor on
Ġcoll abor
Ġrem ark
Ġhouse hold
ĠFr ancis
ĠMc C
Ġs ports
Ġclass ification
g ence
Ġr id
Ġpull ed
ĠCont rol
Ġ5 8
ĠĠĠĠĠĠĠĠĠĠĠĠĠĠĠĠĠĠĠĠĠĠĠĠĠĠĠĠĠĠĠĠĠĠĠĠĠĠĠĠĠĠĠĠĠĠĠĠĠĠĠĠĠĠĠĠĠĠĠĠĠĠĠĠ ĠĠĠĠĠĠĠĠĠĠĠĠĠĠĠĠĠĠĠĠĠĠĠĠĠĠĠĠĠĠĠĠ
Ġmed ian
Ġher self
Ġ{ {\
Ġpreval ence
Ph ys
Ġneighbor hood
Ã £
Ġarg ued
od ium
ĠB it
ĠĠĠĠĠĠĠĠĠĠĠĠĠĠĠĠĠĠĠĠĠĠĠĠ ĠĠĠ
Ġscre ening
Ġult imately
Ġpost s
Ġ"" "
ĠKore a
ĠF ire
â ĸ
Ġprepar ation
ĠĠĠĠĠĠĠĠĠĠĠĠĠĠĠĠĠĠĠĠĠĠĠĠ Ġ
b uf
Ġdr am
Ġk ne
Ġman age
Ġli ability
Ġfig ures
Ġopt imal
sk i
sens ors
G ener
y les
å Ī
Ġfab ric
Ġinstr ument
ĠH E
Ġcatal y
ag en
Ġexplan ation
\ "
ĠVir gin
Ġrot ation
Th read
Ġc oc
S m
um s
ĠJ ose
com mon
Ġfac ility
æ ľ
Ġprom pt
Ġde pos
Ġepis ode
ĠS H
Ġaccount s
v ider
un te
Ã¡ Âº
Ġhypot hesis
an ol
Ġn m
M ar
]^ .
Ġessential ly
O ptions
ĠÎ ²
ĠB as
ĠMed ic
R ow
Ġadv oc
er ry
is or
Ġ9 6
Ġimpl ied
Ġdep art
Ġsu gar
200 6
se cond
erm an
UR L
Ġreg ulations
otyp es
Ġs ounds
Ġcogn itive
Ġdescrib es
Ġappro val
Ġclust ers
O pen
Ġprof ession
T ex
ĠPl an
y g
ĠCor p
ĠF A
end ants
st ack
Ġfind s
ail ability
M in
respon se
ri ers
O H
rit er
Ġpict ures
wide hat
et ing
200 7
ĠV is
Ġprov isions
ĠServ ices
appro x
equ iv
u ke
sc ill
on ym
Ġne ck
ag raph
N one
ĠChe ck
Ġw arn
Ġh al
Ġass ign
b el
Ġf ellow
Ġvot ers
E very
u ated
Ġmod ify
r ics
f oot
all ow
if ts
Ġqu iet
Ġenc oding
at ural
Ġen em
ĠLem ma
\] ),
Ġs ong
r b
Ġcur ves
be red
Ġunivers al
Ġcopy right
s ur
avas cript
Ġclos est
Ġcateg ories
b orn
Ġprinc iples
sp ring
Ġrad i
Ġhe ro
Ġl ob
Ġrec ording
ĠApp le
u able
Ġimmedi ate
12 5
serv ice
Ġdif fer
Ġposs ession
F unction
in et
ĠH ome
Ġ8 5
Ġrem ote
B M
ĠN Y
ĠDemocr ats
Ġexam ine
s plit
Ġt ro
Ġinc idence
ĠDe velopment
}\ ,
Ġenzym e
Ġp in
Ġreal ize
f fered
Ġlog ic
Ġt it
Ġill ness
Ġte aching
ĠS ign
F ind
Ñ Į
er ior
Ġl ies
Ġdisc overy
B ecause
Ġobvious ly
= {
ĠAddition ally
ad ed
Ġc ov
Ġwor st
Ġnorm ally
D ev
Ġcon sole
Ġpur s
Ġyou th
b ottom
ĠV er
ĠM ult
Ġrecogn ition
âĢ ĺ
al a
m ode
Ġtreat ments
Ġing red
Ġreg ression
ĠĠĠĠĠĠĠĠĠĠĠĠĠĠĠĠĠĠĠĠĠĠĠĠĠĠĠĠĠĠĠĠĠĠĠĠĠĠĠĠĠĠĠĠĠĠĠĠĠĠĠĠĠĠĠĠĠĠĠĠĠĠĠĠĠĠĠĠĠĠĠĠĠĠĠĠĠĠĠĠĠĠĠĠĠĠĠĠĠĠĠĠĠĠĠĠĠĠĠĠĠĠĠĠĠĠĠĠĠĠĠĠĠĠĠĠĠĠĠĠĠĠĠĠĠĠĠĠ ĠĠĠĠĠĠĠĠĠĠĠĠĠĠĠĠĠĠĠĠĠĠĠĠĠĠĠĠĠĠĠĠĠĠĠĠĠĠĠĠĠĠĠĠĠĠĠĠĠĠĠĠĠĠĠĠĠĠĠĠĠĠĠĠĠĠĠĠĠĠĠĠĠĠĠĠĠĠĠĠĠĠĠĠĠĠĠĠĠĠĠĠĠĠĠĠĠĠĠĠĠĠĠĠĠĠĠĠĠĠĠĠĠĠĠĠĠĠĠĠĠĠĠĠĠĠĠĠ
ob s
ĠP o
Ġrequest s
201 9
Ġdepend ence
Ġt ail
Ġtrig ger
ter day
Ġ1 10
Ġall oc
ific ate
crib ed
ĠC up
om atic
ell er
d ouble
Ġm ic
ĠO S
not e
Ġb ought
Ġcru cial
Ġcommit tee
Ġkit chen
Ġp it
ch ain
ĠF re
ens us
Ġm ask
v m
em ia
Ġgluc ose
ve ctor
Ġtrans formation
Ġh urt
K e
Ġrul ing
ap h
is ters
Ġpl ain
ĠL ib
m i
~ ,
Ġlo an
Ġmut ant
Ġregist ered
in ical
Ġshe et
ĠRe view
ĠIs land
Ġsubst ance
W ho
te en
ĠB uild
l oc
16 0
M ult
Ġplan et
Ðµ Ð
Ġf ashion
B E
Supp lementary
ut ory
Ġtrans action
Ġreport ing
b en
Ġp ri
ĠL abor
p a
Ġreal ized
Ġtell s
) +
Ġra w
Ġper ipher
e per
LE CT
Ġo k
ĠF il
b uffer
Ġth r
Ġe igen
00 9
ĠF und
G S
Ġ$ (\
Ġdriv en
Ġdra wn
Ġin fections
In it
Ġprom ise
Ġo kay
k t
ĠDirect or
AT A
Att ribute
č ĊĠĠĠĠĠĠĠĠĠĠĠĠĠĠĠ
01 0
ne q
Ab out
// /
Ġnot iced
head er
P I
Ġrequest ed
Ġcapt ure
s i
Ġsp oke
Ġ Ø
Ġcont rovers
W ork
pro t
id ity
ĠT em
il a
cent er
ĠRep ort
ĠInt erest
ic ide
V er
bl ing
Ġhelp ful
Ġ5 9
Ġch art
the re
Ġb ars
Ġrespect ive
Ġsit uations
em ents
Ġin fected
Ġro les
F actory
Ġn g
25 0
Ġarrest ed
Ġshoot ing
: (
Ġre actions
ĠZ e
ĠM er
Ġsome what
Ġm M
Ġc as
Ġin fer
N R
Ġret rie
ĊĊ ĉĉ
Ġcompre hen
Ġcompl iance
duct or
Ġmechan ical
v ision
is er
Ġf ruit
C urrent
es ides
ĠC are
ĠH T
Ġexper ts
ess ions
L ength
f ortunately
Ġinit i
Ġsubstant ially
Ġ5 7
Ġh ate
Ġrad ical
Ġpre ced
H C
ĠA ri
U P
Ġour selves
Ġm ail
Ġo scill
ĠSecret ary
H L
Ġcount y
b efore
Ġs ick
S pec
Ġcompens ation
Ġread s
ĠWill iam
ĠS pe
Ġfe e
Ġper mit
in er
ĠR oad
Ġde grad
ak istan
Com ponent
Ġsuper ior
S V
Ġk ing
| |
f ill
Ġtop ic
Ġb low
Ġcont ents
Ġ19 95
ĠH aw
Ġapopt osis
Ġgu idelines
cuss ion
Ġexc ited
Ġp il
ĠEduc ation
Th ank
um a
ĠTh ose
Ġdro pped
s en
av en
Ġreg ime
ever al
ost on
un ched
% ),
R un
25 5
Ġac ids
ĠHen ry
rupt cy
ST R
M em
erm ine
Ġpres um
ĠC L
d irect
Ġhapp ening
ĠĠĠĠĠĠĠĠĠĠĠĠĠĠĠĠĠĠĠĠĠĠĠĠ ĠĠ
& &
Ġ\ -
Ġg ro
Ġcorrel ated
Ġrelig ion
Ġs ister
Ġass ets
Ġbo ost
M ENT
ĠL ake
ĠDe v
Ġg au
qu are
Ġat mosp
vent ions
Ġfail s
ĠT im
ĠWh o
Ġl en
Ġdis ag
Ġth or
ĠM el
Ġ6 6
Ġoff ering
ĠT ext
Ġm ent
Ġocc asion
. **
Ġun iversity
Ġsur gical
Ġre nd
Ġh all
Ġvir al
Ġsepar ated
Ġf urn
ĠN on
up date
He y
Up date
Res ource
Ġdeath s
Ġapp lying
ĠTh anks
az ine
Ġ> =
ĠM ur
)* (-
-------- --
D irect
Ġattempt s
cl ose
Ġcoh ort
Ġcir cul
ĠA ma
ut ch
Ġcal c
O per
W idth
Ġcont em
F E
Ġenforce ment
Ġlist en
ĠAd minist
P a
Ġprolif eration
Ġpass word
V D
Ġs oul
P tr
ĠS ociety
Ġg ast
T I
Ġcar cin
Ġinc red
Ġcult ural
Ġcarry ing
ĠP ower
Ġ6 3
Ġimag ine
ARR ANT
Ġman ip
Ch ild
T ab
yn omial
Ġprefer red
C ore
ent er
ib ilities
Ġsust ain
ĠP eter
Ġinst ruction
=" #
ĠT re
Ġre ct
Ġl ens
Ġcl imate
Ġtransfer red
Ġch apter
Ġrapid ly
Ġy e
Build er
ĠB et
}^ \
eng er
Ġmill ions
Ġknow ing
Ġext ensive
W E
L ink
r h
c i
Ġmedic ine
Ġdiv ision
Ġvert ical
N D
Ġopp osition
Ġt aste
Ġal pha
atter ing
Ġinflamm ation
Ġaud ience
Ġweap ons
ĠMart in
ish ment
`` ``
Ġelectro de
Ġor th
Ċ Č
Ġf o
out s
ĠG L
Ġwhere in
Ã£ o
T oken
it ure
200 5
Ġpick ing
igh ter
Ġtum ors
] [@
ãģ ®
ĠN ever
est ion
ĠDiv ision
Ġdi ameter
=" ../../
AT H
ĠW ARRANT
Pro cess
ĠL i
Com mand
ĠS il
Ġacqu ired
"} ),
h an
Ġh idden
Ġret ail
}^{ (
Ġpurch ased
ĠCor por
Ġmoment um
Ġcon version
Pe ople
Ġaut hent
Ġconsum er
St r
Ġindu ction
p in
Ġa ver
Ġmit ochond
Ġshe l
Equ al
Ġcof fee
Ġ\ {
W indow
ĠW ood
Ġper mission
ĠD onald
Ġ\ *
Ġaff irm
ĠHam ilton
Ġ6 2
Ġslow ly
Ġconsc ious
Ġansw ers
ĠM s
ĠC all
Ġsur faces
Ġdecl ared
Ġs port
ym pt
x p
ĠEx p
s ome
Ġadd ressed
A g
Ġpl anned
Ġinstit utions
Ġ }}
Ġdocument ation
at tr
Ġv ide
empt y
Ġgr id
ari able
ĠJack son
Ġintrodu ce
Ġmor al
m ond
ĠJ o
Ġwindow s
Ġinflamm atory
es ter
Ġlegis lation
Ġpow ers
% %
p ower
A K
t x
Ġb rowser
Ġwalk ed
Ġ6 7
Ġcomplic ated
Ġrel iable
W H
ĠGr and
is ely
Ġser ial
ĠLe e
or ne
Ġan xiety
Ġacc used
ĠP an
ĊĊ ĠĠĠĠĠĠĠĠĠĠĠĠĠĠĠĠĠĠĠĠĠĠĠĠĠĠĠĠĠĠĠĠ
Ġform ing
Ġstat istics
Ġ" \
Ġfight ing
Ġre in
Ġ{ {
Ġv en
ha ust
Ġincreasing ly
Ġan s
b untu
Ġco al
] \
act ic
ĠJ ournal
g raph
** *
Ġgr ade
B B
ri ents
Ġpay ments
Ġtemper atures
S Y
ĠAt l
Ġrecogn ize
Ġ6 8
u y
ol id
Ġn ic
Ġcomp at
Ġbuild ings
Ġcryst al
-------- -
ak s
ffic ients
or ig
Ġdiv ide
f iles
ĠAr ch
( _
Ġreview ed
f ix
25 6
Ġf ault
Ġso il
ĠM E
Id ent
Ġorig inally
Al so
Ġcou pled
in ition
ĠCon st
Ġfe els
Ġev ident
Ġassum ption
d x
O M
b les
ĠMod el
ĠI g
olog ic
Ġpublic ation
Ġbi om
col umn
Des cription
IN D
Ġown ed
q quad
Ġm ir
Ġl ift
Ġcirc le
ĠR eturn
å Ĳ
Ġdisch arge
ĠD C
Ġrad ius
Ġintellig ence
Ġwe ather
Ġset up
IG HT
typ es
V ID
Ġturn ing
Ġfe at
200 1
p op
Ġpay ing
men u
Ġteac hers
avel ength
cl ick
D ialog
Ġsh aring
Ġdecre asing
Ġ19 94
Ġbo olean
å ®
ass oci
Ġwin ning
> &
r if
Ġtw enty
Ġt rac
}} ^{
Ġany way
Ġintegr ation
Ġthe orem
Ġs izes
Ġed ges
List ener
Ġag ed
ic ing
Ġparticip ate
rib le
ann ot
G ood
L ocation
ira ble
ON T
Ġb in
ĠL os
Do es
ĠA ff
01 5
Ġw ine
Ġcalcul ation
a us
Ġcorpor ate
p ush
Ġun iverse
Ġ --------------------------------
am ination
ann er
Ġext reme
ĠAtt orney
Ġris ks
Ġc ab
Ġcl ock
. $
; </
ĠT op
Ġsu ffered
] "
Ġattempt ed
Ġh un
ĠN ov
Ġ6 1
Ġpursu ant
' $
Ġt ract
ro sc
Ġst ood
Ġcent re
Ġmet ric
ĠDan iel
200 4
Ġ ),
G T
com ment
ç Ķ
ax is
app oint
uss ian
AR Y
ĠI C
Ġcar s
Ġ ],
Ġcoe fficient
sequ ently
Ġkind s
Ġregul atory
raz il
Ġit er
Ġmov es
Config uration
Ġwar ning
D id
Ġg ift
Ġres pir
Ġv ast
Ġh ur
ian a
Ser ver
, $
ri um
Ġcry pt
Ġvictim s
Ġlabor atory
re ement
am ely
Ġal ert
ĠG NU
01 4
Ġdecl ine
Ġcalcul ate
Ġsepar ation
v y
Ġf ant
Ġbo ys
Ġobser ve
EN SE
Ġscen ario
Ġfl o
N OT
Ġas ide
H is
ut ing
ĠD ate
ĠMex ico
t mp
ĠI r
ĠDo es
Ġinst ruct
Ġbelie f
U RE
Ġeng aged
Ġfair ly
6 00
Ġyoung er
Ġ rows
Ġhydro gen
Ġteac her
Ġpat ent
UL T
oc racy
ast s
Ġsche dule
reg ulated
EX T
Ġdec ade
ĠOh io
Ġw ra
Ġcol umns
H R
= (
Ġcho ices
Ġrestaur ant
j a
Ġsim ulation
B lock
ag ues
t ml
Ġg od
v as
ĠM ount
Add ress
ĠAc adem
Ġregard less
b ial
ar ation
Ġl attice
S F
Ġs i
dev ice
Ġbatter y
rou d
Ġhot el
)) )
w est
ĠMay be
Ġint ake
Ġindust rial
c ert
Ġst er
Ġsubsequ ently
P M
T arget
Ġpresent ation
Ġconstitution al
n ic
g age
Ġconne ctions
% ;
P AR
al d
) }$
D D
g i
t ed
Ġpro be
de g
Ġcol le
Ġref used
Ġsh op
C or
Ġperform ing
Ġdom estic
ĠU RL
Ġhy brid
ĠMe an
E l
Ã ¨
Ġin qu
Ġreg ional
gen er
Ġmut ation
Ġpropos al
Ġcorrespon ds
Ġ19 92
G ET
ĠW ater
p ool
######## ########
P i
Ġst ead
en v
in fl
Ġdis appe
Ġ& \
n i
ri ver
Ġveh icles
Ġbet a
Ġn od
elle e
Ġent ity
Americ an
Ġrepresent ing
Ġproceed ings
Ġbacter ial
ĠAppe als
Ġrecept ors
Ġnew sp
Ġm eth
Ġsuff ering
Ġvul ner
Ġsim ulations
che m
Ġ19 80
Ġrem ind
Ġadj acent
Ġst ores
Ġcomfort able
em a
Ġch amber
Ġt ube
ĠS C
Ġsem i
Ġaccom mod
Ġintegr al
Ġde lete
ĠG ame
s id
Ġb are
osp it
Ġne u
al ign
ĠTr ust
ĠCon stitution
Ġs ad
V AL
ĠC ard
oid s
ĠV ersion
ĠF ind
ĠAm ong
ĠR am
ĠAccording ly
iction ary
Ġsav ed
Ġbeg ins
Ġacknow led
ĠIn it
ino is
d l
Ġcon d
"} ](
Ġbas ically
Ġres c
Ġatt ribute
m ult
Ġground s
Ġsupp ress
oper ation
Ġal k
Ġmarket ing
ĠTh ree
b c
in als
-------- ---
ĠEx per
ĠVirgin ia
ay lor
Ġextract ed
Ġ: :
Ġag encies
Ġthick ness
ĠN ext
ĠBl ue
ĠPar is
{ -
riv ial
Ġmanufact uring
Ġf ly
Ġprodu cing
Ġgood s
script style
Ġrepe at
Ġmod es
fil ter
Ġfood s
ĠĠĠĠĠĠĠĠĠĠĠĠĠĠĠĠĠĠĠĠĠĠĠĠ ĠĠĠĠĠ
os ome
c pp
OR E
Ġprof iles
ĠOr gan
Ġwonder ful
Ġequ ally
Ġprep are
Ġel ig
Ġesc ape
M any
ĠP akistan
Ġdisc over
H D
Ġoper ate
Ġperman ent
Ġpre jud
ĠRepublic ans
Ġmanif est
N ull
Ġto ken
conne ct
E ven
Se cond
ĠJe ff
Ċ ĊĠĠĠĠĠĠĠĠĠĠĠĠĠĠĠ
ion e
ĠM a
ĠE D
form ed
Ġappl ies
min us
ĠP ac
ĠâĢ ¢
as tern
Ġte ach
Pro ject
u ity
Ġw ed
Ġstand s
que ue
Ġemploy er
ter ior
Ġconsequ ence
He ader
Ġw inter
Ex ternal
Ġphosph ory
M et
Ġsem icon
ĠB oston
D eb
ĠÐ ¿
oles ter
agn etic
Ġhyper t
Ġsm oking
Ġpol ym
Ġinhib itor
Ġstri ke
Ġt ough
Ġperiod s
comm and
Ġpetition er
Ġm ob
1 12
ly mp
Ġl osing
Ġover ride
Ġ19 93
Ġvol unte
Ġcoe fficients
i ology
Ġstrong er
10 5
C a
min imal
bur g
Ġad verse
ĠTr ue
Ġactiv ated
Ġres erved
Re v
Ġwrit er
Ġk illing
Ġpro gression
ĠGe org
Ġf ro
Ġab normal
Ġreview s
Ġsatisf ied
Ġsuc ceed
Ġfac es
ĠJew ish
re port
no on
ag ers
Ġvers ions
B o
Ġf er
Ġcont ributed
R ed
Ġdeal ing
Ġw al
Ġl augh
Ġrequ iring
om ething
Ġ== =
document class
m ake
ĠB ush
Ġex cluded
Ġcomput ed
Ġencoura ge
Ġke ys
Ġdim ensions
Ġw ound
ĠL ine
Ġ< -
Ġcyt ok
gh an
Ġob st
Ġeffic acy
}. $$
Ġbe ar
od ds
Ġcalcul ations
ĠG iven
Ġex it
Ġpl enty
Ġrob ust
Ġdivers ity
Ġsus cept
ĠF ood
d p
Ġb rown
Ġgu id
ĠNet work
ĠL ast
Ġst aining
rop y
Ġre fere
A c
Ġon going
Ġwall s
å ħ
ch ing
Ġnew ly
Ġins ulin
b ro
n ov
Ġtarget ed
Ġmagn itude
Ġsurpr ising
font s
Ġ$ |
a ft
n one
Ġcomplex ity
L ocal
ĠR ock
Ġath let
if er
Ġmod erate
------------ --
ON E
ĠC am
Ġthere of
Ġass ist
names pace
U se
Ġopp osed
Ġtrans lation
Ġbring ing
ud d
all oc
Ġm eta
he mat
Ġper m
Ġmin ister
fr ont
ä º
Ġre new
Ġ: )
Ġden omin
Ġarbit rary
Ġcheck ed
Ġinj ured
k o
y es
Ġcol ors
Ġap artment
D r
Ġpol ynomial
ĠCon ne
Ġpregn ancy
ct x
Ġe c
Ġcont rary
Ġmiss ed
re ason
m eta
ĠU ser
Ġinvolve ment
Ġsp okes
Ġread er
ĠCan adian
ef ined
ĠL and
Ġhead er
Ġfor t
ar ia
~~ ~~
M ark
Ġver dict
pos itive
Ġcre ates
ic an
n c
Ġinst ances
Ġbr idge
Ġfac ing
è ¿
------------ -
Ġacadem ic
ric es
AA AA
Ġincub ated
ent h
Ġus age
Ġbe er
Ġstatist ically
Ġconsum ers
g ly
Ġc rack
C al
c us
Exp and
ä ½
ual ity
Ġmom ents
) }{
Ġt ort
ĠJ im
Ġinf rast
as i
S l
Ġfl ight
Ġadequ ate
Ġs ight
8 00
Ġbring s
Ġn urs
erv ation
Ġsum mar
ĠM ike
il ation
Ġtra ined
Ġwe aring
Ġmark ers
Ġsurpr ise
Ġvict ory
l ie
ĠY et
ĠR ight
Ġpul se
O B
Ġfam ous
st ep
ĠCarol ina
est inal
ĠDes pite
ĠSim ilarly
Ġ\ "
Ġdiag ram
eli hood
Ġd ict
Ġex haust
off set
ot ox
j pg
ens or
r in
Ġla unched
ĠB ased
Ġh orm
um es
Ġ rib
Ġround ed
Ġv eter
Ġter rit
Ġdiagn osed
ocy te
Ġemph as
ĠCl ub
ĠO per
Ġ2 50
Ġmat ches
ans as
v als
Ġeng age
omet imes
c it
Ġgl ut
raz y
W R
Ġhistor ical
ĠB ook
Ġ7 4
ĠK ey
N ET
W ill
Ġsatisf y
Ent ry
G O
ĠY ear
itro gen
200 3
lik ely
av ed
Ġcar b
Ġcardi ac
App lication
Ġalleg ations
Ġstim ulation
ĠP T
Ġre const
red it
Ġmi R
Ġvill age
M ost
Ġshould n
ĠE rror
ĠAng eles
D M
Ġval uable
Ġann ounce
Ġsam pling
Ġord inary
Ġdatas et
ĠL o
Ġtechn ologies
Â ®
Ġy ellow
Ġtr uck
ĠAn alysis
Ġelect ed
Ġexpl o
os ity
Ġmov ies
Ġch icken
ĠProf ess
A F
ad ium
ex ample
Ġles ions
Ġtheore tical
Â §
Ġre ly
Ġpres ents
Ġpart ially
Ġf inger
sh ould
Ġis land
)$ $
Ġth rows
Ġlip id
Ġsome where
Ġre ferences
Ġbu g
Ġstat utory
Ġal ign
L ike
Ġad hes
ĠYou ng
Ġpl ur
S ION
Ġre venue
Ġac et
ĠL ook
ĠAg ain
Ġinv al
ĠChrist mas
Ġmagn et
N um
b ot
e h
ĠPl ay
Conne ction
ĠU V
ĠAm endment
ap es
Ġf ed
Ġload ed
) âĢĵ
il ib
u an
ĠF ROM
^{ *
conom ic
oc ard
un ct
RNA s
ĠCom put
Ġt ab
. ^[@
S QL
ĠB usiness
ĠN C
Ġabs orb
Ġwith draw
N C
aw a
Ċ ĠĠĠĠĠĠĠĠĠĠĠĠĠĠĠĠĠĠĠĠĠĠĠĠĠĠĠĠĠĠĠĠĠĠĠĠĠĠĠĠĠĠĠĠĠĠĠĠĠĠĠĠĠĠĠĠĠĠĠĠĠĠĠĠ
ĠOr der
w hen
Ġcorre ction
ĠG R
p ref
Ġdec ay
m olecules
ĠAma zon
Ġindu ce
u ction
Ġc ro
ĠG O
medi ated
Ġm erg
Ġb anks
IL ITY
T yp
ra ge
ĠJ ul
10 7
ĠIm age
Ġim posed
Ġcare fully
' ),
end ar
L Y
ĠM ake
Ġpred iction
Ġp seud
Ġm igration
Ġd ust
ĠH A
in cluding
we red
ĠRe al
lim its
Ġelev ated
Ġt ou
Ġg el
Ġsh ares
Ġapproxim ation
rem ove
ĠArm y
Ġdifferent iation
Ġany where
Ġpriv ile
Ġs now
et ies
}_ \
i Ã³n
Ġw avelength
ĠFor ce
C ome
C ar
? '
Ġm ild
Ġclass ified
Ġsp an
m aster
ac cess
à ¶
Ġsign ature
ov ascular
Ġyes terday
Ġre com
Ġ< =
Ġemb ry
bl ue
Ġ ..
Ġperfect ly
ochem ical
s ys
ĠM AP
ĠĠĠĠĠĠĠĠĠĠĠĠĠĠĠĠĠĠĠĠĠĠĠĠ ĠĠĠĠ
Ġmetab olic
W rite
ox ide
irt ual
Util s
y d
Ġexec ution
ĠN umber
Ġded icated
Ġhab it
con duct
200 2
ĠB ob
ĠMich igan
Or der
Ġk ernel
Ġnumer ical
Ġt ack
Ġev il
ĠAut hor
10 4
}^{ -
Ġfra gment
Re ference
Ġcar rier
N on
Ġch ose
ict or
ious ly
Ġabs orption
Ġd ialog
ĠC ase
Ġur ban
oc us
Ġdiscl osed
Ġcoun cil
Ġg ather
is ition
Ġkin ase
for ward
A ccess
un icip
Ġco ast
par ams
Ġwhe el
G P
Ġ7 7
Ġdisc ipl
Ġint el
ĠVal ley
b ul
i ations
Ġne ural
Ġgau ge
Ġs elling
cl ip
TY PE
Î ³
st one
Ġintrodu ction
L D
Ġd inner
on a
Ġdom ains
ogene ous
Ġve ctors
add ress
P ER
et ry
Ġste el
ĠAr ray
Ġb read
Ġwel come
U ST
Ġ9 7
Ġcoord inates
Ġch lor
Ġ{ }
ys ym
Ġhand ling
Ġimp air
Ġeduc ational
Ġampl itude
Ġdis pl
Ġserious ly
r ick
R ange
Ġn a
Ġres olve
Ġsub stit
Ġp apers
Ġm amm
st at
Ġbl ind
ĠS pecial
Ġafter noon
10 3
> \
Ġwork er
Ġmat hemat
R eturn
Le ft
ĠChar les
Ġm apping
), \
Ġbelie ves
Ġflu ct
um ps
Ġpl ug
Ġgalax ies
Ġsufficient ly
ĠH and
Ġinfrast ructure
D uring
ĠB efore
Ġthem e
ĠIll inois
Ġreve al
ol t
Ġqu ad
Ġcontroll ing
Ġexplicit ly
ĠSt art
point s
th rough
Ġ9 8
c ule
Ġb il
O kay
ĠB razil
Ġat oms
Ġant icip
ĠMr s
Ġdist ributions
irc raft
Ġo l
Ġgen u
P V
Ġune x
bl og
}{ -
Ġgreat ly
set length
g reek
og ether
Ġ1 80
Col lect
ĠL ight
ams math
ĠL ab
Ġ6 9
Ġdes k
ĠTe am
ĠG re
Ġimpro ving
f inal
pl us
du ction
Ġm ales
gress ive
el ly
Ġun us
Ġbre aking
bs y
P osition
Ġr ide
Ġdrink ing
Ġim per
}} )
Ġret ire
Ġn erve
Ġvari ations
Ġconstraint s
Ġhere in
ĠM O
IV E
St ud
Ġchalleng ing
Ġleg s
Ġrout ine
d est
th read
Ġprof it
Ġcompar able
Ġre nal
D own
10 2
ure au
Ġal le
ĠL A
Ġcard s
Ġor b
Ġst roke
olester ol
ĠR o
Ġdist urb
D ep
Ġthous and
p erson
t wo
on ia
ct ic
ier arch
ss ymb
Ġc ited
). $$
Ġgre w
w ill
Ġthe rap
am ssymb
Ġinter mediate
Ġgl ob
Ġrestr icted
Ġdiscrim ination
Ġmult ip
Ġload ing
Ġcomprehen sive
Ġcon sec
sq l
j i
Ļ ª
S ch
sc ri
es ome
ĠH O
ĠO ld
E ach
Ġo s
Ġcon form
az e
Ġdiv isor
ĠTechn ology
rs fs
$ _
Ġconv in
k it
Ġ= \
ĠCath olic
ams fonts
Ġ7 8
Ġsing ular
idem argin
math rsfs
odds idemargin
D IR
was ysym
u ct
ams bsy
Ġp roud
ĠH ot
up greek
Ġt ank
erg ies
is ons
ĠP O
Val id
Ġf unc
Ġdi verse
Ġs oc
Ġ$\ {
Ġf ract
Ġprec isely
ce an
aut h
Ġcut ting
Ġfrequ encies
Ġnear by
Ch ange
z ero
y nt
if act
ĠB ow
Ġb its
im a
Ġmark er
Ġ icon
Ġc ache
ĠDet ermine
f oo
ot ion
tic le
Ġconserv ative
T HE
U rl
ĠPal est
% ).
19 99
su per
Ġsimult aneously
all s
z o
Ġh ospit
ĠL ocal
a fe
ĠĠĠĠĠĠĠĠĠĠĠĠĠĠĠĠĠĠĠĠĠĠĠĠ ĠĠĠĠĠĠ
O p
is k
ĠT own
F inally
Ġquant ity
Ġcop ies
Ġsymmet ry
op rote
Ġindepend ently
Ġrestr iction
ĠJ r
ĠĠĠĠĠĠĠĠĠĠĠĠĠĠĠĠĠĠĠĠĠĠĠĠ ĠĠĠĠĠĠĠ
clud es
Ġpen alty
sh ot
Ġrespond ed
Ġin clusion
Ġcont rad
Ġserv es
me an
aterial s
AP I
in ating
Ġs au
Ġcomp aring
Ġnat urally
s es
ĠSupp ort
Ġd a
Ġarg s
Ġ Ï
E v
ĠK im
ĠCorpor ation
Ġdifficult y
Ġaccum ulation
Ġmetabol ism
\ .
r as
et he
He ight
Ġfew er
S ign
Ġsett lement
Ġsemicon ductor
Ġ8 4
ir ms
12 3
rom ise
ĠMed ia
l ocation
Ġbro ke
Ġal ive
Ġadd s
Ġdiagn ostic
Ġ1 30
it o
ĠC ivil
cl er
Ġtim ing
Ġsurpr ised
Ġperipher al
it an
Ġwat ched
ĠP oint
Ġpos it
O nce
Ġre jected
f act
ĠF ox
mon ary
s uch
} [
ĠH R
Ġcl ot
ĠIn vest
Ġuns igned
Ġ Ù
Ġ( $\
Ġclass ic
C V
Ġb at
Ġw ww
ann a
w orld
Ġany more
A cc
Ġexhib it
} -\
)âĢĵ (
ĠApp lication
Ġbeh alf
w an
Ġcl oud
]{} ]{}
Ġsk y
Ġbu ying
Ad dition
par se
Ġconsist ing
Ġjour ney
Ġrespir atory
Ġcont ends
Ðµ Ð½
U C
Ġn erv
Ġtra ce
ĠW T
Ġaud io
Ġins u
Ġcomplic ations
ĠS her
ĠC hem
ĠCol umb
Ġprov ider
ĠW omen
or ial
A CT
Ġdenomin ator
Ġredu ces
Ġge ometry
ĠM il
Ġab andon
f ull
Ġle af
aw s
Ġpass ion
Ġa er
Ġapp ell
Ġsched uled
Ġst abil
} "
t reated
min ent
IC ENSE
r ical
Ġ9 4
Ġ7 3
ĠB est
let on
Ġbas ket
Ġ7 6
sc r
Ġdo ct
Ġdys function
p res
Ġhas n
Ġen abled
Ġn amely
ĠK ar
Ġdes cript
back s
add r
T P
{ "
aw n
Ġw aves
Ġo mitted
Ġprov en
Ġ7 1
Ġpartners hip
Ġprov iders
J ohn
Ġwhe never
ĠJ oe
< \
Ġfif th
ĠPro position
an im
ĠJ on
Ġph r
Ġfluores cence
Ġcre am
ĠDes cription
P an
Ġpro gn
es ity
Ex ec
Ġan not
or se
Ġby tes
ju ana
are t
ĠA LL
Ġyield s
ĠP ers
ĠH D
T ag
ari juana
ĠS QL
C ase
ile y
P o
Ġs ending
Ġshould er
ĠC EO
associ ated
æ ĸ
ĠT oday
ĠO K
Ġele ctions
ra ined
h ar
ĠCh ris
Ġcap ac
Ġm arg
Ġ8 8
Ġmeas uring
material s
\ }
Ġcoord inate
ĠN ick
olog ically
g ame
Ġte eth
im ents
Ġfor um
Ġg all
ĠM iddle
Ġhard ware
Ġbl ank
ĠA ge
n m
gy pt
B U
Ġv o
ĠC reate
ĠE th
Ġprec ise
ĠM D
ĠF ar
yl van
ĠEn ergy
Ġv ascular
Ġscient ists
ĠP ay
Ġ19 91
ut able
ĠR om
AR D
I LL
0 20
Ġinequ ality
k m
P Y
V M
Ġse ar
Ġbut ter
St at
ĠSp an
omorph ism
ĠB ase
Ġleg it
Ġtalk ed
B it
Ġ1 11
T op
a ired
uc ks
! âĢĿ
f c
op es
Ġref ers
Ġt rib
Ġmod ification
Ġaccom pan
S earch
Ġob j
Ġver tex
------------ ---
Ġingred ients
use um
ib ration
Ġadministr ative
+ ^
Ġcomp osed
On ly
Ġt ick
de c
Ġche st
M ake
ĠE ll
inst all
m ac
ab out
18 0
igr ants
ir y
on ical
Ġunder t
ĠY OU
w art
Ġbus y
Ġcult ures
Ġfail ing
Ġdri vers
M ed
in ction
Ġc able
ĠB rad
Ġinvest ors
Ġsw im
Ġdu plic
Ġcommunic ations
Ġnot ion
Ġent ries
Ġcontin uing
Ġmach ines
Ġsh arp
ins ic
Ø ±
HO UT
Ġbul k
h av
wh ite
script scriptstyle
æ ķ
S um
ĠAf ghan
Ġpl ates
Ġpriv acy
Ġparticip ation
Ġant igen
IG N
Ġun con
Ġinv ent
sc ape
\! \!
ant i
Ġfem ales
Ġalgorith ms
Ġde com
pr ise
Ġ- \
Mod ule
Ġgr an
s ite
Ġvari ance
Ġcare ful
Ġmar ks
ĠD own
Ġco inc
angu ages
Ġmist ake
Ġ} \
P ort
Ġpresident ial
Ġin her
T ask
Ġhead s
w r
dom ain
fra id
01 8
Ġra in
Ġsudden ly
ub unt
ĠPro v
is a
Ġl ayout
ĠC urrent
ub y
erg ic
ĠÂ ¶
Ġaim ed
ĠJ ac
p ie
ĠO lymp
Ġ** (
ĠAustral ian
us r
ĠR et
Ġs odium
Ġs oci
Ġg iant
ĠR est
r ams
Ġ9 3
ĠR un
ne um
Ġstr ange
ĠDav is
Ġre ward
ĠB ern
Col umn
Ġfeel ings
Ġh o
Ġw est
Ġorient ation
< !--
frame work
infl amm
Ġmed ication
em ail
Ġopin ions
Ġdo ctors
Ġprior ity
g rav
ĠPr ime
Ġpark ing
ĠPro cess
Ġloss es
O ption
ĠEng ine
Ġrev olution
P ut
Ġs ulf
IT E
Ġad mission
Ġcut s
Ġ8 3
rou s
ogen ous
Ġadjust ed
ant ed
Ġg ang
ps on
Ġc odes
i pt
Ġfrequ ent
ĠVal ue
r ont
ĠCh apter
Ġfl ash
Ġexc it
c aps
Ġri ver
M ac
Î Ķ
Ġa fraid
Ġ" /
ĠK n
ol ine
we ek
Ġatt ributes
B r
t k
ĠL ie
al i
e z
y y
og g
Ġloc ally
Ġdis h
ire ction
Ġad vent
D ir
Ġsc ored
ic ul
pon ents
Ġtempor ary
14 0
W N
Ġl ists
Ġorgan ized
z one
Ġ} )
Ġb omb
Ġh at
ĠW is
Pro vider
h ave
Ñ ĩ
ult y
back ground
Ġben ch
Ġdis appoint
Ġr u
Ġopp on
Ġe ast
ill ance
ff ff
pro d
Ġprocess ed
ĠRes ults
ours es
mpt y
Ġvide os
Ġp ushed
Ġse asons
U sing
p ot
Ġre ar
Ġcol our
Ġt aught
Ġpros pect
Ġrec ur
Ġp itch
ylvan ia
sec urity
Ġbar rier
re place
F s
X iv
year s
Ġplur ality
M enu
p u
Ġ1 15
ĠR ights
TT P
f ire
ĠC ur
Ġinhib itors
at i
Ġar my
]{ }\
Ġtal ks
ac le
old er
ĠCan cer
, $$
em ic
ĠIt aly
Ġ7 9
ĠSer ver
m al
or i
ĠR O
Ġpow der
Ġread ers
f i
Ġsub mit
Ġcompr ising
ĠP age
Ġpart ition
C ustom
ĠEn ter
Ġexp enses
a ver
Ġweap on
Ġcommit ment
ang ers
Ġnames pace
Ġdomin ant
Ġreason ably
ĠCons ider
) ),
H ttp
Ġde ploy
re lease
Ġsu ffer
Ġsome how
Ġreturn ing
0 23
Ġs ed
et ics
Ġpar agraph
Ġclos ing
Ġimprove ments
Ġex port
olog ist
Ġuncertain ty
k ind
l u
à ®
Ġ8 2
Ġdecl are
Ġ1 25
Ġunder w
Ġdisput e
Ġrec ipe
ĠC ook
ĠM iller
Ġcr imes
Ġtrans plant
Ġche cks
ak a
Ġrece iver
Ġw estern
Ġstrugg le
Ġ1 12
ĠPol icy
ov ed
ĠEx ec
Ġmatch ing
N ames
Ġc av
Ġexec uted
Ġwitness es
st op
rac le
Ġon set
Ġexpl ains
hand le
Ġsc attering
ĠBrit ain
Ġbund le
ĠU k
', '
Ġupd ates
Ġtarget ing
A p
F D
h ash
ĠL ow
n n
Ġr ice
Ġmed i
ubunt or
re ll
ĠMan agement
Ġel der
Deb ug
U nder
ink ing
Ġme al
ĠJer sey
ist ence
ari ate
l ers
the y
Ġun w
Ġ+ +
ow nt
10 8
Ġaware ness
ĠStand ard
PE CT
Ġhous es
ĠW ay
iss ions
Ġ8 7
sh ift
Ġche ap
Ġadvant ages
ĠHT ML
vious ly
wed ge
Ġwere n
Ġ8 9
f ound
ĠT aylor
Ġy ards
Ġhealth care
Ġprogram ming
p ad
Ġa ircraft
put ation
Ġsupp ose
Ġun likely
Ġthor ough
Ġgener ating
Ġpert urb
C B
Ġsat ell
c b
Ġcover ing
ĊĠĠĠĠĠĠĠĠĠĠĠĠĠĠĠĠĠĠĠĠĠĠĠĠĠĠĠĠĠĠĠĠ ĠĠĠ
Ġu pload
Ġgover ning
Ġd ump
Ġgener ic
Ġc razy
Ġtr ick
Ġign ore
f d
Ġres olved
ne cess
p ay
ĠE nt
ĠF unction
Ġcre w
HE CK
Ġsp ons
ĠÐ ²
ERR OR
Ġy eah
uns igned
)) /(
d ra
Ġmanufacture r
ry st
cy cl
Ġver ify
ĠS M
Ġsc an
Ġmaint aining
Ð ²
ĠU I
Ġprevent ion
doc s
ul ator
_{ (
Ġlaw yer
Ġview ed
q q
in ator
Set tings
ist ical
Ċĉ ĠĠĠ
ãĢ ģ
} ]
Ġ$ [
Ġ9 2
E A
Ġ( (-
Ġfall ing
V V
ang ular
Ġprodu ces
F ONT
N P
c opy
ĠC ast
ĠD R
Ġg ay
Ġbroad cast
Ġover come
ĠA ction
d oor
ke ys
ac er
Ġval ve
Ġkeep s
Ġstre ets
Ġh ide
å ¤
st ore
Ġcompet itive
Ġper mitted
Ġextra ction
ĠPlaintiff s
zon a
Ġass ays
w ho
Ġsn ap
Ġdegrad ation
Le vel
ĠC ustom
Ġh oles
SI ZE
ĠCommun ity
Ġf usion
ĠO l
Ġphenomen on
ris es
ĠE L
p ed
Ġatmosp here
Ġperson ally
ou red
E P
\ }$
Ġsystem atic
ĠE lect
à ·
ĠB Y
ĠWil son
Ġ1 23
Ġrough ly
we alth
Ġh ook
ĠCol l
Ġg est
Ġdis ability
ep ing
Ġprofess or
Ġut ility
est ival
form s
field s
Ġdire ctions
r at
Ġthe ories
ĠIt alian
Ġinter ventions
Ġbo at
Ġincorpor ated
ial s
Ġfold er
ow a
E CT
ut ies
Ġfav our
Ġnerv ous
ur able
d ays
i otic
Ġco vers
Ġref uge
P ass
Ġaffect s
Ġquant itative
T ree
in ternal
1 19
st o
ar ters
ĠB a
Equ als
und le
Ġfl av
Ġowners hip
Ġpharm ac
ns ylvania
ĠE vent
Ġnut rition
f ish
ad or
AN G
Ġperson nel
Ġg ent
Ġregular ly
E m
s end
ion ed
reg ulation
onym ous
Ġav ailability
m ethyl
Ġvacc ine
pl an
IT ION
Ġdev iation
è ¯
ĠH ig
ĠTh ank
ĠV an
Ġpept ide
ĠG ar
Ġoper ated
Ġre ject
el a
ific ial
Ġcreat ive
ĠF O
ĠÂ °
S che
d iff
Ġp od
Ġent r
str on
Act ivity
ad vant
Ġ\ #
hold er
Ġelse where
Ġsequ encing
Ñģ ÑĤ
com plete
Ġ( âĢľ
i est
m aking
ĠE gypt
Ġcon ve
cont ainer
b ell
Ġple a
Ġqual ified
g it
Ġcrow d
Ġpass age
Ġclean ing
Ġsil ver
Ġcook ing
Ġfib ers
13 0
Ġintel lect
In v
rop ic
. ;
Ġhas h
Ġde em
ĠGl obal
Ġw et
Ġinn oc
Ġ19 70
Ġmount ed
ilib rium
ĠS at
ad der
ĊĠĠĠĠ ĊĠĠĠ
Ġfil ing
leg ate
act ivity
w indow
Ġc yl
Ġh am
cm d
Ġm uc
v ir
Se ction
Ġcent ers
Ġcon clusions
ĠM ain
Ġvol unt
Ġdismiss ed
b as
ens ities
ag ent
Ġth inks
Ġte en
end ix
Ġfl ood
Ġsyn chron
Ġt ape
Ġ\ ;
Ġdiscuss ions
er k
- *
B ody
aut o
Ġpromot er
Ġinval id
ĠE ffect
Ġtox ic
Ġappoint ed
ĠSh ow
por ary
Ġfall s
Ġ riv
Ġpsych ological
Ġex em
Ġox ide
ĠFrancis co
19 98
ĠC amb
Ġpack ages
{ (
01 6
Ġcolle agues
Ġf ing
ĠM ap
Ġspec im
ĠC ross
Ġover w
Ġocc as
Ġir re
Ġbank ruptcy
Ġind irect
Ù Ħ
Ġre aching
Ġcamp us
Ġcomplet ion
Ġaddress es
end a
Ġpar a
Ġconsider able
L ong
Ġg ut
ac her
Ġcomp ute
Ġ8 1
Ġent ering
Ġtempor al
S ort
ĠH a
Ġphilos ophy
Ġremov ing
Ġst up
10 6
Ġaward ed
ĠF L
t ree
ov ing
Off set
se ason
Ġf el
ĠS ar
Ġ1 19
Ġex clusive
ĠAs ia
c am
Ġ9 1
g roups
Ġin line
ĠL u
s ch
i ro
Ġapprec iate
T otal
Ġrec ru
Ġmass es
ĠWIT HOUT
Ġcon crete
Ġconf ront
Ġtrad ing
SE T
ĠSt an
Ġport ions
Ent ity
ĠS n
Ġguarant ee
ĠL I
se x
ch anged
Ġj et
Ġconvert ed
ĠD id
}( {\
ibr aries
AB ILITY
Ġf le
ĠR od
c ache
Ġans wered
D raw
Ġanaly ze
supp ort
Ġexpress ions
ro oms
id al
Ġab stract
Ġ{ "
f amily
Ġ1 40
Ġproceed ing
Ġvac uum
h space
com ponent
Ġconv icted
< ?
M s
ial ize
au g
Ġa f
Ġinter ior
_ +
at abase
}} }$
Ġd op
G raph
Ġpre lim
V C
ĠP ath
Ġmod ules
Ġc oding
ĠW hether
Ġcomput ing
su ccess
ĠAb out
F urther
ĠB ra
Ġle uk
}} (\
ult ural
SE LECT
Ġembod iment
ĠP L
c ustom
il ly
ĠR ay
ĠS ource
app y
ail ing
ĊĠĠĠĠĠĠĠĠĠĠĠĠĠĠĠĠ ĠĠĠĠĠ
ĠSpan ish
Ġst uck
d on
Ġsole ly
ac et
Ġbound ed
ur i
over ty
h ang
ĠR oman
ĠAp ache
ĠW alk
Ġcomp rises
Ġ19 89
ly wood
Ġu pt
Ġf ired
Ġman ual
Ġexpand ed
Ġfac ed
P RE
Ġcompet ing
Ġcapt ured
c raft
Ġche ese
est yle
gen ic
ĠT otal
ĠC ou
Ġ10 4
Ġbeaut y
Ġadminist ered
ach ine
Ġh ack
ĠSp ace
Ġchem otherapy
Ġ era
ĠD ou
cond ition
ĠG ra
01 7
Ġstring s
ev in
Ġconven ient
R ad
ace ut
ĠAnd roid
ros is
[ [
ĠS outhern
Ġhon or
s is
ed ef
Ġn arr
T V
Ġn it
ĠM R
ĠM en
Ġsh it
Ġsever ity
ĠAnd rew
ĠN FL
Ġlimit ation
et ary
Ġby te
Ġimmun ity
scrib e
p gen
Ġinf inite
Ġsust ained
ad ers
Ġpath s
ynam ic
Ġtrack ing
Ġm a
ot ide
b inding
ĠH un
ul ative
h us
Ġr ural
ĠL ew
ĠD ar
Ġc raft
ĠDef endants
Ġdecre ases
G rid
Ġ1 14
ĠE p
ĠSy ria
Ġhoriz ontal
v s
Ġro of
be ing
Ġcontract s
Ġm arijuana
Ġinstall ation
Ġappe als
Par ameter
11 7
G r
æ ĺ
Ġo lig
Ġmal ign
Ġfol ks
ĠPat ients
d rop
ĠW ild
Ġbenef icial
ĠG P
ear ing
Ġdest ination
am ps
Ġst orm
Ġrec ruit
Ġadvert ising
viron ments
ur d
Ġ0 1
Ġphen otype
de bug
Ġdi ver
Ġquestion na
w orth
ĠD M
ĠK en
Ġmax im
Ġl iber
sh ape
Ġgovern ments
ĠStud ies
Ġ1 13
f in
w a
Ġp ra
Ġinv asion
Ġarchitect ure
f ol
E Q
V ector
}\ \
rop ri
ĠOffic er
Ġtom orrow
arg ed
Ġref lected
Ġconstit ute
ang o
ĠP S
Ġro ots
Ġr h
Ġmove ments
Ġtele phone
Ġmac roph
C le
| ^
ĠT urn
ast y
En c
es h
Ġkid ney
re land
inst ance
bl ack
Ġresid ual
g reen
t oken
Ġcon ce
ĠDes ign
Ġ[ '
ol ving
}} $.
Ġb ub
Ġris ing
Ġimplic ations
Ġ8 6
ĠS ir
Ġsize of
Ġvot es
Ġprotect ive
Ġdef ines
11 1
Ġworld wide
Ġdraw ing
im p
ĠC ru
Ġsepar ately
Ġt iny
Ġv ice
ĠAs ian
ĠCent re
ocol ate
Ġc ust
Ġass ignment
Ġvalid ation
je ctions
Ġg arden
ĠCon f
ãĥ ¼
Par am
ĠS ix
ĠC M
os omes
IS A
b et
ĠAd v
s ession
id get
H ave
ask a
ĠGeorg ia
Ġag ric
ru le
Ġsc hem
Ġrel ating
Ġcr ash
ĠPen nsylvania
Ġphys ics
re q
ĠCon ference
AM P
Ġconstant ly
Ġgrad ient
Ġal tered
Ġaff ili
Ġad mit
Ġl os
Ġfound ation
d ig
ath an
Ġinsu fficient
neg ative
Ġconsec utive
st ra
Ġha z
Ġag es
Ed it
re ams
Ġsk ill
KE Y
Ġse es
Ġsim ilarly
Ġoccur rence
ater nal
ĠAcadem y
Ġs essions
text rm
ĠT ake
Ġflex ible
ÂłÂłÂłÂł ÂłÂłÂłÂł
ĠF ollowing
= -
P G
cell s
S pe
ĠStud y
ĠPat ent
Ġhospit als
inflamm atory
print f
ĠIsrael i
Ġ1 17
n ament
Ġro oms
& #
t ons
h is
t rack
Ġ ĊĠĠĠĠĠĠĠ
Ġsm ile
æ Ī
Un it
Ġdeterm in
Ġrestrict ions
ĠColor ado
on ing
Ġvis ited
Ġt et
Ġchild hood
Ġcy cles
Ġlik elihood
Ġprofession als
Ġsupp orters
b ind
ĠF red
ĠSc ient
Ġsubject ed
ex port
Ġengine ering
conne ction
Ġresid ues
Ġsw it
Ġrat ios
. ]
Ġenjoy ed
al and
ĠT ax
text bf
Ġ19 88
ĠLet t
b order
ĠE V
Ġang ular
Ġderiv atives
I X
inte gr
11 5
miss ible
Ġintegr ity
Ġdem ands
hel p
ro se
Ġbow l
ĠJose ph
Ġl unch
Ġvess el
FL AG
Ġfriend ly
he rence
ĠS A
ont o
Ġb ands
set minus
Ġheav ily
p red
Ġpro jection
ath y
T ool
iv a
R ect
T itle
Ġb ull
Ġmet all
Ġvary ing
MA X
h ol
Ġnormal ized
m ill
.. \
Ġl ys
RE G
t otal
u its
Â ¡
Ġbi ke
Ġearn ed
ge red
Ġhop ing
Ġin fect
ĠNever theless
ĠP ass
d ent
ra ine
ĠPy thon
Ġt ur
er ies
Ġsymmet ric
ob ic
P os
ĠF alse
Ġsatisf ies
] -
GF P
Ġcomplex es
Ġprelim inary
M c
Ġbl ot
Ġb unch
Ġhe ating
Ġaccess ible
Ġacqu isition
h our
u ce
Ċ ĊĠĠĠĠ
CO L
Ġad en
h ire
elf are
ĠD ie
ĠR yan
Ġdes irable
Ph one
low er
Ġpass es
ĠRes pon
Ġfeed ing
d c
Ġro se
Ġmat rices
}} $,
d epend
() :
Ġsc ales
ĠUn fortunately
Ġle an
Ġgr ass
ĠRep resent
Ġconsist ently
TH ER
Ġsuppl ied
Ġconj ug
ĠN orthern
}} }\
Ġdiff usion
ĠAri zona
E mpty
ord an
form ance
D ER
F ont
H igh
com mun
def ined
R ES
l ayer
Sh ow
Ġpregn ant
The ta
Ġar c
Ġatt ended
Ġjud icial
Ġla id
Ġrandom ly
o ir
Ġ rom
omorph ic
Ġpix el
B UG
hes ized
Ġvot ing
Û Į
Ġmonth ly
Ĥ ¬
re ference
Ġn ations
Ġr anging
iz z
Ġlight s
Ġul tr
ad i
Ġt all
ph y
N T
Ġ\ |
Ġinter ference
Ġrecommend ations
ĠJew s
E val
as hes
20 5
re nder
Ġj son
itud es
="../../ ../../
Ġad ip
Ġdistingu ish
d ers
Ġ6 00
gl obal
E V
Ġch olesterol
Ġfacilit ate
~ *
Ġ ----------------------------------------------------------------
ĠP ot
ill ary
_ ,
Ġbre ach
Ġer red
e en
l ate
ed ge
Ġst ir
Ġbu ck
Ġprom ising
Ġ10 2
Ð ¼
Ġe ase
Ġj ail
Ġidentify ing
Ġarrange ment
Ġw ake
ĠA ccess
13 4
\_ [
ĠST AT
Tem plate
ĠM att
ĠE st
Ġviol ated
Ġsau ce
ĠB al
Ġrem and
Ġalleged ly
effect ive
Ġm sg
u id
Ġde position
jo in
ĠM icro
Ġmole cule
Ġult imate
Ġunus ual
Ġob esity
Ġl in
Ġdi pl
Ġins ight
ĠSc ot
hold ers
ry ing
ug ht
Ġexpl os
Cont ainer
ou ston
ĠN AS
Ġphys ician
Ġembed ded
Ġo ste
Ġhad n
U SE
x s
ES M
Ġde cent
Ġpar as
Ġcl ause
ubl ished
ST AT
Ġb id
ĠE r
12 7
ĠRoy al
Ġpan els
Ġpar ad
ij er
Ġent ertain
Ġclot hes
S w
iv ariate
clip se
t ask
Ġend ing
Ġcalc ium
Ġsh orter
am i
11 3
Ġexpect ations
anc hes
Ġ1 16
Ġaccept able
x c
Pro duct
ĠJ SON
Ġvari ants
ĠTH IS
Ġeffect iveness
aud i
ĠL im
) _
ĠM ic
Ġanc ient
ick ing
Ġfore st
Ġstru ck
Ġinter vals
Ġpe er
Ġphot ograph
Ġdesign s
Ġutil ized
ins ert
Ġhar vest
ĠP sy
ov es
Ġar med
Ġc um
olog ists
Ġgun s
Ġexhib ited
as ant
Ġhe pat
Ġconcept s
omet er
Ġd b
g al
ĠV ictor
Ġenzym es
Ġp adding
Ġsur ge
h om
Ġ1 18
Ġdis advant
12 4
Ġg ear
ĠAdminist ration
ĠB ru
ĠPalest in
Ġtens or
Ġmitochond rial
Ġ19 86
oph ag
ĠSte ve
Ġst one
ict ions
Ġinv ariant
Ġspec ify
Ġstudy ing
Ġabs ent
Ġsurv ive
ĠLin ux
B T
Ġguid ance
ĠT ri
by te
if iers
ick er
Ġmeet ings
Ġcollect ive
D ocument
e ven
st ic
Ġautom atic
i em
Ġ1 60
Ġun clear
Ġwrit es
Ġstri p
E F
ĠSp ain
Ġtransport ation
u v
ĠB R
ĠK enn
ĠAnd erson
ĠSw ed
Ġwas hed
Ġal b
ĠInt roduction
Ġfun ny
re nd
Ġdo ors
Ġ19 83
ret t
> .
at ile
Ġj oy
pon ential
pro v
Ġin cons
Ġtreat ing
Ste p
ot helial
Ġlabel s
Ġrul ed
Ġact or
Ġgl ad
ĠH on
Ġpe pper
* ]{},
subset eq
Ġoverw hel
Ġelig ible
ĠS everal
Ġun like
Ġv ital
ĠCP U
ĠIslam ic
[ $
Ġ10 6
pl ugin
om ers
Ġst ations
rep resent
pt on
Ġdis crete
ĠInd ust
_ >
st able
ĠM aster
ĠF ort
12 6
Ġaccompan ied
ag an
Th ree
ii i
clus ively
ell i
Ġch ip
Ġreve als
Ġevery where
ody nam
Ġprec ision
Ġmix ing
H i
M ain
g ood
F iles
iz able
Ġoff ensive
pr im
Ġcarcin oma
Ġrep orter
Ġpr on
ãģ Ļ
Ġbl ess
ir k
_{ -
Ġ ì
Ġ10 5
Ġra rely
Ġhard er
Ġdeep ly
ĠT erm
ps y
an alysis
ar on
Ġatt itude
Ġnewsp aper
Ġt urb
res ource
pl ot
do i
Ġl ying
ov a
Ġmod ul
u cl
ir ation
Ġpar se
Ġviol ent
Ġimm igration
f usion
Ġpat ch
Ġal ignment
ari ous
Ġ> >
c anc
ard ing
Dev ice
w all
Ġres ist
vers ely
ĠCont in
Ġ( @
Ġas ympt
Ġill ust
Ġoccur ring
Ġsurve illance
L P
Ġpred omin
ĠR og
Ġdis rupt
dis p
u z
Ġg ained
Ġread ily
S erv
11 6
C ache
Ġl anguages
() {
am ic
' >
S ur
ĠSer ies
Ġd ad
Ġdis abled
Ġhor se
Ġexpress ing
$ ^{-
m ay
math sf
Ġbond s
Ġcorrel ations
Ġsold iers
en able
ĠW ord
Ġpolit icians
os omal
. ),
âĢĶ âĢĶ
ocr atic
Ġphosphory lation
Ġlo ans
o a
ric ular
Ġdestroy ed
us et
D el
ĠMethod s
as ac
Ġincor rect
Ġmir ror
ET H
Ġp neum
Ġsm oke
az z
Ġexc iting
ĠBe ach
Ġunex pected
en ant
Ġrepresent ations
Ġsusp ension
v ubuntor
ĠD A
ĠD ig
$ ^{
e lect
ijer ph
Ġ[ "
Ġsystem ic
ĠPac ific
O UT
ĠD ue
01 2
st ers
im ages
y o
Ġst om
ĠL ear
per p
Ġper ceived
Ġen vironments
ĠCar l
ĠEn vironment
çĶ ¨
h ard
â ī
19 97
ĠL td
pl ates
Ġcan n
Ġevery body
MO ESM
Ġ19 87
Ġrec overed
o vers
ĠS R
Ġtop ics
t n
Ġst ellar
ig ate
Ġfl avor
Ġput s
lo op
Ġepis odes
ĠI reland
ãģ «
ĠM ajor
Ġlik ed
opl us
Ġcont ra
() ->
ĠÂ Ĺ
Ġkne e
Ġvot ed
Ġh ierarch
Ġ1 24
ob acter
Me an
Ġp m
Ġra ising
Ġrevers ed
Im pl
ĠA C
Ġfore ver
Ġpo inter
Ġd uties
Ġqu ot
Ġf itness
Ġe q
Ġt ang
Ġt ips
Ġin herent
Ġd ental
ĠP ART
CH AR
Ġsho pping
ĠChild ren
Ġs lic
Ġswitch ing
Ġâī ¥
Ġstead y
Ġp ounds
em s
word s
Ġpro minent
cur sor
Ġseed s
ĠCom mand
fl ags
ĠÐ ½
a que
Ġte a
ĠBro ok
Ġpil ot
Ġh tml
el ing
Ġme re
Ġlib eral
is l
der ived
Ġhop es
is p
Ġtro ops
d ated
end or
00000000 00000000
ĠH u
In s
Ġcorpor ation
Ġo vere
for all
Ġdoct rine
01 3
Ġexcess ive
ush ing
Ġdecl ined
ME M
Ġpsy chi
Ġlif etime
/ âĪĴ
Ġt ension
pe ction
b p
nes ota
equ al
Ġpy thon
e cho
ĠC rit
ĠL ove
aw ay
Con vert
Ġh its
ĠP rem
ĠTh ird
Ġam ended
Ġexec ute
ble m
inter face
n an
Ġvis its
Ġpul monary
Ċĉĉĉĉĉĉ ĉ
Ġh ang
Ġdeb ug
Ġ( %)
Ġarr anged
or ous
vent h
Ġp ending
i atric
Ġ12 8
ĠW el
H ost
ĠAg reement
' (
F B
l ab
$ ]{}
ol i
Ġpro pose
Typ es
V I
ĠC as
l at
' \
Ġ âĪ
Ġlegisl ative
Ġpros pective
ĠL uc
Ġphys iological
ac on
ĠWARRANT IES
Ġth y
Ġcheck ing
Ġsens ors
ĠP rior
RE F
Ġm unicip
Ġed it
Ġinterpret ed
con v
ĠC u
erm ined
Ġvert ices
7 00
ch annel
orne ys
b led
19 96
Ġdefect s
ic ations
ĠS Y
ãĤ Ĵ
Ġvalid ity
Ġneigh b
; ;
ĠTh ough
Ġam endment
Ġegg s
o pp
RE AD
reg ister
ro at
Ġ Ã©
Ġmort gage
10 9
Ġrepl ied
ber ry
Ġ10 9
Ġcool ing
Ġth rom
ĠF BI
ĠE astern
Ġ19 85
Ġcomb ine
01 1
ĠWith out
\ >
================ ====
Rec ord
AM E
Ġbir ds
ur ations
Inter face
ĠB on
er red
l ined
Ġfe as
Ġreg ulated
Ġed ition
Ġcardi ovascular
Ġfr anch
â Ħ
Ġl umin
ĠA sh
St ore
Ġgener ator
j avascript
æķ °
ack s
Ġf ung
Ġcult iv
Ġabund ance
c ategory
Ġep idem
Ġcort ex
i y
al ities
Ġm ad
Ġbe ach
Ġbl ame
ĠMedic ine
B V
ĠTh rough
N av
is cal
ĠT al
bt n
Ġfat ty
ĠAg ency
Ġgenu ine
HT ML
Ġton ight
t bl
ĠM id
Ġreson ance
ĠO x
W indows
ud io
ĠG ene
l anguage
ĠKing dom
Ġsub sid
Ġblock ed
roph y
ĠKore an
b ecause
Ġar ise
Ġsome body
Ġt y
Ġlog ical
ĠH istory
eng ers
r andom
Ġillustr ated
H ello
ĠC ore
Ġ+ /-
Ġtax p
Ġb on
ãĤ ĭ
s creen
Ġc ord
Ġstup id
necess ary
Ġfunction ality
Ġinflu enced
ĠQu ant
Ġ19 84
Ġcol i
che ster
Ġdevelop ers
Ġper missions
par ison
Ġbound aries
Ġrepeated ly
Ġd rag
ĠF amily
b oot
ĠA G
ph osph
Ġsub group
enn is
T L
he x
Ġisol ation
Ġprint ing
" ))
l ob
m ask
B s
fig ure
sc ope
Ġpack et
Ġprosec utor
em an
Ġprevent ing
ĠCh ampionship
Ġre con
{ }
Ġcur rency
g un
ub le
Ġrel iability
ow ski
ĠR ound
E ffect
Ġcompat ible
PO ST
Ġden ial
ĠS che
op her
sh ort
Ġelim inate
Ġspirit ual
Ġ25 5
Ã ¢
Ġprosec ution
Ġf itting
16 8
Ġdelay ed
; ">
N N
Ġf ert
ĠS ort
ock er
g athered
Ġt one
ol s
part y
ig er
az a
Ġinsert ed
Ġor bit
19 95
ĠInd ex
Ġdem ocracy
** .
Ġatt ributed
Ġaw esome
D i
e gr
and o
FI LE
Ġtrans actions
Ġint racellular
ĉĉ ĉ
ou p
ad el
Ġg otten
ĠA z
F ound
ĠY eah
Ġweight s
Ġ Ñģ
D av
R ound
ĠPh ot
ç »
č Ċĉĉĉ
Ġp ace
Ġun em
Ġaffect ing
Ġconnect ing
all ing
P ref
Ġ( '
Ġwor ried
Ġref lection
_ [
de lete
]{ .
Ġwire less
ymmet ric
M at
19 94
m ons
Ġbott le
wid get
Ġvit amin
Ġd oses
et c
ĠF air
Ġgrav ity
Ġsh ots
Ġlim iting
ĠZe aland
end ers
plic ity
2 13
ph al
ĠC rim
Ġse gments
Ġimpro per
o i
Ġcontact s
ĠG ames
nut rients
n orm
Â Ĺ
ou ter
lic enses
Ġfl ags
Ġlater al
Ġdesign ated
c over
Ġauthor ized
trans form
New s
ĠS av
ĠD ocument
Ġphys ically
Aut hor
D em
Ġs outhern
ĠP rim
ure r
Ġcons pi
uck y
l ot
Ġen um
' _
ole cular
Ġt u
Ġun a
Ġobt aining
ĠS ov
qu al
Ġper ception
aw are
ĠCommon wealth
ĠĠĠĠĠĠĠĠĠĠĠĠĠĠĠĠĠĠĠĠĠĠĠĠĠĠĠĠĠĠĠĠ ĠĠĠ
ish op
Ġden otes
ucle ar
Ġelder ly
ĠMin istry
Ġaim s
Ġsh r
Ġsent encing
A nal
en um
Ġg ross
âĢĻ .
Ġspecific ity
Ġph ases
Ġin k
ĠA h
Ġpro position
Ġn orthern
Ġf i
Ġgalax y
Ġepit helial
Ġcont est
pos itory
Ġarter y
Ġen ables
Ġdec or
ĠPro duct
Ġcan cel
ĠO p
Ġprint ed
ĠGa ussian
Ġscal ar
d agger
cl osure
sk y
Ġat he
H as
Ġo ven
ur se
ĠC at
ul er
Ġd ownt
Ġle ak
Ġassum ptions
Ġye ast
ĠGu ard
Ġoxid ative
20 4
Ġinter rupt
.* ]{}
L INE
Ġ" $
Ġsearch ing
Ġinsp ired
Ġf its
Ġt ill
Ġx e
Ġvess els
Ġhypert ension
ment ioned
Ġequ ality
ĠPer haps
Ġp overty
Ġres idence
Ġind ices
Ġdam aged
im ation
Ġsu icide
Q ue
Ġk iss
in ance
Ġregist ration
, {\
Ġm as
Ġret ain
Ġcomput ation
Ġc ourses
Ġr ating
Ġdifferent ly
ann y
Ġmut ants
++ ;
B as
ĠS S
d am
*~ *
Ġhol iday
Ġo v
og ram
Ġpolar ization
Ġxml ns
ra pper
al so
Ġ10 3
Ġinvestig ations
on ed
Ġr um
ĠR ather
Ġover night
ãģ Ħ
/ .
u ilt
it ical
ĠC ost
t ri
us p
Ġpublic ly
) }}
Ġv ibr
Ġmat ched
t ool
Ġp el
Ġm ath
Ġinfl ation
w d
ru p
Ġelectr ons
Back ground
Ġenem y
Ġunderw ent
! )
im mun
Ġnucle us
Ġman ually
Ġfr ames
Ġhard ly
Ġb orrow
Ġmodel ing
Par ams
ĠHar ris
ĠM L
gg ed
Ġat om
ĠR A
ĠR a
Ġm old
Ġd rain
Ð ´
ĠSt ill
ĠSte phen
Ġmembers hip
Ġacknow ledge
May be
Ġp our
Re ader
off s
Un ited
Ġmount ain
ph asis
\ ,\
Ġprogress ive
Ġintellect ual
Ġin jected
ĠWe ek
Ġcall back
ãģ Ĺ
Ġdiscl osure
* (-
Ġbe aring
Ġassoci ations
P ORT
Ġp ipe
Ġdefic iency
ĠUn ivers
Ġclin ic
ĠBit coin
ag ram
Ġass istant
' }
Ġd ial
id av
LE D
^ )
ne x
IN S
ĠF oot
Ġcomp lement
ĠIn clude
Ġbreak s
Ġprefer ably
m ove
Ġas sem
Ġign ored
ĠP I
Ġde als
e ach
Ġc od
ro cy
Ġtra il
Ġpl asm
Item s
Ġdifficult ies
ĠS aint
Ġ1 35
reg ular
c ases
S ession
t im
w ait
Ġin verse
Ġ" <
Ġpeak s
Ġb oss
Ġdef ensive
Ġdel iber
Ġlabel ed
ac co
Ġco at
A v
Con f
Ġdescrib ing
Ġstret ch
Ġgu est
Ġvar ied
ĠK it
oc key
Ġcap s
Ġinterview s
com fort
Ġreg ulate
ĠCon sequently
scri ption
w rap
Ġres istant
c hers
Ġrend ered
l ated
I ter
b ad
app ropri
Ġliter ally
Ed itor
Ġemot ion
aceut ical
ul ent
ĠH ard
place ment
ro le
er as
ĠT itle
P res
ens ing
Ġapp s
view s
Ġfoc using
á »
ĠB O
UN D
itud inal
Ġgr ate
p rom
Ġplatform s
Ġfound ed
ĠC apt
Ġm ood
Ġcomb inations
Int eger
T EST
s ave
m ates
iz ers
Ġret ro
ĠR en
Ġdisc ount
Ġc ub
Or ig
ĠSpec ifically
13 2
24 0
Ġvulner able
ap or
app lication
requ ency
Ġpan cre
Ġtoler ance
000 2
A ng
math scr
Ġelectric ity
ĠH ave
Ġfl our
> ();
11 4
eng ine
Ġreflect s
are a
pro file
ĠS anta
Â ´
Â ĳ
Ġp ocket
ĠA ward
Ġent re
Ġbox es
") );
g ov
Ġl oud
ĠE s
Ġwonder ing
Ġmag azine
Ġpush ing
b es
ĠS i
Ġad oles
Ġdispl ays
ĠH z
ow ed
ime q
c as
m n
ĠAr k
Ġ{ @
Ġan ch
Ġc ock
el d
Ġdest ruction
Ġsuppl ies
l arge
Ġfact ory
ĠAs sembly
T M
h uman
j ar
ĠP E
ĠPro perty
Ġimplic it
ĊĠĠĠĠĠĠĠĠĠĠĠĠĠĠĠĠĠĠĠĠĠĠĠĠĠĠĠĠĠĠĠĠ ĠĠĠĠĠĠĠ
Ġcateg or
Ġtra uma
Ġvir uses
Ġsil icon
Ġpen et
ĠL y
br al
Ġm ock
Ġgen omic
Ġter rible
ĠAddition al
J son
s imeq
h h
Ġd ates
Ġwe ird
rit ing
Ġisol ates
ĠT er
at on
13 5
plet ion
Fl ags
m argin
ĠC S
Ġsil ent
Ġemerg ing
qu es
pl ane
Ġqu ote
Ġinv ited
ON G
Ġweek ly
~ )
CO DE
Ġde eper
Ġle ase
ential s
Ġselect ive
ĠD ifferent
Ġend othelial
Ġext ending
Ġpredict ions
è ¡
Ġcomb at
Ġlaws uit
Ġh ung
ater n
des c
H er
Ġlist ening
Des pite
Ġ ip
ĠAr ticle
ĠWIT H
K S
h l
ĠD I
Ġab ortion
ĠTh om
D U
Ġexist ed
Ġang ry
Ġmethyl ation
å Ĭ
im m
child ren
0 25
Ġ č
` ,
ĠMin nesota
organ isms
im pl
ĠT our
y ers
Ġcomm ands
ĠSc iences
ĠAfghan istan
Ġcert ificate
ĠM P
pr ison
ĠB rian
Ġattempt ing
pass word
Ġadapt ed
Pan el
Ġestablish ment
Ġdebt or
Ġch a
ĠPl ace
Ġbehavi ors
M AT
og rap
Ġattract ive
Ġcl imb
Ġsett led
W idget
Ġh int
Ġis o
ĠP BS
ĠL ic
aps ed
Ġb atch
Ġfing ers
' ],
Ġto w
ĠF ord
Ġag gressive
Ġpromot ing
Ġre n
Ġmus cles
Ġretire ment
ĠColumb ia
Ġbasket ball
Ġb att
ĠHe ad
Ġ ions
Ġ1 34
Ġin cent
Ġu b
big g
ĠIm mun
Ġf illing
new s
Ġlik es
Ġsusp ended
=" ../
cons in
Ġstrict ly
form ing
_ -
Ġmot ions
Ġmag ic
ĠEX PECT
Ġneglig ence
Ġtransform ed
Ġv ag
ĠG i
Ġlif estyle
st rap
Ġ10 8
Ġeng agement
util s
Ġupt ake
N G
ĠMark et
Addition al
Ġc ig
ĠB ell
Ġconf ident
19 91
Ġflu or
Ġcomput ers
Ġcos m
Ġb ills
Ġpot ent
m ass
Ġt weet
ĠW in
Ġtext ure
Ġtox icity
as ia
h ot
ĠD am
ĠJ en
abl ing
Ġpres erve
Ġquant ities
ĠIm ages
19 93
met adata
est amp
rit is
Ġmax imal
Ġsynt hetic
ĠR os
tr ation
Ġhead ed
en ergy
all as
Ġcoll apse
Ġg erm
ay ing
ge x
čĊ čĊ
: #
y our
Ġt ied
ress ing
ĠS on
Ġd ip
ab b
Ġen act
g ra
Ġmicrosc opy
. ).
Ġrep ly
Ġn ons
âĦ ¢
d k
m ade
Ġmeaning ful
Ġconspi racy
f b
he ld
Ar gs
Ġtrans mitted
gen eration
Ġvis iting
Ġwat ers
Ġdim in
F ree
19 90
Ġsho es
Ġoblig ation
m ate
Ġse iz
un ior
Fl oat
ĠĠĠĠĠĠĠĠĠĠĠĠĠĠĠĠĠĠĠĠĠĠĠĠĠĠĠĠĠĠĠĠ ĠĠ
ĠProfess or
ab c
Ġen ergies
Ġequ ilibrium
al o
ĠÃ ł
Ġart ificial
Ġphr ase
P y
Ġk il
p ur
t an
Ġf ake
ĠH o
ber y
= >
ol ly
Ġdef ining
Ġtre m
J o
M icrosoft
Ġj unction
ĠK ent
Ġrestaur ants
_ (
col l
Ġtrend s
ĠĠĠĠĠĠĠĠĠĠĠĠĠĠĠĠĠĠĠĠĠĠĠĠĠĠĠĠĠĠĠĠ Ġ
h ma
us ers
Ġst ake
J an
S ing
ed u
ĠL C
ĠG C
Ġsp ont
ĠSh ould
) }(
D F
y ard
Ġsc oring
}} _{\
anc ies
Ġt icket
art icles
Ch rist
Exp ression
ĠB ul
P arent
V ar
St ack
A uth
ou ri
)) /
Ġden ying
Ġinqu iry
Ġdeem ed
Ġcon vey
Ġcon dem
Ġem pir
Ġspect rosc
ä¸ Ģ
b ec
Col lection
ph ys
Ġple asure
Ġdesc ending
Ġw ins
Ġle ct
pro gram
Ġsh aft
vert ed
ĠÃ Ħ
Ġex ponential
Ġsp inal
Ġent ities
Ġas ks
ack et
Ġstay ed
Ġdisag ree
Ġsatisf ying
Ġad s
Ġinhib ited
p ow
ĠI owa
Ġden y
rom agnetic
Ġbr anches
ĠS af
ĠG reek
ĠHamilton ian
os in
ĠF ather
Ġsm ell
set tings
il st
Ġfavor able
if ting
Ġint ense
A SE
Ġl on
ĠG all
ub s
ĠĠĠĠĠĠĠĠĠĠĠĠĠĠĠĠĠĠĠĠĠĠĠĠĠĠĠĠĠĠĠĠ ĠĠĠĠĠĠĠ
ĠF R
ĠV ill
Ġdoll ar
Ġwed ding
ol ves
ph ase
CON FIG
Ġt ired
Ġvisit ors
ĠJ ordan
Ġstud io
Ġb ounds
end o
Ġ' \
ĊĠĠĠĠĠĠĠĠĠĠĠĠĠĠĠĠ ĠĠĠĠ
ocy t
Hand le
G ame
Ġdist ances
Ġdemonstr ates
Ġdiet ary
[ (
Ġagre ements
ĠH ay
ĠP etition
ĠChrist ians
A V
ad min
Ġequ ipped
Ġlocal ization
Ġs oph
Ġp ill
G M
Ġw ing
ari os
Ġcho osing
Ġindu ces
ĠAT P
Ġprom ised
Val ues
Ġpro long
he ast
T oday
Ġwe igh
Ġmin i
ĠT E
Ġexp ense
By Id
ĠF if
gr id
Ġsus pected
Ġprogram me
Ġtrans parent
Ġparticip ated
Ġthreat s
Ġtal ent
av irus
Ġpoint ing
Ġir rad
conne cted
ĠMo ore
B ased
row th
Ġsupp ression
} :
els on
Ġsc aling
}, $$
Ġar rive
Ġfund ed
Ġbehavior al
Ġdefe at
Ġt act
J S
Ġn p
Ġpers u
ĠHar ry
ĠInterest ingly
Ġs aving
Ġmanif old
Ġhead ing
n l
Ġbelie fs
ĠCon dition
m icro
am y
T ra
ĠH or
Ġperson ality
Ġl ibraries
Ġsent ences
ĠP op
he p
Ġrem em
ar ry
ĠCamb ridge
å Ń
Ġre ven
Ġconstit u
hab ilit
it age
ific ant
Ġbelong s
Ġevery day
Ġfin ance
bur gh
Ġdevelop er
Ġprem ium
. :
Ðµ ÑĤ
â Ķ
Ġparticip ant
2 20
) </
Ġb ird
4 50
Ġsp ray
Ġ19 81
Ġant agon
Ġcult ured
Ġb es
Ġl as
Ġ -------
Ġimpair ment
b ow
Ġdeterm ines
Int roduction
term inal
Ġdefinition s
R oot
ĠT enn
Ġprotocol s
âĢ² -
C r
T F
e val
ar se
ig m
ĠD aily
Ġt ends
ĠN ature
ĠÎ Ķ
Ġminor ity
Call back
ĠUn less
Ġs ir
ĠF IT
Ġcompar isons
Ġaccur ately
reason able
o is
ĠF isher
Ġpar am
Ġdocument ed
am ide
Ġc ow
cept ions
OR Y
in th
Ġalong side
Ġbirth s
Ġw is
ĠM ah
ĠL ind
^ ,
Ġin cl
t ools
Pro perties
================================ ================================
T ake
ast ed
ak i
? )
Ġn itrogen
ĠA ve
oc oc
Ġindic ation
Ġsec ured
R R
ne ur
Ġthe at
Ġsol ved
se lected
ul um
Ġb ases
15 7
ĠQue en
x imate
Ġinput s
å Ľ
ĠW E
n at
Ġbase ball
Ġcon cur
op sy
â Ļª
Ġprob able
Ġmother s
Ġfro zen
N ULL
Ġup set
Ġmin ing
ĠReg ister
activ ation
Ġsp r
12 2
Ġpost erior
s ed
Ġno body
top l
ĠTur key
Ġcons ensus
Ġvari ant
Ġr anges
M iss
Ġd ent
Ġact ors
." ,
Ġdes per
@ "
Ġ&= &
p read
Ġf iring
Ġex clusively
Ġsp ots
Ġmy th
Ġind ict
crib e
Ġcap abilities
Ð¾Ð ²
17 5
Ġop ens
IT ED
Ġregard ed
Ġcir cles
Ġk m
Ġar ising
Ġgent le
Ġrece ives
el ve
Ġl ap
Ġadjust ment
Ġvirt ually
ĠTor onto
ol en
ĠHol lywood
Ġneu rolog
Ġimp ressive
ĠPH P
Ġcomplaint s
Ġprepar ing
Ġdatas ets
f all
ĠM ill
Ġodd s
w alk
Ġth irty
Ġtra its
ĠId ent
iot ics
od d
Ġdetect or
a ire
he et
ĠS em
Ġphys icians
h u
y cl
ĊĠĠĠĠĠĠĠĠĠĠĠĠĠĠĠĠ ĠĠĠĠĠĠĠĠĠ
Ġemerg ed
Ġoverl ap
19 92
h ad
h box
m ma
m itting
Ġis ot
ĠI M
ab eth
Ġgovern or
Ġob jection
Ġ19 60
Ù Ĩ
em at
Ġvari ability
Ġapprec iated
Ġtrans mit
Ġcons erved
Ġe leg
Ġdon or
Ch anged
Ġperiod ic
Ġenc ounter
Ġo h
ĠL ittle
Ġcust ody
\ )
b ian
Ġ1 32
ĠIF N
Ã ª
Ġtra v
RE E
e rer
Ġt rivial
Ġc ot
ens ively
Ġdim ensional
F ull
ot on
Ġwhe at
ĠPar liament
Â £
ĠS audi
ĠL ibrary
Ġro y
Ġtim ely
Ġmembr anes
d h
ãģ §
Ġaff irmed
en za
Ġc in
Ġm im
pp ers
Ġconst ants
Ã ±
ap ing
on i
Ġres in
ĠD ise
19 2
he ne
Ġin ev
og s
Ġco ating
Ġconf usion
ĠCl inical
Ġcirc ular
Ġgraph s
op ed
Ġper pet
Dis cussion
Ġw age
ut ers
mat o
Ġcounter part
Ġpolym orph
t ocol
id x
Ġdec imal
Ġconver gence
Ġefficient ly
gen erate
ĠDef ense
id o
Ġse ats
ĠR h
Ġsimilar ity
m akers
Ġd ating
requ ire
qu ot
ĠO pt
* =
it ored
Ġres erv
ang el
x f
Ġstimul us
Ġch ances
Com mon
in ely
Ġch ains
Ġshort ly
Ġre putation
Ġres et
Ġpar ams
ogene ity
s un
Ġcan cell
pp at
sh all
Ġstom ach
000 4
$ :
og ens
Ġad min
Ġm l
ĠP B
Ġnon linear
qu ant
Ġsatisf action
//////////////// ////////////////
ir th
ĠSe a
ĠK now
Ġal umin
Ġ10 7
P ublic
p any
Ġqu asi
Ġmem or
OR S
Ġb old
Ġ19 82
Ð° Ð½
D ist
Ġroad s
E rr
Ġs hed
13 6
g b
im ental
ĠB ang
par a
cl osed
Ġsuggest ions
play er
ĠSystem s
Ġl ands
B oth
T ube
file ID
ol is
ard ed
M edia
Â ½
ce ive
Ġlock ed
or ient
oc om
iter ator
Ġconfig ured
ĠA st
Ġch ocolate
ides pread
O VA
og a
Ġhe aling
Ġd ance
AL SE
ĠCN N
ĠK evin
Ġbreak fast
Ġinit iated
ĠH ouston
Ġhost s
) _{
H ash
b ury
ĠL ink
ĠT B
Ġ1 33
ĠO UT
Ġfac ulty
Ġconserv ation
b old
Ġrest ore
Ġpept ides
c ourt
l b
Ġ< !--
Ġinstr uments
Ġd ense
ĠM u
Ġtri es
Ġestabl ishing
Ġs el
Ġst ained
ia h
mod ules
ĠHol y
Gen eral
p resent
Ġper me
Ġrespond ent
ab is
Ġterrit ory
ĠF ull
Ġpres cribed
14 4
Ab stract
FFFFFFFF FFFFFFFF
ĠIg G
L icense
Ġh ipp
ĠT NF
Ġble eding
ĠSov iet
ad en
ie ve
Ġres ident
Ġab dom
Ġmem ories
Ġchalleng ed
Supp ort
Ġcommunic ate
L i
ĠT yp
ĠL ess
Ġview ing
ĠÎ¼ g
Ġin ject
ĠM athe
Ġfact ual
he alth
ffic iency
qu ired
f our
23 4
v ature
ut ter
sche ma
Ð ¿
ĠS cale
Ġimp aired
stand ard
cript or
ĠCh air
17 0
vis or
U V
Ù Ī
=" @
ict ure
Ġdiv or
Ġsure ly
Ġn ose
Ġcan onical
Ġrefer ring
h op
Ġg rain
re ak
ade qu
Ġgeneral ized
Ġfarm ers
Ġf ool
Ġl ady
del im
Ġto oth
LO G
ĠT ask
Hel per
Ġtrac ks
Ġcal m
D ay
Ġcharacter ization
Ġf lying
Ġunder go
Ġsent enced
itz er
Ġpix els
i ating
Ġm s
ab etic
ĠP ur
Ġelectro des
$ ).
S n
um my
ac cept
Ġadv is
ĠCommission er
pe ople
ĠUn it
pref ix
au x
Ġg rap
ĠG OP
ĠV iet
GF R
Ġproport ional
Ġbi os
fl oor
Re al
Ġass et
x ff
Ġ ------------------------------------------------
Ġathlet es
r ons
Ġmel an
let ter
R ule
Ġdiscl oses
è ®
Ġblock ing
ĠWis consin
r us
ĠAll en
Ġaccompl ish
ĠLew is
p d
ĠĠĠĠĠĠĠĠĠĠĠĠĠĠĠĠĠĠĠĠĠĠĠĠĠĠĠĠĠĠĠĠ ĠĠĠĠ
ple ments
Ph oto
Ġmed iated
Ġred ist
ĠIndian a
Su per
ĠB ox
Ġmod ifications
Ġwin ner
Ġbrief ly
âĢĻ ,
li um
Ġrecur rence
nt il
stitution al
O UR
Ġfib ro
ĠR ail
Ġres idential
Ġmind s
m M
Ġland scape
er ator
Ðµ ÑĢ
F UN
Ġto mato
ĠLe ft
Ġclaim ing
pos ing
Ġaff idav
St and
Gl obal
Ġdram atic
ĠCom mer
AS H
Ad apter
ĠB ible
Ġfil ters
be an
al g
st age
um ing
Ġw elfare
........ ........
he res
sh a
cent ury
}^ *
Ġwrit ers
fil ename
Ġcritic ism
Ġf ishing
Ġthere in
ari ance
Ġprov ince
Ġscen es
Ġpun ishment
opath y
Ġacknowled ged
Ġatt achment
---------------------------------------------------------------- --------
Ġtra ject
AN K
ĠAd am
Dis play
Ġsh ips
Ġque ue
Ġoptim ization
Ġindepend ence
Ġsy mp
Ġub iqu
ĠC C
ph ia
20 20
Ġact ed
Reg ister
ced ure
ĠÐ ¸
F actor
ian o
Ġhistor ic
Ġan ger
Ġag enda
ĠF arm
se q
ĠM arg
Ġpl ugin
ĠAn th
ĠCo ast
Ġsl ide
å ľ
ĠS ports
Ġsp ark
ĠS a
Ġstimul i
ĠB C
ĠB ab
Ġtr im
f p
Ġf ru
ĠI O
Ġth rown
Ġ1 37
01 9
Ġret ained
Ġcap ability
Ġsil ence
Ġsurv iv
D H
Î º
ĠO P
ĠA BC
ĠE mp
^{ +
ER V
Ident ifier
adel phia
Ġadv ised
dis c
item s
id ine
Ġhar ass
âĢ ¯
e ff
Ġconscious ness
ĠP K
+ )
or ic
id ate
ia z
Ġmat ure
R untime
Ġhe mat
Ġsee ks
Ġtri ple
_ ;
en z
Ġ1 36
Ġar th
IC O
~ \
ĠA SS
Ġprevent ed
Ġw idespread
Ġcon vention
Ġpart ly
Us ers
ĠO nt
Ġstri king
ÃŃ a
ĠW at
Ġpar liament
ĠSh ort
t ail
Ġam end
Ġatt orneys
Act ive
Ġhe x
b us
ĠĠĠĠĠĠĠĠĠĠĠĠĠĠĠĠĠĠĠĠĠĠĠĠĠĠĠĠĠĠĠĠ ĠĠĠĠĠĠ
Ġthreat ened
ĠF I
A nt
Ġcav ity
s ort
he imer
14 7
ĠOb serv
Par ameters
Ġdro ve
Ġsc roll
ĠSe attle
Ġfluct uations
Ġprejud ice
A E
L o
ĠW he
ĠBl ock
Ġjo ining
ĠM as
Ġinter section
ta h
Ġpro xy
Ġ| \
ivid ually
Ġencoura ged
Ġaccom pany
rel ation
Pr int
L ife
Ġo ught
Ġincred ible
Ġsatell ite
om ain
ĠDef ault
Ġpot ato
C ap
oph il
Ġflow s
ĠE S
Ġbreath ing
Ġrel ate
Ġg ri
ĠĠĠĠĠĠĠĠĠĠĠĠĠĠĠĠĠĠĠĠĠĠĠĠĠĠĠĠĠĠĠĠ ĠĠĠĠĠ
Comp ile
Th us
Ġcook ies
$ _{
Ġdown stream
ats on
Ġquestionna ire
u er
lic t
f x
ab ama
T im
Ġt ie
Ġresc ue
ethe less
Ġgr ay
Ġemot ions
Ġnav igation
Ġs li
Ġout standing
Ġfranch ise
il bert
Ġte ch
Ġdist inction
ed it
Ġany body
Ġart ist
Ð¾Ð »
ĠReturn s
ĠD B
ĠCl aim
art icle
Ġser vers
Ġprotect ing
oprote in
ĠC re
Ġout break
Ã º
Ġconf used
atch ing
Cl ose
ĠNav y
Ġbare ly
D oc
ĠAnt on
W orld
z an
en na
Ġun necessary
Ġfr ustr
e a
Ġlit igation
are r
col on
De lete
+ -
ĠB oy
sh aped
Ġrepresent atives
Ġrespond ents
Ġveget ables
Ġst ating
Ġse al
Ġpers istent
0 30
s ample
000 3
ĠX ML
ĠAr g
OL D
pro fit
Ġdecom position
ed ly
Ġentr ance
á ĥ
uset ts
ĠAl tern
Ġs ake
res ults
un a
Ġwebs ites
d riv
ach usetts
Ġperm its
I AL
oc l
att ribute
Ġgrad ually
b its
Ġcan cers
IC K
reg on
Ġappoint ment
Ġexpert ise
Ġm oon
UR T
Ġcoll ision
Ġrel ies
Ġem issions
Ġestim ation
Ġmacroph ages
Ġsh adow
ail ure
enn y
Ġimpl ant
ĠC t
Ġ$ ('
Ġcirc uits
ĠAre a
Ġat omic
"} ;
Method s
Rep ort
S pace
W T
U B
W A
Ġl um
ĠE ric
Ġemph asis
Ġman aging
Ġc ul
Ġmer ch
Ġenhance ment
it arian
I con
Ġm L
Ġprocess or
ĠEx pl
- $
ĠK a
rec ord
Ġmedic ations
Ġcryst all
ĠL atin
Ġt ags
Ġ ,\
Ġcere mon
Ġfunction ing
Ġlegit imate
Ġd y
}} ^{\
ĠScient ific
ĠW as
Ġen rich
Ġform ulation
ĠEd ward
ar ity
Ġclos ure
Ġpubl ish
ion ic
Ġdis aster
Ġpen al
Ġen orm
Eng ine
: =
Ã ł
cy cle
less ly
En ter
ĠG M
Ġli able
Ġpur ified
Ġparticip ating
_ *
Ġintr insic
Ġs quad
ĠB ol
art s
25 4
Ġterm ination
Ġent hus
Ġcontinuous ly
Ġwarn ed
Ġwis dom
Ġpl ots
Ġinvestig ating
inte rest
Ġam big
ĠN atural
sw itch
Ġburn ing
ĠP itt
iz abeth
ĠPl us
Ġsav ings
Ġaccompl ished
Ġluck y
æ Ĺ
Ġsign ing
ĠSp irit
pie ce
ĠS F
Ġcor ruption
Ġbiom ark
Ġ Âł
Ĩ Ĵ
at om
ric hed
ĠTH AT
g ency
f ers
Ġf iscal
Ġlack ing
Con n
Ġentertain ment
Ġlong itudinal
Ġimportant ly
under line
Ġmo ist
é Ģ
op ens
čĊ čĊĠĠĠ
acc ount
iam i
at omic
Ġf ur
Ġsc anning
Ġlov es
Ġposit ively
Ġenthus i
å º
Ġt we
it ated
Ġp ad
ĠIn v
Ġfeat ured
Ġd ivid
od ge
ĠCell s
Ġqu oted
lin ux
ĠĠĠĠĠĠĠĠĠĠĠĠĠĠĠĠĠĠĠĠĠĠĠĠĠĠĠĠĠĠĠĠ ĠĠĠĠĠĠĠĠĠ
Ġremark able
Ġmot if
Ġwarrant y
Ġcont ention
Ġact ively
Ġpoor ly
Ser ial
Ġ< ?
Ġovere xp
Ġde put
Ġhe p
Ġcomp ly
ĠGr ant
ĠUp date
Ġcontrovers ial
Ġsal ary
ĠÐ º
Ġim prison
^{ -\
13 8
Ġan terior
ob e
Ġconflic ts
Ġgrate ful
f ive
h ole
Ġgu ests
Ġsynt ax
ig ue
Ġwant ing
product ive
p riv
in ent
Ġc athe
16 5
C ur
es ian
Ġfuck ing
x sd
ĠS ometimes
ĠB io
cle an
eles c
M AN
Ġ** *
Ġtun nel
Ġcarb oh
L oc
19 86
Ġbu ff
En abled
p adding
Ġder ive
topl asm
J SON
Ġaut on
Ġrandom ized
print ln
!! !
Ġsecret ary
B ook
Ġexpl ored
ãģ ¦
ĠIN T
ĠG ree
ck er
W est
us ive
Ġdom inated
h s
ĠH as
ID S
Ġanti oxid
Oper ation
at iv
Ġc erv
ok er
ĠEx ception
ĠIns urance
ĠD un
Ġlic ensed
N ESS
Ġannounce ment
r ust
ab stract
m ember
Ġw ider
Ġr ings
Ġnot ation
b urn
Ġ" #
Ġsh ipping
a is
s ol
Ġex clusion
Ġtrans ient
Ġsol vent
Ġre aches
av ailable
Ċĉ Ġ
Ġreason ing
F our
Ġt el
r ank
ĠN othing
Ġsh ield
comp at
Ġex ert
ĠN ations
Ġaw ait
f ar
L ICENSE
Ġc ure
Ġd os
ĠR ose
Ġde but
ĠG reg
Ġimp ose
mod els
r ass
Ġcollabor ation
V ol
Ġg raft
Ġl ux
Ġup coming
Ġjust ify
P al
W ARE
Ġgr ams
Ġinf ant
ĠOr ig
Ġpip eline
Ġinc hes
n p
St op
Ġste re
ĠA F
Ġret ros
ik ip
Ġguarant eed
D IS
Ġf itted
im on
ĠS earch
Ġra b
ĠMan ager
ĠStud ent
Ġnan op
Ġpoll ution
G iven
igh ters
Ġju ice
. \[[@
v ised
pm atrix
B F
ris k
ĠK IND
Ġdep riv
ili pp
Ġst un
Ġmac ro
000 5
Ġro d
Ġoption al
ĠRel ated
i ac
pat ient
ĠMary land
: </
Ġb ron
ĠM om
Ġ! [
ap ore
own ed
own er
br as
Ġorg ans
Ġpre ference
Ã© s
Direct ory
Ġmathemat ical
e re
14 5
Ġstay ing
******************************** ********************************
Ġ( <
and al
12 9
ist a
ĠH art
AR N
Ġposs ibilities
Ġincub ation
Ġpurs ue
M o
P F
ĠPr inc
py thon
ĠL at
ĠE PA
Ġ8 00
FA ULT
Ġor ange
roph ic
ch a
S K
b est
Ġres erve
Ġint estinal
CO MP
ĠÎ¼ M
Ġcomput ational
Ġgrav it
P ATH
Ġg it
Ġdr ama
Ġgener ates
Ġel astic
Ġair port
Ġchrom at
ĠSand ers
ĠC it
IN FO
ĠLe vel
Ġast hma
] =
t urn
| -
ĠL iber
IS H
Ġcompet e
Ġpure ly
ro it
Ġra ises
for ced
Ġdriv es
Ġcytok ines
Ġconvin ced
2 16
Ġret ired
W ord
ĠC ab
19 85
Ġattack ed
Ġgra ce
ĠIr ish
ĠS us
ord inary
Ġfant astic
Ġoff ices
11 8
Ġlet ting
Ġimp ression
UL AR
ĠP UR
ĠN F
App ellant
Ġbeg un
Ġminim ize
14 3
Ob j
Ġclub s
Ġcitiz en
Ġaccount ing
T G
ĠE M
Ġb arg
w p
Ġg athered
ĠO s
com put
Ġ19 76
13 3
Ġviol ations
Ġtransition s
æĺ ¯
}$ )
m el
ound ing
================ ========
Ġchrom osome
m ol
he ll
Ġch at
Ġrepl acing
ay a
Ġch ampionship
r ans
Ġst yles
=" /
Ġcross ing
Ġsch olar
rif ug
Ġte asp
Ã ¥
Ġdetect ing
Ġbirth day
H istory
x sl
R est
Ġt ong
ĠC G
ĠM C
Ġ19 79
ose x
Ġ ^{
ĠP ract
Ġcomp ression
Ġeng aging
tem p
ĠOver all
ĠK ansas
Ġsubst ances
Ġstrateg ic
bin ant
deg ree
Ġcar ries
Ġflow ers
Ġ ï
Ġ' '
Ġscre ens
ĠB MI
E mail
0000 000
reg ion
Ġexpect ation
ĠPr ince
. (
Ġin sect
ĠT en
Ġinf ants
Ġinstitution al
in stein
ĠF C
ateg y
Ġstrugg ling
l ay
ĠD utch
Ġsp ac
Ġl oy
ikip edia
ĠA k
is ot
th an
ore r
Net work
Ġhorm one
yn chron
ĠRad io
, ,
ch lor
Ġal arm
oc amp
In tern
vir uses
b d
z ip
in ement
Exp ress
&= &
Ġcoron ary
ĠCom b
Ġreplic ation
ĠExec utive
Ġ ×
Ġst ops
ĠN az
Ġarriv al
Ġ$ .
Ġwh is
ĠK ong
Ġanim ation
Ġassoci ate
ic ion
V ideo
Ġconsist ed
Ġmer ge
h bar
ĠM ir
ĠĠĠĠĠĠĠĠĠĠĠĠĠĠĠĠĠĠĠĠĠĠĠĠĠĠĠĠĠĠĠĠ ĠĠĠĠĠĠĠĠ
Ġrel ied
< <
ou rier
Ġ1 38
)* -
Ġbur st
Ġbed room
ĠFore st
ĠM it
** :
ĠB or
Ġhand led
ĠSm all
========== =
, _
Ġp ic
ant e
th ree
, [
Ġ12 7
w ould
Ġb ags
ract ed
Ġneur onal
og lob
Ġoccasion ally
C opy
Ġtum our
Ġlov ely
; <
Ġd ried
Ġsan ctions
ĠV E
Ġco pper
Ġinhib itory
Pl ayer
Ġcontribut ing
Ġdisp ers
ĠThe ory
ĠF ive
ĠK elly
Ġap olog
å ¼
)$ -
ator ies
Ġcorrect ed
appropri ate
) ](#
Ġim plements
G od
Ġm ol
Ġyour s
ĠCons erv
Ġs le
Ġmicro bi
ĠM ut
Ġbi ology
Ġv iable
ur red
ĠD rug
ogg le
W I
l it
ĠC F
Ġman agers
**** ,
Ġconstruct or
, âĢĻ
f ox
Ġconsider ations
Ġaff airs
12 1
Ġtend ency
Ġf irms
Ġgr ants
Ġflex ibility
Ġcontem porary
Ġmod ulation
Ġrad ial
map sto
Ġ------------ -
ĠH ope
Ġinf il
ĠGold en
re a
I H
Ġaff inity
sn ap
33 33
w t
Ġind ividually
ex pected
C ard
)/( (-
X ML
Ġterror ist
qu ire
Ġres ort
Ġdelet ed
Ä ±
Ġch amp
overn ment
Ġne c
Ġra pe
Ġsol ving
ĠRe quest
Ġtransl ate
ĠH aving
ĠCont ent
ĠMass achusetts
Ġm aternal
id en
em ale
Ġdecl aration
Ġeth ical
ĠHaw ai
Ġindict ment
ĠM essage
ĠSe lect
Ġc ake
ĠG raph
ĊĊ ĊĊĊ
ĠLeg isl
Ġfel ony
st ud
ĠAl abama
Ġimpact s
Trans form
Ġscen arios
Ġcor n
Pl atform
w ich
ĠM ER
Ġv as
Ġunf air
Ġg ains
Ġpres cription
Ġneighb ors
Ġbrother s
dep th
v ard
Ġb rack
Ġbe ings
Ġprof its
wr itten
ro gen
ĠO ption
amp ing
ĠScot land
hy thm
Ġbal anced
Ġanaly tical
M AP
v c
Ġkn ife
D onald
Ġf atal
ut f
ab ases
let al
Ġindic ator
Ġsubstr ates
e an
ĠR OS
Ġcl othing
Ġag grav
Ġco operation
Ġf ibr
}} =
Ġs que
ess ages
Ġoccup ied
Ġ-------- ---
Ġh oney
ĠH ong
Ġgener ations
Ġbr ill
Ġaddress ing
Ġmy ocard
24 7
Ġhand ler
M art
ount ered
Ġconsist ency
Ġanalys ed
Ġbelong ing
v ideo
Ġlet s
ĠPhil adelphia
ĠC hen
f illed
ĠB ud
ĠL ag
ĠE N
Ġlocal ized
Ġbro ader
Ġvol umes
Def inition
As ync
Ġfra gments
ar ms
Ġar row
Ġcur vature
Ġeth nic
Ġexp end
15 5
T w
Ġsl ope
test s
), $$
ĠUk raine
ĠH im
Sh are
Ġexpand ing
Ġbath room
Ġmorph ology
P N
cont rolled
Ġmer it
look ing
Ġ ).
Ġ" âĻª
Ġlo ose
bb ed
l an
30 5
(" #
Ġrac ial
ĠPART IC
P K
Ġint act
Ġsc ar
Ġund efined
Ġgrad uate
B IT
v ia
Ġn ick
con g
19 0
Ġpresent ing
E q
qu ality
Ġnurs ing
W riter
Ġinhib it
Ġp iv
st yles
Ġover r
ĠPro p
Ġes cap
ĠSim ilar
semb led
ul ing
ĠM RI
erv ing
V s
Ġt ears
Ġ19 75
w x
Ġh ired
Ġaccept ance
Ġang les
Ġsecret ion
Ġrecruit ment
is an
Ġup grade
IN K
Ġexcept ions
Ġret ention
ĠPh oto
V R
const ruct
lev ance
osc opic
Ġd ensities
et ermined
Ġarg uing
ĠM oh
Ġu m
ru ed
ĊĠĠĠĠĠĠĠĠĠĠĠĠĠĠĠĠ ĠĠ
AT ED
ĠB BC
Ġrob ot
Ġcompl ain
habilit ation
k r
ĠT ry
atal og
H H
Ġcl im
Ġso vere
yl ation
Ġinvestig ators
Ġstraight forward
Ġchemical s
Ġsymbol s
P ars
sh ips
Ġreal istic
PO SE
w ave
Ġd ying
ĠM Y
ĠK at
ĠHill ary
Ġn as
ĠD allas
ĠR oss
k now
Â µ
Ġb ip
ĠBro ad
ĠN orm
Ġins pection
Ġenc ountered
c ourse
Ġeth anol
Ġrout es
p ing
Ġd ies
ik a
Ġarr ays
Ġschem es
ĠN at
ĠG ro
Ch apter
Eval uate
ĠFore ign
Ġspokes man
15 6
In valid
it ance
st im
her lands
Ġconvers ations
Ġhighlight ed
Pol icy
Ġentre pre
Ġan th
ĠL E
xt ures
de velop
Ġmon itored
cont aining
user name
( !
Ġpro state
Ġnot ing
ĠO regon
Ġdis pos
15 3
in ic
nd ef
ĠO ak
Ġles ion
es see
19 88
Ġed iting
le ading
ort ic
D ITION
w iki
am ous
Ġ+ \
aa aa
I MP
Ġmut ual
ĠAlex ander
ĠL LC
Ġposition ed
âĢ¦ .
å °
Ġspe aker
Ġins ights
Ġdel icious
ĠDie go
ĠOn line
Ġpromot ion
Ġinnov ation
n ie
Ġsp here
ac a
Ġgu ilt
if def
Ġdistrict s
l ings
ĠA venue
form ula
Ġ" ,
ĠE C
av age
vel ope
Ġinv asive
Ġtem p
Ġbar riers
ĠMathe mat
Ġa ug
Ġrep orters
Ġexpl aining
Ġconfig urations
Ġanc est
M ich
z r
L ock
Ġal igned
oc ur
Ġdis posed
Ġden oted
By tes
h alf
ond s
Ġsh apes
\ #
re view
Ġheart s
s quare
ĠA li
ĠGovern or
at um
18 4
Ġleg end
Ð° ÑĤ
ãģ ¯
O ct
ĠN ode
19 89
Ġsaf ely
Ġm ile
qu arters
Ġdist ant
Ġver ified
St ar
Ġplace ment
Ġtour nament
Ġnarr ative
Ġn u
0 22
ĠH om
pect or
Ġut ter
Ġpre fix
ĠIm port
at tered
spe ed
j av
Ġn urse
ox ic
it ol
Ġdo zen
Ġcam eras
b age
al ine
ge bras
ĠL oad
2 10
? >
ĠSt ation
Ġaccording ly
Ġexc itation
Ġinnoc ent
Ġsurround ed
L ayer
Ġs ocket
ĠS oc
and y
Ġnegot iations
Ġprivile ge
* ^*
3 50
ĊĊ ĠĠĠĠĠĠĠĠĠĠĠĠĠĠĠĠĠĠĠ
de hy
Ġappro ached
ann on
```` ````
Ġsh ifts
Ġvar ies
D iv
pl atform
ĠIn vention
Re lease
Ġ-------- -
Ġ âĢĻ
ors hip
ah oma
Ġsuggest ion
r ays
ig g
Ġex ch
ex per
to String
Ġsix th
ä¸ ª
prote cted
Ġincons istent
W in
[ :
m ia
o en
Ġ ../
} '
ĠT rib
pro of
app ly
icip ants
Ġexhib its
Ġshift ed
ĠW orks
ast ing
Ġshe ep
Ġpack ed
m ers
pol icy
Ġtrig gered
Ġg olf
ĠL ED
ĠU lt
ãģ ¨
Po inter
Ġp ole
Ġ0 2
37 5
c u
d or
Ass ert
Ġprev ents
Ġlig and
Im port
et o
Ġcar riers
0 24
ĠT ok
ĠP U
ord on
old ing
OR K
Ġd ot
ĠN H
Ġar ises
pl o
Ġw ages
ĠC ass
Ġbel t
Ġless ons
Ġleg ally
Ġple ased
Ġsh ame
Ġorder ing
ro c
Ġchair man
Ġ[ $
ĠWith in
b oth
Ġb ene
Ġin ference
Ġwas h
20 8
Ġconduct ing
Ġsleep ing
ou ds
ol ver
Aut o
ĠM iami
Ġrem edy
ant h
Ġalle le
M IN
âĢ ħ
Ġrem arks
Ġreview ing
Ġfall en
M atrix
Ġph ones
ili ary
Ġevalu ating
---------------- ----
Ġlight ing
Ġex clude
cons ider
Ġless er
Ġreported ly
Ġball s
L ight
S W
l ied
re act
}$ $\
ĠJava Script
Ġdram atically
Ġv ig
ĠU SE
Ġmotiv ation
ar ound
ac char
ĠD u
Ġme ets
Ġint imate
Ġrem ed
Ġsuscept ibility
) -\
> ::
D im
CR E
)\ ,
osc ow
Ġb reat
ir ds
ãĥ ³
Ġappell ate
[ **
Ġd reams
ĠMot ion
Ġincred ibly
Ġt ar
Ġimm igrants
Ġalter ations
ĠS L
Ġdevelopment al
is ement
Ġpass enger
View Controller
Ġunivers ities
Ex ample
O pt
az y
Ġenc oded
ĠMuslim s
er on
Ġh itting
Ġbas al
ãģ ¾
S al
Ġpro xim
Ġinf ra
Ġcomb ining
Ġsp oken
Ġ` `
Ar ch
M ember
ig ger
ĠB ridge
ex pr
sh ared
Ġste pped
Ġassert ion
ĠMiss ouri
Ġlob by
Ġcontrovers y
Ġassert ed
Ġs per
ĠI MP
ĠFoot ball
č ĊĠĠĠĠĠĠĠĠĠĠĠĠĠĠĠĠĠĠĠ
ĠB an
}} }(
Ġsim ulated
Ġout door
Ġcorpor ations
g p
Ġc DNA
ĠC ome
ĠVis ual
ĠA RE
er ge
ĠB ry
ud ge
ĠBe ing
LO CK
Ġ1 70
pe red
ĠN eg
ĠN ation
ĠJ osh
5 12
Ġshe ets
Ġabandon ed
âĶ Ģ
ĠT arget
ĠH an
c ost
el and
sh are
ĠB at
ĠH ub
ors es
Ġmand atory
ĠB ureau
Ġg amma
Ġsch ol
Ġspecim ens
W ait
Ġf etal
Ġpo ison
Ġneigh bour
orig inal
ĠCh ange
Ġquad r
O F
ĠFr ame
hav ior
ĠF uture
Ġfem in
Ġproceed s
Ġhand ed
id ad
iz za
)) ?
fl ag
Ġimp ly
Ġsl ot
Ġlog in
S i
ĠU pon
ĠC reat
Ġconven ience
to o
Ġflo ating
à ¥
on der
ĠB AS
ĠD ouble
Ġinter fer
ĠOrgan ization
Ġin adequ
ĠP ack
ĠR ome
Ġpl acing
requ ired
Ġsw ing
S k
m ir
Ġhaz ard
Ġan est
Ġsub stitute
Ġsupp ressed
Ġweak ness
Ġcy toplasm
Ġinit iation
Ġprom ises
Ġpull ing
cl oud
Ġdel ight
RE CT
Ġrot ating
ĠPsy ch
ĠH TTP
Ġcount ing
ĠCO URT
Ġst iff
Ġfoc uses
j oint
Ġf ate
13 7
CL UD
Ġenem ies
Ġr iding
ĠJ ay
ĠU buntu
Ġfound er
Ġang i
Ġt ies
with out
mark et
R ate
U ID
ä ¹
ĠYou Tube
2 11
ens ation
R et
X i
min ute
plic ation
Ġimplement ing
Ġreconst ruction
Ġth rew
ĠF ac
Ġmy el
14 6
Ġdiscuss ing
Ġhighlight s
A ug
Ġmod est
Ġgly c
ĠO il
Ġfil ename
class es
Ġcent rifug
ĠA B
Ġerr one
ogen etic
| _{
ut s
Ġas pir
Ġ" %
Ġqu it
Ġofficial ly
ĠPr ice
Ġafford able
}$ -
~ -
Ġun ity
M OD
r ific
Ġd ir
Ġext racellular
ãģ Ł
Ġfore cast
Ġvolunte ers
) ^{-
im et
ĠP erson
m ag
t ry
in fected
at ar
ĠT ai
ĠN i
Ġhuman ity
Ġload s
Ġgra b
H ar
z es
ud es
Ġsh out
Ġur ine
Ġprotest s
T X
t or
ĠR ules
Ġun iqu
ord ered
s pect
L in
ĠEd itor
ĠAut o
e conomic
Ġo cean
Ġconsider ably
LO C
ĠNe uro
Ġmes h
D a
Ġs ys
ed itor
B el
Ġm ig
ĠJ ason
Ġint im
Ġ19 78
Ġappe aring
-------------------------------------------------------------------------------------------------------------------------------- --------------------------------------------------------------------------------------------------------------------------------
ĠO w
Ġent ropy
qu ence
Ġtit les
A H
19 87
Ġpres erved
Ġpr ay
.[ ]{
Ġmer its
Ġst olen
ĠM useum
ĠW atch
Th ose
ĠHow ard
by tes
ĠIn cre
ential ly
fe ed
Ġpost ing
Tr ump
AR S
Ġlaw yers
D ATA
Ġmy st
Ġd ont
ĠT ony
ĠIn f
Ġutil ize
Ġsto pping
gorith m
D an
c ies
Ù ĩ
Ġvalid ate
N s
ĠN ic
UT H
FT WARE
Ġassert s
ĠLouis iana
Ġinnov ative
Ġre pository
VER SION
Ġm os
ĠB ad
Ġk g
lim it
ĠA I
res olved
Ġplace bo
Ġp aste
ĠT reatment
Ġinvest ments
AS K
Ġheav en
Ġadopt ion
Ġcl ip
Ġmethod ology
Ġfre ely
P ay
Ġproject ed
Ġnucle i
Ġiniti ative
Ġdownt own
A h
ĠP ear
ty pen
uls ion
ĠS quare
ĠO kl
in ery
oc he
Ġtravel ing
in ch
Ġl ar
Ġ$ |\
Ġy ard
t g
ĠS W
2 23
Ġdet erior
Ġatt ending
oz yg
c rit
i ar
Ġde leg
ĠD IS
Ġob sc
ig hed
ĠU tah
ut her
ĠS ky
ĠM g
Ġme als
ilit ary
Ġcross ed
c ou
ĠEm ploy
odynam ic
n atural
Ġ ------
}} )$
Ġspeak s
Ġtherap ies
Ġw ise
Ġrat ings
typen ame
Ġoper ates
ed a
id i
19 7
) }{\
N a
t ain
Ġcon cert
19 84
Ġclust ering
ĠH S
20 6
spring framework
Ġempir ical
ĠS ab
ĠP F
bib r
activ ated
ĠMean while
Ġprodu cer
ĠFin ancial
2 64
Ġem bar
init ial
ĠW ars
te am
Ġoper ational
33 3
Ġc ats
ne ed
ex cept
ĠLe on
` .
Ċĉ Ċ
sc ious
' ))
ĠTrans port
K O
c H
t ically
č ĊĠĠ
b rief
p air
if ndef
tw itter
j ob
ro b
Ġpredict ive
Ġcred ibility
Ġunem ployment
at able
Ġobject ives
Se lected
Ġcoc aine
Dav id
L V
ĠE mer
Ġsub div
Ġhapp iness
Ġnecess ity
ĠNet herlands
typ edef
20 3
Ġexpl oration
ĠNot ice
Ġsustain able
os ures
z heimer
== =
ĠB urn
ug g
ĠA K
Ġdevelop ments
net work
Rem ove
Ġto b
iss ue
Ġampl ification
Ġearn ings
Ġextract s
Ġrecip es
p aren
t l
ex ists
Ġadv ances
Ġtop ological
ĠJe an
Ġconfirm ation
Ġaver aged
J ava
L im
18 7
= $
Ġatt ach
Ġ------------ --
lim ited
Ġdisp ersion
ĠJac ob
qu oting
roph ys
ĠEl izabeth
ĠExp ression
ĠP ier
T rack
p ic
Ġb other
ĠM other
Ġtrans verse
ĠF actor
ĠV ector
Ġfe ver
Ġadapt ation
r untime
Ġt utor
Ġpromot ed
ĠNAS A
g el
re str
T ON
u j
sp in
Ġinst ability
17 4
> "
ol in
Ġr ally
ĠOx ford
( :
ĠS ure
oc on
pl er
Ġgre y
Ġ0 9
EN CE
ĠDis ney
ymmet ry
ynt hesis
re ction
ĠC lick
Ġacqu ire
P op
W D
k w
t i
ĠN K
ĠWH ERE
UT F
Ġbar rel
Ġexperien cing
l ass
v irtual
Ġs lee
it us
Ġh ip
ĠE ss
Ġup stream
ĠCl ark
i ors
s pecial
Ġre active
ĠJ am
Ġart ists
ĠMus ic
Ġv es
Ġhe lic
que ous
Ġconnect ivity
f g
Ġp as
T ry
ĠS elf
Ġtest ify
CH ANT
Ġconstit utes
Ġoverwhel ming
p b
Ġar ts
ix el
Ġchar ging
bs ite
ĠÐ ¾
Sum mary
Ġhipp ocamp
Ġw rap
red uc
Ġ3 50
Ġsl ice
Ġevolution ary
Ġprogn osis
b ably
ĠB all
ĠB UT
![ ](
J ECT
est abl
ĠN ight
Ġgen otype
20 9
Ġdro ps
ĠBer lin
ĠF act
ĠW ould
ĠCru z
Ġinfect ious
Ġ' /
ĠRes ponse
Ġmist akes
um or
Ġdef icit
d river
k top
og onal
âĢĿ )
ĠK h
Ġdist ress
14 8
Arg ument
d one
g re
Ġprim ers
Ġmus ical
ĠN R
Ġresid ue
ĠC IA
Ġhe s
ĠN ev
ĠC Y
Ġt ender
Ġcont amination
Ġ12 1
ĠDe an
e u
Ġbr ands
comp ass
ĠLic ensed
he art
st ock
Ġign or
hydro xy
Ġsubstit uted
A X
s r
17 6
22 1
Ġprob ation
Ġjud ges
oph ys
Ġvolunt ary
A I
ĠC ole
Ġrece ipt
] }
Acc ount
ĠĠ Ċ
Ġ1 64
d id
Ġbut tons
Ġenorm ous
Ġroll ing
Ġequ ity
Ġselect ing
Ġavoid ed
ĠProte ction
Ġcataly st
Con clusion
Ġste am
ĠSupp lementary
Ġ ]{}
Ġorgan isms
Ġmain stream
CO MM
Ġfig ured
Ġcert ified
Ġa rom
ĠPUR POSE
P ool
P rim
h idden
ĠF inal
Ġlegisl ature
Ġtranscript s
ĠA bs
Ġcons olid
[ ]{
Ġre levance
." "
Ġdis contin
hes es
Ġsup ers
ĠFil m
M us
the w
Ġsk ip
Ġcomb ust
Ġmetast asis
{ $
ĠR ab
per iod
Ġ0 7
oh ist
ĠSc i
---------------------------------------------------------------- ----------------
Ġcomp ile
Ġoxid ation
Ġt ap
Ġm il
ĠĠĠĠĠĠĠĠĠĠĠĠĠĠĠĠĠĠĠĠĠĠĠĠĠĠĠĠĠĠĠĠ ĠĠĠĠĠĠĠĠĠĠ
Ġh ire
Ġh anging
ĠT OD
}} }}
Ġred irect
m ouse
Ġl ips
her ical
Ġthere after
AD D
DE BUG
ĠL yn
Ġtra iler
app er
Ġ-------- --
Ġmob ility
J ob
t f
Ġnull ptr
Ġgold en
Cons ider
ĠWalk er
re z
Pro gram
M sg
c ross
s ince
ĠH istor
Ġintrodu cing
ĠSim on
Ġvirt ue
ĠN ob
Ġdis cre
ĠDe bt
Ġemail s
Ġrecip ient
Ġfibro bl
Ġre cre
ch arge
ĠSy rian
Ġoccas ions
ĠThom pson
Ġa stron
Ġex empt
ĠB esides
17 7
Ġpro pri
ĠApp ro
Ġrecom binant
Ġdiscipl ine
at isf
Ġp ink
ĠB udd
ĠP rom
Ġclin ically
Ġcyt otox
Ã¼ r
ĠM oscow
Ġint ensive
Ġfluores cent
Ġ13 1
ar Xiv
ĠM B
Ġ19 77
az ole
( {{\
ĠE ar
Ġend orse
ĠDel hi
ul ates
ock ets
Ġconsum ed
hent ication
j ango
Ġv iability
Ġtransl ated
cp u
ith m
99 9
ĠRober ts
Ġi Phone
ĠPARTIC ULAR
Ġc ups
il ateral
Ġover se
Ġdes erve
ĠUn like
ĠBl ood
rec ip
Ġcort ical
G D
T erm
Ġcollect ing
Ġdelet ion
* ),
S ave
Ġ ĊĊ
ĠV ideo
ĠEx ample
Ġprof ound
Ġgar lic
Ġc rop
Ġ0 5
Ġgrant ing
Ġens uring
Ġhun ting
G a
Ġb ol
ĠB L
19 80
Ġadhes ion
ĠĠĠĠĠĠĠĠĠĠĠĠĠĠĠĠĠĠĠĠĠĠĠĠĠĠĠĠĠĠĠĠ ĠĠĠĠĠĠĠĠĠĠĠĠĠ
ĠTr ade
} )$.
pe at
CHANT ABILITY
Ġcon e
Ġ2 40
Ġde ck
ĠN BA
Ġantib iotics
^ ^
Ġcas ual
ly n
Ġas ync
l ibrary
ĠEx press
link ed
19 5
ic ode
Ġeth ics
Ġstation ary
is ite
ag a
Ġdis placement
' -
Ġamong st
Ġgast ro
Â ¬
ft en
ĠHot el
h pp
Ġs ends
ĠS ep
ĠPalestin ian
Ġab ilities
Ġbo ards
Ġrank ed
ĠBuild ing
O C
Ġcon c
De cl
Ġbrill iant
Ġp ist
Ġfor b
Ġfurn iture
ĠTenn essee
) +\
Ġanaly tic
Ġdat abases
am l
Ġ0 8
Ġcondition al
Ġleg acy
Ġf n
ĠA A
Ġra ces
ett i
Ġconve x
m ys
Ġconj unction
ĠS ud
pro perties
Ð¸ ÑĤ
Ġtob acco
om ics
Ġref use
ment ation
k ish
Ġc Ãĥ
Ġ1 75
Ġpro c
ess ment
15 4
Ġinc idents
Ġl ake
sem ble
z ens
ir ts
import ant
Ġpseud o
ĠB u
n ick
Ġb ail
ĠC ub
che ll
Ġhop ed
ĠT I
us ions
ĠSO FTWARE
ĠAnth ony
in formation
ĠC E
ĠSt ock
om ing
ĠH ind
Ġpost operative
Sec urity
z h
Ġt ons
Ġbe ef
ĠC B
equ als
ĠFIT NESS
ess ed
Ġjust ified
Ġprec ip
Ġoccup ation
Ġinflu enza
Ġ12 2
Ġla pt
Ġlength s
Ġrele ases
Ġasc ending
s ent
Ġcyt os
ĠSum mary
19 83
Ġph yl
Ġriv al
Ġin oc
ĠĠĠĠĠĠĠĠĠĠĠĠĠĠĠĠĠĠĠĠĠĠĠĠĠĠĠĠĠĠĠĠ ĠĠĠĠĠĠĠĠĠĠĠ
20 7
Ġhydro ph
exp ression
ĠD im
Ġmet adata
char acter
Ġ æ
ve e
Ġapp end
Ġdist ribute
Ġsal ine
ij ing
Ġcatal og
[ -
ĠM aterial
Ġcount ed
Ġ$$ {\
Ġdisappe ar
et ically
ĠA V
Ġge ometric
cler osis
* \<
W ORD
Ġf ought
Ġev olved
Sh ould
Ġsuscept ible
s ized
ĠS ant
ĠG A
Ġincre ment
ĠEngine ering
9 00
}} }_
19 82
ĠRec ently
P ad
á º
Ġf asc
se par
AC C
ell s
Ġdiag onal
Ġalumin um
Ġcur ious
Ġexc use
ĠCap ital
Ġd ated
Ġmet als
ĠMan chester
Ġlo ops
Ð ·
it ate
Ġp ub
$ ;
H ome
oll ary
Ġcampaign s
x it
Ġa queous
in os
ĠM AR
ĠDemocr at
ĠW ales
Ġcomp iler
m iddle
Ġa wards
ĠL ive
ĠSt ore
Ġrob bery
ĠI mp
Ġillust rate
t ics
Ġh i
Ġhom ogeneous
ous es
dehy de
2 25
2 80
Ġj av
Ġadapt ive
Ġcontrad ict
im eter
ĠB rief
ĠG er
ipp i
ĠLab our
Ġcerv ical
Ġal ien
Ġpred etermined
Ġco aches
Ex per
Ġdis hes
Ġdi am
cer y
t le
ĠD oc
Ġdr unk
trans fer
Ġsynt hesized
Ġcorre ctions
tr l
ĠBro ther
Que ue
op a
Ġcho pped
Ġc md
Ġassess ing
Ġvac ation
Ġd rew
-- >
Ġ% >
Ġill um
pre p
Ġenter prise
ĠAcc ount
ĠO pp
hand ler
inte ger
f actory
is en
o ose
Ġp ressed
ur ches
ĠF ourier
24 5
Ġca f
ĠB M
cl uster
Ġshow er
pr ice
Ġembar rass
A pi
Ġt ent
ol er
per ature
Ġneed le
ĠOther wise
ĠAnt i
ĠRel ations
ĠKe ep
ĠR on
Ġdis se
Ġun stable
)\ \
Ġsoph istic
G s
t c
ĠA mb
pl ug
By te
$ ^
u pload
ĠD uke
op ol
Ġback up
IP T
Ġarbit ration
zy ga
Ġoutput s
; "
D ouble
m ind
od ot
ĠO THER
Ġdynam ical
em en
and ed
Ġ0 4
). \
Ġ19 50
return s
Ġt ear
ut ors
qu in
Ġ19 73
Ġreg im
14 1
Ġpain ful
3 12
Ġfac ial
yd rate
P B
s yn
Ø ¯
ĠH al
Ġext r
Ġprov in
AC H
Ġseem ingly
Ġann oy
Ġthrow ing
M ED
p us
Ġt err
re v
en o
Ġ' ,
ick ed
Ġoblig ations
ĠFrank lin
ĠCapt ain
ĠC SS
Ġappro ximate
ĠPh ill
ĠH ad
ĠU r
ct ive
art ifact
Ġpr ayer
Pl aintiff
Ġdiscl ose
Ġm elt
ex e
ene z
ĠR aj
Ġmay or
Sh ort
Ġalloc ated
ĠV ery
S ample
ĠE ag
ob last
claim ed
He alth
Ġvent ricular
L at
j ack
Ġcontact ed
\| _{
Ġaggreg ation
ĠL ater
ov ie
ãģ ª
ĠGen er
Ġult ra
Ġdemonstr ating
Ġneut r
Ġauthent ication
es y
Ġst ocks
Ġtrans genic
Ġrest art
ĠS TR
Ġref rig
eq n
Ġrev ised
Ġtack le
Ġl act
ĠĠĠĠĠĠĠĠĠĠĠĠĠĠĠĠĠĠĠĠĠĠĠĠĠĠĠĠĠĠĠĠ ĠĠĠĠĠĠĠĠĠĠĠĠ
ĠâĢľ [
17 9
ĠDet roit
Ġmanufacture rs
M ask
16 2
Ġstat utes
X R
r ated
13 1
18 5
ĠÐ ´
Ġmotiv ated
Ġveter an
Ġa ux
45 6
ĠApp endix
ĠB OO
13 9
Ġp i
iss on
Ġbl ade
Ġactiv ists
ĠPh ilipp
ĠInt eger
exec ute
ETH OD
ĠMER CHANTABILITY
Ġas h
Ġtr unc
ĠAl zheimer
Ġqu eries
ĠNe ither
Ġcon current
Ġdem ocratic
ĠCon fig
Ġpropos als
Ġ ĊĠĠĠĠĠĠĠĠĠĠĠ
ĠI de
ab e
B et
ĠL PS
Ġindust ries
Ġantib iotic
ĠPhys ics
i q
Ġa z
ĠV eg
Ġel ite
Ġpath ogen
Ġachie ving
Ġphenomen a
Ġnurs es
A x
on z
ĊĠĠĠĠĠĠĠĠ ĊĠĠĠĠĠĠĠ
Ġra ck
ĠBel g
Det ails
B ank
Ġsc ared
Ġaccel eration
B Y
T om
Ġh ill
Ġst ain
Ġsu ck
Ġsear ched
b rain
s il
ĠV en
ĠFr ont
Â ³
ul atory
Ġpl otted
}{ {\
Ġgast ric
ĠMount ain
Ġoverexp ression
ĠIn put
Ġdon ors
Ġed ited
ad ies
Ġsh irt
Ġless on
ĠSing apore
Ġcann abis
ĠDise ase
Ġh ind
ĠC orn
Ġhe ated
ĠAn aly
init ely
M Y
ĠP u
Ġcurrent s
ĊĠĠĠĠĠĠĠĠĠĠĠĠĠĠĠĠĠĠĠĠĠĠĠĠĠĠĠĠĠĠĠĠ ĠĠĠĠĠĠĠĠĠĠĠ
book s
Ġpromot es
f ather
r ator
ĠI l
Ġ19 74
Ġinflu ences
Ġwal ks
v ation
res istant
Ġen v
Ġend ogenous
Ġgrap hene
R ear
Ġ Ñ
Ġpath ology
Time out
) ~
w atch
Ġfor cing
Ġmicrosc ope
A bs
ĠP ri
Ġab road
build ing
Ġcompr ised
ĠH ur
Ġweight ed
Ġp and
ĠDen ver
16 6
sk ip
Ġcontribut es
B inding
ĠS K
and ra
ph an
.. .,
pan el
w oman
Ġwh ilst
ĠPol y
Ġ0 3
ĠV I
ex tern
ph ant
Ġrest ored
ud a
Ġdi abetic
ĠAust in
ellig ence
driv en
ĠB ull
Ġdis par
Ġaltern atives
Ù ħ
č ĊĠĠĠĠ
Ġpro x
Ġtw elve
Ġtranscription al
H y
Ġp uzz
ad ition
^{ {\
Ġubiqu it
j et
is o
Ġb os
Ġin effective
In formation
,\ ,\
rad ius
em ploy
Ġtrans fected
Ġcor rupt
ĠÃ ħ
$ ),
Ġen abling
St orage
15 2
)) \
Ġant enna
Ġneg atively
Ġmicro bial
Ġhom olog
ĠInt egr
Ġinsert ion
s b
Ġcur sor
) ^{\
ĠO k
pro ps
Ġrent al
C am
N ever
23 0
igen ous
Ġdemand ing
w ick
pro f
Ġcrypt ocur
ĠAuthor ity
Ġroy al
ĠF a
con sum
en ch
ul ence
ivers ary
cat en
sv g
Ġan onymous
Ġgr at
Ġanaly zing
Ġf oo
Ġst ip
Ġactiv ate
Ġabnormal ities
Ġwithdraw al
ĠCou nsel
ĊĠĠĠĠĠĠĠĠĠĠĠĠĠĠĠĠ ĠĠĠĠĠĠĠĠĠĠĠĠĠ
ĠMay or
Ã ¦
å ¯
Ġm apped
F ollowing
pl ain
au er
com a
re ne
Ġst adium
Ġch ips
sl ant
Ġproxim ity
Ġact in
cept or
iv ities
Ġen riched
Ġag on
Ġcon ced
Ġ19 72
ĠMex ican
ĠLabor atory
Ġprolong ed
ill in
ĠG ib
Ġcal endar
âĸ Ī
p nt
om on
Ġpass engers
Ġhead ers
Ġped iatric
os er
icul ous
t p
ĠC ra
ĠAss istant
Ġslow er
Ġopp osing
And roid
Ġdepend ency
Ġthorough ly
ĠT i
Ġvalid ated
Ġ Ø§
se a
ra gment
ĠH um
ĠR d
Text ure
L T
Ġhope fully
Y PE
Ġby pass
ĠE T
Mem ory
^ ](#
Ġth roat
ch at
th ur
ind ependent
--- |
DE F
Ġcomposition s
Ġtick ets
her ic
her ry
Ġen rolled
Ġcent uries
Ġhold er
Eng lish
å ĩ
Ġpublic ations
ĠEx change
call back
ĠAtl anta
ĠOkl ahoma
Ġc ra
ĠC ulture
ĠB P
ĠSen ior
Ġne on
com b
ĠCON DITION
Ġdie lectric
h d
n als
ic ient
Ġcrit ics
Ġtong ue
- ,
or rh
ent ity
ig ious
ri ends
Ġca ution
gen erated
Att ributes
Ã ħ
Ġdr inks
Ġrec urs
Ġback ed
Ġvari eties
ĠDo ctor
M ath
an aly
iss ippi
16 7
Ġcalcul ating
I K
Ġpsychi atric
C ert
in ters
Ġterm inated
Bl ack
Ġenrich ment
F in
Ġs ink
ĠE conom
Ġfra ctions
Ġto ss
ĠM ove
34 0
Ġdistingu ished
ĠC e
Ġcomp ass
she ll
gen eral
ĠAss ert
Ġe ars
Ġtem pt
Ġrender ing
Ġsh aped
Ġinter faces
14 9
Ġmet rics
27 0
Ġscre w
Ġsett le
Ġfru its
ĠSt atus
Ġautom ated
ryst al
Ġcomp rom
Ġcere bral
ĠAff airs
Ġswim ming
P ower
Ġall ocation
oid al
A ge
ul ose
Ġreg ret
Ġinstruct ed
Ġcum ulative
Ġ ic
Ġw x
S cale
Ġcomp romise
Ġorient ed
Ġcl one
Ġsubject ive
ĠPrem ier
e very
pro ve
ym ers
Ġparent al
if iable
22 2
Ġoppon ents
B undle
Ġt mp
Ġthe ft
Ġapp ellee
19 9
Ġext ensions
Ġexpl oring
Ġsubt le
ĠN M
Ġutil izing
Ġbab ies
F i
f actor
Ġl iv
Ġtrans it
To String
Ġhom eless
Ġcal ibration
plet ed
Ġrelax ation
Ġsurve ys
Ġmarg inal
Ġadvent ure
n pm
Ġa est
ĠCh annel
Ġprob es
Ġconcentr ated
Ġpun ct
Ġun law
Ġdirect ors
ED IT
Ġp ose
th row
cont roller
ĠF M
Ġt au
Ġpr ide
air y
Ġcou ples
Ġrece ption
}) =
Ġdismiss al
ĠPetition er
H ub
m ount
ĠS I
ĠD VD
34 8
Ġspect rom
g ate
ĠW right
Ġdec iding
n ia
ic iary
ĠC redit
Ġr if
Ġdes ert
Ġloc us
F unc
Ġsh ops
Ġextra ordinary
__ (
Se lection
Ġsort s
Ġalk yl
Ġv on
ĠG FP
Ġrig id
Ġteasp oon
E Y
i ative
Ġto ll
ĠPh arm
ĠÎ¼ m
Ġfeas ible
man ager
Ġbr ut
UN T
Ġexam ining
ĠStud io
Ġregul ating
Ġwhere by
Ġtop ology
ĠSum mer
er cul
Ġ7 00
Ġdev ast
hy d
ĠDep uty
Ġbene ath
Ġthread s
usal em
ĠS ite
li ers
16 9
Ġlab our
B i
P ress
================ ======
Ġblock chain
ï¼ ļ
Ġabund ant
ĠBack ground
Ġ3 60
ry ption
Ġdef ence
ĠCont ract
) ->
B ER
b g
od a
Ġde ployment
Ġsub section
Ġi OS
Ġel abor
Ġpass ive
count ry
T x
ĠF all
19 8
Ġcelebr ate
ĠSt one
ĠUS B
Ġmaint ains
Ġexerc ises
Ġencoura ging
ĠFour th
K H
ar o
ĠDe cl
rop ol
anc ell
ĠAN OVA
Ġtyp ename
asp ase
Ġspont aneous
Ġd ough
Ġre ass
ĠM un
ĠL iver
Ġint u
ax y
mar ks
um atic
em phasis
Ġwas hing
Ġcom edy
Ġle mma
ĠV ice
Ġpack aging
display style
c ounter
le in
ĠW HO
15 9
par ameter
Ġelement ary
Ġrub ber
Ġcircul ation
Ġtrem end
ĠS V
ari ables
Ġneg lect
Ġgraph ics
Ġharm ful
C are
X ml
Ġins ured
Ġ12 6
ochem istry
ig uous
og rams
sub ject
Ġess ence
bor ne
B est
om ed
ĠR F
ĠL es
Ġinter ven
Un known
Ġabdom inal
A U
the ir
annot ation
d istance
ĠC HECK
ĊĠĠĠĠĠĠĠĠĠĠĠĠĠĠĠĠ ĠĠĠĠĠĠ
Ġequ als
Ġver b
Ġthrom b
ĠSaf ety
Ġp ap
Ġd w
19 4
Ġprim er
Ġvo ices
J ack
p ull
les h
Ġeas tern
Ġanticip ated
F ore
ĠB arn
\] (
ĠHe art
ĠBow l
get s
ST ATE
N Y
h w
ĠCar ter
Ġroll ed
Ġemploy ers
Ġbub ble
Ġunder going
b ing
Ġa fore
un ks
Ġch ap
50 9
bo olean
os itory
Ġr s
Ġhab its
[ *
ĠOnt ario
o il
el come
ĠC V
ĠB uff
Ġgr asp
chn ology
is ations
âĢ ĭ
ĊĠĠĠĠĠĠĠĠĠĠĠĠĠĠĠĠ ĠĠĠĠĠĠĠĠ
Ġtub es
U LE
Ġre productive
Rel ated
Ġagric ultural
Ġg ym
res p
16 4
ĠAn imal
Ġcharacter ize
pat tern
K n
p es
The refore
Ġo ct
ig e
ĠI ron
28 9
Ġpharm aceutical
Ġreprodu ce
29 3
æ ī
ĠM MP
ĠD ark
D est
Ġh ug
ĠMar x
Ġdecl ar
Ġhor ror
Ġorb ital
ol ute
Ġpropag ation
Ġsummar ized
ĠCONDITION S
v d
ĠD al
}} }_{
Ġtra ff
Ġbi opsy
ĠMon te
Ã§ Ã£o
Ġsoc io
G al
P ers
it one
Ġwa iver
Ġqual ify
Ġse cre
Ġun p
34 5
Ġca usal
t ip
pon s
N ational
in line
ĠW rite
ĠG ov
20 2
Ġcapt ain
Ġinter rog
Ġrec ycl
oci ation
Ġdialog ue
b one
Ġres ign
ĠV AL
ĠCo oper
L eg
Ġb esides
ĠL ore
Ġj ew
we re
Stand ard
Â Ĵ
am med
Ġuniform ly
T B
Ä ģ
Ġprov ing
Ġphot on
Ġwra pped
ĠP ow
Ġfear s
Ġpron ounced
Ġa qu
am inated
ĠHar vard
Ġavoid ing
m k
ĠM agn
Ġz ones
Ġexpect ing
comp et
Ġâī ¤
FLAG S
S N
Ġc er
Ġ25 6
Ġhousehold s
Ġtou ched
ord inate
Ġsl ip
ĠRes ources
test ing
ĠRob inson
Ġcircul ating
] +
u ating
Ġsp ite
Ġsim plicity
he ro
ĠT an
sc hem
:" ){
S end
v able
ĠF ab
Ġdiss ent
h ide
lic ations
(" %
Ch annel
ãģ Į
Ġsympt om
Ġclick ing
Pa ul
Ġh ub
Ġclear ance
čĊč ĊĠĠĠĠĠĠĠ
Ġcook ed
Ø ª
Ġa pt
Ġaut ophag
Ġfil tered
Ġsum m
ä¸ Ń
Ġelim inated
Ġdesk top
W O
f requency
Ġcrit er
sim ple
9999 9999
ah o
l on
ĠSt aff
Ġspecial ized
ĠPat rick
Ġfat igue
ĠC ould
ĠĠĠĠĠĠĠĠĠĠĠĠĠĠĠĠĠĠĠĠĠĠĠĠĠĠĠĠĠĠĠĠ ĠĠĠĠĠĠĠĠĠĠĠĠĠĠĠ
Ġsk illed
M ove
P UT
Ġtime out
Ġinter pre
Ġbit coin
Ġwa ited
ĠGra ham
Ġgovern ed
Un iversity
ĠGu ide
bul let
cur s
Load er
R IGHT
V O
Ġpath ogenesis
ĠMc K
Ġneut roph
Ġcytok ine
gl as
Ġoppon ent
" ],
Ġd f
ĠF DA
Ġconf idential
; }
ĠH ash
Ġr ounds
ex ception
Ġdem ographic
Ġ! ==
Ġchem istry
m other
arc el
ĠAtl antic
ĠB art
Ġperform s
co very
Ġsens ing
) )$
J P
ĠL oc
Ġdam n
Ġphosph ate
Ġprem ises
Ġadequ ately
æľ ī
ĠDig ital
Ġrab bit
Ġd ictionary
Ġde ar
18 8
ol ip
Ġconv ictions
Rear range
s ame
( @
ID E
Ġremem bered
Ġ( _
ĠA CC
ul ous
ĠD rag
ĠH ans
Ġgrow s
ĠPort ug
Ġrecru ited
ing ton
cl ock
Ġsens ory
Ġdead ly
Ġjournal ists
\ {\
j ax
17 8
2 12
ĠT y
ĠS ex
Ġreconst ruct
Ġgravit ational
it ic
ur ities
________________ ________________
ĠSwed en
Ġdivor ce
* :
ĠCh ap
( __
ĠC art
Ġmount ing
ĠMor gan
á Ģ
Ġto ile
Ġmalign ant
Ġpancre atic
ig ens
Ġ12 9
Gener ic
mill an
c iting
s ight
Ġl ane
Ġagre es
Ġillustr ates
or o
Ġd war
Ġab used
Ġdis position
Ġbad ly
ĠRem ove
Ġinteract ing
ro ck
ĠR ick
elle es
Ġceremon y
C y
at ivity
Ġf et
Ð¾ ÑĢ
m c
ĠS ett
ag ain
com plex
Ġproduct ivity
ĠBAS IS
hen yl
tes ters
Ġmin eral
Ġbi ochemical
ING S
long rightarrow
le en
ĠO tt
Ġout lined
PD ATE
Ġkin etic
ver ter
int o
Ġquant ified
f und
ĠG rad
Ġhand ful
ĠMc G
ĠSil ver
Ġpredomin antly
ĊĠĠĠĠĠĠĠĠĠĠĠĠĠĠĠĠ ĠĠĠĠĠĠĠĠĠĠ
Ġcoll ateral
Ġphilos oph
s chool
Ġin con
Ġco oper
Ġpol ls
25 2
Ġstri kes
Ġcyl inder
." );
Ġam id
19 6
man if
Pro of
ik ing
Ġrev ision
ĠSen ator
ĠT a
ur g
Ev ents
Ġb aking
ĠD a
canc ers
em on
Ġall ies
Ġdemand ed
month s
). ](
ĠJ S
BA SE
Ġol ive
ĠGree ce
A ST
Ġm arrow
Ġregard s
Ġrecommend ation
Ġno vo
ĠBar ack
0 40
r uby
im ated
ĠS pect
Ġas sembled
C Y
um ab
ĠH it
Ġoff enses
23 5
Ġtown s
G H
S orry
Ġp s
Ġ" -
Ġaffidav it
b n
cont act
ph ones
or us
rop ical
Ġinj unction
> )
G EN
in cre
ul se
ĠAl b
ĠSar ah
opens sl
apt ure
Ġbur ied
T ABLE
ĠS cript
im ore
Ġthem es
Ġhigh way
Ġnight s
level and
]- [@
ativ istic
Ġf erm
Ġb rows
ĠG as
Ġbes ide
Ġn M
ĠB ed
ĠL as
ĠG irl
Ġland ing
Ġf etch
ĠE mb
ĠRe ference
AL S
Ġunt o
Ġ ë
oc a
32 8
Ġpract ition
num bered
b oy
ĠB erg
ĠE arly
ĠFif th
Ġdeput y
Ġ" ",
Ġeng ines
Ġarter ial
FUN CTION
ĠCom pl
ĠAnton io
- )
he a
Ġwor ship
Ġcons iders
gg ing
j ug
th ird
ĠW ang
Ġover view
Ġfollow ers
Ġbu f
Ġsat ur
Ġsear ches
Ġcontain ers
Ġterror ism
Ġinfer ior
o ons
ĠM ember
Ġtri ps
}{ (
Ġ------------ ---
3 60
h n
Ġre ck
Ġrespon ding
Fig ures
c ents
Ġ à¤
Ġb om
Ġd ressed
Ġon c
ĠP as
Ġac res
car b
Ġinadequ ate
N ative
Ġdist al
Ġquarter back
Ĥ ©
ing ham
ik es
Ġhost ed
T s
ig s
ĠSim ple
Ġto k
Ġon t
ĠSt adium
por ter
Ġarrange ments
Ġdepos ited
ĠM ort
ell ants
ĠO cc
Ġshould ers
Ġext ensively
amb ling
Ġimpro ves
Ġjuris dict
n il
il ization
cel and
PRO C
Ġmyocard ial
ĠF estival
ĠL am
Ġrec urrent
11 11
St ill
Ġpneum onia
Ġhep atic
Ġd irty
ĠB ody
Com ment
och astic
Ġdeploy ed
==================== =
paren cy
= [
ĠT ro
L en
ou stic
ĠM ars
ĠCO VID
e ctions
en vironment
ĠP ubl
ĠJ O
ex isting
ache l
cf g
ĠProte in
Ġswit ched
Ġu h
ĠC ox
Ġf ut
as ound
ĠS ize
Ġcomp iled
Ġact ress
ethyl ene
Vis ible
w al
Ġp up
ĠT ag
ven ile
Ġsche ma
ĠRepresent ative
Ġe ager
Ġout let
============ =
m us
Ġgo ogle
quest ion
Ġcoron avirus
d ose
h ist
ĠBOO ST
Ġse ctors
Ġsit uated
Frame work
ĠF ix
ĠJer usalem
Ġaccompany ing
t u
ac iÃ³n
Ġpath ological
AP P
Ġdu ct
0 27
Ù İ
å į
ĠT am
Ġv oc
ĠL V
ap olis
de cl
as ury
Ġre jection
Ġle mon
Ġpre ferences
Ġquestion ed
Ġdepart ure
Ġg ently
ĠH op
ĠE ight
Ġen compass
AN CE
ĠAd ams
ĠMal ays
Ġreserv oir
Ġcriter ion
K it
ut o
Ġv i
Ġcomp ress
erm i
Ġdiv ine
Ġtrad em
Ġbra ins
plic it
cont ract
Ġmor b
Ġsubset s
ì Ŀ
ĠDe ath
F low
ĠE le
15 8
Pro xy
Ġaccept ing
Ġsurv ived
Ġpre cursor
Ġdev oted
ev ents
av y
18 6
Ġcou rage
ĠVE GF
Ġd x
ĠR ub
Ġrac ing
Ġaccommod ate
Ġlist ing
ĠEmp ire
qu er
Ġqual itative
C ourt
s ie
ĠG ulf
V ariable
j w
k u
ol as
row ave
Ġdep ict
Ġstim ulated
Ġspectrosc opy
Ð ±
il let
ject ure
15 1
icro bial
Ġconsequ ently
Ġheter ogeneity
Ġfeat uring
e le
} )$,
Ġd s
Ġperform ances
Ġ14 4
pan ic
es a
Ġnot able
ĠL ock
ĠN AT
Ġtra p
Ġsuper vision
ĠRev olution
ĠTra ining
ĠMiss issippi
ĠJ ane
CR IPT
Ġn est
Ġr ug
ĠE conomic
Ġret inal
ext ra
~~~~ ~~~~
ĠE P
Ġcont end
alk yl
ĠASS ERT
N H
Ġ ----
Ġto wer
ĠS B
ĠC ert
ment ed
Ġcent ered
Ġmechan ics
AB A
Ġirrad iation
30 3
Ġindic ators
Ġmount ains
åľ ¨
p end
ĠCol lection
Ġfore ach
0 29
Ġis omorphism
own ers
Ġrun time
otyp ic
Ġforg otten
R Y
Ġv ic
ĠD er
ĠR R
14 2
)) );
Ġshel ter
â Ĥ¬
Ġb orders
Ġan a
ot or
ĠPro cedure
l oss
ĠG ET
artifact Id
Ġdep icted
col n
Ġport able
Ġd uck
30 4
Ġc ant
ist ically
ip h
Ġdis able
ov en
AL E
ograph ical
ĠWar ren
Ġpsych ology
S everal
Ġw orm
ĠP V
Ġim pe
Ġaggreg ate
Ġh orses
Ġgu ided
Ġmanufact ured
ĠJ un
Ġdist ribut
Ġmet ers
Ġalleg es
0 26
G reat
ĠS EC
Ġce iling
# .
19 79
]^ ,
fil m
æ ³
Ġj oke
Ġbl end
22 9
cos ystem
Ġimplic ated
ĠSt ory
amp ed
Ġpath ogens
ores cence
Wh ite
Ġord inance
Ġin complete
Ġpro st
ĠP red
ĠN ig
Ġspread ing
f ly
Ġs ne
Ġs ql
rif ice
Ġcombust ion
Ġco herent
Ġprodu cers
Ġsusp icion
Ġgather ing
Ġg rip
ol ph
Ġst yl
Ġgen us
Field s
f un
Ġs ons
Ġfl ip
Ġent ang
Ġcle ared
struct ure
Ġlift ed
f at
ĠN MR
te ch
ous ing
Ġsit u
Pl ugin
Ġund ers
Ġcompan ion
C ould
ĠN HL
Ġwild life
ĠMot or
ĠViet nam
Ġcathe ter
ĠTok yo
Ġw ishes
Ġmin us
Ġca us
state ment
pol y
Ġmetall ic
P erm
ĠTh or
Ġpotential s
Ġdig est
Be an
Sim ple
ĠM oon
com ponents
ĠTe ch
Ġautom obile
Ġm u
In ternal
ĠOlymp ics
Ġafore mentioned
ĠT u
Ġsub space
Ġbl adder
ĠSte wart
ĠEv idence
m oz
ol utions
Ġstreng the
Ġadm its
i encies
Ġr anks
iz ontal
Ġad vers
Ġcomm ut
Ġprem ature
Ġincorpor ate
down load
Ġconstit uted
Ġcot ton
Ġmy ster
Ġcol ony
23 8
Ġel uc
Ġcr ude
;\ ;\
Bo olean
Ġin hab
inc ome
0 28
Ġg ifts
^* $
H g
Ġan isot
Ġspec ification
Ġprohib ited
Ġtaxp ayer
Ġreven ues
\ -
ch y
ag ine
local host
fol io
Ġneurolog ical
CLUD ING
am ount
Ġr ic
Ġinf ring
ĠAct ive
an ing
ĠSur vey
Ġc iting
Ġin ch
ĠT ed
Ġr anged
AA A
Ġnanop articles
n ced
ĠM obile
ĠH em
19 81
Ġchar ity
Ġjump ed
ĠWARRANT Y
spe ech
Ġphotograph s
ĠCl oud
n h
li ver
AN S
Des ign
Ġexception al
h im
Ġd ashed
Ġe uro
Ġg aps
Mult i
ĠP ed
Ġexec ut
Ġattend ance
ĠPitt s
c oding
Ñ ħ
Ġsy na
ĠChar acter
Ġdefe ated
Ġimp ed
ĠFl u
Ġanalog ous
N ormal
v ariant
ĠF ollow
Ġqu otes
Ġdesign er
ĠMedic are
N I
d ensity
f ac
er d
ad ic
Ġcommer ce
ĠEv ans
ĠTR UE
ĠIran ian
e V
Ġsevere ly
Ġbil ateral
Q R
ue z
set s
Ġexpress ly
Ġir regular
Ġb ureau
Ġ" ^
ĠM M
li est
ĠTe le
ĠP i
Ġse aled
Ġbr id
################ ################
ops is
Ġ. $$
ful ness
Post ed
) ",
L iving
S am
Ġper mut
Ġg host
Ġse ized
Ġbr ush
Ġplan es
Ġspecial ist
m ine
å Ĩ
ard o
Ġnow here
Des criptor
F eb
S B
Ġrese m
Ġenjoy ing
cor rect
Pars er
m itt
o j
ĠR ow
Ġbl ast
Ġrese ction
Ġirre levant
Mean while
Ġc attle
ash i
Pl ace
ĠStat istical
| {\
ĠSe ason
ĠCon n
Ġrefuge es
Ġd ining
ort ex
IN ST
Ġassess ments
Ġcapital ism
small caps
ĠEnvironment al
N K
p n
ĠD ak
ost ics
const raint
Ġorth ogonal
bet ween
r and
Ġde ce
th al
-> _
sh al
Ġdel ta
ĠHA VE
Ġ" _
res et
19 3
Ġloc i
ĠBe ijing
ĠPat ri
Ġvacc ines
in yl
ĠG h
rac ks
ĠAdd ress
Ver tex
v ity
Ġin ability
Ġatt itudes
Ġur ged
W atch
Ġ ery
Ġun reasonable
ĠFr an
l c
Ġp ension
Ġd end
Ġg aming
ac les
Ġ\ ~
Ġ19 68
Ġsm iled
idd ing
check ed
S elf
ĠN ich
======== =======
Ġwood en
Ġpaint ing
Ġsque e
* ).
T race
ĠN elson
Con dition
ĠOr th
Ð» Ð¸
C reat
Ġg ard
Ġbe ars
ĠC ow
Ġ0 6
int estinal
AT T
32 1
Ġclaim ant
H aving
L ow
n odes
30 2
Ġmetabol ites
P air
Ġt orn
Ġt elesc
ĠE ver
cre ated
Pro p
xx xx
Ġin appropriate
Ġv ine
ĠL ady
D ig
Ġo c
lic ense
Ġhar sh
ĠF E
Ġstruct ured
âĪ Ĺ
Ġreflect ing
ĠSher iff
put ed
ĠSte ven
Ð¾Ð ´
Ġsupplement ed
uck er
Ġstre ams
ĠArab ia
Ġsophistic ated
) }_{
Ġd Ã©
opt ional
Ġep id
Ġaltern ate
Ġjournal ist
P rivate
s ocial
Ġconduct ive
ĠP P
ĠR ic
23 3
Ġhoriz on
Ġdepos it
Ġre vel
ac cur
ĠĠĠĠĠĠĠĠĠĠĠĠĠĠĠĠĠĠĠĠĠĠĠĠĠĠĠĠĠĠĠĠ ĠĠĠĠĠĠĠĠĠĠĠĠĠĠ
be it
ĠA ud
ĠA gr
Ġbul let
S pan
ĠM and
ĠF iles
Ġprov es
%% %%
2 24
Ġform ally
Ġsl ave
ĠCO MP
ÐµÐ ¼
Ġslic es
P ackage
T EXT
Ġvot er
am an
ac s
Ġproduct ive
ĠBl oom
ĠAng el
ctic ut
r ison
ĠL L
=" {
log in
Ġneut ron
v ens
he at
Ġ2 20
ac o
un its
mem ory
' ];
Ġpro gen
Ġthreat ening
alt imore
ĠSh are
Ġnucle otide
Ġhydro ly
Ġretrie ve
Ġsi RNA
Ġschol ars
S em
Ġ Ä
Ġdo zens
Ġcyl ind
ĠT GF
Ġcompr ise
ĠW ard
Ġco il
ĠKenn edy
b x
Ġb p
Ġre habilitation
io let
ĠAr gent
Sc roll
Ġil leg
ĠKent ucky
ĠF ried
Ġsuper nat
Ġlink ing
Ġjav ax
pnt d
L ibrary
Ġpro ton
ĠK al
Ġ' <
Ġpress ing
group Id
ĠEvery thing
ĠTai wan
D T
im s
ul as
Ġad op
Ġspl itting
acer b
in cess
ig a
ĠN ative
Ġstr at
Ġant im
UR N
on ucle
Ġm ism
am ents
Ġnot ification
Ġapp le
arent ly
HE AD
Ġcompet ent
æ ŀ
Ġc ous
Ġdark ness
Ġcorrespond ence
+ (
p al
Ġh ockey
ens itive
Ġoptim ized
Ġm erc
ĠC au
ĠBe ck
Ġple ad
oly tic
Ġb ite
Ġde pletion
un ique
ĠG it
pro to
Ġtri angle
INT ER
ĠFin ance
Ġimprison ment
Ġsy m
par allel
ĠRe act
Cl uster
ĠPl ayer
Ġw ings
ass ium
Ġent ers
Ġrevers al
ĠW olf
aint ies
18 2
amb ers
Ġâ Ļ
t ar
be at
Ġredu nd
Ġdeliver ing
s qu
Ġc u
id ays
Ġtrans istor
sens itive
ĠC ut
Ġve in
âĢ¦ ]
Ġen velope
ĠMic hel
ropol itan
F LO
H ER
id ase
30 7
greg ation
Ġsimpl er
4 20
app le
Pat tern
Ġ ÑĤ
Ġb icy
Ġess ay
2 60
Ġle ather
ust ed
Ġir rit
ĠRec ent
ĠSy d
Ġdiss olved
Ġantioxid ant
M eta
ĠP AR
Ġident ifier
Ġpa ired
P rior
am er
iz ard
Ġdisch arged
Ġd ock
ĊĊ ĊĠĠĠĠĠĠĠĠĠĠĠĠĠĠĠĠĠĠĠĠĠĠĠĠĠĠĠĠĠĠĠĠ
Ġcomm od
ather ine
st orage
ĠL IM
Ġcl ouds
ĊĠĠĠĠĠĠĠĠĠĠĠĠĠĠĠĠ ĠĠĠĠĠĠĠĠĠĠĠĠ
Ġterm in
Ġregul ator
ĠBet ween
STAT US
Ġlumin osity
A ust
Ġf estival
un n
ĠE state
Ġmin istry
/- /
Ġappell ants
L ib
v ariable
ut ral
ĠH i
Char acter
j k
ĠI ss
bra ce
ĠBr and
Ġens ures
D b
m ust
v id
}$ ]{}
Ġbreak down
ĠSte el
Ġcoal ition
re x
Ġc ave
Ġaccess ed
force ment
Ġnut s
ĠBre xit
Ġsurprising ly
W IN
r ative
od ox
Ġpl aus
ak h
au nd
ari ans
16 1
serv ices
Ġsw ord
ĠChar lie
h ook
am el
Ġins isted
function s
ĠSing le
ĠCurrent ly
0 33
Ġclar ify
Ġembry os
F ollow
b ank
est y
Ġ\ +
ia e
Ġfoc al
Ġpreced ing
Mich ael
ĠAr ts
Ġbank ing
Ġdou b
17 1
S an
j or
ĠB rew
ĠIn ternal
Ġel ong
Ġput ative
Ġdiss ip
Ġcomp lementary
Ġsol uble
Ġinsp iration
R ich
\ ":
22 8
prim ary
Ġth ym
det ail
as ures
Ġn s
ill o
IL D
ococ cus
Ġb od
Ġutil ization
Ġgar age
G RO
L EN
t ax
ig o
Ġcook ie
G LE
ĠT X
ad just
Ġr ush
Ġsal ad
Ġ$- $
Ġl uc
MA KE
ĠRem ember
ĠIt em
Ġlov ing
Ġattract ed
Ġsub mission
Ġunf ortunately
ĠComput er
Ġexem pl
itzer land
TR UE
Ġdiscrim in
B LE
D ES
17 2
40 4
ĠRes erve
supp orted
ĠAppe al
Sche ma
b rew
l g
and um
Ġco aching
åı ¯
Const raint
Ġo w
Ch ain
Ġrot ate
Are a
W ed
Ġful fill
Ġburn ed
id l
ĠA Î²
Ġend point
Ġconfig ure
Ġ ell
al og
Ġbe ating
Ġex on
ĠD atabase
Ġle ar
Ġ19 71
ob by
Th rough
ĠCON TR
k ed
or ious
Ġsong s
Pass word
C ast
M ill
S outh
U h
Ġcom ic
Ġ{ },
Ġi k
ĠPol it
ĠR s
âĸ Ķ
Ġfavour ite
E lements
N M
S ymbol
S creen
Ġwor n
ex ternal
ateg ories
Ġz ip
l ive
19 78
Ġspeak ers
Ġequival ence
Ġprogn ostic
U ES
V ery
is ible
ĠR at
Ġrel atives
Ġinstall ing
Ġintellig ent
xim ately
S uch
o ffic
ĠNe ed
Ġsyn c
Ġachieve ment
Ġfif ty
Ġassem bl
3 64
> ;
c n
n ative
ll ll
Ġsign atures
Ġrespons ibilities
sing le
Ġpresum ably
c od
Ċ ĊĠĠĠĠĠĠĠĠĠ
Qu ant
Ġrecip ients
f ixed
Ġdis reg
Ġkey board
Ġste ep
Ġgirl friend
/ +
Ġpeace ful
Ġchromat ography
Y Y
om ous
ĠT M
Ġun related
******** ****
Ġold est
CL A
Ġappropri ately
ĠW R
ĠQ uality
75 6
Ġassum es
Ġdepend encies
W L
Ġd t
000 8
18 9
,\ ,
gen e
ĠBl og
Y et
Ġen roll
Ġdel ays
ercul osis
st ant
if ference
00 10
ĠG ard
17 3
pre v
OP T
an cer
st ates
ĠC leveland
Ġover head
TI ME
Ġsoc cer
Ġ -----
Ġs oup
iz oph
ĠRe lease
Ġuser name
ok ers
Ġunt reated
ĠS EM
Ġref usal
Ġconne ctor
Ġlog s
Ġdeal t
ĠPr int
Ġharass ment
G reen
Ġsp ir
Ġemb race
Ġmand ate
v t
ĠD or
ust ration
Th ough
Ġtrust ed
Ġl ith
Ġco ated
Ġnever theless
S en
d ynamic
ĠT el
plement ation
+- +-
_ **
j ury
Ġcl ones
ĠY ang
23 6
sub mit
Ġappear ances
Ġ _{\
ht hal
Ġsub scrib
Go ogle
: /
Ġ" ${
ĠM IT
ĠH ug
Ġinter fere
Ġstream ing
Ke ep
Ġdisadvant age
Ġplasm id
{ $\
Ġh r
ol k
Ġcom o
Ġ4 50
Ġfail ures
Ġbuild er
ĠIN C
ĠGr iff
P et
or able
ĠM ess
ĠH ell
Ġinter active
r f
Ġj unior
izoph ren
c g
c ould
l as
ot ics
Ġit eration
Ġown s
Ġ% }
Ġintegr ate
ĠCount ry
N UM
m ont
Ġl amp
ex it
Ġcol leg
val d
Ġtem ple
Ġview ers
F ailed
j query
Ġf lesh
us hes
pt ide
Inst ead
Ġfilter ing
Ġtok ens
M atch
Ġf u
Ġlog ging
Ġmetast atic
g iving
s omething
in x
Ġs its
is hers
ĠP ent
Ġcomp elling
MO DE
m ock
å ½
Ġs ender
Ġart ifact
ĠReg ional
web kit
ĠEvery one
2 15
ĠV eter
ĠSh ar
] $.
st ats
Ġfore going
Ġelim ination
Ġlic enses
FOR M
ĠChair man
Ġb anned
Ġben z
qu ote
Ġdis ruption
Ġso y
friend ly
..\ ..\
f mt
Ġ" '
Ġsp herical
24 1
50 3
(- \
Ġeduc ated
Ġsimult aneous
Ġannot ation
COL OR
' ])
M al
Ġm art
24 9
Ġsurviv ors
I Z
ĠD ave
Ġfin ishing
dat abase
Ġd erm
ĠR C
S ep
Ġqu ark
hip s
Ġproced ural
Ġpul s
ĠVill age
ĠI celand
op ter
ie re
ĠCo hen
Ġsex ually
process ing
ĠPort land
Ġundert aken
Ä ĩ
SE D
Ġwon dered
rec ated
Ġintra ven
) {\
ol o
ĠP AC
ĠR ES
16 3
ĠWh it
p k
ĠPart ners
Ġmanip ulation
C re
c ible
d og
é ĩ
Se pt
Ġsqu ares
K ind
ĠAl aska
urs or
Ġalgebra ic
l m
Ġbe ans
un es
ĠPh ase
ĠSuper ior
ĠBru ce
, #
- .
p atch
ĠA le
the me
Ġstrong est
Ġaccum ulated
) '
R end
e or
j ournal
ĠN os
ĠDe ad
ĠSte p
u ates
ear ly
Ġmulti pl
Ġremind ed
Met adata
Ġe cosystem
Ġgen omes
ov ine
Ġ14 5
Ġdead line
report ed
R ob
ĠB ag
Ġun ions
ĠK an
ey ond
Pl ay
Ġlack s
Ġs our
Ġf as
Ġ$ ^{
Ġnormal ization
Ġund es
J une
ul us
ĠD omin
op rop
Ġref und
Ġport ray
? :
Ġb ot
Ġl ag
ĠE ND
Ġcur ric
Ġtw ist
C enter
Ġc tx
Ġb ones
B egin
D atabase
c mp
Ġb is
Ġst oring
Ġ" *
Ġi o
cont ains
ĠMor ris
Down load
} >
Ġ Å
ist le
ĠZ hang
Ġsl ides
>> >
Ġsam pled
ĠVictor ia
all enge
Ġeconom ics
big l
Fl ag
50 5
RE T
Id x
ĠMod ern
car bon
aug hed
b ach
Ġgener ators
Ġdr ift
}}( {\
Ġimp ressed
Ġtrust ee
Ġ$ _
ĠJ enn
Ġche aper
DE V
Ġinhib its
Init ial
st ick
ĠI mm
ĠC ro
Ġ2 30
19 77
Ġemploy ing
Ġinf usion
Ã© e
Ġviol ate
Ġampl ified
Ġrom antic
Ġlapt op
ĠN D
Ġband width
reduc ible
m icrosoft
z i
Ġn ested
con sole
hes ia
Ġorgan isation
Ġco in
rem y
Hel p
ä ¼
Ġin coming
Ġd ye
Ġst ressed
ĠR and
ip eline
Ġadd itive
Ġdecre e
Ġdisappoint ed
Iter ator
id ation
og an
24 4
Ġconf ined
Cont act
Ġrid iculous
ĠConne cticut
e ur
Ġf ence
Ġst ays
ert ainties
Ġpay load
Ġlog o
Ġscript s
Ġdisappe ared
Ġad ren
ĠV M
ĠQu estion
ro d
se gment
ian ces
FF ER
asc ii
ĠI RS
Ġsum s
Ġconv ince
enez uel
C U
ul k
Ġappe aled
agn vald
aj ax
add le
Ġsort ed
Ġadvoc ate
th ood
act in
Ġmis conduct
gu ard
Ñ İ
ah oo
Ġes cal
Ġal gebras
Ġpr inter
pre ced
Ġhydro x
ĠSyd ney
do es
Ġadjust ing
oen ix
b ie
c ad
} |\
Ġm igr
ch art
ĠB uck
Pro te
ĠCrim inal
Ġc ute
Ġre q
ĠB ios
Ġpopular ity
Ġliber ty
C rit
Ġt f
ĠM uch
ĠL ane
Ġconst rued
... )
Ġcost ly
po ons
Ġwarn ings
prot ocol
ĠOlymp ic
Ġtransplant ation
Ġmoist ure
č ĊĠĠĠĠĠĠĠĠĠ
ĠĠĠĠĠĠĠĠĠĠĠĠĠĠĠĠĠĠĠĠĠĠĠĠĠĠĠĠĠĠĠĠ ĠĠĠĠĠĠĠĠĠĠĠĠĠĠĠĠ
ĠCh i
Ġflow er
ĠBas ic
æ ł
Ġex acerb
Ġse venth
Ġass ured
Ġfl aw
sh adow
Ġinte gers
Ġdocument ary
Ġworth y
ĠMem bers
Ġdefect ive
Ġinvent ory
p ages
ĠT her
Ġpro testers
Ġcred its
N othing
f etch
l ia
ĠC os
ĠP os
ĠCon vention
Ġhead quarters
ĠRuss ell
lock ed
Ġnut rient
PAR AM
Ġs ib
S eg
Ġm ush
Ġd irt
Ġtra ins
Ġloc ate
Ġann iversary
Ġapproach ing
Ġcompl ained
oster one
l inks
In f
Ġpurch asing
Ġprox imal
Ġp icks
~ .
re ach
25 7
ĠTur kish
Ġhierarch y
âĸĶ âĸĶ
C AP
s ig
ĠÂ »
oun cing
Ġflu ids
Ġven ue
Ġhe y
Ġab ol
ĠTh ink
ĠAl an
Ġelect roph
ĠDe velop
ĠZ n
add y
Ġphen otypes
A rt
J ames
Ġc asc
ĠH us
ĠW L
Ġgra bbed
vis ible
ĠLin coln
Ġpenal ties
Ã ¯
b olic
ĠC reek
ost asis
Ġpress ures
Ġengine er
ĠPD F
3 20
d ialog
p he
è ¦
Ġl aughed
ĠH ung
ĠK y
Ġpubl ishing
Ġlung s
Ġdefic its
c ause
Ã °
Ã¡ s
54 9
US ER
gl uc
Ġb ore
ĠMe chan
Ġphosph at
R ober
i op
ab a
ĠB us
Ġun changed
å ¾
Ġtem plates
Ġdemonstr ation
EE E
Ġacc us
Ġred shift
Ġmar ine
Ġfo am
T imer
Ġth umb
ation ally
ĠW ind
ĠG ordon
Ġclass room
Ġcompar ative
Def endant
ĠTechn ologies
Ġdepart ments
Ġrecom b
Ġinfra red
Ġerrone ous
, *
M V
Ù Ĭ
in ine
ter y
ĠN ik
ĠY an
ss on
Ġcal ories
Pr ice
Pres ident
Ġ2 10
Ġsp ine
br is
Com mun
Ġmi RNA
ipp et
rocy tes
E s
» ¿
bo ost
Ġcoord ination
g ender
v iol
Ġposition ing
Un fortunately
.' "
d ark
ook ie
Ġ19 67
Ġcons ume
gen ase
ĠInd ones
XX XX
comfort able
++ ++
pend icular
H F
x a
om at
ĠS in
iv an
ĠD ur
ĠâĢ Ŀ
Ġam mon
Ġhere by
br ane
Ġquestion ing
ĠFed eration
d ifferent
ig ating
ch t
op ard
Ġint end
28 8
ĠFre edom
Ġlux ury
Ġretros pective
3 01
C ent
K I
Ġinv oke
Ġver ification
v n
it ations
ro st
ĠF low
Ġhost ing
ĠBo olean
Ġdisplay ing
ĠLaw rence
Ġfant asy
Ġanch or
ĠL anguage
ĠIn stit
__ _
Ġcontin uum
" `
Ġch urches
Ġob ese
par ameters
ä» ¥
ĠLear ning
w ind
č Ċĉĉĉĉ
st airs
Ġunc ertainties
ac ular
UT E
Ġkill er
) >
ĠÂ§ Â§
Ġpert inent
Ġpolymer ase
on ce
th ink
math it
000 6
Ġpract ically
Ġvacc ination
Ġfract ure
O wn
X Y
¿ ½
ĠP ope
Ġev id
ix on
Ġop io
Ġref ract
d st
Ġw ore
E uro
Ġfor ty
Ġev ac
ĠSe ven
CO M
H P
ç Ľ
Ġr ated
Ġ4 04
94 4
Ġfix ing
Ġaccel erated
ĠLegisl ature
m om
à ¯
ic i
Ġh iring
un o
ĠD ES
Ġtra pped
Pro gress
ĠDe ep
ĠCommun ications
bal ance
Ġlig ands
/ _
Y ES
al gebra
ĠN ut
Ġproblem atic
pc bi
t ensor
æ Ŀ
res olution
Ġann ually
Ġscr atch
ĠĠĠĠĠĠĠĠĠĠĠĠĠĠĠĠĠĠĠĠĠĠĠĠĠĠĠĠĠĠĠĠ ĠĠĠĠĠĠĠĠĠĠĠĠĠĠĠĠĠ
Ã¡ n
Ġdefin ite
Ġsac rifice
M arch
W ould
Ġf oster
Ġsu ite
Ġmod ular
Ġfl ies
Ġcor ners
Ġexpect s
Ġmamm alian
Further more
Ġp upp
Ġch unk
Ġconsum ing
Child ren
Ġthy roid
F inal
ĠM aterials
Ġsk i
bar a
ĠChrist opher
big r
ros ine
ENT S
Ġ[ ],
en abled
ĠG ab
fl ix
es c
ĠA ns
ass ador
Sh ape
Ġscr ut
ĠM V
ĠF ALSE
Ġob server
Ġbon us
j amin
Ġv apor
Ġper pendicular
}_{ -
Am ong
ĠT ree
Ġon ion
ĠB ron
34 4
Ġhonest ly
* {
0 36
m eth
ĠD AM
Ġgen otypes
iss ues
str and
ĠRes ult
Ġpolynomial s
A ns
ĠS el
ĠL D
ort s
Ġelect romagnetic
m w
Ġp ale
ĠS ide
Ġpro jections
ĠB attle
ĠN an
sc roll
AT CH
Ġdiff use
rypt o
A udio
S ocket
g if
ĠO cean
Ġsub groups
Ġpe ers
ox ia
rit es
38 6
ä¸ º
Ġroll er
Ġeigen values
B en
H I
t ub
ĠH ost
el er
âĢ¦ âĢ¦
Ġtremend ous
I ll
Ġw ard
st roke
Ċĉĉĉĉĉĉ ĉĉ
ĠDou glas
^ .
Ġh unt
iz ar
Ġlaw makers
arc in
Ġinterview ed
Ġde formation
27 2
ãĤ ¹
Per haps
Ġnod ded
U K
æ Ģ
ĠF at
pro posed
Ġswe at
A pril
Ġd ps
ĠM oney
40 5
immun e
hold ing
Ġover flow
pect ives
br idge
Col l
Ġexperiment ally
ĠB altimore
Ġdes cent
Ġadj ud
K D
ĠO racle
cl inical
Ġ15 8
Ġprint f
Ġrank ing
Ġ[ (
Ġadd iction
ç ½
Ġ19 2
Ġcontract or
Ġglass es
e clipse
Ġw ars
ang les
Ġrel ie
Ġarth ritis
Ġdis g
19 76
Ġaccount ed
Ġultr asound
Ġchamp ion
\ }$.
Ñ Ĩ
ĠH ttp
ĠLa ure
Ġprison ers
ĠScott ish
Ġvolunte er
Ġduplic ate
ĠM i
Ġfund ament
ĠOR DER
it i
et ed
el ed
ĠE li
com mit
Ġstrugg led
sen al
Ġinv ite
ren cies
sc ore
24 3
less sim
Ġspeed s
Ġdro pping
Sing le
st ory
ĠĠĠĠĠĠĠĠĠĠĠĠĠĠĠĠĠĠĠĠĠĠĠĠĠĠĠĠĠĠĠĠ ĠĠĠĠĠĠĠĠĠĠĠĠĠĠĠĠĠĠ
ĠM ust
Ġout s
Ġlong est
Enc oding
ag ents
Ġwhe els
Ġcol lections
sc an
Ġins ulating
t oggle
Ġnutrition al
Ġg aze
$- $
Ġcry ing
Inst all
ocl onal
: @"
g mail
v ic
se ctions
ĠL ICENSE
28 4
ĠCor ps
Ġunlaw ful
n amed
29 4
Ġw t
Ġh iding
Ġch ick
Ġcle avage
Ġisol ate
Ġimag ination
Ġpolym ers
c v
d ll
Ġc rown
ke ep
ĠL arge
ĠL iving
50 4
Ġball ot
ou ver
ĠG ary
Ġflow ing
ãĤ Į
ÐµÐ½ Ð¸
Ġ ðŁ
ĠA MP
ĠF al
ence phal
Ġhom osex
Ġtransport ed
Bit map
< _
se en
ĠM aine
ĠM ORE
ĠD ick
hed ral
Ġobserv ing
Ġtempor arily
Ġbiomark ers
Ġgot ta
Ġ? >
ä¸ į
Ġkid n
vol ume
ĠCamp bell
Î¼ g
Ġsucceed ed
ĠArk ansas
k b
ĠĠĠ ĊĠ
row ing
get Element
12 34
Ġthe ater
Ġb tn
Ġan k
Ġint rig
Ġem erge
We ight
Ġrest oration
ad os
Ġdem ent
Ġattack ing
Not es
Ġelev ation
Ġseiz ure
ĠS ET
Ġsub stitution
iff s
omet ers
section al
Ġtables poons
ĠR ange
Par se
Ġpri est
ic he
el ian
end ent
99 8
Ġ16 5
Ġrest ing
Ġdest ruct
}. \
e fficient
ĠA qu
ĠCol on
W M
ĠC U
Ġpl ed
ffect ed
eral d
27 5
ĠInt elligence
ĠMult iple
Ġsc andal
arg ument
Ġgra ins
ĠVeg as
he im
Ġex terior
Ġback ing
ĠCom par
ĠÃ ·
process or
she et
C opyright
Ġf iction
SE C
PL C
) ]{}
R P
g overnment
as et
Ġu buntu
ill us
ĠR andom
ĠU P
Ġcont ing
Ġstandard ized
Ġmic rowave
Ġar rows
Ġ19 69
re ck
ĠHawai i
3 30
Ġshall ow
Ġtor que
Ġ\* \*
Ġinher ited
Ġp ound
Ġm arch
ĠP el
Ġr amp
Ġpr one
phen yl
compat ible
qu et
Ġprompt ed
D epend
O k
S pecial
} </
ra is
ĠE mail
Ġro ster
ĠPro c
plic ate
Ġprec ious
Ġneighbor ing
Ġbright ness
Ġexem ption
Ġtraject ory
r p
op les
ary n
Ġsub scription
umn i
Ġpan ic
pow ered
ys et
Ġ15 5
oph ila
depend ency
Ġab st
38 4
ĠSw itzerland
Ġvent ure
direct ory
d w
Ġtrans c
Ġrespon ds
ĠMar ine
ozyg ous
m aker
Ġw anna
ot ides
ĠP arent
ĠE val
18 1
Ġur inary
Ġhol y
h art
Ġm useum
ant o
St ruct
ts d
Ġinfer red
ĠAltern atively
Ġfibrobl asts
ĠH REF
ĠEx amples
Ġphot ograp
Îº B
Ġcarboh ydrate
d ump
ĠP riv
ĠV A
UR I
Ġpul ses
rypt ed
Ġshock ed
T OR
f ocus
Ġorgan ism
ĠChristian ity
ĠG T
22 7
Ġbeh ave
Ġhy d
down arrow
Ġpig s
^ [
Ġp ants
em ption
ĠJ u
Ġatt enu
ĠCO PY
ĠAssoci ated
ĠMat thew
p ub
ĠC AN
ĠH LA
ĠG W
Ġ19 64
! \
ĠS DS
ĠW y
ĠR ou
ĠG DP
Su ccess
ĠTem ple
ĠN ormal
ass y
Ġoff spring
Ġval ued
Ġcor ne
Ġfree ze
Bl ue
Ġlymph ocytes
K K
28 5
Ġbuild s
ze ch
config uration
Ġpros per
GB T
Ġconvin cing
Ġtraff icking
00 20
ens is
rug s
ĠAb d
Â ¿
Ġst raw
Ġwe aken
Ġph on
Ġpat ents
32 6
ĠState ment
Ġaw k
Ġregul ates
Ġb ump
Ġsh ifting
ov al
ĠAll iance
Ġpack ets
ĠPitts burgh
S cal
im als
Ġsu its
Ġra p
With out
Ġamb ient
chem ical
Ġl id
Ġmi RNAs
Ġlif ting
: [
ct omy
out ube
ĠLe ban
Ġdr um
?? ??
Ġclar ity
Ġmitochond ria
M ock
par ser
] *
Ġf ires
ĠG rid
ĠReg ion
Ġstrength s
ĠIraq i
c op
es pecially
Ġsu ed
Ġsu ited
ĠId aho
ĠMA X
P IN
le ans
se cret
ĠA u
Ġrel uct
() ).
ĠPe ace
F und
am ate
ĠA x
um ar
Ġconst rained
], [
Ġport s
Ġaud it
Ġpaint ed
bour ne
ĠB row
19 75
36 5
Ġfoot age
Ġbond ing
Ġadhes ive
Ġmyst ery
ov an
\* ](#
Ġbuck et
ĠSt op
ĠCont act
Ġconsult ation
VAL ID
ĠP ET
ert o
() ));
ron es
Ġdil ution
Ġbatter ies
Ġnom ine
R C
t m
en h
Ġcondition ing
iam ond
LI ED
ĠMem ory
ĠJon athan
aret te
ĠS PE
ĠO wn
Ġsyna ptic
Ġc ass
Ġob s
N orth
Ġlabel ing
Ġgar bage
ath on
Ġad missible
.. ...
Ġland ed
En um
Sub ject
prote in
Serv ices
Ġmorb idity
. __
I mp
ra it
Ġ| =
Ġcar pet
Ġmult ic
col lect
Ġperturb ation
ĠEL ISA
Ġasympt otic
ud o
ĠPol and
LA Y
Ġembed ding
lement al
78 9
ĠDet ect
Ġkne es
ol ation
ĠM Hz
Ġr het
Ġpar ks
Ġple asant
Ġmal aria
in itions
ĠT ogether
Ġnot ably
Ġinf inity
struct or
Ġfire arm
ra ise
ĠD rive
fe ature
Ð¾Ð ¼
Ġnut rients
ipl inary
More over
oglob in
- [
ĠL abel
Ġim g
ident ifier
Ġlim b
Sc ope
grad uate
Ġcyt ometry
Ġsh ore
ca ption
d m
w hether
Ġar Xiv
Ġterror ists
ĠCle ar
Ġcounterpart s
ĠRes ource
Ġplan ets
Ġcomplet ing
load ing
F ocus
ĠS now
ĠP erm
Ġwell s
riv ing
Ad v
Ġcataly tic
Ġoccas ional
ard less
Ġlast ing
ĠIN TER
ĠAct ivity
ĠHigh way
Ġsimpl ified
b usiness
g ic
s ync
Ġst ochastic
err ors
Ġtechn ological
ask et
ĠNa Cl
gener ative
Ġl ord
se ed
Ġ15 1
c itation
ĠP G
ass ign
Ġscre ened
ul ic
Ġsp ell
Ġinter pol
pr ising
30 8
Pl an
Ġsh ook
Ġmon etary
32 9
Ġall ergic
port ion
Ġsw allow
Ġsuper conduct
ĠÐ¿ ÑĢ
A z
ĠM T
Ġinf ar
Ġske letal
Ġabsorb ed
Ġadoles cents
styles heet
R s
\ %
Ġcon cludes
Ġoverl apping
Y ear
Ġpl aque
ĠEth ics
Ġd in
ĠP ER
Ġ{ '
Ġ14 8
Ġdement ia
Ġl enses
ĠC over
Ġle ver
Ġins pect
augh ters
osc opy
H TTP
R ole
i ably
t rial
ĠF le
Ġsh ake
Pro file
Ġ14 7
Ġhor rible
ĠPet ers
ĠAgr icult
t ags
Ġp unch
Ġ( +
ob uf
^{ (\
I ss
ä ¿
Ġc ement
Ġfor fe
ĠPre vious
Ġtouch down
Ġpreval ent
ĠHel p
Ġdescript ions
Ġleuk emia
Ġswit ches
t ox
w riter
Ġsc attered
Ġneuro de
pin ion
Ġcha os
Ġf right
66 7
uk i
Î¼ m
st an
Ġde bris
sh ire
26 1
ĠJust in
ĠHig gs
D rop
H a
Ġp izza
Ġd ors
Ġacc ret
Ġfl ed
50 6
ĠMar ia
ĠSing h
Ġsac rific
t ake
ch r
ĠM ann
ĠO kay
Ġagric ulture
ent o
Ġgl ory
Ġfr iction
ina fter
Ġrespons ive
Ġcycl ic
Ġoverse as
ĠV II
ĠUn iverse
Ġref using
reg istry
sy nt
Ġlack ed
Ġreprodu ction
ĠPhil ip
Ġd ich
ĠD S
ĠY OUR
Ġsimpl est
ĠPut in
Ġu gly
Ġste al
flu id
Ġadvoc ates
Ġgastro intestinal
âĸĪ âĸĪ
Ġc ath
ist ration
Ġfif teen
Ġdil uted
n atal
Ġd ots
Ġtr ash
ĠU T
Ġdiff ers
Ġneur on
ĠMcC ain
ro v
Ġal ike
Ġmod er
ars on
Ġinvest ing
ĠCast le
Ġcomp artment
ĠÂµ g
Ġindirect ly
/ #
R aw
Ġto y
Ġ" .
ab olic
Ġsh ar
iz on
Ġk er
ĠNew ton
comp are
ĠStud ents
F ire
Ġst airs
ĠB aker
Ġsoci eties
Ġcompass ion
Ġu ph
ĠO T
Ġbu gs
Ġbuy ers
Ġmunicip al
0 38
f ail
u pt
ĠD ad
Ġ[ âĢ¦]
ring e
Ġsub unit
Ġcount ies
Ġhand les
ah u
not es
Ġtext s
pack ages
orient ed
Ġredist ribute
F ix
W elcome
ĠR y
ĠE F
Ġout line
Ġdi ets
Ġprospect s
Ġantim icrobial
w rapper
x d
ch rome
Ġr it
Ġve c
G W
ou bt
se lection
Ġinvest ed
oph age
Ġqual ities
ĠER R
ĠT ru
ĠS ym
ĠM os
ab y
ĠF ast
Ġir reducible
nav bar
Ġcro ps
ens en
Ġrac ist
ĠEqu ation
è¡ Į
ĠV a
AR CH
List en
cs v
Ġrelax ed
Ġforg ot
Vis ual
Ġneutr ino
Ġf oss
Ġtra it
Ġregul ators
B ro
w estern
} ),
Ġv ocal
oc o
Ġtra ged
Com put
^* (
Ġfib rosis
H int
it atively
oth y
Ġfriend ship
R a
S ure
å Į
Ġreal m
Ġtrou bles
P od
R ender
v ae
Ã Ĩ
ad v
18 3
load ed
ĠB B
ĠJ oint
Ġun comfortable
Ġob ey
Ġ13 9
Ġemerg ence
Ġtransform ations
ĠChem ical
schem as
B io
ĠF F
ĠN ort
Ġcan vas
Rep ository
Ġsch izophren
Ġpurs uit
âī ¥
) },
æ İ
ĠS cal
Ġchlor ide
ĠPrim ary
out heast
Ġad herence
sc ar
ĠInt el
Ġconver ting
P resent
è §
In clude
Com ments
add ed
ĊĠĠĠĠĠĠĠĠĠĠĠĠĠĠĠĠĠĠĠĠĠĠĠĠĠĠĠĠĠĠĠĠ Ġ
gression al
Ġrail way
Ġwal let
Ġterm inals
Ġfin ancing
Ġju venile
Ã ´
il ized
Ġg li
un ting
ĠG ill
Ġrel iance
ĠH ER
Ġ14 9
ĠPh oenix
Ġcam ps
Ġt at
ĠW inter
Ġapp et
Ġcrit ically
ÂłÂł Âł
ĠComp ared
Ġintention al
t race
Å ¡
ce iver
Ġup grad
ĠHe y
Ġpar ole
RE D
atal y
cos ity
iem ann
Ġhung ry
, [@
ĠT reat
Ġtrans parency
Ġatt ain
ĠApp ellee
ij n
Ġcert ification
Ġwind s
at z
Ġw ires
ĠS ug
ĠH ills
80 6
State ment
0 37
ĠV enezuel
(' /
ĠOr leans
Ġrele asing
aur a
gu ide
ĠLike wise
0 35
E r
W hether
à ¹
Ġend e
Ġcontribut or
Ġreform s
N odes
m atic
æ į
Ġc aspase
Ġis lands
res ources
por al
Ġbro ker
US A
la unch
assert Equal
Ġdownload ed
Ġparad igm
Anal ysis
l ip
s ix
Â ¼
Ġj Query
)[ (
Te am
n ik
ĠA aron
Ġlow ered
CL C
ĠDi rac
Ġglob ally
Ġbar red
Ġmach inery
ĠA pr
ĠH M
by e
Ġwa ist
Ġoil s
Ġ; )
cut aneous
Ġfinger print
op ing
ke eper
he nd
ĠT rial
ĠM ach
** ).
inter pret
amy cin
Ġnec rosis
f u
å Ģ
ur ious
Ġgen etically
Se q
Ġengine ers
Ġcos mic
Ġobst ruction
. <
Ġwe aker
ĠW O
ang a
Ġdef ending
Ġafter wards
Ġdet ention
25 8
Ġdon ations
Ġhel per
Ġcryst als
Ġgro cery
M en
è Ģ
Ġpr icing
Ġdetect able
Ġintent ions
Ġiniti atives
d frac
f are
f aster
Ġb ay
Ġh ollow
om o
des ign
Ġupd ating
Ġalt ogether
t rain
Ġf aint
un numbered
ĠG ray
ĠÐ ¼
gl ut
ferent ial
Ġuniqu ely
B ACK
s ay
up arrow
Ġphot ons
Ġcred entials
bel ie
Ġdisse min
T AG
ig ator
ĠG PS
FI X
;\ ;
Ġvill ages
/ )
ing e
23 7
Ġconf using
Ġcy ber
Ġselect or
WR ITE
Stat istical
. *,
ct l
ct al
Ġmar ry
Trans action
Ġpreced ent
F older
k ov
19 70
Ġend less
ertain ly
ĠAP PE
Ġfre ed
al one
Ġis omorphic
ast ically
=" "
Ġ15 7
Ġlog ar
prot otype
W orks
it ant
ay ed
Ġap i
Ġequ itable
Ġ14 6
Ġfol lic
pers onal
A lex
d ie
ĠT ool
Ġsu cc
Ġlog istic
Ġax ial
Ġlit eral
ĠMem orial
ORD ER
Ġpri ze
pe g
du cer
Ġsp ouse
St atic
Ġmult ivariate
ext ension
90 4
ĠTOD O
Ġl un
ĠT C
Ġch i
br and
Ġver bal
Ġinev itable
Ġb ell
ĠW a
Ġher b
Ġgu ards
30 6
Ġworld s
Ġdiag rams
ĠMit chell
Ð ¹
ud son
=" -
_{ +
Ġlike wise
Ġx en
cer n
68 6
ĠCO MM
ĠPart icipants
F ill
Ġre per
ident ified
ĠFl ash
Ag ain
Ġen semble
oy d
ĠWal ter
Ġcab inet
Return s
sp ot
24 6
De legate
Ġconcept ual
ĠSN Ps
Ġkick ed
e as
Ġrout inely
ĠMarg aret
Ġwork place
Ġprim itive
Ġd ub
Ġre nov
Ġfor k
Ġass isted
ER Y
let t
tt es
P erson
b atch
r ang
Ġg y
ĠL ower
Ġag ar
34 3
=\ "
Ġquiet ly
ĠMur phy
Ġn aked
Ġcon gressional
Ġpur port
Ġpow ered
, .
Ġre write
ĠI E
Ġ5 12
pol ar
Ġov arian
W arning
k ers
Ġcol ored
ĠCO L
ĠCle arly
Ġfas cin
% "}
u ance
Ġt anks
Ġg low
ĠP oll
ĠP rivate
Ġ19 65
Ġnew er
Ġpol ys
ĠDe bug
Ġmys ql
x ious
ail and
Ġra bb
Ġ14 3
ID TH
Ġhy dra
Ġwa ived
ĠArray List
Ġharvest ed
E p
in ar
Ġg em
Ġour s
sc ience
ä» ¶
Ġstun ning
0 21
: '
ri en
ef s
Ġshe ar
preced ented
{ {{\
Ġg i
os ine
Ġent ert
Ġstat s
ãĥ¼ ãĥ
ĠDak ota
F IL
ĠR u
Ġher itage
60 8
ĠRespon dent
m any
Ġu i
ĠH ilbert
Ġr am
Ġinc urred
Ġident ities
RA Y
Ġmorph ological
j c
Ġover look
work ing
C HECK
Ġp ays
Ġre lying
ĠN um
23 9
"" "
Ġquadr atic
Ġcru el
Ġt itled
Ġse q
te enth
ĠJ ob
She ll
Conne ct
Ġdesper ate
Ġb ent
ad ows
Ġse cular
Ġref lex
time out
Ġdest ro
Ġaw ful
T urn
m art
ĠS ent
ren a
att ributes
}) ^{
const ant
id uc
Ġad ul
Ġauthent ic
/ "
S il
f ed
p kg
or ia
al in
Cont in
ĠSN P
O s
ĠN BC
Ġsh ade
ne ath
Ġapplic ant
mi R
ĠM K
Ġhe ars
ĠE SP
Ġ16 8
Ġstreng then
Ġwealth y
Ġexecut ives
C US
R ot
ge vity
ĠR V
ĠK han
ĠPhys ical
Ġplate let
ĠInit ial
! '
ĠT S
ĊĠĠĠĠĠĠĠĠĠĠĠĠĠĠĠĠ ĠĠĠĠĠĠĠĠĠĠĠĠĠĠ
Ġtra ces
ĠShe l
Ġver te
^âĪĴ /âĪĴ
g oto
Ġb ib
ot ive
ĠF P
ĠF ish
ĠE dition
}) ^
Ġglob e
Ġth ou
ĠP ap
ĠE ve
ĠJ J
ss l
hes ize
OR M
Ġfar ms
ĠÎ ´
Ġtom ography
Ġpra ise
S omething
Ċ ĊĠĠĠĠĠĠĠĠ
om ology
ĠU C
ĠPh D
anc ouver
Ġcontext s
Ġ( âĪĴ
Ġunder ground
yl on
Ġmicrosc opic
ĠStat istics
Ke ys
i ota
r x
ĠU ntil
Ġsum mit
pl ants
ĠJ ess
Ġli en
Ġant igens
Ġbre eding
CC ESS
!! !!
ĠOther s
Ġaccel er
Ġintention ally
ithm etic
s ided
iv ation
Ġhem orrh
pred ict
Ġsubdiv ision
h ind
Ã ¸
yl oid
LE ASE
Ġsil ly
NOT ES
T ri
Î ´
ar in
ĠT ower
Ġ14 2
Ġpolit ician
Ġrot ational
Ġscient ist
Ġrail road
J uly
29 0
ĠInd ependent
Ġrecall ed
Ġbott les
Ġemphas ized
s am
Ġt ile
Ġtrans fers
ĠĠĠĠĠĠĠĠĠĠĠĠĠĠĠĠĠĠĠĠĠĠĠĠĠĠĠĠĠĠĠĠĠĠĠĠĠĠĠĠĠĠĠĠĠĠĠĠĠĠĠĠĠĠĠĠĠĠĠĠĠĠĠĠĠĠĠĠĠĠĠĠĠĠĠĠĠĠĠĠĠĠĠĠĠĠĠĠĠĠĠĠĠĠĠĠĠĠĠĠĠĠĠĠĠĠĠĠĠĠĠĠĠĠĠĠĠĠĠĠĠĠĠĠĠĠĠĠ ĠĠĠĠĠĠĠĠĠĠĠĠĠĠĠĠĠĠĠĠĠĠĠĠĠĠĠĠĠĠĠĠĠĠĠĠĠĠĠĠĠĠĠĠĠĠĠĠĠĠĠĠĠĠĠĠĠĠĠĠĠĠĠĠ
rag ma
Ġtact ics
& &\
\ ;
Ġwh ites
Ġcor pus
amm ad
ĠSu ccess
Ġyield ed
getElement ById
G N
æ Ń
as px
ac hers
Ġat e
pl ess
amp a
ĠPh ilos
enc il
Ġsatisf actory
Ġearth qu
A cknow
000 7
60 5
Ġca ption
PT ION
Ġfirm ly
Pol ice
Ġlaugh ing
Ġexplos ion
Ġac oustic
Ġend omet
26 5
29 5
Ġport al
ĠOb viously
Ġbed s
object s
Ġeleg ant
Ġrecomb ination
c red
Ġc raw
st ation
Ġem itted
Ġopen ly
ĠTre asury
t ot
Ġa pert
re ed
ĠT ob
Ġ2 25
ĠB D
ĠH ep
sc al
32 7
Ġref err
Ġant it
Ġjud gments
Ġcoll agen
ĠCommer ce
c ity
c ott
ĠS port
ĠM ind
Ġ20 4
D omain
Ġs ail
ĠF B
] $,
d irection
Ġbuy er
Ġcivil ian
ad ad
ĠV R
Ġimport ed
AG ES
bur se
Ġtal ented
O ld
d n
an gh
ĠS CH
Ġexp ose
alth ough
Pro tocol
Ġur ge
script s
un ion
ĠL B
Ġdec ides
An n
Ġdesign ing
orig in
Ġt ire
Ġan omal
ĠR P
Ġsp iral
Ġdes erves
Ġple aded
bre aking
Ġcab in
M or
M aterials
l ades
it ably
et es
ĠF ermi
Ġle pt
Ġquant ify
Ġut er
ĠCON FIG
ĠAir port
Ġautophag y
T ell
j ah
ĠS ox
Ġche er
Ġge omet
Ġexceed s
ĠCL ASS
ĠM ail
ĠR oute
ĠJ ake
ĠTh read
Ġpat ches
ĠAl f
70 9
Ġprotect s
ĠSm art
ĠPark er
Ġhepat itis
id ency
ĠT F
00 15
Res ources
Ġbroad ly
Ġarch ive
Ġperman ently
ĠRog ers
O ffic
ld rich
Ġout rage
ĠV ar
He ad
Ġ15 6
bi om
in her
um ble
Ġqu i
Ġmiss ions
GL Y
Ï Ħ
at itis
Ġus eless
Ġres erves
set up
und o
]{} .
Ġsol it
Ġground ed
Ġadministr ator
ĠConst ant
Draw ing
S up
p ire
âĢ ł
ill ation
int endo
)) **
Ġinn ings
L F
b matrix
Ġo wed
av an
Ġ' %
Ġass ass
att ed
Ġep ile
Ġprepar ations
Cle ar
Ġm ud
ĠS ay
ĠĠĠĠĠĠĠĠĠĠĠĠĠĠĠĠĠĠĠĠĠĠĠĠĠĠĠĠĠĠĠĠ ĠĠĠĠĠĠĠĠĠĠĠĠĠĠĠĠĠĠĠĠ
Ġout lets
eb ra
Ġchrom atin
ĠCle an
ĠConst ruction
Ġathlet ic
W as
ĠS ave
Ġsp ike
Ġreve aling
ocy an
Ġir r
Ġenact ed
ĠLiver pool
- {\
3 15
t et
Ġw ished
res olve
est one
te es
ĠĠĠĠĠĠĠĠĠĠĠ ĊĠ
ĠMur ray
A f
P rom
Ġas leep
ĠB rain
ĠL ily
Ġadv ise
ran ch
id y
âĢĿ ).
Ġconstruct s
Ġpresum ption
Ġexch anges
/ ?
L M
ĠA my
Ġj acket
Ġ4 01
33 6
Ġcut off
Ġhyp ers
ĠOut put
Select or
Ġveter ans
Ġt une
ĠU l
ĠAl ice
def icient
var pi
Ġpredict ing
H V
e enth
Î »
Ġne at
Ġjust ification
Ġbit ter
Ġf ier
Ch ina
ĠInd ividual
ĠMar shall
ĠM n
Ġnot ified
ER N
Ġsens it
Ġrefere nd
7 50
Ġc ube
ĠT ab
ĠA th
ĠD T
ĠAn ne
Ġear ning
cho ose
ĠT aking
ĠL ang
acter ial
48 5
mod al
plit udes
" ];
Ġc is
ed uc
Ġp orn
Ġgener ous
Ġcivil ians
G I
M aster
ĠT ABLE
ĠCom ment
34 6
05 4
Ġcr icket
Ð½ Ñĭ
ĠSub ject
Rec ent
Ðº Ð¸
Ġapopt otic
ĠH P
Ġassert Equals
Ð½ Ð¾
C ES
M ASK
Ġin ert
ĠG y
Ġpot assium
ĠLe ader
ey er
Ġimmun ohist
Ġcomment ed
Ġcontem pl
Ġg aining
ĠN T
ific ates
Ġdifferent ially
Ġbre ed
Ġquant ification
Sm ith
ĠMult i
\ }\
Ġf lee
os al
ĠF el
yl er
IT H
60 4
Ġselect ively
ĠLim ited
C reated
D ifferent
ĠC BS
Ġst ones
ra ham
ens itivity
Ġknock down
ĠConserv ative
ĠDebt or
? !
ĠE ither
con n
ĠCl ient
ĠIs lands
Ġalleg ing
l ad
Ġsc rap
Ġexp ed
ãģ ĵ
Ġtechn ically
Cl Compile
Ġnom ination
Ġoscill ations
n R
Ï ĥ
ĠP ast
ure us
Ġad apter
ï¼ Ī
ĠGener ally
U PDATE
ĠD est
ĠR oom
ĠL P
Ġall ergy
Ġro cks
let ed
Ġstart up
Ġ15 2
Ġaddition ally
ĠTw enty
æĹ ¶
s ym
Ġsupport ive
Ġpost er
ĠDown load
un iform
ob i
37 8
Ġkey word
Ġepit he
Ġcolon ies
Å Ĥ
Ġs isters
ĠK ant
Ġâ Ļª
ĠStan ley
I gn
ĊĠĠ ĊĠ
Com parison
s ymbol
ä ¾
Ġint ens
Ġprob abilities
rad io
ĠInst agram
th umb
Ġdynam ically
Ġdress ing
Ġbron ch
Ġplaus ible
\ **
an ium
Ġf est
ĠO NE
Ġmon oclonal
key word
Ġair way
Ġwin ners
ï¼ ī
d ue
Ġab ort
ĠK i
Ġacc idents
Ġredu ctions
Ġsusp icious
Ġcommission er
: *
h istory
u u
th s
ĠĠĠĠĠĠĠĠĠĠĠĠĠĠĠĠĠĠĠĠĠĠĠĠĠĠĠĠĠĠĠĠ ĠĠĠĠĠĠĠĠĠĠĠĠĠĠĠĠĠĠĠ
Re view
osp el
AD DR
L anguage
k k
Ġup ward
}$ \
pro gress
Ġback ward
Ġg ates
Ġrem od
Ġgr am
LI ST
Ġspecim en
b id
g nu
h over
ore ctal
Ġinst antly
Ġbas ement
29 6
Ġclean ed
bas ic
o ct
ĠR agnvald
ĠV e
ser ies
45 1
ik h
ern and
Ġpurch ases
Ġelectron ics
Ġpropag anda
w ers
ĠG ate
ĠTh ings
Ġident ifies
28 6
ĠWork ers
ĠNC AA
Ġw are
ĠS omething
ĠD og
Ġr hythm
Ġtr unk
Ġsp acing
SE M
An imation
det ails
Ġguarant ees
ĠUnivers al
t reatment
Ġ( {\
ICO DE
Ġant is
ĠIN TO
ĠAp J
2 18
yl um
uck et
ĠPublic ation
Ġeditor ial
Ġcurric ulum
Ġ2 80
ĠD iet
ĠG H
ĠK l
Ġsc iences
35 7
string s
ĠÎ ³
Ġveget able
Oct ober
& =\
ĥ ½
Ġinst inct
22 6
Ġsl iding
af ood
Ġking dom
O FF
Ġc ad
oc ities
gen es
An not
Ġep ic
Ġnas al
P AGE
T ouch
p ract
Ġl ighter
ra ising
ĠK ir
of fee
ĠRe uters
Ġtim er
ĠAL J
Ġdefic ient
lb rack
Ġb ovine
ke e
ug s
Ġtutor ial
s leep
is ol
Ġte aches
rel ations
enc ia
Ġtight ly
Jo in
c ation
Ġdet rim
Ġlight ly
ðŁ ı
Bas ic
C ity
Ġj ack
Ġph y
Ġmon ster
ĠDis cussion
ĠWork ing
ĠRom ney
ĠTurn er
24 2
45 5
Ġanim ated
Ġmerg ed
âĶĢ âĶĢ
Â ¥
Ġinj ections
ĠJe remy
m illion
Ġl ately
Ġcont raction
Ġcontin uity
bl ank
35 5
M ouse
us age
Ġorig ins
d ates
Ġg ases
Ġreg istry
ĠQ U
sequ ence
LO W
Ġb row
cc a
Ġ15 4
Ġorgan isations
Ġsoon er
foot er
Ġtoile t
, ...,
A gent
B N
L ear
Ġ ....
Ġins ult
che z
Ġpolit ically
ĠAss essment
opl astic
ĠIP v
Ġbind s
Ġpotato es
e em
s z
t frac
ĠH ist
Ġsp are
hat tan
ĠAnd y
Ġsuccess ive
ĠPark inson
yr us
look up
Ġd ash
Ġre de
ĠF un
ĊĠ Ċ
Ġun cle
27 9
ãģ ĭ
Ġmicro organisms
PS S
Const ant
ĊĊĉĉ ĉ
e ous
Ġc b
(" /
Ġwa fer
Ġfix ation
Ġretrie ved
Ġnewsp apers
Ġmerg er
# ,
Ġex ports
Ġsa fer
Ċĉĉĉĉĉĉ ĉĉĉĉ
Ġbeat en
Ġthr ust
Ġwound ed
Ġexplo it
\ }$,
h ref
m outh
ĠI ce
Ġnot ify
Ġresearc her
Ġemphas ize
= %
at re
ĠS alt
Ġal lev
ĠP ub
40 8
Ġport folio
Ġdraft ed
å® ļ
Ġsurge on
T or
ri k
ov irus
Ġdon ation
Ġz e
60 6
Over all
Ġhol idays
ĠHy dro
Ġaver aging
Ġcompat ibility
en ic
ac ry
ĠG arden
are ttes
com pl
Ġsing ing
Ġtw isted
Ġunit ary
det erm
Ġtub erculosis
Ġexceed ed
micro organisms
am ation
def endant
G old
M a
h ou
er ial
Ġel if
ond a
ĠIs a
ocr ine
Ġlif es
FLO AT
Â Ģ
Ġqu art
Pro c
aps es
lif eless
Ġmathemat ics
Ġtr ucks
Ġdiscl aim
Ġwel ding
Ġment ally
ĠProfess ional
Ġacet yl
ĠIndust rial
Ġathe ros
c art
Ġ ];
Ġex cluding
Re quired
oun ters
Ġpun ish
Ġexcit ement
um m
Ġ14 1
Ġear liest
Ġglut en
Aug ust
E lect
ĠP OS
iz ens
ĠRec ord
est ine
rou t
Ġid i
ĠOr ange
Ġmarked ly
queue bot
Ġentrepre neur
p f
r ically
Ġd ign
Ġn ont
ĠM d
Ġpat ri
empt yset
Ġlat ent
Ġelectro ly
block List
Ġtouch ing
Ġbod ily
Ġem it
Ġvis cosity
Ġenc ode
ĠDef inition
Log ger
5 000
e lection
p her
r ame
ig rant
ĠG OO
Ġres il
Ġpar ser
Ġrep airs
80 4
ĠDis c
Ġenh ancing
ĊĊĊĊ ĊĠĠĠĠĠĠĠĠĠĠĠĠĠĠĠĠĠĠĠĠĠĠĠĠĠĠĠĠĠĠĠĠ
Ġcelebr ated
Gener ator
S un
Ġspec ulation
Ġ_ ,
ĠAr thur
AD E
Ġtradition ally
Ġmur ine
Ġcommercial ly
ĠNE W
Ġcontrad iction
Ġc ried
ĠM eg
Ġimp art
Ġphilosoph ical
f an
Ġ10 24
Ġbelie ving
R D
ĠC AR
de ep
EM ENT
Ñ Ī
Ġbe ads
Ġ---------------- -
ĠGet ty
Ã¶ r
Ġassign ments
ben z
Ġaffirm ative
Ġfle et
S ql
et itive
Ġ( .
Ġ19 66
Ġcol ours
stit uted
Ġsubstant ive
\ (
ĠE lectric
Ġun precedented
Ġ19 30
ex pect
Ġback s
Ġappro ve
Ġmult id
Ġdev iations
Ġbo ats
Ġtw in
Ġsovere ign
en eration
ĠQ t
Ġnation wide
Mem bers
Ġdr ill
plug ins
C ursor
Ġ19 0
ĠRe ading
Ġconcent rate
^ (
b uilt
en ia
Ġm akers
rom y
ĠL uther
aw k
Ġdown ward
ank a
umb led
Ġped est
itone al
* /*
ar cer
ĠT alk
all ed
---------------- --
Ġsc ans
NA L
IC H
Ġoptim ize
f ood
Ġl adies
Ġst ro
Ġ2 70
66 66
bb ing
ĠColl ins
F ragment
J A
W rapper
Ġn arc
ĠS eg
Ġal i
Ġbackground s
+ "
3 34
ent ric
Ġco ins
Ġfaith ful
ĠT A
ĠR M
ĠCon text
Ġenc aps
SS L
Ġaccommod ation
Ġse vent
---------------- -
Ġmin er
Ġgrad uated
Ġkin etics
ĠPract ice
Ġp c
ĠL ip
Ġpos ed
pro c
Ġpur ple
Ġconduct ivity
Ġboot s
Stud y
GLY PH
am ino
ĠR uby
LE TE
Ad vert
Ġwitness ed
ĠS end
ĠS yn
ab i
ĠR S
Ġ9 00
text it
EG IN
Ġcop ied
Ġcast ing
Ġcoc on
Ġe osin
Ġ2 15
ĠP ick
}} }^
Ġmed al
trans lation
Ġeth n
Ġmel ting
od o
ĠY ES
Ġins urer
urb an
ĠSpring er
Ġh alt
Ġ- =
Ġqu as
ĠCo al
ĠSy nt
ocyt osis
' "
P ack
m ov
ly cer
Ġst ub
Ġde ed
}^{ +
Ġneglig ible
ĠAdv anced
Ġcub ic
ĠS ony
ĠC old
ĠL S
Ġtr illion
ĠCom mons
94 5
M RI
Ġd airy
ound ed
Ġ} {
30 9
ĠPer ry
Ġaw a
Ext ension
Ġd aughters
ĠP oss
ced ent
Ġfl ights
ĠHig her
ĠâĪ ¼
ë ĭ
Ġp ause
Ġj s
ĠV in
25 9
Ġref resh
Ġmelan oma
t alk
Ġg orge
ĠH amm
UN ICODE
Ġcelebr ation
ĠA CT
Ġcont empt
cc cc
ĠK EY
Ġatt ribut
ĠCom m
Let t
Ġsequ ential
Ġpredict ors
![ **
Test s
Ġcolleg es
ĠA uth
pro xy
Ġben ign
Ġretrie val
Ġclimb ing
T y
ĠT ib
ĠR oll
cy l
Ġ$(' #
L AB
g ie
act ing
88 8
sa fe
Sept ember
J apan
ps in
Ġbi ased
ĠQu est
ĠMathemat ics
p rec
Ġb zr
res pect
Ġse am
Ġam plitudes
}\ |
25 3
Ġanaly st
ynam ics
Ġcreat ures
ĠPhilipp ines
Euro pe
h appy
it ar
ut er
am us
ĠG un
Ġcontribut ors
ĠBrazil ian
arcel ona
Ġsatur ated
Ġa rose
oc arcin
Ġcar go
ĠAl ber
26 9
29 2
Ġexplan ations
Ġdop amine
el ines
ut enant
ĠW ire
ĠAl t
Object s
ĠPa per
Ġin ad
ch rom
Ġinflu ential
Ġpossess ed
Ġdepos its
al b
ĠS ac
ĠAl bert
Ġprior ities
ica id
ĠSw iss
Ġmist aken
ĠMad rid
Ġintraven ous
Ġaccret ion
Ġch ron
rit ic
for cing
ĠTra vel
Ġlar vae
R om
at ility
"> &
Ġmorph ism
N eed
ĠR io
ĠO t
ual s
26 7
osp here
Ġimmun o
NO W
Ġt ended
Ġa u
Ġch iral
Ġ* (
ĠK O
ps hire
sc i
mer ge
40 6
ĠPl ant
Ġtravel ed
Rem ember
ĠD raw
Ġres ur
ĠCh rome
37 0
Ġplan ar
sim ilar
í ķ
ĠA wards
Ġcon jecture
ĠF er
Ġinter cept
ah n
PS NAME
ĠNev ada
ĠM N
Ġdes ires
Ġph p
Ġ20 2
Ġz oom
ĠLe v
ĠAss ume
GLYPH ID
G ive
R ay
Ġre im
Ġref ined
Ġterm inate
80 9
ortun ate
Ġâ ĨĴ
Ġlock ing
ĠEq s
mut ex
Ġhal o
Ġw and
ĠL DL
ind le
Ġwhere ver
urch ase
Ġcomment ary
Ġvic inity
faster xml
Ġfascin ating
Ġu mb
Ġr c
Ġpe cul
], \
Ġcle ver
ÑĢ Ð°Ð
Ġrock et
m ix
Ã ½
it ives
ir i
ter ms
Ġel ic
Ġcompet itors
tem perature
Î¼ M
Ġ[ $\
iss a
Ġloc ks
upp er
Ġlist ener
ĠJud gment
ĠDet ails
Ġtaxp ayers
Ġp ork
19 1
mult i
p ent
Ġd umb
Ġl am
ir s
ĠM achine
ĠB A
ĠH DL
ne utral
Ġdifferent iated
Ġcar ing
Ġdep ressed
Ġactiv ist
respon ding
Ġtrig gers
0 50
ra ctions
end ors
Ġstim ulate
run ning
Ġelim inating
Ġo wing
Ġ\ _
ĠD om
ĠL arry
Ġarg u
Ġopt imum
Ġball oon
Ġtip o
Ġrefere nced
accept able
ĠFrame work
S ie
ĠT s
Ġabs urd
fold er
D s
iel der
EN S
Ġinit iate
Ġlog ged
Ġcoll isions
ĠProduct s
e cess
m ul
Ġo un
log ger
Sp ring
25 1
Ġproceed ed
Ġproport ions
B re
C ALL
W ARN
Ä į
Ġcon ceived
ter min
ĠG onz
ĠĠĠĠĠĠĠĠĠĠĠĠĠĠĠĠĠĠĠĠĠĠĠĠĠĠĠĠĠĠĠĠ ĠĠĠĠĠĠĠĠĠĠĠĠĠĠĠĠĠĠĠĠĠ
Form s
Ġremed ies
ri o
ĠP ant
ĠO H
19 73
Con clusions
Ġconstruct ive
Ġjur ors
v et
ud ed
ĠJ ama
}} [
Ġinto x
Ġdevelop s
ãĤ ¤
LI B
Ġstrugg les
Ġvent ilation
Ġdisput es
Ġincent ive
ĠTI ME
ĠM aj
ĠW r
Ġim posing
col lection
Ġdr illing
Ġmis leading
ĠBen jamin
ĠCamp aign
adition al
Ġs ie
Ġex tern
As sembly
Des c
check box
st a
ĠF oster
cl one
organ ization
ĠMad ison
ĠLiber ty
Ġst ance
ĠW ILL
Ġval ley
38 7
che mic
45 4
ĠAt ty
bo ards
En vironment
ĠGe V
Qu estion
Ġl y
Ġ2 60
Ġobserv ational
ev idence
Ġmiss ile
Fl a
] ->
Ġf ancy
ĠC and
ĠP le
Ġde legate
ĠK ings
Ġmet er
Ġfr ustration
ros ophila
MS O
icular ly
Ġingred ient
jack son
ĠS ound
Ġtradition s
L ower
ĠA RT
ĠC iv
og raft
l ag
Ġt ale
it amin
Ġf mt
Ġb or
ĠD ow
ric ane
cept ive
label ed
ĠIS IS
t v
~ (
Ġf als
Ġ19 62
36 8
Ġsk illet
dis able
ĠMe asure
omy cin
zz le
ĠNor way
Ġd ancing
ah l
Is rael
Ġescap ed
S ometimes
ĠN ash
ph ot
28 7
Ġdam aging
âĢĥ âĢĥ
Ġnorm s
Ġboy friend
ĠC hel
Ġdec ays
with standing
Point s
Ġloy al
t b
Ġcon ception
Ġres ume
ĠAn na
anc el
ĠPat ient
ĠCent ury
Ġund erest
Ġbench mark
Ġdeliber ately
F ROM
t ok
Ġt s
et ric
ver b
ĠK irk
Ġline arly
Ġembry onic
Ġtherap ist
| $
Ġ erg
he ta
ri ors
ĠR EG
ĠN P
ĠAnd re
Ġsw ap
Ġspect acular
Ġsound ed
Ġgly col
j an
ĠD ra
Ġcomp ressed
---------------- -----
ĠMar vel
box y
Ġgraph ic
Ġsold ier
According ly
P red
Int erest
ĠGu y
Ġadjust ments
Intern ational
~ /
Ġw ounds
ĠC X
ref lect
Ġrad ar
Ġcondem n
Ġfrustr ated
ĠC ape
ĠC zech
ĠH ob
ĠF ellow
ĠV ancouver
Ġunder neath
CT RL
lib s
ĠNet flix
aph yl
Ġc ents
ĠS ales
Ġ\ _[
Jan uary
is y
ĠD ub
ĠF ly
IF T
Ġeight h
Ġelig ibility
en cer
we ak
19 74
pr ises
Ġmon ol
Ġz inc
AC S
load er
Ġce ase
Not ification
Ġinn ate
Line ar
organ ic
Ġwavelength s
Ġmaxim ize
Ġregim en
F oot
t oc
ĠInd ians
Ġradi otherapy
el astic
ĠT T
ĠB ou
Ġqu arters
fore ach
Ġhome ostasis
, (
C ong
E th
M apping
r ors
ff f
}} +
ink le
0 34
K B
i at
it in
Ġsh aking
Ġmi xtures
Ġdraw s
mem bers
Ġpursu ing
M aterial
Ġc ough
oc ate
Ġass ists
ĠDi agn
Ġrenew able
Ins ert
C UR
S at
s oc
Ð ³
ĠB S
ĠG il
ĠEx hib
Ð° Ðº
Ġpool s
ĠW AS
ĠL GBT
Ġne ph
Ġform ulas
oy l
ah a
Ġgl and
Ġhum or
ival ent
Get ty
Ġcreat ivity
Ġund is
Ġautom orph
Ġ---------------- ---
Ġflo ors
: `
s ible
ĠM ario
ĠK r
Ġno ble
cess ion
Ġinc ap
bl ob
29 8
Ġhost ile
En able
Ġgrad es
Ġlat ency
author ized
Ġambig uous
Ġin duct
Ġgo at
ace ae
EN V
ĠCon versely
Ġanaly sts
s pl
Ġt ilt
Ġ$ ,
Ġ' ',
Ġneg lected
sign al
I l
s al
Ã Ĥ
ol or
Ġdis ks
Ġass ure
Ġ16 7
Ġstar ter
Ġreferend um
0 44
M utable
w at
Ġ2 35
ist ered
ine a
40 7
ĠPer formance
Ġsell er
Ġcycl ing
ur u
AR G
Ġline up
reg n
Ġprot otype
Ġroll s
Ġchart s
æĸ ĩ
Ġfung al
ĠIMP LIED
b rowser
k ernel
Ġa ortic
Ġin accur
Ġv ibration
Ġr ays
the m
Ġaff air
Ġ ##
ĠS ample
ĠO liver
Ġdi oxide
ane an
27 4
27 8
W F
Ġo z
ĠP resent
so ever
OS S
Ġhot els
bin om
idel ity
> ";
H ol
Ï ģ
Ġref res
rec ogn
erc ise
orb id
^âĪĴ ^
BO OL
Ġcond ens
C as
ĠA ra
Ġ20 5
Ġnews letter
supp l
BL IC
Ġpool ed
Ġmetast ases
success ful
ĠGOO GLE
k h
Ġf ond
ĠA part
Ġform ats
bl er
C at
Ġl ent
}} ,\
Ġsur f
Ġpers pectives
AR GET
Ġauthor ization
Ġery th
Ġt am
if i
Ġhe t
Ġle verage
Ġsc aled
Ġinter sect
Ġrem inder
Ġterm ed
oot ing
Ġgovern ance
QU EST
Ġf iduc
as ync
ĠCh anges
ĠPro tocol
Ġarriv ing
Ġconfirm ing
Ġheter ogeneous
sur face
Ġseiz ures
M ass
Ġp ine
Ġp ione
ĠG MT
Ġelect oral
Pro f
Ġur gent
Ġsort ing
ALL Y
Ġcat ast
Ġvulner ability
Pref ix
c ia
v art
Ġw ip
om i
Ġfr ank
ĠAP P
Ġcryptocur rency
ĠNig eria
ophage al
D K
S ync
_ ->
Ġy oga
ĠB uy
Ġtrad ed
ĠTyp ically
ĠT ar
Ġcon gen
ĠB ond
ĠN ar
ser ial
ĊĠĠĠĠĠĠĠĠĠĠĠĠĠĠĠĠĠĠĠĠĠĠĠĠĠĠĠĠĠĠĠĠ ĠĠĠĠĠ
Ġrac ism
ĠRog er
Ġincent ives
d z
s an
Ġn ail
pt o
Ġrespect s
unt ed
Ġcompens ate
win ning
ĠÂµ M
= {\
? .
Ġ( %
sh ore
AN N
26 8
ĠAb stract
ĠNe u
Ġcritic ized
Ġcrypt o
ĠBang lades
F Par
ke ley
Ġoff ender
Ġke en
orth y
head ers
ĠJud ges
ĠBel ow
Ġneu rop
Ġaggrav ated
g ba
Ġtyp edef
Ġshel f
@ @
H uman
T N
W C
et on
29 7
Ġapplic ants
Ġobserv able
Ġpath ogenic
Ġep och
ĠSte in
ĠWall ace
Serv let
R andom
ĠT ig
ĠG E
Ġ19 40
produ ction
Ġincl ined
ĠB ishop
Ġconf irms
Ġdiam ond
B bb
l ord
Ġthe sis
ic ator
ĠB and
Ġpres erving
Ġ17 2
Ġvol atile
f ailed
st rip
ĠT rack
ĠA stron
ĠC OR
File Name
pol ymers
NE W
ĠLib eral
> '
Ġp ent
em bed
ĠH CC
ĠSt ream
erm al
Ġgen re
Ġpredict or
Ġsil ica
Ġwid get
Ġtox in
tain ment
Ġepithe lium
( +
al ph
Ġcont aminated
Ġbet ray
Ġind igenous
Ġ15 3
Ġhyper bolic
Ġsuspect s
ĠLi u
R ows
Ġc el
al ous
um at
ri z
ĠB U
ĠW M
60 7
Ġ16 6
Ġviol ating
Ġâ Ķ
Ġvolunt arily
ç §
ac re
32 2
Ġelectr ically
Ġster ile
ĠConsider ing
Ġspons ored
ĠC AP
Ġpat rol
Ġgovernment al
ceed ings
Ġknock ed
Z Z
in is
in qu
ĠA FP
Ġall iance
ST ART
ĠBe aut
') );
Ġgra ve
Ġarbit r
ĠÙ ħ
Ġsu g
ĠE lement
Ġmulti plication
b u
Ġc f
Ġ2 45
th rows
DE FAULT
))/( (-
( ()
Ġen jo
Ġprote ase
unc her
arc ia
Ġfire f
ä½ ¿
Ġty rosine
R U
is ive
Ġp ockets
Ġm ate
Ġl azy
ĠM ission
ism iss
Ġlast ed
DE CL
head s
Ġâ Ĥ¬
Ġ---------------- --
C iv
t imer
ï ¿½
Ġ( ).
ĠB iol
ĠL uke
Ġab err
Ġover t
arch ive
Ġrecord ings
Ġvel ocities
Ġtort ure
Ġexpend iture
Ġtraged y
p it
Ġh ood
Ġind oor
Ġsupp lements
br aska
90 6
Ġobser vers
^ --
p H
Ġb ru
em atic
Ġmat t
ĠBut ton
Ġpur ification
Ġvis ibility
Ġamend ments
Ġn ap
qu ito
Ġdis as
li ography
leq slant
Ġhabit at
pl ings
Ġpres ervation
Ġ15 9
70 4
Cont ents
NS String
Ġdisput ed
u et
w indows
Ġs or
al ert
ion es
ro e
ob serv
rac ing
ĠPo isson
ĠPan el
Ġleak age
Rend erer
Ġy a
type of
AT OR
Ġpers ist
tr im
mod ified
Ġque en
Ġdiver gence
Ġhydra ulic
T i
Ġplay offs
38 8
Ġindu cing
Ġge ographic
Ġconflic ting
Ġlic ensing
Ġsecre ts
P ES
i per
in vest
Ġem itting
ident ity
ĠPol ish
Ġfast est
othe tical
ĠHam pshire
establ ished
Ġin clusive
Ġ* ,
ĠCol lect
ET A
Ġep igen
Ġclin ics
N L
Ġde form
ry l
Ġhom ology
. ]{}
P OS
Ġa xi
ĠB os
ell ate
Ġad missions
ĠRe agan
Ġide ology
66 8
Ġsecur ities
æĸ ¹
Y S
f lex
ĠB iden
ĠH end
Ġr ay
ine ar
ib an
Ġj ets
Ġ18 5
Ġhorm ones
Ġdimin ished
Ġperme ability
F ed
Ġp ore
ĠT erry
Ġcent res
Ġsat uration
Ġblog s
Sm all
ĠWay ne
ucl ide
ĠCra ig
Ġa in
Ġbut t
pro b
Ġmon o
Ġaccess ing
DE X
ĠBar bara
Ġimag inary
F M
ch air
Ġ2 12
Ġind ent
pos ite
Com b
Ġopp ose
Ġsimilar ities
ĠBr ig
ĠAv ailable
F eed
c gi
ur ry
---------------- ---
ĠRob in
Ġrational e
Ġal beit
Ġr ust
Ġseason al
Ap pe
ich i
gen eric
85 9
LO AD
ĠAg ent
Ġbill ions
ĠEffect s
re li
ol ysis
ĠE t
Ġk o
Ġcount less
itor ing
EL D
ĠPet erson
Ġnic ely
ĠCam eron
Ġmarg ins
ĠLIM ITED
M ut
W ar
Î µ
he aring
ar b
ĠS ame
em b
Ġde hydro
we g
Ġ19 63
Ġfl ame
... \
Ġreal ization
Ġ16 2
70 8
Ġpubl isher
ĠHol land
assert Equals
åĪ Ĩ
Ġdos age
A bb
U ns
Ġs plic
is ers
Ġp g
Ġdis abilities
ia o
Ġ20 6
w riting
{ %
or ie
Ġj avascript
ise cond
Ġdifferent iate
ĠCom plex
fl ux
70 6
Ġcomplic ation
Ġtour ist
Ġneglig ent
Ġrenew ed
ĠStan ford
Ġfle w
ĠTerm s
j j
å ī
ĠS ri
Ġwh olly
ht m
ĠN intendo
=" _
ĠÐ ·
oll ar
rid ay
ĠSTAT ES
m aps
Ġt ennis
Ġ2 13
per cent
Ġ17 1
En v
.* ]{},
é Ĺ
Ġb if
ĠC el
ĠB oot
ĠJ os
ĠY e
Ġpe an
======== ======
Com plete
ĠCar lo
MS G
inv ariant
Ġwra pper
Ġhybrid ization
ĠEs pecially
p ragma
in arily
Ġto ys
Ġal lege
Ġtrans fection
Ġmake up
64 0
Ġsequ el
Ġinitial ize
Ġweak ly
Ġorb its
Ġcapac itor
Ġcig arette
3 25
d uration
g rowth
ub ern
Ġob jections
yl ene
AN Y
Set ting
Ġconsult ant
Ġawk ward
ĠO FF
act ual
Ġob struct
27 7
Ġpred ecess
Ġsuper vised
ĠIN S
Ġcoh omology
Ġmyster ious
æ Ķ
Ġb ust
ĠA the
ir ates
ke eping
ĠK night
Ġdefend er
Ġcontract ors
ĠEd wards
Ġrevers ible
Z ero
Ġup regulated
ble ms
Ġinc arcer
ote chnology
33 1
Ġbios ynthesis
w he
35 9
Inter val
g one
ĠR achel
ĠN AD
Ġle v
Ġpresent ly
ĠCD C
3 11
3 23
h arm
ul ly
ĠH erm
con jug
form al
IC AL
Ġtable t
E arly
Ġf ist
le uk
est ock
Ġj er
ĠJ oy
Ð¾ ÑĤ
Ġinhib iting
ĠMed icaid
Ġcreat ure
ĠMont ana
è¦ ģ
Ġ ê
Ġre consider
ab ol
com mer
Ð¾Ð ³
ĠHun ter
ĠC NS
Ġ[ ];
Ġret reat
ĠJeff erson
in valid
Ġc p
35 4
pc i
Comp any
Ġlon gevity
ancell or
ac ies
ĠG aza
we y
ĠJer ry
ĠRod rig
plo ys
n r
Ġp ile
ĠM ol
ĠD L
Ġharm onic
ĠConne ction
Ġst aring
_{ {{\
ĠRe venue
De cember
ĠWar ner
ĠProv ince
Ġremand ed
B a
Ġv ague
ne ys
Ġval uation
Ġem power
Ġmodel ed
ern ate
Sc ene
ĠQue ens
mys ql
d L
Ġb oring
Ġpro ps
Ġ\ (
ĠF T
Ġ{ Â¶
IN IT
05 6
=\ {
ores is
Ġdil ig
N ov
p rior
inv oke
Ġpand emic
Ġtradem ark
angh ai
3 13
Ġend ors
IT S
64 7
33 5
ĠTo o
ĠAP A
Ġimper ial
D en
u cc
Ġre gex
00 11
um ina
Ġex ponent
ĠD at
con vert
ĠHe at
26 6
70 7
atur ated
Ġlib ert
Ġtet ra
X L
Ġfil tration
ĠCo ach
I g
Ġe rect
ĠS tyle
pe er
Ġper f
Ġpers istence
line width
ĠPro test
94 8
part icle
Ġopt ic
Ġexec uting
Ġevalu ations
lem ma
D uration
h yp
å ¸
Rec ently
product s
Ġk h
---------------- ------
Ġant ip
ãģ Ĩ
Ġmicro gl
Ġprison er
Ġembod iments
chem ia
O cc
Ġe en
am az
ĠN GC
Ġsh oe
ĠO ptions
ĠTh ailand
Ġro ok
ĠSer ge
Ġ/** <
Ġmur dered
ĠTechn ical
oly mer
Ġf ighters
ĠS ERV
ĠP enn
Ġes ter
Pl us
SO UR
ĠLeg al
VAL UE
Ġdispos al
um ption
em n
ess ert
Ġdisc oura
Ġsepar ating
Ġimmun os
Ġign oring
Ġde port
bl ocks
VV VV
F uture
W all
ĠT LR
op last
ĠR ain
Ġ19 61
ex pl
ann ah
Ġdirect ing
Ġdem o
Ġmot ive
w l
os ide
Ġhe al
ĠR ank
Ġsp otted
Ġpat ience
Ġrespect ed
Ġsuper visor
09 1
Ġfront al
Ġdry ing
Ġsin us
Ġdwar f
op ts
ov ich
Ġrel ativistic
Ġrecogn izes
SP AN
ĠRed ist
STR ING
Ġtwe ets
ĠBelg ium
H ope
Ġa ster
Ġ$ <
000 9
Ġbel oved
unct ure
H or
u art
Ġc age
her iff
ĠP ad
Ġr outer
Ġj ar
ber ger
Ġun just
40 2
Ġdistinct ive
Ġconnect s
: -
B ottom
g om
ĠR ice
Ġcor ro
Ġ16 1
Ġinvestig ator
Ġsurv iving
ĠGu idelines
athe tic
ASS ERT
Ġslee ve
f reak
l ies
Ġre ign
pp y
ĠSt ra
ĊĊ ĊĠĠĠ
Ġret al
Ġinv ari
ĠPro perties
Sh ader
ĠMan hattan
Ġcomprom ised
B al
F ar
ĠS ad
38 9
Ġris es
98 9
Ġpy ram
Ġjoint s
Ġjump ing
Ġshr ink
ull ivan
Ġtun ed
is ch
ĠK el
Ġsc ary
Ġeconom ies
cho ice
âī ¤
Ġpsychi at
Ġinfil tr
ĠS olar
ĠM AT
ĠP il
ĠL iter
Ġbo il
Fr ank
Ġreplic ates
Ġdivid ing
G rad
ab ul
ĠR B
arg o
ĠDen mark
Py thon
S ite
m ot
Ġcr ust
Ġappeal ing
v ars
Ġf art
ot omy
Ġwork out
27 6
Ġacet ate
B ool
Ġp ier
Ġenh ances
l p
s ocket
Ġn h
st olic
ĠK am
Ġwhat soever
Ġprint s
ĠSub sequently
Ġinequ alities
ĠPalestin ians
Ġassembl ies
ĠG B
otyp ing
Ġfold ing
ĠSE LECT
Ġinhab it
) })
Ġc ops
Ġm igrants
ist rate
ĠB arcelona
igh s
Ġhold ers
ĠPol itical
ĠPriv acy
å ¹
Ġ ^\
Ġd ur
Ġspecific ations
Ġinstance of
Ġeat en
IE W
Ġec ological
T her
Ġv est
ĠH old
ine z
Ġcl oned
Ġen l
IN A
Se quence
mid t
Ġpassion ate
Ġpod cast
Rober t
b undle
¦ Ĥ
Ġ19 5
Ġdef enses
65 5
ĠST ATE
Ġhistor ically
ĠPers onal
ĠSwed ish
4 01
p icker
ll i
ĠWe ber
Ġatt raction
ãģ ķ
Ġcru ise
Ġdisadvant ages
ĠMalays ia
Ġp tr
Ġf isher
te chn
ag ulation
ust ers
Ġen er
Ġrel ay
Ġ17 7
Ġcancell ation
Ġphyl ogenetic
Ġpro to
Ġev olve
Ch anges
Ġanth rop
ate ur
ri el
ĠW ash
Ġ20 3
Ġinvest or
AS P
ryst all
è¡ ¨
Prim ary
rang ian
F N
S ER
Ġb ic
ĠF am
ĠN HS
ator ial
ym al
Ðµ Ð»
Ġaccept s
ĠCor ollary
drop down
Ġank le
ernand ez
B ind
ĠSt ruct
Ġread only
Ġsec uring
Ġepidem ic
Ġpenet ration
j our
Ġpre y
ĠYou th
33 8
Ġlower ing
Ġrevolution ary
Dan iel
Ġf are
om eric
Ġform ulated
Ġexp ans
Ġincorpor ation
dra wn
H om
ld er
The ir
Ġper oxid
ĠAr n
Ġcoast al
ĠJen kins
ãģ¾ ãģĻ
e ight
Ġsu pre
Ġ19 20
Ġgroup ed
40 3
37 9
Ġbus es
ĠĠĠĠĠĠĠĠĠĠĠĠĠĠ ĊĠ
Ġsac red
Cert ificate
Ġdors al
æį ®
re k
ed er
Ġfor ums
ĠC av
66 6
)} (\
Ġflav ors
C AT
ĠD NS
ĠN SA
Ġplay off
ĠWh atever
Ġtyp ing
Ġprogram mes
Ġfra g
Ass et
Ġprosec utors
Ġmeant ime
Ġtheat re
ĠSus an
th reat
ess ional
Ġback end
Ġoper ative
ĠAll ah
Ġsuper f
PE C
Ġfib re
Ġmamm als
Ġtomato es
Ġspac etime
Ġener get
er os
ĠT ell
ĠS ter
ĠC oul
os i
Ġcl oth
In str
Pro v
Ġaccount able
Ar ticle
Ġadip ose
Ġaest hetic
C u
W ow
pl asia
og ra
Ġact u
Ġsystem atically
Ġbu zz
ĠCom parison
ĠSh aw
roll ing
Ġbur gl
Ġcommand er
Ġunf ortunate
p oon
qu o
form er
Ġam bit
Ġreg eneration
Ġcoord inated
H tml
es ium
st eps
ĠT P
red ited
sp i
ĠTr uth
Ġlist ened
Comp eting
Ġfabric ation
ĠNAT O
R o
h ill
ad minist
Ġcon gest
ĠR ot
Ġ3 01
Ġco herence
Ġimp ress
Ġ---------------- ----
Ġcounsel ing
) ':
2 17
D G
Ġl l
ex amination
Ġfl ank
Th ird
Ġ20 8
Ġtax on
Ġcorrel ate
Ġcred ible
Ġsen es
UG H
Ġbarg aining
Ġjew el
Ġschizophren ia
] ))
Ġc ens
ĠS G
ĠSt age
ma jor
Ġunderstand s
Ġfather s
PR ESS
Ġanalog y
D am
} %
ch ip
ari um
Ġmat uration
Ġiss uing
98 4
Ġintegr ating
Ġworks hop
pat cher
Ġsupre me
B order
U A
V L
Ġ" {\
ĠD ays
ĠK u
Ġform ulations
ml ess
44 4
ocy tic
ĠMat rix
ĠSpec ific
contin ue
æ³ ķ
Ġcous in
3 80
B rit
Ġm ast
Ġn Ãĥ
im ir
ĠR AM
com ed
Ġindic ative
48 8
Ġconver ter
Ġhypot heses
ĠUk rain
K R
Ġ2 11
Ġwork force
gr ay
Ġspecial ly
Ġsatell ites
âĢĶâĢĶ âĢĶâĢĶ
CRE ATE
Ġbrid ges
U X
il ic
ul u
ĠM olecular
pt ure
Ġ16 9
light s
Ġhyp oxia
Ġfavor ites
ĠBar ry
rolog y
overs et
op recip
pon der
Ġrest raint
Ġ17 9
Ġrequest ing
Ġdig its
apt ic
Ġmedic ines
H am
er nal
Ġin def
ĠA SC
ĠM ale
ĠH ERE
Ġad sor
Ġrep o
AG G
Ġwilling ness
Ġfraud ulent
ĠUr ban
p aper
s olid
Ġis chemia
ĠW indow
Ġcl erk
Ġsol o
Ġbund les
Ident ity
ĠLI ABILITY
hell o
g ap
w ire
Ġc ros
Ġd ans
Ġha em
Ġout ward
Ġ' .
exp and
U ntil
Ġt d
âĢ ³
Ġbe ams
nt z
log o
Trans port
Ġlab elled
Ġimproper ly
T ools
ic idal
ur ia
ok a
ĠUn ity
ĠHar vey
Ġrob ots
Ġconjug ate
* ;
B ay
Ġl ub
ĠS igma
ĠM IC
Ġ\ !
ĠG ST
^* \
Ġgod s
Ġtrav elling
P ART
d ens
Ġt ast
Ġc ss
ar ial
ĠW i
Ġpercent ages
VER T
Ġstack ed
Ġc rap
ĠN ap
arg es
Ġfun eral
Ġadvantage ous
Ġadmin ister
{ |
ĠA J
ĠB eth
ĠO pinion
Ġrec ess
ues e
26 3
Ġsk etch
ĠCO PD
Ġfract ures
Ġbrack et
Ġdevast ating
F amily
J es
t own
ě [
Ġin active
Ġco pe
set Text
") ]
FFFF FF
Ġnav igate
rb rack
Ġsper m
Ġves icles
M ag
ç ±
Ġ ****,
se ek
pt ive
Ġblood y
Ġhypot hesized
Mon day
D at
r ants
Ġc d
Ġv om
prot obuf
g on
Ġ[ ****,
Ġgl ance
ĠCl ay
Ġcitizens hip
Ġmim ic
vart heta
as a
Ġtr an
read er
Ġrun ner
ĠCl ose
}_{ {\
Ġattack er
&= &\
Ġbrut al
Ġs ized
Ġsub types
IC ES
90 3
Ġele ven
Ġimag ined
Ġdomin ance
w hy
st ru
ĠW atson
int age
ĠBank ruptcy
Ġwood s
ĠDev ice
ĠBook s
* +
c atch
Ã Ł
Ġe ch
ĠB enn
ap shot
erm esa
Ã© t
cm ake
ih ad
exec ution
ĠMag azine
id in
ĠC BD
ĠF ont
ĠN ag
ck i
Ġfix es
second s
ÂłÂłÂłÂłÂłÂłÂłÂł ÂłÂłÂłÂłÂłÂłÂłÂł
B ound
L aw
ĠH ousing
ĠR iemann
Ġmult if
Ġcomb ines
Exec ute
ãģĻ ãĤĭ
ĠCommer cial
Ġignor ance
ĠPu erto
ĠArgent ina
S ocial
Ġst a
um ed
ĠH F
In cre
the se
pos ure
Ġcou ch
90 9
Ġbr ick
Ġcoll apsed
Ġloc om
Ġsw ift
Ġsupplement al
ĠHit ler
Ġcocon ut
N OS
Ä ĥ
Ġe V
Ġg am
ĠThe atre
Ġ3 65
70 2
Ġmis under
CON T
Ġconver ges
Ġalle les
0 32
o ft
ic iency
Ġ2 64
Ġde er
ins ki
cal cul
with in
čĊč ĊĠ
ĠVal ues
ios ity
ĠBre ak
ĠMel bourne
ĠBet ter
Names pace
Ġinfil tration
Ġattribut able
ra h
ĠM ason
ĠP ic
th ose
Ġpe oples
Ġpar ity
work ers
Ġcrim inals
Ġvisual ization
ĠRail way
N B
} &
ĠR ace
Ġgood ness
Ġmid st
ĠER K
represent ation
Ġprovin cial
Ġelabor ate
fe eding
34 7
ĠEx cel
Ġremov es
Ġansw ering
Ġstress es
\! \
Ġbow el
umer able
E B
Ġbe es
ak y
ĠWe ight
Ġins ure
Ġneighborhood s
ĠJim my
Ġbatt les
Ġpractition ers
b inary
s at
is ure
ĠP osition
Ġca res
CL US
Ġwarm ing
N ER
y cle
Ġm aker
Ġwh oles
ĠSt ars
Ġ' ./
Ġ17 3
uff le
config ure
am o
ĠV ent
Ġstat istic
Ġ16 3
ext end
ãĥ ª
Ax is
per ial
Ġestabl ishes
oph osph
fr ames
Ġrot or
Det ail
â Ļ
ie u
Ġj aw
27 3
Ġid x
Ġjournal ism
Av ailable
c z
ĊĠĠĠĠĠĠĠĠĠĠĠĠĠĠĠĠĠĠĠĠĠĠĠĠĠĠĠĠĠĠĠĠ ĠĠĠĠĠĠĠĠĠĠĠĠĠĠĠ
Ġste ering
Ġthreshold s
ĠGuard ian
Ġhydroph obic
Ġspectrom etry
Ġrhet oric
o ard
le arning
Ġrep etition
Ġgu ides
ser ve
Ġtour ists
Ġdipl omatic
5 78
I ds
Ġd st
ĠT N
ĠT EST
Ġr iders
ĠV el
Ã© n
vis ory
Ġlifes pan
B us
ĠB G
ĠD ream
Ġco res
Ġdet er
Ġmark ing
Ġdetect ors
Ġhon our
ĠStr ong
C ir
Ġ ĊĠĠĠĠĠ
ĠB our
Ġch ambers
fe atures
Ġso ap
land o
Ġlength y
Ġfire arms
Ed ge
Or gan
flu orescence
Ġnic ot
ĠAgain st
Ġlith ium
Ġscrut iny
4 80
Ġd ens
ĠT ak
ĠA IDS
ĠM ilitary
ict ures
Ġpresum ed
ĠLear n
ĠTransport ation
Ġvine gar
% =
C ross
â ĨĴ
Ġf lick
Ġn erves
60 9
ĠZ one
ãĥ Ī
ĠSw ift
Ġjoint ly
atom ical
W r
` )
d ag
j unit
get Name
Ġext rap
60 3
ĠNot es
ĠQu ery
rosc opic
Ġopio id
Ġgorge ous
F riday
ç ī
Ġh ills
ĠC ov
ind a
ric ks
Ġ17 4
Look ing
Ġhero es
Process or
U nd
im mer
Ġg rief
Ġinv isible
Ġrese mb
top ic
coh olic
Anal y
N eg
t re
Ġo d
ra ining
ĠR ud
Ġpre st
ĠY G
ST EM
Ġimport s
Ġexhaust ed
scri ber
Ġadop ting
R oute
Ġs ul
ar ma
Ġg ambling
Ġbe an
Ġst ew
ul sive
ĠE sc
per formance
ĠK re
ament e
CI AL
Ġul cer
Ġknock out
E ar
Å ¾
Ġv endor
ĠV erm
ex ports
Ġcertain ty
Ġstret ching
ÐµÐ ´
**************************************************************** ************
u ent
ap on
Ġun common
Ġnon etheless
Ġlog ger
ĠContin ue
m obile
Ġha pl
rou te
az ines
26 2
Ġpret end
ĠNe braska
Ġincorpor ating
ĠâĻª "
P ubl
p aste
an ine
ĠT odd
Ġwr ist
ol im
oc cup
per or
Ġun int
ĠV S
aint ed
ĠCom ments
Ġstr and
67 9
Ġstir ring
oler ance
A li
Q t
R F
c ox
Ġc our
Ġwe ighed
ĠP od
ĠL anc
Ġsupp lementary
Ġquot ient
N V
m ans
r ules
r df
Ġan onym
Ġu re
ĠCl ar
Ġpair ing
oe lectric
Class es
Ġhear ings
ä¸Ģ ä¸ª
m is
ĠI BM
ĠM ouse
out ing
Cont ract
Ġtang ent
oubt edly
3 000
7 20
L ee
ĠK o
Ġsm okers
Ġeas iest
Ġir res
ĠGal actic
3 99
f am
p G
Ġl ined
Ġl anes
ĠP ain
ĠG UI
Ġ[ -
St ats
arg uments
Ġorig inated
Ġdig estion
Ġtable ts
ĠDel aware
Ġpossess es
Ġhun ger
Ġre agents
ce il
Ġas ylum
ri le
Ġ{ };
ign ore
Ġcourt esy
64 4
Ġformer ly
1 0000
ĠB apt
Ġr he
der r
ĠCol umn
Ġpolymorph ism
ynchron ous
Ġsupernat ant
re le
ar med
Ġre wards
ĠN ancy
amb iguous
des cribed
Ġten ure
ĠQuant um
it err
ĠU til
---------------- ---------
Ġover weight
Ġback wards
trans ition
exp ensive
C ost
h ours
y outube
ĠP PAR
Ġsc ul
crit ical
uclide an
+ ,
w y
us on
ĠE A
Ġcont amin
36 1
Ġ17 8
CM D
po inter
" ?
Ġs ig
Ġg n
ĠN J
ack ed
Ġun anim
19 72
ĠCh ile
... ]
Ġdiff raction
Ġscre aming
Wh it
Ġauto immune
Us age
MOD ULE
' _{
Ġal ph
Ġcl ue
Ġinv itation
29 1
Ġ17 6
cript ions
Ġax es
Ġaux iliary
Ġfundament ally
. (\[
F acebook
a verage
b ounds
r ating
Ġin activation
Ġst ared
Ġsh am
Ġle thal
ĠIn n
we eks
Ġref lections
Ġmult im
Ġprem ise
Ġfurn ished
Ġunw anted
M om
R GB
c py
g ue
ĠM IN
Ġall erg
Ġ19 8
Ġins ist
Ġet ernal
Ġtype of
sl ash
ĠBrook lyn
I J
a eda
Â Ķ
ĠR isk
Ġ. /
ĠSe an
Ġdraw ings
Ġarriv es
Ġtweet ed
Ġconstitu ents
Ġscholar ship
ĠIndones ia
m its
Ġw iring
Ġrec ession
ĠFor um
Ġgeneral ization
ĠGal axy
Ġparas ite
ĠBat man
H ot
W omen
Ġn ort
Ġar ithmetic
ĠK ash
Ġaut ism
Ġhist ological
Ġnetwork ing
Ġbless ed
role um
x C
ĠM ack
sh irt
AN GE
Ġgrad ed
Ġdefault s
ĠCR C
Pre vious
Ġapprec iation
boot strap
Lo op
m r
ĠM ode
}} /
ef its
CL ASS
del ay
Rem ote
ĠÂµ m
Ġadvis ory
** ),
Ġcred itors
Be ing
Ġreplic ate
3 16
I AN
Ġor che
Ġch ill
---------------- -------
Ġmut ually
Ð° Ð»
ĠTrans fer
ĠExper imental
Valid ation
Ġ 000
Ġd orm
uss els
Ġ20 7
less ness
sec ure
face book
rem ote
comp ile
ĠCons umer
bur st
Ġdiss olution
Ġsupposed ly
+ $
Ġs s
ĠR av
Ġsub scribe
Ġcur l
ĠPro blem
Ġturn over
Ġdom inate
cell ular
build er
Ġbiom ass
Ġgri ev
gom ery
O W
m oving
r ue
ãģ £
inc inn
ograph ics
ãĤ ¯
Ġhar bor
dest roy
INS ERT
ĠFI LE
D ictionary
o qu
Ġl oses
sh arp
do ing
Reg ion
ĠNon etheless
l av
Ġc ured
ĠR oot
AT P
fl at
80 5
amm ar
Ġampl ifier
N ovember
t z
Ġ3 20
Ġcol orectal
Ġdist ortion
Ġfil mm
d g
Ġan xious
ac ic
ĠL an
ĠN V
ĠE EG
ĠIn nov
Ġinter im
Ġchar ter
Ġop acity
Ġven ous
ad ays
Ġmem o
Ġdisc ourse
ache lor
< !
M icro
k el
r ates
Ġch airs
." )
ann ers
Ġcontin uation
Ġsyn th
ĠMet ro
psy ch
/ $
C X
Ġd are
ĠIn str
gr ant
Ġdel icate
ĠMy SQL
ä¸ Ĭ
Fe ature
ĠArch itect
Ġuncon stitutional
Ġinfar ction
Ġmatt ress
incinn ati
2 19
B ur
B ad
g as
p q
Ġis chemic
Ġsh ipped
pi pe
Ġapert ure
C irc
s ion
Î ¿
il iation
Ġeven ly
Ġfil ament
ym an
38 5
Ġalleg ation
ĠSchool s
ĠCr ime
Every thing
ç ¤
Ġc itation
id yl
Ġcon cluding
ong o
Ġsim plify
arch y
Ġactiv ating
Ph aser
ste ine
ä¸ ĭ
circ le
Up dated
Ġri vers
Ġforg ive
Ġmuc osa
> ()
ĠI GF
Ġro pe
Ġret ina
ren ces
ĠCom ponent
ĠAct ually
Ġaud iences
Ġpromot ers
Ġexerc ised
DI RECT
Ġtel ome
Ġadsor ption
o S
Ġcl utch
ph yl
Ġdif fered
Ġem path
pro pto
val ued
Ġlip ids
Ġhippocamp us
M ail
W alk
x b
ow ing
39 1
? ,
P U
en berg
Ġd rought
od al
** _
Ġj unk
ne a
}\ ,\
Ġmeas urable
ID ENT
ĠPRO VID
) !
Ġ ?"
00 12
ac illus
ĠG ay
elect ron
Rich ard
ocarcin oma
al ter
ĠR ol
Ġtra ils
Ġ$( {\
vi ations
Ġobst acles
is co
Ġcomm ence
Ġclass Name
Ġsl ots
Ġpack ing
ĠProcess ing
ĠBrief ly
h it
l iter
Ġt in
Ġo we
or acle
al ias
Ġp ant
ĠS r
00 25
ale y
æ Į
Ġw it
Ġp ins
ĠQu ick
select or
Ġfeas ibility
ĠOak land
G CC
L ab
ĠC in
Ġhe d
nt y
_{ -\
Ġam ple
ĠY ears
Ġcomm itting
Ġanal ges
Ġet her
ĠSh o
hand ed
Run ning
en code
Ġm ant
ĠS cre
com ments
80 8
AC A
size of
ĠSer ial
ĠSur v
Ġfert ility
ĠNaz i
Ġarom atic
Ġc oded
ar an
ĠB egin
ĠB eyond
ag onal
Ġorgan ize
Ġstri ps
Ġwel comed
ĠKe ith
Ġshut down
ĠPhill ips
Ġcylind rical
C ounter
b is
j b
t fn
ling ton
Ġsent iment
Ġbra ke
Ġhem isp
ç± »
Ġ2 14
IN ION
mat ched
Ġestim ating
zym e
Ġpolar ized
Ġa uction
Ġk et
Ġtrans mitting
Ċĉĉ Ċĉ
50 8
ĠMc Donald
Ġatmosp heric
Ġinev itably
D ue
H u
Ġd read
Ġ2 75
Ġ2 93
ĠH C
Ġsc anner
Se cret
Ġcal ibr
Ġevident iary
c ot
Ø ³
Ġp all
ĠD ictionary
ĠL ot
iss ance
Ġmet aph
IG H
ĠCommun ist
Ġath lete
Ġgall ery
lot te
npm js
Ġneutroph ils
Ġpecul iar
ĠN uclear
ight ing
ĠE instein
Ġsp or
IS S
Ġsw elling
Ġphen otypic
Ġuns afe
Ġbelong ed
Â· Â·
ĠLook ing
L ES
Ġp ets
ĠS SL
ĠQ ual
Ġtreat s
work er
Ġdiscuss es
Ġentire ty
Ġreprodu ced
Ġinher itance
\ /
Ġcon duction
ac in
ub er
ĠSh a
Ġprior it
ĠMu eller
c out
ĠB X
ĠE dd
ĠK ate
)) ))
eng u
Ġins ane
Pro ps
Ġcr an
LE Y
Ġcreat or
Ġdeb ts
ĠRem ark
acet yl
z el
Ġstud ios
Ġpos es
Ġinj ust
Ġsal ts
rid ges
Ġpip es
v ari
ĠM Ps
ph inx
ne urs
Ġcor rid
Ġintrodu ces
Ad min
opl asm
Ġcosm ological
G ly
k ill
re pt
Ġs aves
or p
Ġan ne
ĠT ampa
ĠV P
Ġmod ifying
Ġinv oked
Ġenc ryption
Ġtum ours
Ġemb ra
She et
ĠWell s
Ġcytoplasm ic
ĠDrag on
Ġelectroph oresis
Ġdisclaim er
C md
t rivial
os por
Ġsub type
Ġinter state
Ġed itors
35 8
ogn itive
Ġpredict s
Ġfort un
ĠSud an
Ġillum ination
F ood
Ġw rest
ĠB order
cer pt
AS C
45 8
epend ence
Current ly
Ġhat red
Ġrif le
H ide
Ġ2 16
ĠL M
ĠG rowth
ĠĠĠĠĠĠĠĠĠĠĠĠĠĠĠĠĠĠĠĠĠĠĠĠĠĠĠĠĠĠĠĠĠĠĠĠĠĠĠĠĠĠĠĠĠĠĠĠĠĠĠĠĠĠĠĠ ĠĠĠĠĠ
Ġgran ul
Ġrefuge e
d it
Ġg ig
ĠS ession
ab ad
ie ce
37 3
Ġsal mon
Ġviol ates
Every one
m otion
96 7
Col lections
Ġrot ated
Ġfarm ing
Spe ed
åĽ ŀ
ĠSett ings
0 66
e ce
f m
p ublished
Ġm asks
Ġl ang
ĠL if
pl aced
Ġrepe ats
Ġtour ism
Ġconserv atives
Ġtables poon
Ġsan ct
Ġhierarch ical
M ON
ĠS ie
ĠR ing
36 9
æĪ Ĳ
Ġannoy ing
um per
ĠCon sole
Ġclin icians
Ġmultip lex
Ġantagon ist
st orm
if ferences
Ġstr anger
33 7
Ġindic ations
Ġmos quito
Ġargu ably
3 90
A ldrich
a ques
an other
ĠB h
ĠL ar
art ments
ces ter
Ġreg ener
pro portion
Ġneed ing
ier ra
ĠOr d
ĠMon th
Ġhous ed
Date Time
Ġoscill ation
Ġremind s
ol an
Ġ2 23
Ġdem ol
Ġhead ache
67 6
Ġshare holders
UL D
Ġlaunch ing
Ġdepriv ed
V T
on line
Ġ( \<
ĠB ah
ĠG S
Ġfinancial ly
ĠSpring s
Ġperm itting
ç½ ®
E duc
S ound
ĠA y
Ġst ent
ĠO ften
ass ets
ber ries
Ġun limited
Ġinter medi
igh bor
Ġdou bled
Ġappl iances
Ġplant ed
Ġmal icious
åħ ¥
ĠColl abor
ĠAth let
3 24
M achine
i ologic
ĠC ategory
ĠG ot
28 2
Res et
comm ons
Ġfoss il
ĠBanglades h
Ġt ropical
ĠI B
ĠV L
Ġover time
Ġcompl aining
rell a
atern ity
Ġsymp athetic
Ġcorro bor
å ¦Ĥ
and em
Ġ@ @
Ġacid ic
Ġchap ters
y dr
Ġt sp
Ġin ferences
Ġl ingu
ach i
Ġcomm enced
Ġcare g
37 6
Al tern
Ġsymb olic
M el
Ġf t
Ġh ike
ĠC ob
ĠM all
ĠP un
Ġuncon scious
Ġinterrupt ed
> {
s ic
} /\
Ġv endors
oc used
Ġpol ling
oh nson
IC S
ĠUS D
77 7
End point
Ġcrow ds
H o
u pon
ĠG ram
Ġcor ros
Ġcare ers
Ġjud ged
^+ $
ĠPO ST
Ø ¨
ct rl
res a
Ġall oy
hy per
Ġclick ed
Ġsup rem
Load ing
è¿ Ļ
ĠIO Exception
tg z
å¯ ¹
Ġearthqu ake
C trl
R UN
Ġc c
Ġun aware
Ġco operative
Ġaff ine
Ġmer cy
ĠFil ter
ĠIC U
. \[
H Y
b ird
ĠT un
ĠI an
ĠS ale
Ġst rom
Ġ2 24
ĠW S
Ġchar set
arg ing
Ġcontin ually
IC A
97 8
Ġeconom ically
Ġintern ally
Ġbal ancing
Ġdisp atch
Ġlymph oma
Ġsli pped
mom ent
ic ides
iz ational
ĠJ ur
Ġman eu
Ġsign alling
ĠRe ed
rel ative
37 4
Ġgot o
Ġhyp othetical
Ge V
Ġsan ction
ĠStand ards
phosph ate
ĠDetect ive
g irl
j am
ch or
ĠM aking
ĠP in
Ġper ceptions
ĠSt ack
Ġem ploys
Ġmin isters
Ġloc als
AT TR
33 9
Ġlap ar
ean or
Ġ ĊĠĠĠĠ
ens on
Ġpres idency
Ġpur ity
ĠZ ero
ĠMin i
Ġer os
arr hea
SY S
E NA
b ag
Ġc ues
ĠF alls
ĠĠĠĠĠĠĠĠĠĠĠĠĠĠĠĠĠĠĠĠĠĠĠĠĠĠĠĠĠĠĠĠ ĠĠĠĠĠĠĠĠĠĠĠĠĠĠĠĠĠĠĠĠĠĠ
Ġext inction
Ġbre w
Ġblot ting
Ġbreat he
M AR
T uesday
r ise
is ode
Ġd otted
ic illin
Ġj am
39 2
SU CCESS
Ġgrand mother
Ġpolymer ization
Const ants
Ġrig orous
Str ategy
ĠPB X
W P
Y PT
t ility
et e
et ta
Ġcon com
ĠM atter
ĠL oss
Ġthere to
Ġz omb
az i
requ ires
70 3
Ġbranch ing
Ġnegot iate
ĠHu gh
Ġnomine e
E st
j obs
Ġ18 7
ĠConfig uration
g ot
Ú ©
ĠF ant
ĠL isa
Ġdiv isions
function al
ĠDef ine
Ġcollect ively
Ġwarrant ed
ocard i
S ir
Ġs nd
Ġ} _{
app s
eb ook
ĠR idge
ret ty
64 8
Ġ18 4
Ġhom ogen
ĠEd ge
Ð¾Ð ±
valid ation
gp io
B usiness
J ul
ĠE b
}} })
ĠY emen
Ġexp osures
Th ursday
)) *
Ph ot
IR T
ĠLess er
ĠJO IN
Ġfu els
um ann
em p
ĠU E
Ġph ag
ĠAl ong
Ġsk ull
Ġbo om
Ġfree zing
Ġsens ation
ĠPat tern
ĠRec all
Control s
ĠESP N
W ater
d ale
Ġh ated
Ġas ymmetric
ĠR angers
Ġk b
ĠK ath
Ġsp y
Ġprivile ges
Ġloy alty
ĠPsych ology
Ġneon atal
Ġa ureus
Ġc ensus
Ġfound ing
28 1
Ġhist one
Ġmanif olds
Cell s
there um
ĠOw en
ĠCompl aint
4 14
S ame
Ġre but
Ġre build
01 00
ĠV ari
Ġmic rom
zan etti
A ff
} ",
ĠSte vens
CM ake
Ġdisreg ard
ĠCOPY RIGHT
iterr anean
N or
v v
Ġg a
Ġcan al
Ġline age
ĊĠĠĠĠĠĠĠĠĠĠĠĠĠĠĠĠĠĠĠĠĠĠĠĠĠĠĠĠĠĠĠĠ ĠĠ
Ġannot ated
ĠEnter tainment
health y
biom olecules
ĠI ter
ĠC opy
Ġ2 18
ĠB ark
ĠB eng
ĠG ran
ĠJ a
ĠFor ces
unc an
ĠSw itch
Ġconsult ing
Ġslic ed
Ġdece ased
" ?>
D river
Ġ ib
Ġ$ ("#
ĠH az
con scious
Ġdec oder
ash a
Ġadv iser
Cl aim
48 9
Ġste pping
integr ity
Ġstake holders
Ġincon ven
m are
Ġc out
ab ove
ĠF IR
ĠG ABA
ĠV iol
80 7
pan cy
Log in
Ġcast le
ĠBern ard
Ġconfront ed
Ġdetermin ant
Ġquot ation
2 99
Ġc ables
Ġr ushed
ĠLe aders
Ġsil encing
Ġcatch ing
Ġje opard
Ġsand wich
H en
ĠH L
Ġpe le
ox in
Ġhand y
Ġ---------------- -----
Ġsummar ize
Lim it
4 25
b ands
es p
---------------- --------
ĠIn ner
math op
Ġret aining
avor ite
ĠInst all
*]{} .
Co V
Ġbra ve
Ġadvoc acy
Ġretail ers
Ġb er
ĠG I
Ġtra umatic
38 3
ogen es
Ġhar mless
ĠAD HD
Ġstem s
Spe aking
Ġcancell ed
u ant
ph arm
Ġag gression
Ġ18 8
Ġhuman itarian
Ġconstruct ing
ĠM ix
Ġal ly
Ġdis comfort
Ġ4 05
ĠCh o
ract ing
pre hen
Ġprinc ip
čĊč ĊĠĠĠĠĠĠĠĠĠĠĠ
ĠVol ume
Ġapolog ize
Ġilleg ally
0 45
j d
Ċ ĠĠĠĠĠĠĠĠĠĠĠĠĠĠĠĠĠĠĠĠĠĠĠĠĠĠĠĠĠĠĠĠĠĠĠĠĠĠĠĠĠĠĠĠĠĠĠĠĠĠĠĠĠĠĠĠĠĠĠĠĠĠĠĠĠĠĠĠĠĠĠĠĠĠĠĠĠĠĠĠĠĠĠĠĠĠĠĠĠĠĠĠĠĠĠĠĠĠĠĠĠĠĠĠĠĠĠĠĠĠĠĠĠĠĠĠĠĠĠĠĠĠĠĠĠĠĠĠ
Ġt ert
Ġc s
Ġ[ \
ĠK erry
Ġmed ial
Ġ20 9
ĠPal ace
Ġalb um
Ġalb umin
Ġinherent ly
Ġtelesc ope
w ic
} ))
ol utely
ĠL amb
Ġ3 05
ang i
Ġreg isters
ĠRe ally
dis abled
Sc ott
Sche me
oi etic
> =
C amp
Ġal umni
ĠR aw
pro vider
ah an
ĠHer itage
abc de
Ġf oul
Ġd angers
Ġd essert
ic in
Ġ( ((
ĠRe yn
hib ition
ION S
rim p
Man agement
Ġlay ing
ano ate
Ġeigen value
v ents
Ġs id
Ġare na
ip ot
Ġsol ic
Ġrepe ating
Ġtrunc ated
ĠT G
ĠD ennis
ĠO scar
Ġun acceptable
ĠApp lications
Ġimm ers
Co ord
\!\! \!\!
mind ed
Ġlub ric
ĠM ade
res ize
Ġdel ivers
Ġbit ch
\ ",
ĠD P
ĠH at
Re ally
ĠShe ll
Ġcontract ual
ĠTal iban
phys ical
ĠPear son
m achine
Ġs ab
Ġc ite
[...]
