{"[UNK]":0,"[CLS]":1,"[SEP]":2,"[PAD]":3,"[MASK]":4,"!":5,"\"":6,"#":7,"$":8,"%":9,"&":10,"'":11,"(":12,")":13,"*":14,"+":15,",":16,"-":17,".":18,"/":19,"0":20,"1":21,"2":22,"3":23,"4":24,"5":25,"6":26,"7":27,"8":28,"9":29,":":30,";":31,"<":32,"=":33,">":34,"?":35,"@":36,"A":37,"B":38,"C":39,"D":40,"E":41,"F":42,"G":43,"H":44,"I":45,"J":46,"K":47,"L":48,"M":49,"N":50,"O":51,"P":52,"Q":53,"R":54,"S":55,"T":56,"U":57,"V":58,"W":59,"X":60,"Y":61,"Z":62,"[":63,"\\":64,"]":65,"^":66,"_":67,"`":68,"a":69,"b":70,"c":71,"d":72,"e":73,"f":74,"g":75,"h":76,"i":77,"j":78,"k":79,"l":80,"m":81,"n":82,"o":83,"p":84,"q":85,"r":86,"s":87,"t":88,"u":89,"v":90,"w":91,"x":92,"y":93,"z":94,"{":95,"|":96,"}":97,"~":98,"¡":99,"¢":100,"£":101,"¤":102,"¥":103,"¦":104,"§":105,"¨":106,"©":107,"ª":108,"«":109,"¬":110,"®":111,"¯":112,"°":113,"±":114,"²":115,"³":116,"´":117,"µ":118,"¶":119,"·":120,"¸":121,"¹":122,"º":123,"»":124,"¼":125,"½":126,"¾":127,"¿":128,"Â":129,"Ã":130,"Ä":131,"Å":132,"Æ":133,"Ç":134,"È":135,"É":136,"Ê":137,"Ë":138,"Ì":139,"Í":140,"Î":141,"Ï":142,"Ð":143,"Ñ":144,"Ò":145,"Ó":146,"Ô":147,"Õ":148,"Ö":149,"×":150,"Ø":151,"Ù":152,"Ú":153,"Û":154,"Ü":155,"Ý":156,"à":157,"á":158,"â":159,"ã":160,"ä":161,"å":162,"æ":163,"ç":164,"è":165,"é":166,"ê":167,"ë":168,"ì":169,"í":170,"ï":171,"ð":172,"Ċ":173,"Ġ":174,"Ģ":175,"ģ":176,"Ĥ":177,"ĥ":178,"Ħ":179,"ħ":180,"Ĩ":181,"ĩ":182,"Ī":183,"ī":184,"Ĭ":185,"ĭ":186,"Į":187,"į":188,"İ":189,"ı":190,"Ĳ":191,"ĳ":192,"Ĵ":193,"ĵ":194,"Ķ":195,"ķ":196,"ĸ":197,"Ĺ":198,"ĺ":199,"Ļ":200,"ļ":201,"Ľ":202,"ľ":203,"Ŀ":204,"ŀ":205,"Ł":206,"ł":207,"Ń":208,"Ġthe":209,"Ġa":210,"in":211,"er":212,"Ġof":213,"on":214,"Ġand":215,"Ġ,":216,"Ġt":217,"ed":218,"Ġs":219,"re":220,"Ġw":221,"en":222,"at":223,"or":224,"Ġ.":225,"an":226,"Ġc":227,"es":228,"it":229,"Ġf":230,"ar":231,"is":232,"Ġb":233,"Ġin":234,"al":235,"ĠThe":236,"ing":237,"Ġh":238,"Ġ@-@":239,"Ġp":240,"as":241,"ou":242,"Ġto":243,"ic":244,"Ġm":245,"Ġd":246,"ion":247,"le":248,"ro":249,"Ġ=":250,"ĠS":251,"Ġre":252,"il":253,"ĠA":254,"Ġwith":255,"ent":256,"Ġthat":257,"el":258,"Ġ\"":259,"Ġ1":260,"st":261,"ĠC":262,"Ġl":263,"th":264,"om":265,"ĠĊ":266,"am":267,"Ġn":268,"ad":269,"ac":270,"Ġe":271,"Ġwas":272,"ĠM":273,"ĠB":274,"ec":275,"Ġon":276,"ol":277,"ur":278,"Ġ'":279,"ly":280,"ir":281,"id":282,"ter":283,"Ġg":284,"im":285,"ĠI":286,"Ġfor":287,"Ġfrom":288,"ig":289,"iv":290,"ow":291,"Ġwhich":292,"Ġ20":293,"ĠH":294,"et":295,"Ġas":296,"un":297,"us":298,"ay":299,"ĠT":300,"ch":301,"ĠP":302,"Ġst":303,"ver":304,"Ġwere":305,"ation":306,"Ġbe":307,"ĠR":308,"ot":309,"em":310,"ĠD":311,"ce":312,"Ġth":313,"ĠW":314,"ĠF":315,"ut":316,"Ġby":317,"ers":318,"Ġal":319,"Ġ)":320,"Ġ(":321,"ĠL":322,"ul":323,"ĠG":324,"Ġis":325,"Ġcon":326,"Ġr":327,"ĠâĢ":328,"Ġat":329,"ct":330,"Ġo":331,"ĠN":332,"ough":333,"and":334,"os":335,"ain":336,"Ġwh":337,"Ġ19":338,"Ġan":339,"Ġit":340,"Ġinclud":341,"est":342,"ound":343,"ag":344,"av":345,"um":346,"ĠJ":347,"ight":348,"Ġhis":349,"ĠE":350,"Ġ@.@":351,"Ġ@,@":352,"od":353,"ri":354,"Ġpro":355,"Ġhe":356,"Ġyear":357,"Ġsh":358,"ĠO":359,"ist":360,"ĠIn":361,"ould":362,"Ġcom":363,"ap":364,"Ġv":365,"op":366,"if":367,"ill":368,"res":369,"ew":370,"Ġfirst":371,"Ġde":372,"Ġsu":373,"ies":374,"ber":375,"ard":376,"art":377,"Ġalso":378,"ak":379,"Ġbetween":380,"ate":381,"Ġse":382,"all":383,"out":384,"Ġch":385,"ab":386,"port":387,"ore":388,"our":389,"ant":390,"oc":391,"Ġ2":392,"Ġex":393,"qu":394,"ong":395,"Ġhave":396,"ther":397,"Ġor":398,"ĠK":399,"ess":400,"Ġun":401,"Ġtwo":402,"ated":403,"Ġpl":404,"ip":405,"ity":406,"ame":407,"end":408,"ive":409,"Ġapp":410,"ĠU":411,"ish":412,"Ġhad":413,"ect":414,"ack":415,"ge":416,"ĠSt":417,"Ġafter":418,"00":419,"Ġup":420,"ast":421,"Ġk":422,"se":423,"Ġle":424,"ell":425,"Ġare":426,"ount":427,"ment":428,"ov":429,"ian":430,"ial":431,"Ġperform":432,"Ġtr":433,"ost":434,"pt":435,"Ġtime":436,"Ġnot":437,"Ġinto":438,"ĠAmerican":439,"ĠCh":440,"ia":441,"ord":442,"Ġsp":443,"ary":444,"ust":445,"Ġar":446,"ine":447,"Ġsecond":448,"rit":449,"Ġ3":450,"ical":451,"Ġfollow":452,"Ġepisode":453,"ĠTh":454,"Ġwork":455,"own":456,"der":457,"cc":458,"ĠV":459,"ous":460,"Ġbut":461,"Ġfilm":462,"Ġpubl":463,"per":464,"ions":465,"ff":466,"Ġcomp":467,"Ġcont":468,"Ġagainst":469,"ide":470,"ud":471,"ach":472,"Ġher":473,"Ġ200":474,"ure":475,"ra":476,"Ġcharacter":477,"ie":478,"Ġduring":479,"ome":480,"Ġ;":481,"ign":482,"Ġcl":483,"ru":484,"og":485,"ass":486,"Ġits":487,"ĠUnited":488,"Ġtheir":489,"ĠâĢĵ":490,"ok":491,"ue":492,"Ġhigh":493,"ear":494,"Ġ:":495,"ĠSeptember":496,"ater":497,"Ġabout":498,"Ġprodu":499,"Ġdescrib":500,"ĠHe":501,"Ġad":502,"Ġbecause":503,"age":504,"ry":505,"ath":506,"ire":507,"Ġdevelop":508,"Ġthree":509,"Ġus":510,"ĠJohn":511,"Ġthrough":512,"orld":513,"Ġ4":514,"Ġreleas":515,"Ġres":516,"Ġwhile":517,"pl":518,"Ġseason":519,"Ġwho":520,"Ġ5":521,"Ġone":522,"ans":523,"ally":524,"oint":525,"ort":526,"Ġwhere":527,"Ġrec":528,"Ġ18":529,"ance":530,"Ġreturn":531,"ĠEngl":532,"ition":533,"Ġmade":534,"ult":535,"ence":536,"iz":537,"act":538,"ĠAl":539,"Ġbeen":540,"Ġro":541,"Ġpart":542,"Ġ000":543,"ice":544,"Ġhas":545,"ren":546,"Ġsc":547,"Ġbo":548,"Ġ201":549,"Ġall":550,"Ġbefore":551,"Ġj":552,"ĠIt":553,"Ġen":554,"Ġover":555,"Ġdis":556,"Ġser":557,"Ġthis":558,"Ġgovernment":559,"ory":560,"ely":561,"ike":562,"ations":563,"ric":564,"Ġteam":565,"Ġgroup":566,"ction":567,"Ġalbum":568,"Ġoff":569,"ark":570,"Ġbuil":571,"owever":572,"ĠSh":573,"Ġplay":574,"ey":575,"ee":576,"ace":577,"ĠAn":578,"Ġout":579,"Ġthey":580,"ĠAugust":581,"ib":582,"ens":583,"Ġatt":584,"old":585,"Ġpeople":586,"Ġman":587,"Ġim":588,"ĠY":589,"man":590,"Ġprevious":591,"Ġnumber":592,"ress":593,"ĠAfter":594,"ced":595,"ail":596,"ĠAustral":597,"Ġcomm":598,"Ġbecame":599,"Ġwould":600,"ang":601,"ood":602,"Ġsystem":603,"Ġreceived":604,"ind":605,"ĠOctober":606,"ĠFebruary":607,"ĠOn":608,"ward":609,"Ġhim":610,"ite":611,"are":612,"Ġcentury":613,"ates":614,"Ġ6":615,"ub":616,"ĠEurope":617,"ph":618,"aw":619,"les":620,"able":621,"orm":622,"Ġconsider":623,"Ġev":624,"Ġother":625,"Ġmajor":626,"ross":627,"Ġne":628,"te":629,"ied":630,"amp":631,"ĠNovember":632,"Ġestablish":633,"ors":634,"Ġinter":635,"ĠApril":636,"land":637,"Ġsaid":638,"Ġpr":639,"Ġco":640,"ĠAr":641,"Ġorigin":642,"Ġmore":643,"ose":644,"Ġseveral":645,"Ġdiffer":646,"ces":647,"Ġ7":648,"Ġyou":649,"one":650,"ield":651,"ons":652,"Ġaircraft":653,"Ġknown":654,"ings":655,"Ġschool":656,"ick":657,"ted":658,"view":659,"ĠDecember":660,"Ġnew":661,"Ġremain":662,"orth":663,"Ġbegan":664,"Ġper":665,"Ġdesign":666,"Ġincreas":667,"Ġform":668,"ents":669,"ograph":670,"Ġshe":671,"ĠJanuary":672,"oy":673,"Ġwhen":674,"Ġfeat":675,"Ġearly":676,"Ġmusic":677,"ake":678,"way":679,"ĠWh":680,"iss":681,"Ġuntil":682,"Ġcalled":683,"Ġ8":684,"Ġme":685,"ĠMar":686,"att":687,"Ġfamily":688,"ved":689,"Ġdec":690,"ĠRe":691,"Ġtelevision":692,"Ġgener":693,"Ġdirect":694,"reat":695,"Ġmillion":696,"Ġ9":697,"ĠBritish":698,"Ġopen":699,"ĠUniversity":700,"ĠAs":701,"ond":702,"als":703,"Ġmost":704,"Ġgame":705,"Ġfl":706,"Ġthem":707,"Ġ199":708,"Ġonly":709,"ix":710,"outh":711,"Ġthan":712,"Ġfin":713,"hip":714,"ict":715,"Ġpre":716,"ob":717,"ve":718,"Ġsuccess":719,"Ġgr":720,"ĠNew":721,"tern":722,"ational":723,"ks":724,"Ġpopul":725,"Ġsong":726,"augh":727,"Ġcan":728,"Ġab":729,"Ġmembers":730,"ning":731,"Ġcontinu":732,"Ġlater":733,"Ġunder":734,"ton":735,"ts":736,"Ġcol":737,"ron":738,"row":739,"Ġact":740,"ith":741,"Ġso":742,"ĠWilliam":743,"Ġag":744,"ĠGerman":745,"Ġqu":746,"Ġsupport":747,"Ġsome":748,"red":749,"Ġacc":750,"Ġrel":751,"Ġend":752,"pp":753,"lect":754,"Ġsimilar":755,"ich":756,"Ġpos":757,"ock":758,"Ġintrodu":759,"Ġsub":760,"ĠComm":761,"Ġass":762,"ating":763,"Ġsmall":764,"Ġlife":765,"Ġwe":766,"Ġver":767,"uc":768,"Ġday":769,"Ġreg":770,"Ġbr":771,"orn":772,"ĠAmerica":773,"ĠJune":774,"Ġannounced":775,"Ġdef":776,"ames":777,"son":778,"ft":779,"Ġrecord":780,"Ġmatch":781,"ĠJapanese":782,"ĠLe":783,"ĠJuly":784,"ile":785,"Ġfour":786,"Ġcaus":787,"ĠYork":788,"Ġsince":789,"Ġsingle":790,"Ġam":791,"Ġbas":792,"Ġsuch":793,"Ġind":794,"Ġinflu":795,"io":796,"Ġmov":797,"Ġsuggest":798,"tain":799,"Ġwritten":800,"ters":801,"Ġthere":802,"ĠSp":803,"ics":804,"Ġspec":805,"Ġsignificant":806,"Ġmon":807,"Ġac":808,"Ġ10":809,"gr":810,"Ġlarge":811,"Ġpower":812,"Ġyears":813,"over":814,"ribut":815,"Ġbl":816,"ĠThis":817,"ĠDuring":818,"Ġvari":819,"ident":820,"Ġ/":821,"ual":822,"ank":823,"Ġthird":824,"Ġsur":825,"Ġmuch":826,"Ġanother":827,"Ġent":828,"Ġused":829,"Ġref":830,"ier":831,"Ġno":832,"Ġperson":833,"Ġwrote":834,"ĠAt":835,"arg":836,"Ġbeing":837,"Ġparticular":838,"Ġem":839,"Ġauthor":840,"Ġthen":841,"ĠAccording":842,"Ġloc":843,"Ġ...":844,"Ġchild":845,"Ġdo":846,"led":847,"Ġexp":848,"ree":849,"air":850,"Ġhel":851,"Ġ17":852,"ale":853,"ris":854,"Ġinv":855,"Ġ0":856,"ement":857,"Ġpol":858,"Ġpres":859,"ned":860,"Ġshow":861,"Ġhimself":862,"Ġmilitary":863,"ane":864,"Ġadd":865,"Ġnamed":866,"Ġset":867,"Ġdestroy":868,"ĠDe":869,"ject":870,"ĠGeneral":871,"Ġdifficult":872,"ars":873,"Ġattempt":874,"ash":875,"Ġlead":876,"Ġincluding":877,"ather":878,"ĠâĢĶ":879,"ivision":880,"iver":881,"Ġrepresent":882,"ines":883,"Ġterm":884,"Ġfound":885,"Ġwell":886,"Ġcons":887,"Ġbelie":888,"ere":889,"Ġcontrol":890,"Ġback":891,"ave":892,"cl":893,"Ġeffect":894,"Ġboth":895,"Ġorgan":896,"Ġcap":897,"Ġ198":898,"Ġseries":899,"Ġ15":900,"Ġnext":901,"Ġ12":902,"ĠChrist":903,"Ġview":904,"Ġcampaign":905,"itt":906,"ik":907,"igh":908,"rop":909,"els":910,"Ġship":911,"its":912,"ĠCon":913,"ures":914,"ley":915,"Ġappear":916,"Ġmain":917,"Ġ194":918,"Ġperiod":919,"Ġmin":920,"olog":921,"ĠFrench":922,"Ġgo":923,"Ġdid":924,"ah":925,"ase":926,"Ġalthough":927,"az":928,"arl":929,"Ġimp":930,"Ġcre":931,"ĠSc":932,"Ġvideo":933,"ities":934,"Ġlong":935,"ĠFollowing":936,"any":937,"ised":938,"ven":939,"ade":940,"stitut":941,"oun":942,"ful":943,"up":944,"ished":945,"ĠGeorge":946,"ootball":947,"ired":948,"Ġext":949,"Ġespecially":950,"Ġstud":951,"Ġmany":952,"ins":953,"ĠCl":954,"ative":955,"Ġdep":956,"Ġ16":957,"ĠBr":958,"Ġcould":959,"Ġtown":960,"ĠRo":961,"anc":962,"cept":963,"ouse":964,"Ġwar":965,"Ġoften":966,"ĠInd":967,"ner":968,"ex":969,"ech":970,"ĠRepublic":971,"Ġconstru":972,"ited":973,"Ġ197":974,"Ġclaim":975,"ise":976,"espite":977,"Ġ196":978,"ĠShe":979,"Ġ11":980,"ought":981,"Ġcar":982,"Ġdr":983,"Ġfurther":984,"Ġtyp":985,"Ġob":986,"ĠWar":987,"ually":988,"Ġany":989,"ĠZ":990,"Ġcomple":991,"ĠFr":992,"Ġcareer":993,"Ġph":994,"Ġweek":995,"ty":996,"Ġofficial":997,"ĠBl":998,"ined":999,"ĠGr":1000,"Ġprovid":1001,"Ġhalf":1002,"my":1003,"ism":1004,"ange":1005,"aking":1006,"Ġhaving":1007,"Ġtrans":1008,"ĠSe":1009,"Ġmodern":1010,"ific":1011,"ĠCalifornia":1012,"Ġrun":1013,"Ġnear":1014,"Ġinstead":1015,"Ġevery":1016,"Ġnorth":1017,"Ġart":1018,"ĠAlthough":1019,"ized":1020,"Ġint":1021,"Ġdist":1022,"Ġown":1023,"cer":1024,"Ġreleased":1025,"Ġbecome":1026,"Ġhistory":1027,"Ġversion":1028,"ĠCol":1029,"und":1030,"imes":1031,"Ġapproximately":1032,"ĠUS":1033,"ĠLondon":1034,"ists":1035,"Ġcent":1036,"Ġresp":1037,"ious":1038,"Ġpass":1039,"Ġbro":1040,"Ġy":1041,"ĠMichael":1042,"Ġstrong":1043,"ĠMay":1044,"Ġdown":1045,"Ġwrit":1046,"ered":1047,"Ġsl":1048,"Ġcrit":1049,"ug":1050,"ull":1051,"osed":1052,"ĠBe":1053,"ium":1054,"Ġfe":1055,"Ġtur":1056,"iet":1057,"ĠSchool":1058,"Ġins":1059,"Ġalong":1060,"ĠCanad":1061,"Ġsubsequent":1062,"Ġproblem":1063,"Ġimmediately":1064,"Ġgiven":1065,"ax":1066,"ured":1067,"vent":1068,"Ġpossib":1069,"Ġ13":1070,"Ġdisc":1071,"ime":1072,"ĠUn":1073,"Ġthese":1074,"Ġmay":1075,"Ġcount":1076,"Ġtotal":1077,"Ġ$":1078,"ĠAd":1079,"ĠComp":1080,"ep":1081,"Ġfriend":1082,"Ġinitial":1083,"enn":1084,"ended":1085,"Ġland":1086,"Ġpoint":1087,"Ġconf":1088,"Ġreported":1089,"Ġlaunch":1090,"Ġyoung":1091,"ets":1092,"Ã©":1093,"Ġrem":1094,"Ġbusiness":1095,"ĠWashington":1096,"Ġprogram":1097,"ĠFor":1098,"ook":1099,"Ġtroops":1100,"ting":1101,"ĠPro":1102,"ĠWorld":1103,"ys":1104,"ĠStates":1105,"Ġgu":1106,"Ġeconom":1107,"Ġoper":1108,"Ġattack":1109,"Ġuse":1110,"Ġsame":1111,"ĠIs":1112,"wards":1113,"Ġbuilding":1114,"ĠAll":1115,"aced":1116,"ĠVirginia":1117,"Ġ14":1118,"Ġcurrent":1119,"Ġservice":1120,"Ġlike":1121,"ments":1122,"ĠThese":1123,"Ġresult":1124,"ĠPl":1125,"Ġaround":1126,"Ġstart":1127,"Ġed":1128,"Ġwin":1129,"Ġ195":1130,"ĠQ":1131,"Ġinf":1132,"ped":1133,"Ġkm":1134,"Ġbattle":1135,"ampionship":1136,"ĠTr":1137,"Ġtook":1138,"Ġepisodes":1139,"Ġocc":1140,"ene":1141,"Ġlength":1142,"uss":1143,"ke":1144,"Ġarriv":1145,"Ġtri":1146,"ove":1147,"Ġsouth":1148,"ann":1149,"ll":1150,"Ġfollowing":1151,"Ġmet":1152,"Ġsix":1153,"Ġele":1154,"olution":1155,"Ġ193":1156,"ĠHowever":1157,"outhern":1158,"ional":1159,"erv":1160,"urch":1161,"Ġclass":1162,"ĠAssociation":1163,"Ġconduct":1164,"Ġhead":1165,"Ġprom":1166,"ants":1167,"ility":1168,"Ġrep":1169,"Ġmonths":1170,"ĠEd":1171,"yn":1172,"Ġavailable":1173,"ically":1174,"Ġtitle":1175,"ina":1176,"Ġ191":1177,"Ġhistor":1178,"Ġstate":1179,"ĠNorth":1180,"urricane":1181,"ink":1182,"Ġeach":1183,"ĠKingdom":1184,"ĠLeague":1185,"ency":1186,"Ġfive":1187,"ret":1188,"su":1189,"Ġwill":1190,"Ġarea":1191,"oss":1192,"ĠThey":1193,"vel":1194,"Ġthemselves":1195,"ient":1196,"Ġnorthern":1197,"Ġresearch":1198,"ĠBillboard":1199,"ĠBy":1200,"ĠPennsylvania":1201,"Ġ]":1202,"Ġfelt":1203,"Ġ[":1204,"ives":1205,"ians":1206,"ĠPh":1207,"Ġreached":1208,"Ġcity":1209,"ling":1210,"esc":1211,"ĠCounty":1212,"ym":1213,"ored":1214,"ck":1215,"Ġpublic":1216,"oth":1217,"Ġ%":1218,"ission":1219,"Ġband":1220,"ĠFlorida":1221,"Ġpolitical":1222,"ection":1223,"ĠStreet":1224,"ĠPr":1225,"Ġrest":1226,"Ġworld":1227,"Ġcommercial":1228,"Ġmed":1229,"ained":1230,"atch":1231,"Ġmarri":1232,"Ġfront":1233,"ne":1234,"ĠSouth":1235,"ĠMarch":1236,"ĠHar":1237,"Ġbegin":1238,"Ġline":1239,"elf":1240,"inc":1241,"ĠMc":1242,"ĠMan":1243,"Ġexperi":1244,"Ġjust":1245,"ott":1246,"Ġprocess":1247,"Ġstyle":1248,"Ġcirc":1249,"Ġred":1250,"ral":1251,"Ġorder":1252,"ily":1253,"Ġlast":1254,"ural":1255,"Ġadministr":1256,"iving":1257,"Ġkilled":1258,"ummer":1259,"ected":1260,"ively":1261,"Ġtaken":1262,"Ġallow":1263,"Ġtropical":1264,"Ġ30":1265,"Ġdebut":1266,"Ġlittle":1267,"Ġbecom":1268,"Ġbre":1269,"erg":1270,"ĠEn":1271,"idge":1272,"Ġleft":1273,"Ġtechn":1274,"Ġwon":1275,"Ġvis":1276,"Ġlow":1277,"Ġpo":1278,"Ġstruct":1279,"Ġfinal":1280,"ract":1281,"ĠOr":1282,"ĠDavid":1283,"ivers":1284,"Ġair":1285,"ales":1286,"Ġadv":1287,"Ġbody":1288,"ified":1289,"Ġmiles":1290,"ided":1291,"Ġplan":1292,"Ġbook":1293,"Ġroute":1294,"Ġmember":1295,"Ġinc":1296,"Ġstrength":1297,"Ġwomen":1298,"avy":1299,"Ġ25":1300,"Ġleg":1301,"Ġdue":1302,"ĠAfric":1303,"ps":1304,"Ġplayed":1305,"Ġeventually":1306,"Ġkn":1307,"Ġif":1308,"bert":1309,"Ġ192":1310,"ared":1311,"Ġincluded":1312,"Ġwhat":1313,"ĠRoyal":1314,"work":1315,"Ġalready":1316,"Ġplace":1317,"Ġbased":1318,"aged":1319,"ular":1320,"Ġshort":1321,"af":1322,"ĠII":1323,"Ġcelebr":1324,"Ġtogether":1325,"Ġexpl":1326,"Ġtrack":1327,"arm":1328,"ats":1329,"Ġname":1330,"Ġdeath":1331,"ages":1332,"Ġport":1333,"ĠWhen":1334,"ush":1335,"Ġelect":1336,"Ġsometimes":1337,"Ġsign":1338,"app":1339,"Ġmagazine":1340,"Ġimportant":1341,"by":1342,"Ġmod":1343,"arliament":1344,"Ġlarg":1345,"Ġprot":1346,"Ġtour":1347,"Ġestimated":1348,"Ġstory":1349,"Ġguns":1350,"omin":1351,"ains":1352,"Ġreview":1353,"ital":1354,"au":1355,"Ġhome":1356,"Ġled":1357,"oman":1358,"por":1359,"Ġeng":1360,"Ġbehind":1361,"Ġothers":1362,"Ġdescribed":1363,"ĠGu":1364,"Ġrequ":1365,"Ġcour":1366,"ont":1367,"Ġbrief":1368,"ĠCar":1369,"Ġway":1370,"head":1371,"Ġbomb":1372,"ature":1373,"Ġpe":1374,"Ġright":1375,"Ġnow":1376,"Ġdem":1377,"reen":1378,"ĠOlymp":1379,"Ġmen":1380,"Ġeven":1381,"Ġmake":1382,"ness":1383,"ĠPe":1384,"ouncil":1385,"Ġrelationship":1386,"ister":1387,"ery":1388,"Ġweeks":1389,"aff":1390,"atter":1391,"ring":1392,"ĠMus":1393,"Ġsepar":1394,"Ġassoci":1395,"Ġbest":1396,"itions":1397,"ĠHenry":1398,"Ġ100":1399,"ĠÂ":1400,"Ġalmost":1401,"Ġrepl":1402,"Ġinst":1403,"burg":1404,"Ġdamage":1405,"Ġgames":1406,"ior":1407,"ible":1408,"Ġcommand":1409,"Ġhand":1410,"ĠBattle":1411,"sh":1412,"ĠNe":1413,"Ġapproach":1414,"fer":1415,"ĠMadonna":1416,"ĠAm":1417,"Ġeffort":1418,"ĠChicago":1419,"Ġvery":1420,"Ġbroadcast":1421,"Ġdraw":1422,"ĠAnd":1423,"ĠHis":1424,"Ġtop":1425,"Ġthose":1426,"Ġhuman":1427,"Ġstill":1428,"Ġindivid":1429,"iddle":1430,"ĠPaul":1431,"ĠPresident":1432,"Ġspecies":1433,"Ġaverage":1434,"ĠEm":1435,"Ġwanted":1436,"ox":1437,"Ġtradition":1438,"Ġarm":1439,"ĠThere":1440,"akes":1441,"ild":1442,"rom":1443,"Ġlanguage":1444,"Ġenvironment":1445,"ences":1446,"Ġeither":1447,"ances":1448,"ĠHer":1449,"Ġspe":1450,"Ġmaterial":1451,"Ġwater":1452,"oon":1453,"Ġprofess":1454,"Ġexample":1455,"Ġaddition":1456,"Ġoriginal":1457,"ĠNational":1458,"Ġrecogn":1459,"umb":1460,"Ġwife":1461,"Ġlist":1462,"rew":1463,"ple":1464,"Ġwithin":1465,"ler":1466,"ney":1467,"ches":1468,"Ġmark":1469,"Ġheld":1470,"Ġbuilt":1471,"ĠSte":1472,"ville":1473,"Ġ2010":1474,"Ġrelease":1475,"Ġjoined":1476,"Ġlate":1477,"Ġformer":1478,"Ġexecut":1479,"quadron":1480,"Ġgreat":1481,"ony":1482,"ĠAngel":1483,"ĠMe":1484,"line":1485,"Ġprobably":1486,"Ġsoldiers":1487,"Ġdoub":1488,"ĠBar":1489,"Ġmother":1490,"Ġlyrics":1491,"ĠAtlantic":1492,"Ġ21":1493,"Ġparticip":1494,"ards":1495,"ices":1496,"Ġagain":1497,"ĠFirst":1498,"ĠWest":1499,"ense":1500,"Ġstorm":1501,"aid":1502,"Ġcover":1503,"Ġcr":1504,"ĠX":1505,"ĠElizabeth":1506,"Ġpresent":1507,"ĠJapan":1508,"Ġrole":1509,"rown":1510,"Ġvictory":1511,"ots":1512,"Ġret":1513,"Ġcame":1514,"Ġtw":1515,"Ġdays":1516,"ham":1517,"Ġhours":1518,"ĠTwo":1519,"Ġemploy":1520,"Ġfocus":1521,"ĠBecause":1522,"Ġinvolved":1523,"Ġstand":1524,"Ġreal":1525,"eng":1526,"ociety":1527,"let":1528,"ury":1529,"Ġhowever":1530,"aster":1531,"ung":1532,"ĠRecord":1533,"Ġsaying":1534,"Ġ2008":1535,"Ġsocial":1536,"Ġ2009":1537,"atic":1538,"Ġfew":1539,"Ġ24":1540,"Ġwind":1541,"ĠCo":1542,"Ġold":1543,"we":1544,"Ġside":1545,"Ġsk":1546,"Ġminutes":1547,"ĠRoute":1548,"Ġdifferent":1549,"Ġcontinued":1550,"aining":1551,"Ġequ":1552,"Ġultimately":1553,"Ġpost":1554,"Ġearlier":1555,"ays":1556,"Ġlocal":1557,"Ġpercent":1558,"ĠAir":1559,"Ġ2011":1560,"ĠMin":1561,"ator":1562,"ĠAcademy":1563,"Ġamong":1564,"Ġrevealed":1565,"ides":1566,"aj":1567,"Ġpotential":1568,"Ġfrequent":1569,"ĠNo":1570,"Ġdel":1571,"ĠThomas":1572,"ĠCharles":1573,"estern":1574,"oot":1575,"alk":1576,"Ġnumerous":1577,"ĠWe":1578,"Ġ&":1579,"ĠEngland":1580,"ert":1581,"ology":1582,"Ġlaw":1583,"itch":1584,"Ġprop":1585,"Ġvehic":1586,"ĠInternational":1587,"Ġrefer":1588,"ĠGeorg":1589,"Ġpar":1590,"ript":1591,"Ġmy":1592,"ĠSmith":1593,"side":1594,"Ġpraised":1595,"Ġpiec":1596,"Ġ22":1597,"Ġsent":1598,"ince":1599,"Ġnovel":1600,"ues":1601,"Ġtake":1602,"Ġconsidered":1603,"ival":1604,"Ġ2007":1605,"ford":1606,"ĠOne":1607,"Ġsec":1608,"Ġproduction":1609,"Ġarchitect":1610,"ened":1611,"ĠEx":1612,"ĠPhiladelphia":1613,"ĠPark":1614,"ĠCity":1615,"thing":1616,"ique":1617,"ae":1618,"Ġsoundtrack":1619,"ĠEnglish":1620,"ĠRichard":1621,"ĠNor":1622,"Ġindepend":1623,"ĠAlex":1624,"ĠCourt":1625,"ald":1626,"Ġroad":1627,"Ġaudience":1628,"Ġeast":1629,"Ġmoved":1630,"Ġachie":1631,"vers":1632,"Ġbetter":1633,"Ġcor":1634,"Ġthough":1635,"ĠPol":1636,"ai":1637,"Ġwest":1638,"Ġwithout":1639,"Ġprov":1640,"Ġsing":1641,"ones":1642,"uck":1643,"ĠCent":1644,"Ġplayer":1645,"Ġnewspap":1646,"ĠGovern":1647,"Ġ2012":1648,"Ġposition":1649,"Ġpositive":1650,"ĠKing":1651,"ĠMichigan":1652,"Ġaccording":1653,"Ġsee":1654,"Ġant":1655,"Ġcast":1656,"Ġcommun":1657,"Ġel":1658,"ize":1659,"ape":1660,"Ġ23":1661,"Ġtold":1662,"Ġhouse":1663,"Ġclear":1664,"ĠSu":1665,"ĠWith":1666,"ived":1667,"Ġclub":1668,"Ġfailed":1669,"emb":1670,"ĠDemocr":1671,"Ġ190":1672,"Ġstat":1673,"Ġtem":1674,"Ġfact":1675,"Ġless":1676,"Ġopp":1677,"aren":1678,"Ġdocument":1679,"ying":1680,"ĠRiver":1681,"rest":1682,"iment":1683,"attalion":1684,"ĠHigh":1685,"yl":1686,"ĠZealand":1687,"Ġkeep":1688,"Ġaff":1689,"ĠCollege":1690,"Ġcycl":1691,"Ġfore":1692,"Ġviol":1693,"Ġrad":1694,"inal":1695,"ĠAb":1696,"Ġgave":1697,"ĠMexico":1698,"Ġasked":1699,"ns":1700,"rem":1701,"ĠDr":1702,"oll":1703,"Ġnever":1704,"ĠWhile":1705,"ĠSoviet":1706,"Ġchang":1707,"Ġdefe":1708,"form":1709,"Ġreturned":1710,"nam":1711,"Ġfr":1712,"ĠFilm":1713,"Ġfuture":1714,"Ġcomb":1715,"Ġleague":1716,"ering":1717,"err":1718,"Ġinternational":1719,"ĠFl":1720,"ention":1721,"Ġgood":1722,"Ġsw":1723,"Ġtravel":1724,"Ġconcer":1725,"Ġdet":1726,"Ġcompany":1727,"Ġevidence":1728,"Ġfire":1729,"Ġcountry":1730,"Ġwent":1731,"ison":1732,"ett":1733,"Ġidea":1734,"ision":1735,"Ġquickly":1736,"Ġpublished":1737,"Ġsitu":1738,"int":1739,"Ġann":1740,"ole":1741,"ories":1742,"Ġproduced":1743,"ĠDepartment":1744,"Ġ2006":1745,"Ġfind":1746,"ute":1747,"Ġmusical":1748,"Ġlost":1749,"Ġstated":1750,"Ġavoid":1751,"Ġcommon":1752,"ieutenant":1753,"oph":1754,"ĠBritain":1755,"Ġcivil":1756,"Ġdropped":1757,"leg":1758,"amb":1759,"ĠInfantry":1760,"ama":1761,"ensive":1762,"Ġfemale":1763,"aur":1764,"ĠBro":1765,"Ġlight":1766,"Ġresponse":1767,"Ġinclude":1768,"Ġte":1769,"Ġissue":1770,"ĠReception":1771,"Ġcompet":1772,"ĠVictor":1773,"Ġrecorded":1774,"ief":1775,"Ġsurface":1776,"Ġear":1777,"Ġliter":1778,"Ġpress":1779,"ĠSw":1780,"Ġguitar":1781,"Ġcarried":1782,"Ġneed":1783,"Ġsch":1784,"Ġproject":1785,"ĠMassachusetts":1786,"Ġforces":1787,"ĠEar":1788,"ounds":1789,"Ġeastern":1790,"Ġ27":1791,"Ġdeterm":1792,"Ġships":1793,"Ġshould":1794,"ĠTe":1795,"Ġusing":1796,"Ġeight":1797,"Ġinterest":1798,"ĠEl":1799,"Ġ50":1800,"Ġ28":1801,"Ġgl":1802,"oe":1803,"Ġperformance":1804,"Ġstrugg":1805,"ĠEgypt":1806,"Ġste":1807,"Ġpopular":1808,"Ġtimes":1809,"Ġcross":1810,"isc":1811,"Ġserv":1812,"Ġmaking":1813,"Ġcapt":1814,"Ġten":1815,"Ġfun":1816,"Ġmultiple":1817,"Ġinvestig":1818,"ĠCor":1819,"Ġ2013":1820,"ĠSecond":1821,"ĠAustralia":1822,"Ġcertain":1823,"Ġanim":1824,"ĠJack":1825,"ird":1826,"Ġappointed":1827,"Ġlim":1828,"ĠSch":1829,"ederal":1830,"Ġprior":1831,"alls":1832,"ĠAdmiral":1833,"Ġpat":1834,"alth":1835,"Ġsongs":1836,"Ġread":1837,"Ġfather":1838,"Ġconcluded":1839,"ĠMeanwhile":1840,"ĠLouis":1841,"Ġkilometres":1842,"ĠPar":1843,"Ġscenes":1844,"Ġcritic":1845,"Ġfleet":1846,"Ġsurv":1847,"Ġleaving":1848,"Ġprimarily":1849,"Ġdemonstr":1850,"Ġdevelopment":1851,"Ġopportun":1852,"Ġhow":1853,"Ġ40":1854,"reed":1855,"ĠSpanish":1856,"Ġobserved":1857,"bs":1858,"ournal":1859,"arch":1860,"Ġsurround":1861,"Ġgirl":1862,"med":1863,"Ġ26":1864,"alt":1865,"ĠState":1866,"ĠTo":1867,"Ġsusp":1868,"Ġterrit":1869,"ĠGl":1870,"ĠParty":1871,"Ġsymbol":1872,"ĠJames":1873,"Ġwithdraw":1874,"ason":1875,"Ġarrang":1876,"Ġ189":1877,"Ġstrateg":1878,"ream":1879,"acy":1880,"Ġfavor":1881,"Ġcollabor":1882,"Ġft":1883,"be":1884,"Ġremained":1885,"Ġdaughter":1886,"Ġcharacters":1887,"ĠArmy":1888,"Ġtorpedo":1889,"Ġget":1890,"Ġsuff":1891,"Ġconv":1892,"Ġgen":1893,"Ġdied":1894,"ĠChinese":1895,"Ġawarded":1896,"Ġmaximum":1897,"elling":1898,"ending":1899,"com":1900,"Ġdeveloped":1901,"ĠLiverpool":1902,"ries":1903,"Ġnational":1904,"Ġpsych":1905,"Ġchart":1906,"Ġforce":1907,"Ġoccur":1908,"Ġstar":1909,"Ġchildren":1910,"Ġmid":1911,"ĠEntertainment":1912,"lands":1913,"ope":1914,"Ġtouchdown":1915,"ĠRuss":1916,"itted":1917,"Ġpur":1918,"lin":1919,"isted":1920,"Ġbattleship":1921,"Ġson":1922,"Ġacross":1923,"Ġaway":1924,"ression":1925,"Ġfifth":1926,"Ġconcentr":1927,"Ġaccompanied":1928,"ĠHistory":1929,"ĠPacific":1930,"Ġsucceed":1931,"Ġfield":1932,"ĠReg":1933,"ĠDivision":1934,"ĠMon":1935,"Ġhusband":1936,"Ġcond":1937,"ĠPlayStation":1938,"Ġnoted":1939,"ĠSim":1940,"Ġnight":1941,"Ġquarter":1942,"Ġnatural":1943,"oh":1944,"Ġwhether":1945,"ĠMor":1946,"Ġpromot":1947,"Ġissu":1948,"Ġsupp":1949,"Ġcreated":1950,"Ġcopies":1951,"Ġareas":1952,"reg":1953,"Ġbuildings":1954,"Ġsold":1955,"ĠCatholic":1956,"Ġvoice":1957,"ells":1958,"Ġ2005":1959,"ĠRoad":1960,"Ġstation":1961,"play":1962,"ospital":1963,"ressed":1964,"Ġsuccessful":1965,"field":1966,"ĠCongress":1967,"Ġval":1968,"Ġsuper":1969,"ising":1970,"Ġvarious":1971,"Ġcult":1972,"ĠâĢĻ":1973,"ana":1974,"Ġseen":1975,"Ġmanager":1976,"Ġmixed":1977,"Ġprivate":1978,"ĠHollywood":1979,"iting":1980,"Ġfollowed":1981,"urn":1982,"ports":1983,"ements":1984,"Ġofficers":1985,"lic":1986,"Ġlikely":1987,"Ġtoo":1988,"Ġ29":1989,"ased":1990,"ĠEast":1991,"Ġperformed":1992,"ĠQueen":1993,"ization":1994,"Ġnegoti":1995,"Ġremoved":1996,"ĠTexas":1997,"Ġserved":1998,"Ġspecial":1999,"Ġ2014":2000,"Ġrev":2001,"Ġplayers":2002,"Ġfull":2003,"Ġcasualties":2004,"Ġalways":2005,"Ġblack":2006,"aces":2007,"Ġsol":2008,"ĠPer":2009,"ĠOl":2010,"Ġput":2011,"ĠAnother":2012,"Ġsim":2013,"na":2014,"Ġbel":2015,"Ġinstrument":2016,"Ġcost":2017,"ality":2018,"ows":2019,"Ġjoin":2020,"Ġargued":2021,"erson":2022,"Ġlook":2023,"Ġtest":2024,"uring":2025,"Ġvillage":2026,"ĠMediterranean":2027,"Ġseven":2028,"ination":2029,"Ġlevel":2030,"Ġvol":2031,"lo":2032,"Ġcontemporary":2033,"Ġhelp":2034,"rict":2035,"anch":2036,"rick":2037,"Ġcounter":2038,"Ġlet":2039,"Ġthroughout":2040,"ĠBeyoncÃ©":2041,"ills":2042,"Ġunsuccessful":2043,"pe":2044,"Ġable":2045,"ĠSer":2046,"ray":2047,"ster":2048,"ower":2049,"Ġdamaged":2050,"Ġmeeting":2051,"Ġfight":2052,"Ġdiscover":2053,"Ġranked":2054,"ĠMartin":2055,"yd":2056,"Ġident":2057,"Ġbar":2058,"Ġer":2059,"Ġraised":2060,"ĠAg":2061,"ius":2062,"Ġwriting":2063,"Ġdiv":2064,"Ġrespectively":2065,"Ġthought":2066,"Ġestablished":2067,"ĠAct":2068,"ĠSystem":2069,"enced":2070,"aval":2071,"Ġmm":2072,"Ġappeared":2073,"Ġdoes":2074,"Ġentire":2075,"ĠAustralian":2076,"ĠFantasy":2077,"Ġcolle":2078,"Ġinspired":2079,"Ġcoast":2080,"Ġpoints":2081,"Ġ!":2082,"ĠBackground":2083,"ently":2084,"Ġinvolv":2085,"Ġimpro":2086,"Ġrainfall":2087,"less":2088,"Ġdecl":2089,"Ġnon":2090,"den":2091,"ĠStudios":2092,"Ġactiv":2093,"Ġrange":2094,"Ġgovernor":2095,"ĠYou":2096,"Ġcaused":2097,"Ġstarted":2098,"ĠQu":2099,"Ġdecided":2100,"ask":2101,"Ġdes":2102,"ger":2103,"Ġfeatures":2104,"lected":2105,"Ġgeneral":2106,"ades":2107,"Ġpain":2108,"used":2109,"aves":2110,"Ġinformation":2111,"ators":2112,"ĠEmpire":2113,"Ġbirth":2114,"Ġmanufact":2115,"Ġevent":2116,"Ġreach":2117,"Ġenc":2118,"Ġage":2119,"Ġnumbers":2120,"erm":2121,"iff":2122,"yr":2123,"Ġrace":2124,"eck":2125,"day":2126,"Ġrock":2127,"iber":2128,"Ġreinfor":2129,"ĠTaylor":2130,"Ġprincip":2131,"Ġgrow":2132,"ĠItalian":2133,"Ġfeet":2134,"Ġindustry":2135,"rison":2136,"Ġcut":2137,"ara":2138,"Ġconsecutive":2139,"Ġadded":2140,"ĠBo":2141,"ĠHouse":2142,"Ġassigned":2143,"Ġwhite":2144,"Ġunknown":2145,"Ġ188":2146,"Ġonce":2147,"Ġlegisl":2148,"Ġformed":2149,"Ġcommented":2150,"Ġlocated":2151,"itude":2152,"Ġstri":2153,"reek":2154,"ĠDVD":2155,"Ġconn":2156,"off":2157,"ani":2158,"ĠBlack":2159,"Ġlo":2160,"uth":2161,"ĠPort":2162,"Ġground":2163,"Ġ31":2164,"Ġeducation":2165,"ĠPhilip":2166,"ĠSome":2167,"Ġsaw":2168,"Ġmethod":2169,"Ġprimary":2170,"Ġcrew":2171,"Ġabandoned":2172,"uk":2173,"Ġaction":2174,"Ġfac":2175,"Ġcompleted":2176,"Ġofficer":2177,"ĠGroup":2178,"aps":2179,"Ġenjoy":2180,"Ġplaying":2181,"ĠOtt":2182,"ĠIndian":2183,"Ġren":2184,"Ġesc":2185,"Ġ2004":2186,"pect":2187,"Ġhold":2188,"amil":2189,"Ġreligious":2190,"Ġconflict":2191,"ata":2192,"Ġpopulation":2193,"Ġbase":2194,"Ġmot":2195,"Ġhon":2196,"sc":2197,"Ġvoc":2198,"Ġrather":2199,"Ġopened":2200,"Ġrapid":2201,"Ġstage":2202,"Ġ186":2203,"Ġquestion":2204,"ites":2205,"ĠProduction":2206,"use":2207,"ĠSeveral":2208,"ĠMajor":2209,"Ġborn":2210,"ern":2211,"Ġfinancial":2212,"Ġ2015":2213,"Ġsite":2214,"Ġworks":2215,"Ġlive":2216,"Ġenergy":2217,"Ġnecess":2218,"Ġtext":2219,"Ġloss":2220,"ĠFrance":2221,"amm":2222,"Ġworked":2223,"Ġbudget":2224,"Ġbur":2225,"Ġnetwork":2226,"Ġword":2227,"Ġheavy":2228,"Ġmiss":2229,"Ġconstructed":2230,"Ġpred":2231,"ĠDoctor":2232,"Ã¡":2233,"Ġlab":2234,"Ġlack":2235,"Ġparty":2236,"Ġhighway":2237,"Ġclose":2238,"ĠIm":2239,"aut":2240,"ze":2241,"Ġgun":2242,"Ġconstruction":2243,"ĠWil":2244,"Ġhit":2245,"Ġroyal":2246,"istic":2247,"Ġhost":2248,"Ġmount":2249,"ĠSecretary":2250,"Ġacknowledg":2251,"aded":2252,"Ġcontinue":2253,"fore":2254,"raft":2255,"Ġoriginally":2256,"Ġdi":2257,"uel":2258,"Ġreb":2259,"ica":2260,"Ġchurch":2261,"Ġupon":2262,"Ġpract":2263,"Ġreduced":2264,"Ġleading":2265,"Ġcontrovers":2266,"ases":2267,"ĠRobert":2268,"ological":2269,"Ġpeak":2270,"Ġinj":2271,"omm":2272,"Ġlevels":2273,"ĠMy":2274,"Ġneighb":2275,"unk":2276,"emorial":2277,"ĠSan":2278,"ĠBel":2279,"Ġscored":2280,"ĠCambridge":2281,"Ġfourth":2282,"osition":2283,"Ġ2000":2284,"Ġsett":2285,"Ġnuclear":2286,"Ġmor":2287,"ĠBest":2288,"Ġtwenty":2289,"Ġprovided":2290,"Ġaccepted":2291,"Ġcase":2292,"ĠRed":2293,"Ġclos":2294,"Ġengine":2295,"ĠMusic":2296,"Ġcreat":2297,"Ġcandid":2298,"Ġmi":2299,"Ġphotograph":2300,"ĠMil":2301,"Ġheadquarters":2302,"Ġdev":2303,"Ġsqu":2304,"ĠScotland":2305,"Ġscene":2306,"Ġball":2307,"ĠBur":2308,"Ġdirection":2309,"Ġfree":2310,"Ġbrought":2311,"ula":2312,"Ġ500":2313,"tained":2314,"oms":2315,"ino":2316,"Ġfell":2317,"Ġ187":2318,"anks":2319,"Ġever":2320,"Ġfeatured":2321,"aly":2322,"Ġvot":2323,"Ġhorse":2324,"ĠCap":2325,"Ġking":2326,"Ġleast":2327,"aph":2328,"Ġworking":2329,"oring":2330,"Ġallowed":2331,"Ġfavour":2332,"ĠNintendo":2333,"Ġpremier":2334,"Ġtowards":2335,"Ġregion":2336,"agn":2337,"Ġresponsible":2338,"ience":2339,"Ġmurder":2340,"Ġkept":2341,"Ġplaced":2342,"ball":2343,"Ġmeaning":2344,"ĠDevelopment":2345,"Ġwidespread":2346,"Ġoffice":2347,"Ġcritics":2348,"Ġincorpor":2349,"Ġbegins":2350,"ĠBrazil":2351,"Ġvariety":2352,"ĠDouglas":2353,"Ġatmosph":2354,"Ġcerem":2355,"ĠÃ":2356,"Ġhouses":2357,"to":2358,"ev":2359,"Ġstop":2360,"Ġruns":2361,"ĠService":2362,"Ġnomin":2363,"Ġscheduled":2364,"Ġfar":2365,"ĠFrancisco":2366,"ĠOther":2367,"ĠSingapore":2368,"ĠLincoln":2369,"Ġsex":2370,"Ġcontract":2371,"Ġillustr":2372,"Ġsour":2373,"ky":2374,"ears":2375,"Ġdedicated":2376,"Ġphilosoph":2377,"Ġarmy":2378,"of":2379,"uff":2380,"ĠJe":2381,"ĠDespite":2382,"Ġ2003":2383,"Ġhom":2384,"men":2385,"br":2386,"ĠCom":2387,"Ġrail":2388,"ule":2389,"Ġpossess":2390,"Ġgenerally":2391,"Ġsound":2392,"ids":2393,"Ġhundred":2394,"Ġmass":2395,"Ġproper":2396,"Ġwid":2397,"Ġindustrial":2398,"ming":2399,"Ġcur":2400,"standing":2401,"Ġevents":2402,"Ġmonth":2403,"ĠStar":2404,"Ġbelieved":2405,"ĠGame":2406,"ĠCup":2407,"Ġsuppl":2408,"Ġexhib":2409,"Ġ35":2410,"Ġfig":2411,"Ġdistinct":2412,"Ġtransferred":2413,"ĠMary":2414,"ĠCommittee":2415,"ĠLatin":2416,"Ġcontrast":2417,"ĠOxford":2418,"ĠUp":2419,"ĠHall":2420,"ĠRes":2421,"Ġenemy":2422,"Ġcorrespond":2423,"Ġchar":2424,"Ġanalysis":2425,"Ġcitizens":2426,"ves":2427,"oor":2428,"Ġknow":2429,"Ġtraffic":2430,"Ġcall":2431,"rey":2432,"Ġreplaced":2433,"ĠJoseph":2434,"ĠGreat":2435,"Ġdesigned":2436,"Ġgreater":2437,"Ġmph":2438,"iction":2439,"Ġrul":2440,"ste":2441,"Ġsoon":2442,"Ġisland":2443,"Ġfund":2444,"ĠBoston":2445,"ĠMal":2446,"Ġrelatively":2447,"Ġround":2448,"ĠEuropean":2449,"ĠManchester":2450,"Ġpresident":2451,"stant":2452,"ems":2453,"ification":2454,"ĠLa":2455,"cing":2456,"Ġprep":2457,"Ġfinished":2458,"ams":2459,"ception":2460,"Ġparallel":2461,"Ġtitled":2462,"ody":2463,"ĠChampionship":2464,"ĠBetween":2465,"ki":2466,"asion":2467,"Ġexc":2468,"west":2469,"ĠMed":2470,"Ġbreak":2471,"etic":2472,"inn":2473,"urb":2474,"Ġmechan":2475,"Ġsumm":2476,"ĠRoman":2477,"Ġparents":2478,"Ġcourt":2479,"Ġshot":2480,"Ġthreat":2481,"Ġopening":2482,"oul":2483,"Ġcompanies":2484,"Ġprogress":2485,"Ġz":2486,"ĠLittle":2487,"ĠHol":2488,"BC":2489,"ges":2490,"ĠCan":2491,"Ġdirector":2492,"ishing":2493,"ĠLife":2494,"Ġtarget":2495,"Ġrece":2496,"ĠDon":2497,"Ġslightly":2498,"ruct":2499,"Ġindic":2500,"Ġgradu":2501,"Ġdomestic":2502,"ĠScott":2503,"ĠMet":2504,"Ġlargest":2505,"ership":2506,"east":2507,"Ġcontribut":2508,"Ġdisp":2509,"ander":2510,"ĠCr":2511,"Ġpossible":2512,"Ġinnings":2513,"Ġbehav":2514,"Ġsouthern":2515,"inent":2516,"Ġcamp":2517,"ĠMac":2518,"ĠCroat":2519,"ĠVal":2520,"Ġwaters":2521,"Ġhighest":2522,"Ġ2001":2523,"ĠHistor":2524,"Ġinitially":2525,"ĠFrom":2526,"Ġparticularly":2527,"Ġhard":2528,"aring":2529,"Ġpilot":2530,"Ġcruis":2531,"Ġsequ":2532,"Ġtraining":2533,"Ġturn":2534,"Ġcompletely":2535,"ĠSupreme":2536,"ights":2537,"Ġforced":2538,"ĠChurch":2539,"Ġmust":2540,"Ġexist":2541,"ĠKentucky":2542,"ĠSaint":2543,"ĠMuseum":2544,"val":2545,"Ġfall":2546,"ĠâĪĴ":2547,"Ġstruck":2548,"ĠNavy":2549,"Ġbenef":2550,"cle":2551,"Ġpolicy":2552,"Ġopinion":2553,"Ġpark":2554,"ĠÂ°":2555,"Ġdepart":2556,"gan":2557,"Ġthousand":2558,"ately":2559,"Ġended":2560,"Ġwatch":2561,"rian":2562,"ĠMcC":2563,"ĠBrigade":2564,"Ġregular":2565,"ĠOff":2566,"Ġturned":2567,"Ġweak":2568,"Ġtre":2569,"erc":2570,"Ġadm":2571,"Ġsomewhat":2572,"Ġstudio":2573,"ĠBut":2574,"Ġgoal":2575,"Ġchange":2576,"Ġplatform":2577,"ĠPal":2578,"ening":2579,"lement":2580,"Ġpassed":2581,"Ġbill":2582,"berg":2583,"ĠMo":2584,"ĠDu":2585,"Ġincreased":2586,"Ġobject":2587,"ably":2588,"Ġhurricane":2589,"Ġconfirmed":2590,"Ġregard":2591,"ĠWhite":2592,"Ġcome":2593,"ĠIreland":2594,"ĠSl":2595,"Ġ2002":2596,"Ġrhythm":2597,"ĠTom":2598,"ĠAvenue":2599,"Ġunivers":2600,"Ġphys":2601,"ibrary":2602,"ĠFleet":2603,"Ġcentral":2604,"itor":2605,"Ġsafety":2606,"Ġobserv":2607,"aries":2608,"ĠCanada":2609,"iÄĩ":2610,"Ġspeed":2611,"ĠRock":2612,"Ġappearance":2613,"Ġunits":2614,"ends":2615,"uct":2616,"Ġpast":2617,"Ġkill":2618,"de":2619,"theless":2620,"Ġversions":2621,"bo":2622,"ston":2623,"ĠBay":2624,"apt":2625,"ĠSen":2626,"Ġir":2627,"Ġmeas":2628,"Ġordered":2629,"Ġresidents":2630,"ping":2631,"ilities":2632,"Ġborder":2633,"Ġtreat":2634,"ĠTropical":2635,"ha":2636,"Ġtaking":2637,"Ġfreeway":2638,"Ġearliest":2639,"Ġsm":2640,"ategory":2641,"ĠMississippi":2642,"Ġaut":2643,"Ġdescription":2644,"Ġlove":2645,"ĠPeter":2646,"ĠIr":2647,"Ġsigned":2648,"Ġmove":2649,"ores":2650,"her":2651,"ged":2652,"ĠDutch":2653,"agon":2654,"Ġolder":2655,"ĠGod":2656,"ĠStephen":2657,"elled":2658,"amer":2659,"ĠKn":2660,"Ġpers":2661,"Ġwinds":2662,"la":2663,"ĠUnion":2664,"itz":2665,"Ġweapons":2666,"ĠThrough":2667,"Ġlear":2668,"ĠIsland":2669,"Ġenough":2670,"asc":2671,"ĠYoung":2672,"ĠYugoslav":2673,"Ġheavily":2674,"nel":2675,"ĠWeek":2676,"ume":2677,"ĠDirect":2678,"ĠConfeder":2679,"Ġspent":2680,"Ġap":2681,"Ġsil":2682,"Ġspread":2683,"Ġapparent":2684,"Ġartillery":2685,"Ġgoing":2686,"Ġproceed":2687,"Ġabove":2688,"unt":2689,"Ġoutside":2690,"ena":2691,"Ġfilms":2692,"Ġfeel":2693,"Ġfootball":2694,"Ġappeal":2695,"ĠRhodes":2696,"ĠAward":2697,"Ġequipment":2698,"Ġpreviously":2699,"ĠSam":2700,"Ġstates":2701,"Ġrecording":2702,"Ġ1990":2703,"oke":2704,"back":2705,"Ġ60":2706,"Ġnine":2707,"Ġaccount":2708,"Ġsurpris":2709,"usion":2710,"Ġsubject":2711,"Ġdrug":2712,"ĠCivil":2713,"ĠArt":2714,"ĠHomer":2715,"Ġcouple":2716,"Ġassist":2717,"ros":2718,"imate":2719,"bed":2720,"ĠCompany":2721,"Ġrequired":2722,"osing":2723,"Ġ45":2724,"Ġelements":2725,"ĠMelbourne":2726,"he":2727,"struction":2728,"Ġey":2729,"ĠMount":2730,"Ġhabit":2731,"ĠMark":2732,"ĠIndia":2733,"ĠGermany":2734,"ĠNorthern":2735,"Ġessential":2736,"Ġsyn":2737,"Ġnar":2738,"Ġreviews":2739,"Ġinterview":2740,"Ġparts":2741,"ari":2742,"Ġpay":2743,"lying":2744,"Ġitself":2745,"ĠChristian":2746,"Ġcho":2747,"aker":2748,"ĠGold":2749,"Ġcrowd":2750,"Ġdirected":2751,"ĠBrown":2752,"nd":2753,"Ġdespite":2754,"Ġcred":2755,"ĠCarolina":2756,"Ġ185":2757,"Ġscore":2758,"Ġtournament":2759,"ĠNY":2760,"Ġabs":2761,"ĠTimes":2762,"Ġ?":2763,"ĠÂ£":2764,"Ġpen":2765,"Ġbi":2766,"Ġsenior":2767,"Ġaccess":2768,"ĠCast":2769,"Ġworldwide":2770,"Ġbeginning":2771,"ability":2772,"Ġgroups":2773,"ĠTur":2774,"ption":2775,"Ġbirds":2776,"ĠOklahoma":2777,"ĠOcean":2778,"ĠHill":2779,"ĠUK":2780,"ĠOperation":2781,"Ġmachine":2782,"ĠDistrict":2783,"Ġwhose":2784,"airs":2785,"Ġfamous":2786,"Ġrisk":2787,"Ġclaimed":2788,"Ġfully":2789,"ulation":2790,"ĠAlb":2791,"ĠWestern":2792,"Ġchosen":2793,"Ġlines":2794,"Ġest":2795,"Ġprevent":2796,"nes":2797,"Ġscreen":2798,"Ġfoot":2799,"ĠGirl":2800,"Ġgive":2801,"Ġcal":2802,"Ġbrother":2803,"rol":2804,"Ġlower":2805,"ĠFrank":2806,"Ġkey":2807,"Ġadditional":2808,"Ġsection":2809,"Ġpaper":2810,"ĠGrand":2811,"ĠEastern":2812,"Ġwhom":2813,"Ġfort":2814,"Ġgold":2815,"Ġpoor":2816,"ĠKennedy":2817,"ĠAwards":2818,"Ġdon":2819,"gen":2820,"Ġbackground":2821,"Ġdegree":2822,"Ġintroduced":2823,"Ġherself":2824,"ĠChristmas":2825,"Ġhorses":2826,"Ġwounded":2827,"Ġanti":2828,"ble":2829,"Ġchalleng":2830,"Ġsimply":2831,"ography":2832,"Ġsubm":2833,"atory":2834,"Ġ32":2835,"Ġchallenge":2836,"Ġcenter":2837,"ĠThat":2838,"Ġbridge":2839,"Ġassault":2840,"Ġorders":2841,"ĠForce":2842,"wood":2843,"ĠMost":2844,"Ġsea":2845,"Ġelection":2846,"Ġradio":2847,"Ġproduct":2848,"alled":2849,"Ġoccup":2850,"Ġmoment":2851,"Ġcannot":2852,"Ġ1970":2853,"Ġstr":2854,"ĠMad":2855,"Ġdeal":2856,"Ġexperiment":2857,"anded":2858,"Ġwebsite":2859,"Ġusually":2860,"Ġ1980":2861,"Ġemphas":2862,"Ġwestern":2863,"Ġarrived":2864,"ĠRob":2865,"ĠBen":2866,"Ġfirm":2867,"ĠAssembly":2868,"ift":2869,"Ġproducers":2870,"igg":2871,"ĠMagazine":2872,"ĠOver":2873,"igr":2874,"ĠCleveland":2875,"ĠFestival":2876,"Ġadopted":2877,"Ġadvanced":2878,"Ġmoney":2879,"Ġspirit":2880,"Ġdeb":2881,"Ġsevere":2882,"ĠIllinois":2883,"erry":2884,"ĠDay":2885,"Ġstudy":2886,"ĠPat":2887,"Ġfood":2888,"Ġcapacity":2889,"Ġdecision":2890,"omp":2891,"ulf":2892,"Ġhy":2893,"ĠRailway":2894,"ĠHot":2895,"Ġcoach":2896,"ĠLater":2897,"Ġiniti":2898,"icle":2899,"ĠFurther":2900,"ĠArsenal":2901,"Ġ-":2902,"Ġflood":2903,"ailed":2904,"Ġmight":2905,"ma":2906,"ests":2907,"Ġshows":2908,"ĠTri":2909,"Ġcommunity":2910,"ĠEv":2911,"ĠNorwegian":2912,"ĠJersey":2913,"ĠCal":2914,"ayer":2915,"Ġthink":2916,"Ġ1999":2917,"ĠMill":2918,"Ġremaining":2919,"Ġhum":2920,"Ġnormal":2921,"Ġexpansion":2922,"Ġminor":2923,"Ġdefeated":2924,"Ġencounter":2925,"Ġindividuals":2926,"ĠSuper":2927,"arian":2928,"Ġbeyond":2929,"Ġagreement":2930,"ĠISBN":2931,"ĠEarly":2932,"Ġlarger":2933,"ĠSquare":2934,"Ġfailure":2935,"Ġbecoming":2936,"Ġintelligence":2937,"oud":2938,"ects":2939,"Ġdeploy":2940,"Ġdismiss":2941,"Ġwood":2942,"enth":2943,"Ġcomplete":2944,"oo":2945,"Ġ36":2946,"Ġslow":2947,"han":2948,"ĠMexican":2949,"Ġarg":2950,"Ġnegative":2951,"Ġpolice":2952,"ees":2953,"Ġsuggested":2954,"Ġbodies":2955,"Ġmedia":2956,"Ġpressure":2957,"Ġentered":2958,"Ġ80":2959,"ĠLos":2960,"iles":2961,"Ġteams":2962,"Ġhop":2963,"Ġdestruction":2964,"ĠPublic":2965,"ĠJust":2966,"Ġelsewhere":2967,"ĠVietnamese":2968,"ĠSun":2969,"Ġlatter":2970,"NA":2971,"uzz":2972,"erve":2973,"ĠLord":2974,"Ġstudents":2975,"ĠSal":2976,"ĠArthur":2977,"ĠTour":2978,"Ġideas":2979,"Ġstre":2980,"Ġmarket":2981,"Ġpersonal":2982,"ĠInstitute":2983,"Ġreport":2984,"ĠIsrael":2985,"go":2986,"Ġsat":2987,"ĠAdditionally":2988,"ĠIf":2989,"amples":2990,"Ġdisease":2991,"ension":2992,"Ġprison":2993,"Ġacqu":2994,"Ġdiscuss":2995,"Ġreact":2996,"ĠLu":2997,"ĠJackson":2998,"Ġeffects":2999,"ĠRevolution":3000,"Ġfriends":3001,"Ġder":3002,"Ġsummer":3003,"acing":3004,"ĠAdministr":3005,"Ġtower":3006,"lev":3007,"Ġrepeated":3008,"Ġgranted":3009,"change":3010,"ĠCont":3011,"Ġrejected":3012,"Ġstaff":3013,"Ġamount":3014,"iation":3015,"Ġsize":3016,"Ġchanges":3017,"Ġtwelve":3018,"Ġcommission":3019,"ĠAust":3020,"Ġenter":3021,"Ġwinning":3022,"Ġhapp":3023,"king":3024,"Ġlimited":3025,"Ġriver":3026,"Ġdestroyed":3027,"ode":3028,"ĠOhio":3029,"II":3030,"ĠClub":3031,"Ġresponsibility":3032,"Ġstraight":3033,"Ġinfantry":3034,"Ġpurpose":3035,"ĠGreen":3036,"Ġevacu":3037,"Ġmanagement":3038,"Ġden":3039,"Ġsn":3040,"ĠMont":3041,"ĠAng":3042,"Ġ75":3043,"Ġself":3044,"Ġsplit":3045,"Ġyellow":3046,"Ġrights":3047,"Ġprovide":3048,"Ġtype":3049,"Ġbroken":3050,"Ġwriter":3051,"ving":3052,"Ġcoll":3053,"Ġmar":3054,"ires":3055,"Ġdate":3056,"imin":3057,"que":3058,"ises":3059,"Ġsurrender":3060,"Ġproposed":3061,"Ġinfluence":3062,"Ġcaught":3063,"ga":3064,"Ġtax":3065,"Ġ184":3066,"ĠToronto":3067,"Ġ1960":3068,"Ġstructure":3069,"Ġour":3070,"Ġoutbreak":3071,"Ġcommittee":3072,"Ġ300":3073,"Ġoverall":3074,"Ġancient":3075,"ĠByzantine":3076,"Ġdivision":3077,"Ġscript":3078,"ĠPri":3079,"rd":3080,"ÃŃ":3081,"Ġroom":3082,"Ġarch":3083,"Ġcomedy":3084,"Ġseventh":3085,"Ġagreed":3086,"Ġjud":3087,"Ġintended":3088,"ĠMatthew":3089,"ĠEdward":3090,"Ġrunning":3091,"aging":3092,"Ġbasketball":3093,"Ġpurch":3094,"Ġnearly":3095,"Ġsupported":3096,"ĠMany":3097,"atives":3098,"AF":3099,"Ġbow":3100,"Ġdeep":3101,"ĠAlso":3102,"Ġwide":3103,"Ġcenturies":3104,"Ġhelped":3105,"Ġinspiration":3106,"Ġmentioned":3107,"Ġmarried":3108,"Ġ1998":3109,"Ġmovement":3110,"ady":3111,"ĠCouncil":3112,"ĠSong":3113,"ĠDel":3114,"Ġfamilies":3115,"Ġsecurity":3116,"Ġadvert":3117,"ially":3118,"Ġdanger":3119,"Ġfresh":3120,"Ġacadem":3121,"Ġcreate":3122,"Ġintens":3123,"ĠKe":3124,"Ġdiss":3125,"Ġdark":3126,"ĠColumbia":3127,"Ġdiplom":3128,"teen":3129,"Ġperfect":3130,"Ġstars":3131,"iqu":3132,"Ã¶":3133,"Ġorchest":3134,"Ġlonger":3135,"bor":3136,"Ġhigher":3137,"ading":3138,"Ġplanned":3139,"ĠKorean":3140,"ump":3141,"Ġcompared":3142,"Ġcaptured":3143,"Ġincreasing":3144,"mediate":3145,"Ġstay":3146,"Ġfans":3147,"ĠPuerto":3148,"can":3149,"Ġcourse":3150,"Ġchanged":3151,"Ġtitles":3152,"ĠJohnson":3153,"ĠJewish":3154,"ails":3155,"Ġ33":3156,"Ġexperience":3157,"Ġpowers":3158,"Ġhousehold":3159,"ĠArch":3160,"Ġrelated":3161,"Ġfeature":3162,"Ġliving":3163,"Ġaud":3164,"Ġdone":3165,"Ġattract":3166,"Ġcustom":3167,"une":3168,"Ġproducer":3169,"Ġexpedition":3170,"Ġvictim":3171,"ĠPeople":3172,"Ġ70":3173,"Ġ00":3174,"Ġtemper":3175,"ender":3176,"Ġtracks":3177,"Ġmostly":3178,"Ġadvantage":3179,"me":3180,"ĠCarey":3181,"isions":3182,"Ġcomputer":3183,"ĠInter":3184,"Ġspace":3185,"ĠDisney":3186,"ĠLeg":3187,"Ġthus":3188,"itting":3189,"oes":3190,"Ġwoman":3191,"Ġdead":3192,"ĠNot":3193,"Ġimm":3194,"ĠArizona":3195,"Ġoperations":3196,"Ġremains":3197,"ĠHMS":3198,"urs":3199,"Ġbring":3200,"Ã¼":3201,"eld":3202,"ĠRadio":3203,"Ġromantic":3204,"ĠLewis":3205,"Ġsession":3206,"Ġfarm":3207,"Ġmunicip":3208,"ĠConference":3209,"sp":3210,"ĠUnder":3211,"ĠFort":3212,"Ġeggs":3213,"Ġpiano":3214,"Ġleader":3215,"Ġ1997":3216,"Ġbreed":3217,"Ġface":3218,"Ġextended":3219,"Ġcare":3220,"ĠSince":3221,"Ġforward":3222,"ĠBu":3223,"Ġcomplex":3224,"Ġselection":3225,"Ġboard":3226,"iring":3227,"Ġissued":3228,"Ġinhabitants":3229,"ĠSm":3230,"Ġreally":3231,"Ġcountries":3232,"ĠLove":3233,"ĠNHL":3234,"Ġ37":3235,"ĠEmperor":3236,"Ġemerg":3237,"Ġsuffered":3238,"Ġtransport":3239,"ĠLake":3240,"Ġcm":3241,"ĠLaw":3242,"Ġshooting":3243,"ĠCommonwealth":3244,"ĠBoth":3245,"ested":3246,"Ġgoals":3247,"ĠDaniel":3248,"Ġpitch":3249,"thers":3250,"Ġincludes":3251,"anes":3252,"ny":3253,"ĠHighway":3254,"hood":3255,"ĠGermans":3256,"Ġcapital":3257,"Ġconference":3258,"ĠJim":3259,"ĠWalter":3260,"Ġappro":3261,"Ġbatt":3262,"ĠDavis":3263,"emetery":3264,"ĠTrans":3265,"Ġintegr":3266,"Ġmerch":3267,"Ġdistribut":3268,"Ġdeliver":3269,"ously":3270,"Ġplant":3271,"ĠBer":3272,"Ġbeautiful":3273,"Ġincrease":3274,"ulated":3275,"bury":3276,"ops":3277,"ament":3278,"ĠTown":3279,"ĠSea":3280,"Ġhealth":3281,"Ġscholars":3282,"Ġsubsequently":3283,"ĠSpecial":3284,"Ġleave":3285,"ĠConserv":3286,"Ġplans":3287,"ĠDes":3288,"ka":3289,"Ġservices":3290,"Ġvia":3291,"Ġstatus":3292,"ĠMr":3293,"ĠDetroit":3294,"Ġdigital":3295,"ĠChina":3296,"Ġvisit":3297,"Ġlocation":3298,"Ġrid":3299,"ĠFrederick":3300,"Ġeas":3301,"ij":3302,"ours":3303,"Ġproblems":3304,"Ġhydro":3305,"ĠRihanna":3306,"ĠCamp":3307,"Ġflag":3308,"ĠHow":3309,"ĠEarth":3310,"Ġoffered":3311,"ria":3312,"Ġintersection":3313,"cy":3314,"well":3315,"ĠFin":3316,"ĠStr":3317,"Ġveget":3318,"Ġalcohol":3319,"Ġmodel":3320,"Ġterms":3321,"co":3322,"aily":3323,"Ġinstruments":3324,"Ġcolon":3325,"ĠMur":3326,"Ġsomething":3327,"Ġi":3328,"Ġtons":3329,"Ġreconnaissance":3330,"Ġcarry":3331,"ĠWood":3332,"ĠBoy":3333,"ĠWomen":3334,"Ġwitness":3335,"irt":3336,"ĠHal":3337,"Ġmajority":3338,"Ġprofessional":3339,"ĠMuslim":3340,"adium":3341,"Ġ183":3342,"ĠNielsen":3343,"Ġran":3344,"Ġpolit":3345,"ĠCanadian":3346,"Ã³":3347,"Ġcricket":3348,"ĠAfrica":3349,"onic":3350,"ĠIts":3351,"Ġconsist":3352,"Ġcause":3353,"Ġroughly":3354,"ections":3355,"Ġsemi":3356,"ĠAnt":3357,"Ġurban":3358,"Ġjob":3359,"Ġappears":3360,"Ġminute":3361,"ĠTech":3362,"ĠBig":3363,"Ġpop":3364,"ĠColonel":3365,"Ġteach":3366,"Ġresistance":3367,"ĠCenter":3368,"olk":3369,"Ġindividual":3370,"Ġcomposed":3371,"ĠSquadron":3372,"Ġlanguages":3373,"ify":3374,"Ġreasons":3375,"Ġflight":3376,"Ġattacks":3377,"ĠRussian":3378,"Ġ90":3379,"ums":3380,"ĠDi":3381,"Ġfranchise":3382,"Ġconcept":3383,"Ġplot":3384,"ĠOld":3385,"rie":3386,"Ġdiscovered":3387,"ĠGar":3388,"umed":3389,"stitution":3390,"Ġprof":3391,"Ġmakes":3392,"Ġperhaps":3393,"ĠSir":3394,"ĠBow":3395,"Ġmeet":3396,"Ġblock":3397,"Ġrenamed":3398,"ĠGreece":3399,"ĠBaltimore":3400,"ĠIndepend":3401,"ĠEnterprise":3402,"kin":3403,"ĠCentral":3404,"Ġmilit":3405,"ĠIII":3406,"Ġ1995":3407,"ĠApp":3408,"Ġreputation":3409,"Ġassociated":3410,"Ġimpact":3411,"Ġaltern":3412,"Ġtakes":3413,"Ġdialogue":3414,"Ġconc":3415,"ĠAngeles":3416,"Ġdomin":3417,"Ġshaped":3418,"Ġrout":3419,"Ġneeded":3420,"Ġconverted":3421,"Ġlived":3422,"Ġ34":3423,"ĠColorado":3424,"ĠConnecticut":3425,"Ġlaunched":3426,"Ġyet":3427,"Ġagricult":3428,"ropolitan":3429,"Ġnature":3430,"Ġdistingu":3431,"Ġamb":3432,"een":3433,"Ġoccurred":3434,"Ġcontains":3435,"Ġshown":3436,"Ġjourney":3437,"osaur":3438,"Ġâ":3439,"Ġsales":3440,"Ġattempted":3441,"Ġattacked":3442,"Ġmoving":3443,"Ġconditions":3444,"Ġhour":3445,"Ġupper":3446,"ĠTV":3447,"iled":3448,"Ġenthusi":3449,"Ġ38":3450,"win":3451,"Ġill":3452,"ien":3453,"Ġresponded":3454,"Ġcollect":3455,"Ġknowledge":3456,"ĠYear":3457,"Ġmem":3458,"Ġ2016":3459,"Ġgrand":3460,"Ġsym":3461,"Ġ1996":3462,"Ġissues":3463,"Ġfashion":3464,"ĠSomerset":3465,"ĠWor":3466,"Ġ1950":3467,"Ġwhole":3468,"Ġang":3469,"izing":3470,"Ġemb":3471,"Ġyards":3472,"ĠOut":3473,"Ġbox":3474,"ĠSimpsons":3475,"pted":3476,"Ġsal":3477,"Ġreferred":3478,"Ġcritical":3479,"Ġsustained":3480,"ĠWin":3481,"ĠSing":3482,"Ġgot":3483,"ĠMiami":3484,"Ġfinally":3485,"Ġsmaller":3486,"Ġelected":3487,"Ġselected":3488,"Ġresulted":3489,"Ġdefeat":3490,"Ġscient":3491,"itation":3492,"ads":3493,"Ġethnic":3494,"Ġbad":3495,"Ġportray":3496,"ĠTy":3497,"ĠWill":3498,"Ġqual":3499,"ĠVietnam":3500,"ĠArm":3501,"Ġaw":3502,"ĠImperial":3503,"Ġactive":3504,"Ġsinger":3505,"Ġstandard":3506,"Ġsecret":3507,"Ġmission":3508,"Ġ1994":3509,"Ġlargely":3510,"Ġoperation":3511,"Ġextratropical":3512,"ĠShortly":3513,"Ġmaintenance":3514,"Ġathlet":3515,"Ġplatinum":3516,"ĠSydney":3517,"Ġthr":3518,"Ġwant":3519,"Ġearned":3520,"itive":3521,"Ġmale":3522,"Ġexpected":3523,"ãĥ":3524,"ĠCaribbean":3525,"ĠCorps":3526,"ĠHugh":3527,"ĠMTV":3528,"Ġlisted":3529,"Ġpair":3530,"mon":3531,"ĠCrit":3532,"cast":3533,"urt":3534,"Ġcovered":3535,"eration":3536,"Ġunable":3537,"Ġapplied":3538,"ette":3539,"Ġheart":3540,"Ġtraditional":3541,"ĠFinal":3542,"Ġentrance":3543,"Ġtrade":3544,"Ġartist":3545,"ĠMa":3546,"imb":3547,"Ġclosed":3548,"Ġconsequ":3549,"Ġrefused":3550,"Ġunit":3551,"Ġexclus":3552,"Ġrecover":3553,"Ġattention":3554,"Ġdouble":3555,"Ġbattery":3556,"ĠGe":3557,"ĠKr":3558,"Ġprec":3559,"ighter":3560,"Ġsister":3561,"Ġgradually":3562,"eep":3563,"Ġgar":3564,"Ġcharg":3565,"Ġreason":3566,"Ġfilled":3567,"Ġlandfall":3568,"Ġletter":3569,"ĠMu":3570,"ĠMulder":3571,"Ġbelow":3572,"Ġcinem":3573,"Ġ1940":3574,"ĠWales":3575,"Ġdynasty":3576,"omb":3577,"Ġadjacent":3578,"ĠPan":3579,"Ġcop":3580,"Ġability":3581,"Ġdepression":3582,"Ġmeant":3583,"ĠGordon":3584,"fl":3585,"Ġperformances":3586,"Ġdeclared":3587,"Ġcamera":3588,"Ġ49":3589,"Ġblood":3590,"Ġdisplay":3591,"ĠMore":3592,"Ġgiving":3593,"ĠYorkshire":3594,"ya":3595,"Ġmill":3596,"Ġcompl":3597,"Ġ180":3598,"Ġfighting":3599,"Ġextremely":3600,"Ġmiddle":3601,"ĠPre":3602,"iant":3603,"Ġentitled":3604,"Ġcommander":3605,"Ġtheat":3606,"ĠRepresent":3607,"Ġhot":3608,"Ġrate":3609,"aven":3610,"Ġbooks":3611,"ĠAp":3612,"Ġbuild":3613,"osh":3614,"ĠLong":3615,"ĠTheatre":3616,"Ġrecords":3617,"ĠResearch":3618,"Ġmatches":3619,"Ġnames":3620,"ĠTest":3621,"ĠBenjamin":3622,"Ġproduce":3623,"Ġmessage":3624,"Ġadapted":3625,"mer":3626,"Ġproposal":3627,"Ġcompetition":3628,"Ġserious":3629,"Ġcentre":3630,"iven":3631,"ĠMinnesota":3632,"ĠInstead":3633,"Ġpurposes":3634,"Ġreligion":3635,"Ġdisapp":3636,"Ġvocals":3637,"Ġreduce":3638,"ĠMinister":3639,"icient":3640,"ĠKh":3641,"Ġspecifically":3642,"Ġfre":3643,"Ġ1992":3644,"ĠManhattan":3645,"Ġkind":3646,"Ġ41":3647,"Ġduty":3648,"ried":3649,"Ġmanuscript":3650,"Ġfle":3651,"icted":3652,"ĠTeam":3653,"ĠRoosevelt":3654,"ĠFox":3655,"ining":3656,"Ġdegrees":3657,"Ġtrain":3658,"umn":3659,"Ġep":3660,"ĠPeninsula":3661,"Ġbottom":3662,"ĠLab":3663,"Ġimportance":3664,"olf":3665,"Ġcontact":3666,"ĠFore":3667,"Ġcaptain":3668,"Ġvo":3669,"ĠBill":3670,"Ġtheme":3671,"Ġwedding":3672,"Ġmult":3673,"pass":3674,"Ġinternal":3675,"Ġarrested":3676,"ĠEr":3677,"aine":3678,"ares":3679,"Ġcorner":3680,"ands":3681,"Ġpick":3682,"ishop":3683,"Ġequipped":3684,"Ġnearby":3685,"Ġhighly":3686,"ĠIGN":3687,"Ġseparate":3688,"Ġdu":3689,"ĠHamilton":3690,"Ġlay":3691,"ĠFour":3692,"Ġchief":3693,"ĠEngine":3694,"ĠHaw":3695,"Ġtouch":3696,"Ġprosecut":3697,"Ġastronom":3698,"Ġrecommended":3699,"Ġpresented":3700,"ĠTime":3701,"Ġcombat":3702,"Ġpositions":3703,"Ġprotect":3704,"ĠUTC":3705,"Ġcompos":3706,"ĠAfrican":3707,"Ġannual":3708,"Ġoxygen":3709,"rod":3710,"ĠMer":3711,"Ġ400":3712,"vention":3713,"ĠChris":3714,"Ġdirectly":3715,"Ġcorrect":3716,"rier":3717,"Ġadult":3718,"Ġchorus":3719,"Ġ1930":3720,"Ġmag":3721,"cel":3722,"Ġfemales":3723,"Ġmeans":3724,"ĠPittsburgh":3725,"Ġexcept":3726,"Ġnotes":3727,"Ġbehalf":3728,"Ġattended":3729,"ĠVideo":3730,"ĠShakespeare":3731,"Ġnation":3732,"Ġpractice":3733,"Ġtried":3734,"Ġforest":3735,"Ġ55":3736,"ĠNBA":3737,"Ġcle":3738,"ĠHung":3739,"Ġfast":3740,"ĠMargaret":3741,"ita":3742,"con":3743,"Ġedition":3744,"Ġdesc":3745,"ĠChart":3746,"ocks":3747,"ĠBob":3748,"Ġammunition":3749,"Ġmetal":3750,"Ġ1993":3751,"ĠToday":3752,"uan":3753,"Ġduties":3754,"house":3755,"ĠSullivan":3756,"Ġstating":3757,"Ġ1991":3758,"Ġmovie":3759,"rap":3760,"ĠRos":3761,"ument":3762,"ĠTre":3763,"ĠMilitary":3764,"ship":3765,"ĠSunday":3766,"Ġeighth":3767,"isation":3768,"ux":3769,"ĠCarl":3770,"Ġsacrif":3771,"Ġaccept":3772,"ĠScully":3773,"Ġ179":3774,"ini":3775,"ĠJones":3776,"ĠMicrosoft":3777,"ĠHam":3778,"Ġcomment":3779,"ude":3780,"ĠTennessee":3781,"ĠHitler":3782,"ils":3783,"ĠAfghanistan":3784,"Ġseem":3785,"ĠAnn":3786,"Ġaspects":3787,"Ġpermanent":3788,"ĠTheir":3789,"Ġschools":3790,"Ġlegal":3791,"ĠCross":3792,"Ġbrigade":3793,"Ġra":3794,"igned":3795,"Ġrare":3796,"Ġfa":3797,"Ġthick":3798,"Ġmarriage":3799,"Ġdocuments":3800,"ĠMissouri":3801,"Ġsupporters":3802,"Ġ+":3803,"ĠGreek":3804,"rent":3805,"ĠWWE":3806,"gar":3807,"Ġefforts":3808,"Ġmanaged":3809,"Ġcollege":3810,"Ġ39":3811,"ĠSo":3812,"Ġwing":3813,"Ġresulting":3814,"Ġending":3815,"Ġvessels":3816,"ĠGen":3817,"Ġenemies":3818,"Ġens":3819,"Ġequivalent":3820,"ĠRyan":3821,"ĠArab":3822,"Ġtemporarily":3823,"ĠThree":3824,"oration":3825,"Ġshowed":3826,"ĠPost":3827,"roph":3828,"Ġ182":3829,"Ġsculpt":3830,"ĠRolling":3831,"Ġinside":3832,"ĠArgent":3833,"Ġsongwrit":3834,"Ġcases":3835,"ĠSol":3836,"Ġ48":3837,"Ġhar":3838,"Ġculture":3839,"rich":3840,"Ġaward":3841,"like":3842,"Ġcyclone":3843,"Ġattached":3844,"ĠBusiness":3845,"Ġ42":3846,"Ġouter":3847,"Ġcertified":3848,"Ġmorning":3849,"eastern":3850,"for":3851,"Ġrat":3852,"ĠStone":3853,"Ġfish":3854,"Ġforms":3855,"Ġchampionship":3856,"Ġwords":3857,"Ġwearing":3858,"ĠJordan":3859,"Ġoil":3860,"Ġyard":3861,"str":3862,"ĠWilliams":3863,"ĠCreek":3864,"ĠOregon":3865,"Ġbroad":3866,"ĠStanley":3867,"ĠSar":3868,"Ġhorror":3869,"ĠSur":3870,"ĠRecords":3871,"Ġacclaim":3872,"ĠWall":3873,"Ġmarked":3874,"Ġinches":3875,"Ġrebuilt":3876,"Ġrank":3877,"Ġcontinues":3878,"Ġsearch":3879,"friend":3880,"Ġscience":3881,"ĠBC":3882,"Ġ181":3883,"Ġmuseum":3884,"Ġperm":3885,"ĠHel":3886,"ĠRoger":3887,"Ġsegment":3888,"eds":3889,"Ġconcert":3890,"Ġsessions":3891,"ĠNews":3892,"ĠFamily":3893,"Ġchampion":3894,"ĠBeatles":3895,"Åį":3896,"ada":3897,"ĠBruce":3898,"ĠKevin":3899,"Ġterminus":3900,"Ġbank":3901,"ĠParliament":3902,"Ġuses":3903,"Ġeconomic":3904,"Ġfamiliar":3905,"ĠPart":3906,"ronic":3907,"Ġsource":3908,"ĠBristol":3909,"ĠGames":3910,"Ġwickets":3911,"ĠSat":3912,"Ġple":3913,"Ġmathemat":3914,"Ġquality":3915,"Ġchap":3916,"Ġtrav":3917,"ĠVer":3918,"Ġstarting":3919,"Ġconducted":3920,"Ġmix":3921,"ĠBook":3922,"Ġpassengers":3923,"och":3924,"ĠDan":3925,"Ġfictional":3926,"Ġspecific":3927,"ĠPremier":3928,"Ġallowing":3929,"Ġthirty":3930,"Ġfreedom":3931,"udd":3932,"Ġdowntown":3933,"ĠChannel":3934,"ĠSociety":3935,"ĠAss":3936,"Ġansw":3937,"Ġbeat":3938,"light":3939,"ĠRh":3940,"Ġ1942":3941,"ront":3942,"Ġpresence":3943,"ĠWilhelm":3944,"Ġviewers":3945,"Ġur":3946,"Ġdance":3947,"Ġfruit":3948,"Ġsides":3949,"Ġmetres":3950,"Ġbegun":3951,"Ġreplacement":3952,"ĠOs":3953,"borne":3954,"ĠSouthern":3955,"Ġspeech":3956,"Ġmel":3957,"Ġrule":3958,"ĠPlay":3959,"Ġconcl":3960,"Ġmaintain":3961,"ĠPrince":3962,"Ġbound":3963,"ĠClark":3964,"ips":3965,"ĠKorea":3966,"ĠSil":3967,"Ġforeign":3968,"inet":3969,"Ġ47":3970,"ĠLisa":3971,"Ġunusual":3972,"Ġalleged":3973,"Ġflow":3974,"ool":3975,"Ġproperties":3976,"Ġ65":3977,"Ġpeaked":3978,"ĠSwitzerland":3979,"Ġopposite":3980,"Ġattributed":3981,"Ġvolunte":3982,"ĠCaptain":3983,"Ġav":3984,"iter":3985,"atal":3986,"ĠProfess":3987,"Ġbecomes":3988,"ĠMag":3989,"Ġadvance":3990,"ued":3991,"Ġoccasionally":3992,"Ġowned":3993,"Ġthings":3994,"ĠDef":3995,"Ġfounded":3996,"ero":3997,"ĠRobinson":3998,"ication":3999,"ĠLike":4000,"Ġvocal":4001,"Ġbig":4002,"aver":4003,"Ġattend":4004,"Ġportion":4005,"Ġsubspecies":4006,"Ġcavalry":4007,"iser":4008,"illa":4009,"Ġcastle":4010,"Ġscoring":4011,"uses":4012,"ĠTw":4013,"Ġstories":4014,"Ġproperty":4015,"Ġattempts":4016,"ĠBrad":4017,"ĠTelevision":4018,"ĠSimilar":4019,"ĠChief":4020,"Ġcompletion":4021,"iers":4022,"ĠHarrison":4023,"ĠJeff":4024,"Ġfederal":4025,"ĠClass":4026,"ĠEver":4027,"ĠBefore":4028,"Ġaccommod":4029,"Ġactually":4030,"Ġanimals":4031,"ĠNelson":4032,"Ġpredecessor":4033,"Ġglobal":4034,"ĠSwed":4035,"ĠLeslie":4036,"ĠHurricane":4037,"ĠFrancis":4038,"Ġlif":4039,"Ġcollection":4040,"Ġinterpret":4041,"Ġjurisdiction":4042,"ta":4043,"ĠDen":4044,"Ġ52":4045,"ĠTim":4046,"istics":4047,"Ġfeaturing":4048,"ĠOriginally":4049,"Ġwriters":4050,"Ġ46":4051,"Ġillegal":4052,"Ġaboard":4053,"Ġwrite":4054,"Ġ1944":4055,"ĠTemple":4056,"ĠTokyo":4057,"iance":4058,"Ġjournal":4059,"Ġinch":4060,"ĠJonathan":4061,"iding":4062,"Ġneither":4063,"right":4064,"Ġauthors":4065,"Ġcircumstances":4066,"Ġwor":4067,"umber":4068,"ĠWelsh":4069,"mark":4070,"ĠAtlanta":4071,"ĠJerusalem":4072,"omy":4073,"Ġsituation":4074,"Ġspot":4075,"Ġpaid":4076,"Ġdistance":4077,"ĠBridge":4078,"stein":4079,"ĠCommission":4080,"rel":4081,"Ġindependent":4082,"Ġge":4083,"Ġancest":4084,"ĠMod":4085,"ĠBattalion":4086,"iel":4087,"Ġfigure":4088,"ĠMax":4089,"Ġshare":4090,"Ġchemical":4091,"Ġpicture":4092,"ĠForm":4093,"Ġactor":4094,"Ġ64":4095,"Ġinfrastructure":4096,"ĠVan":4097,"Ġacting":4098,"Ġdivided":4099,"idence":4100,"Ġ43":4101,"za":4102,"Ġmind":4103,"ĠBat":4104,"Ġonto":4105,"ĠLuc":4106,"Ġban":4107,"ĠLine":4108,"Ġlink":4109,"ĠNetherlands":4110,"Ġsimultaneously":4111,"ĠParis":4112,"lers":4113,"add":4114,"Ġfunction":4115,"Ġpiece":4116,"Ġstretch":4117,"ĠSeries":4118,"ĠDun":4119,"Ġreform":4120,"Ġtyphoon":4121,"Ġselling":4122,"Ġ44":4123,"astic":4124,"Ġpowerful":4125,"athedral":4126,"iced":4127,"Ġrating":4128,"Ġbuy":4129,"Ġremember":4130,"ĠBBC":4131,"istry":4132,"Ġplays":4133,"Ġlot":4134,"Ġtoday":4135,"Ġboy":4136,"Ġbroke":4137,"ĠPop":4138,"ĠJews":4139,"ĠMid":4140,"Ġdelayed":4141,"Ġera":4142,"ĠMacArthur":4143,"Ġwalk":4144,"ĠJacob":4145,"Ġactions":4146,"ĠUlt":4147,"Ġinform":4148,"Ġtrial":4149,"Ġotherwise":4150,"Ġanniversary":4151,"Ġinjuries":4152,"Ġwa":4153,"Ġsquare":4154,"road":4155,"aga":4156,"uge":4157,"Ġsatisf":4158,"Ġreveal":4159,"Ġwall":4160,"aving":4161,"Ġpraise":4162,"Ġpenalty":4163,"ĠDar":4164,"Ġlog":4165,"ĠIraq":4166,"ube":4167,"Ġblue":4168,"ĠAth":4169,"Ġsought":4170,"Ġ1920":4171,"Ġ1945":4172,"Ġweapon":4173,"Ġscale":4174,"Ġsociety":4175,"ĠLee":4176,"Ġpan":4177,"ĠHor":4178,"Ġminim":4179,"ĠBirmingham":4180,"Ġmainly":4181,"Ġwrong":4182,"fort":4183,"Ġdesignated":4184,"Ġ1941":4185,"Ġwinter":4186,"Ġofficials":4187,"Ġaccompl":4188,"ala":4189,"Ġ150":4190,"Ġtransl":4191,"eel":4192,"Ġactivity":4193,"Ġcombined":4194,"Ġsay":4195,"ĠWay":4196,"Ġinfluenced":4197,"ĠPrinc":4198,"olved":4199,"Ġlik":4200,"ĠThompson":4201,"AS":4202,"Ġtemporary":4203,"ĠItaly":4204,"ĠPhoenix":4205,"Ġcalling":4206,"ĠSk":4207,"ĠIslam":4208,"Ġalongside":4209,"ĠPet":4210,"Ġnortheast":4211,"ailing":4212,"Ġseconds":4213,"ider":4214,"raw":4215,"ĠDev":4216,"Ġadaptation":4217,"raf":4218,"Ġconvinced":4219,"ĠAmericans":4220,"Ġsources":4221,"ĠNFL":4222,"ĠVirgin":4223,"ĠMadagascar":4224,"Ġresources":4225,"ĠKelly":4226,"Ġmedieval":4227,"Ġscheme":4228,"iro":4229,"Ġice":4230,"Ġrailway":4231,"ĠJo":4232,"Ġcarbon":4233,"Ġoverwhel":4234,"Ġtheory":4235,"Ġpath":4236,"Ġrecent":4237,"Ġgained":4238,"Ġnominated":4239,"ĠOntario":4240,"Ġelectric":4241,"ĠWind":4242,"Ġcontent":4243,"Ġartists":4244,"Ġtechniques":4245,"ĠConstantinople":4246,"ĠRegiment":4247,"Ġencour":4248,"Ġwidely":4249,"Ġnaval":4250,"Ġninth":4251,"Ġappropri":4252,"Ġsystems":4253,"Ġweather":4254,"Ġpromoted":4255,"ĠEll":4256,"ĠCa":4257,"ĠMiddle":4258,"ĠSub":4259,"encies":4260,"Ġund":4261,"Ġpassenger":4262,"arden":4263,"Ġreaching":4264,"Ġmat":4265,"Ġproved":4266,"Ġresults":4267,"Ġpassing":4268,"Ġhol":4269,"Ġnews":4270,"Ġalbums":4271,"iated":4272,"Ġpush":4273,"ĠRec":4274,"ĠGood":4275,"Ġexplained":4276,"Ġsubmarine":4277,"ĠEnvironment":4278,"Ġgreatest":4279,"ĠSa":4280,"ĠNapoleon":4281,"omet":4282,"Ġinvasion":4283,"Ġraid":4284,"Ġ1989":4285,"ĠRay":4286,"ĠNichol":4287,"Ġcoming":4288,"ĠUEFA":4289,"Ġcharge":4290,"ector":4291,"Ġpeace":4292,"Ġdeemed":4293,"Ġsixth":4294,"ĠTer":4295,"works":4296,"Ġyour":4297,"Ġnorthwest":4298,"Ġsynthes":4299,"Ġaggressive":4300,"Ġcounty":4301,"Ġmagn":4302,"Ġshortly":4303,"ĠAv":4304,"Ġ1943":4305,"ĠVancouver":4306,"ĠLand":4307,"Ġretirement":4308,"Ġgreen":4309,"Ġce":4310,"Ġserve":4311,"Ġtemperatures":4312,"Ġcausing":4313,"put":4314,"Ġsays":4315,"ĠCharl":4316,"yle":4317,"Ġ51":4318,"Ġexpressed":4319,"Ġreception":4320,"orter":4321,"ĠEducation":4322,"ĠVol":4323,"Ġannouncement":4324,"ĠSant":4325,"ĠVictoria":4326,"ĠPakistan":4327,"ners":4328,"Ġkingdom":4329,"uction":4330,"Ġfantasy":4331,"ano":4332,"oper":4333,"ĠChamberlain":4334,"ĠHouston":4335,"Ġemot":4336,"itable":4337,"ĠPortuguese":4338,"Ġcy":4339,"ĠValley":4340,"Ġrescue":4341,"Ġcities":4342,"Ġsharp":4343,"Ġseasons":4344,"Ġtalk":4345,"Ġappearances":4346,"Ġsense":4347,"ancing":4348,"Ġhypothes":4349,"ĠLight":4350,"Ġsexual":4351,"Ġhospital":4352,"Ġbiggest":4353,"onn":4354,"Ġrequire":4355,"AA":4356,"Ġgraphics":4357,"Ġchairman":4358,"eed":4359,"Ġpun":4360,"Ġphysical":4361,"ĠRoberts":4362,"ĠSimpson":4363,"Ġidentified":4364,"Ġhands":4365,"Ġpal":4366,"ĠLive":4367,"Ġsudden":4368,"ĠThough":4369,"Ġtrue":4370,"Ġtells":4371,"Ġoffer":4372,"ĠRom":4373,"Ġkg":4374,"unction":4375,"ĠCommun":4376,"icial":4377,"Ġloyal":4378,"Ġearth":4379,"ĠHampshire":4380,"ancy":4381,"ĠShow":4382,"Ġgas":4383,"Ġrepresented":4384,"ĠEdinburgh":4385,"ĠRAAF":4386,"Ġthunderstorm":4387,"ĠFootball":4388,"Ġahead":4389,"ĠGil":4390,"ĠCorporation":4391,"ĠSocial":4392,"ĠMen":4393,"ĠJul":4394,"ios":4395,"ĠUpon":4396,"Ġop":4397,"gu":4398,"Ġstyles":4399,"ĠAnthony":4400,"Ġdefense":4401,"Ġstudent":4402,"Ġquestions":4403,"Ġalone":4404,"Ġimage":4405,"Ġmoderate":4406,"Ġveter":4407,"Ġstudies":4408,"Ġofficially":4409,"Ġfestival":4410,"Ġmolec":4411,"Ġsiege":4412,"Ġinfluential":4413,"ola":4414,"ĠStud":4415,"cher":4416,"Ġdistrict":4417,"tr":4418,"Ġexecutive":4419,"otype":4420,"ĠAlbert":4421,"Ġnovels":4422,"ĠGibraltar":4423,"Ġnarrative":4424,"Ġdebuted":4425,"ĠBre":4426,"Ġprominent":4427,"Ġcapture":4428,"ging":4429,"Ġpack":4430,"ĠOp":4431,"ĠCincinnati":4432,"Ġconsisted":4433,"ĠÃĨthel":4434,"Ġinjury":4435,"Ġfired":4436,"Ġorganization":4437,"hib":4438,"ĠAuthor":4439,"ĠTop":4440,"uro":4441,"ĠLloyd":4442,"ĠGal":4443,"ockey":4444,"Ġstone":4445,"Ġpregn":4446,"Ġmatter":4447,"Ġring":4448,"Ġpattern":4449,"ĠNetwork":4450,"Ġdefend":4451,"uls":4452,"Ġaired":4453,"ĠRam":4454,"Ġfigures":4455,"Ġsoftware":4456,"ĠBond":4457,"Ġgrowth":4458,"rical":4459,"Ġprefer":4460,"Ġdoing":4461,"Ġreturning":4462,"Ġvill":4463,"ĠJesus":4464,"Ġpoet":4465,"ĠStewart":4466,"Ġhunting":4467,"Ġweight":4468,"lines":4469,"Ġrain":4470,"Ġproclaim":4471,"Ġacoustic":4472,"Ġlaid":4473,"Ġleaders":4474,"Ġchannel":4475,"rid":4476,"Ġstep":4477,"Ġfloor":4478,"ĠGo":4479,"Ġaffected":4480,"Ġocean":4481,"ĠClinton":4482,"ĠXbox":4483,"Ġpieces":4484,"Ġuniform":4485,"Ġ600":4486,"Ġtun":4487,"Ġreveals":4488,"Ġnavig":4489,"Ġtal":4490,"Ġpri":4491,"ĠStorm":4492,"Ġmaintained":4493,"ĠNevertheless":4494,"Ġaccompanying":4495,"ĠPres":4496,"Ġla":4497,"Ġrang":4498,"ĠHard":4499,"ifying":4500,"Ġvisited":4501,"Ġhere":4502,"Ġfinish":4503,"Ġcomes":4504,"Ġrespect":4505,"ĠQueensland":4506,"Ġcriticized":4507,"ĠMarsh":4508,"stone":4509,"more":4510,"Ġactivities":4511,"Ġlocomot":4512,"ĠExpress":4513,"ĠAsh":4514,"Ġopponents":4515,"Ġthereafter":4516,"andy":4517,"ĠTurkish":4518,"ĠChar":4519,"Ġreign":4520,"ivity":4521,"eller":4522,"Ġtoward":4523,"ocked":4524,"Ġdoct":4525,"Ġsingles":4526,"ote":4527,"Ġtrees":4528,"ĠLennon":4529,"Ġaim":4530,"Ġreference":4531,"ĠScottish":4532,"ĠSn":4533,"Ġformation":4534,"Ġ53":4535,"Ġbit":4536,"Ġ1987":4537,"ĠFar":4538,"Ġsetting":4539,"Ġmedical":4540,"Ġterritory":4541,"Ġdog":4542,"ĠWrit":4543,"Ġcommemor":4544,"ĠDam":4545,"Ġtrying":4546,"ĠGovernment":4547,"Ġ1988":4548,"ico":4549,"Ġstations":4550,"ĠRod":4551,"Ġiron":4552,"Ġapart":4553,"Ġgod":4554,"Ġexam":4555,"Ġdoll":4556,"ĠField":4557,"ĠGovernor":4558,"Ġclaims":4559,"Ġsubstantial":4560,"Ġbul":4561,"aming":4562,"ĠHome":4563,"bit":4564,"Ġcell":4565,"Ġ85":4566,"Ġhistorian":4567,"ĠGuard":4568,"Ġbal":4569,"Ġcatch":4570,"Ġterr":4571,"Ġaccident":4572,"Ġresidential":4573,"Ġbass":4574,"ester":4575,"Ġvalue":4576,"Ġtherefore":4577,"vin":4578,"ĠInitially":4579,"ĠDuke":4580,"Ġtreatment":4581,"Ġuniversity":4582,"Ġguest":4583,"ĠFoundation":4584,"min":4585,"Ġutil":4586,"aved":4587,"Ġsens":4588,"ĠHa":4589,"Ġtwice":4590,"Ġopt":4591,"Ġcrash":4592,"Ġtaught":4593,"Ġfrequently":4594,"ĠPolish":4595,"Ġafternoon":4596,"ĠMel":4597,"ĠTor":4598,"Ġreports":4599,"izes":4600,"ĠMoscow":4601,"ordin":4602,"Ġmicro":4603,"Ġleaves":4604,"Ġvideos":4605,"azz":4606,"ĠWrestling":4607,"Ġment":4608,"ĠSenate":4609,"Ġremark":4610,"ĠCorn":4611,"Ġteeth":4612,"Ġlabel":4613,"Ġunderstand":4614,"Ġisolated":4615,"Ġfaced":4616,"che":4617,"Ġcriminal":4618,"ĠMD":4619,"Ġwalls":4620,"Ġfear":4621,"Ġfeed":4622,"Ġfollows":4623,"Ġvessel":4624,"Ġdiameter":4625,"Ġbillion":4626,"Ġsleep":4627,"Ġoperated":4628,"Ġgrew":4629,"Ġsurrounding":4630,"Ġbridges":4631,"Ġplanet":4632,"Ġwithdrew":4633,"ĠAndrew":4634,"Ġjunior":4635,"ĠRelease":4636,"Ġfif":4637,"Ġcontained":4638,"Ġcondition":4639,"Ġsafe":4640,"ĠNight":4641,"Ġeye":4642,"ĠJud":4643,"Ġcolor":4644,"Ġfan":4645,"ĠHon":4646,"Ġcoal":4647,"pton":4648,"Ġnormally":4649,"Ġupgraded":4650,"ĠGiants":4651,"Ġtypically":4652,"ĠAllied":4653,"key":4654,"Ġspecimens":4655,"Ġ54":4656,"Ġpasses":4657,"ager":4658,"Ġmaster":4659,"ĠSeattle":4660,"ĠWilson":4661,"here":4662,"Ġfuel":4663,"Ã¨":4664,"Ġdraft":4665,"isters":4666,"Ġescape":4667,"ĠJTWC":4668,"ĠMah":4669,"ĠCy":4670,"Ġelement":4671,"Ġcrisis":4672,"Ġapprec":4673,"iece":4674,"Ġeditor":4675,"Ġlives":4676,"Ġsovereign":4677,"Ġ1986":4678,"Ġorganizations":4679,"Ġarms":4680,"ĠBart":4681,"ĠMich":4682,"Ġserving":4683,"ĠHuman":4684,"Ġnothing":4685,"Ġturrets":4686,"ĠAlexander":4687,"din":4688,"Ġauthority":4689,"Ġchose":4690,"ĠMike":4691,"ella":4692,"Ġopposed":4693,"Ġworkers":4694,"Ġvote":4695,"ĠTreaty":4696,"illy":4697,"ĠIowa":4698,"ĠEach":4699,"Ġnewly":4700,"Ġ95":4701,"ĠJoe":4702,"Ġnative":4703,"Ġ56":4704,"uit":4705,"ĠOf":4706,"ĠSecurity":4707,"Ġexperiments":4708,"Ġ97":4709,"Ġimprov":4710,"Ġparticipated":4711,"Ġuncertain":4712,"Ġgrowing":4713,"Ġmainstream":4714,"ĠPers":4715,"ĠAlabama":4716,"Ġpolicies":4717,"Ġfair":4718,"ĠCastle":4719,"Ġbrown":4720,"ãĤ":4721,"bes":4722,"ĠÎ":4723,"Ġnewspaper":4724,"Ġextra":4725,"ecting":4726,"Ġanticip":4727,"Ġinterpreted":4728,"ona":4729,"Ġwild":4730,"Ġlosing":4731,"Ã¤":4732,"ĠLiber":4733,"Ġfilming":4734,"ĠLawrence":4735,"Ġheard":4736,"Ġcou":4737,"Ġdownload":4738,"Ġcouncil":4739,"icles":4740,"ĠCount":4741,"Ġoffensive":4742,"anda":4743,"Ġopposition":4744,"Ġsilver":4745,"room":4746,"Ġfiction":4747,"Ġextreme":4748,"Ġfighters":4749,"iot":4750,"ables":4751,"Ġguard":4752,"ĠWhat":4753,"Ġexpress":4754,"Ġmultiplayer":4755,"ĠVen":4756,"Ġbasis":4757,"ĠIslands":4758,"Ġsequence":4759,"Ġactors":4760,"lee":4761,"Ġsmooth":4762,"ĠCard":4763,"ĠRet":4764,"Ġends":4765,"Ġ177":4766,"Ġexceed":4767,"Ġche":4768,"ĠChelsea":4769,"Ġsquadron":4770,"ĠGall":4771,"ĠBlue":4772,"Ġven":4773,"Ġprin":4774,"Ġcompar":4775,"ĠSound":4776,"ĠIrish":4777,"Ġenvironments":4778,"Ġrival":4779,"ĠDescription":4780,"ĠSS":4781,"Ġunlikely":4782,"ora":4783,"ipp":4784,"Ġneighborhood":4785,"omic":4786,"ĠGrammy":4787,"ĠQuebec":4788,"ĠBab":4789,"ima":4790,"Ġkick":4791,"ĠBeginning":4792,"mond":4793,"ĠNazi":4794,"Ġhonor":4795,"ura":4796,"Ġflying":4797,"board":4798,"Ġphenomenon":4799,"gy":4800,"Ġelev":4801,"Ġinaug":4802,"ĠHarry":4803,"Ġcreating":4804,"onent":4805,"ocated":4806,"Ġhousing":4807,"ker":4808,"Ġsports":4809,"ĠSpain":4810,"Ġfilmed":4811,"Ġregarded":4812,"Ġhomes":4813,"Ġvulnerable":4814,"ĠBelgium":4815,"tered":4816,"Ġcriticism":4817,"Ġtribute":4818,"ĠDiego":4819,"Ġpartnership":4820,"Ġcollapse":4821,"Ġprotagonist":4822,"orship":4823,"Ġ178":4824,"Ġincident":4825,"Ġspect":4826,"Ġ76":4827,"ĠHeadquarters":4828,"ĠGre":4829,"Ġspring":4830,"Ġmoments":4831,"ĠCoast":4832,"Ġmis":4833,"akers":4834,"Ġtrend":4835,"ĠChildren":4836,"Ġinteract":4837,"jo":4838,"Ġassemb":4839,"Ġmeasure":4840,"Ġunexpected":4841,"Ġ1939":4842,"Ġpossibly":4843,"Ġboat":4844,"Ġhistorical":4845,"Ġappointment":4846,"Ġnarrow":4847,"Ġmut":4848,"ĠChristopher":4849,"ĠCD":4850,"greg":4851,"ĠFIFA":4852,"Ġvictories":4853,"Ġachieved":4854,"Ġmob":4855,"Ġeliminated":4856,"Ġpaintings":4857,"Ġbelieve":4858,"ifications":4859,"Ġstrike":4860,"Ġconserv":4861,"iny":4862,"ĠMuhammad":4863,"ĠElect":4864,"Ġcru":4865,"Ġroles":4866,"iner":4867,"Ġinnov":4868,"Ġsquadrons":4869,"Ġkilling":4870,"ogue":4871,"Ġretired":4872,"ĠBroad":4873,"Ġsuicide":4874,"set":4875,"ĠAlfred":4876,"Ġfellow":4877,"Ġoccasions":4878,"ĠMir":4879,"Ġhair":4880,"Ġimag":4881,"iana":4882,"Ġdrive":4883,"Ġsupply":4884,"kins":4885,"icket":4886,"ten":4887,"ols":4888,"Ġhero":4889,"ĠMat":4890,"ĠWalker":4891,"ĠInterstate":4892,"Ġcryst":4893,"Ġbriefly":4894,"Ġ61":4895,"war":4896,"Ġ1968":4897,"Ġ1985":4898,"Ġtask":4899,"ĠDue":4900,"ba":4901,"Ġeffective":4902,"Ġtree":4903,"Ġapplic":4904,"Ġarmed":4905,"Ġpoll":4906,"Ġ66":4907,"ington":4908,"Ġpreserved":4909,"Ġschedule":4910,"Ġreceive":4911,"Ġadministration":4912,"Ġnecessary":4913,"Ġpersonnel":4914,"Ġroads":4915,"ĠAre":4916,"Ġcateg":4917,"Ġtornad":4918,"ĠBuffalo":4919,"Ġtable":4920,"ĠPerson":4921,"ĠLuftwaffe":4922,"ĠRepublican":4923,"ĠCub":4924,"rog":4925,"Ġgross":4926,"Ġpet":4927,"Ġimproved":4928,"Ġemperor":4929,"Ġleadership":4930,"Ġpilots":4931,"ĠKansas":4932,"worth":4933,"Ġinterchange":4934,"ĠAtt":4935,"Ġsurvivors":4936,"Ġextensive":4937,"ĠSymphony":4938,"Ġdata":4939,"ĠIndustry":4940,"Ġneutral":4941,"oured":4942,"ĠLind":4943,"Ġturns":4944,"ĠHind":4945,"Ġlands":4946,"Ġplants":4947,"Ġimpossible":4948,"Ġha":4949,"Ġdam":4950,"ĠAguilera":4951,"Ġalignment":4952,"Ġdefin":4953,"ĠBoard":4954,"Ġseat":4955,"Ġlanding":4956,"Ġdescribes":4957,"Ġexpanded":4958,"Ġbattlecruisers":4959,"Ġsolo":4960,"Ġpursu":4961,"Ġconcrete":4962,"ĠTra":4963,"Ġsuccessfully":4964,"Ġchoice":4965,"Ġhelicop":4966,"Ġmile":4967,"ii":4968,"Ġunp":4969,"iday":4970,"ĠWisconsin":4971,"Ġrecon":4972,"Ġcrossing":4973,"ĠBuilding":4974,"osp":4975,"Ġdidn":4976,"ĠPoint":4977,"ĠDigital":4978,"eman":4979,"mann":4980,"Ġanimal":4981,"Ġ1984":4982,"ram":4983,"ĠBol":4984,"Ġexplos":4985,"Ġfought":4986,"ĠProt":4987,"Ġorganized":4988,"Ġ800":4989,"Ġprospect":4990,"Ġvehicles":4991,"Ġscholar":4992,"Ġcommissioned":4993,"vis":4994,"Ġsuggests":4995,"ĠBor":4996,"ext":4997,"Ġroof":4998,"Ġsymptoms":4999,"ĠHarv":5000,"Ġacquired":5001,"ĠExecutive":5002,"ĠEven":5003,"Ġhorizontal":5004,"Ġplaces":5005,"ava":5006,"Ġcloth":5007,"ĠEnd":5008,"Ġdrama":5009,"Ġrow":5010,"ĠGeorgia":5011,"Ġcreation":5012,"Ġsympath":5013,"ĠMov":5014,"Ġdispl":5015,"Ġconstitu":5016,"arn":5017,"Ġtypes":5018,"ĠDo":5019,"Ġ57":5020,"Ġgives":5021,"Ġhall":5022,"Ġarticle":5023,"ĠCampbell":5024,"ĠCirc":5025,"onymous":5026,"acks":5027,"Ġwave":5028,"Ġ120":5029,"roll":5030,"umes":5031,"ĠSR":5032,"ĠMontgomery":5033,"ĠRel":5034,"ĠRich":5035,"Ġkil":5036,"Ġauthorities":5037,"Ġcontain":5038,"Ġimperial":5039,"Ġfunctions":5040,"ĠChamp":5041,"Ġrestaurant":5042,"ĠAc":5043,"Ġ1967":5044,"Ġcommonly":5045,"Ġdetermined":5046,"Ġislands":5047,"Ġgenus":5048,"Ġaudiences":5049,"ĠEarl":5050,"outs":5051,"Ġunderground":5052,"Ġroll":5053,"Ġelabor":5054,"ĠRussia":5055,"Ġrecently":5056,"ĠStevens":5057,"amed":5058,"Ġstreet":5059,"ĠWars":5060,"oted":5061,"Ġlooking":5062,"Ġcontrolled":5063,"20":5064,"Ġrear":5065,"Ġtargets":5066,"Ġsets":5067,"Ġdepict":5068,"ĠAmong":5069,"ration":5070,"ili":5071,"ĠEp":5072,"Ġfuneral":5073,"ĠMontreal":5074,"inity":5075,"rupt":5076,"Ġfinds":5077,"Ġdrop":5078,"pped":5079,"ato":5080,"Ġstanding":5081,"Ġcompilation":5082,"Ġadopt":5083,"Ġregistered":5084,"ille":5085,"ĠDepression":5086,"Ġconscious":5087,"ĠPhilippines":5088,"ĠDec":5089,"Ġwarships":5090,"Ġsinging":5091,"ĠHay":5092,"Ġbattalion":5093,"ĠEs":5094,"Ġreflect":5095,"ĠPrime":5096,"wick":5097,"arts":5098,"Ġunique":5099,"Ġbranch":5100,"Ġrepresents":5101,"Ġentertainment":5102,"ĠKirk":5103,"Ġobs":5104,"agement":5105,"Ġheight":5106,"ĠChap":5107,"Ġcontaining":5108,"Ġcultural":5109,"ĠBad":5110,"Ġharm":5111,"Ġentirely":5112,"ĠCommand":5113,"water":5114,"Ġsort":5115,"ĠNATO":5116,"zer":5117,"Ġdivers":5118,"rad":5119,"Ġmist":5120,"illing":5121,"Ġcontributed":5122,"ĠAsia":5123,"ĠPot":5124,"Ġvelocity":5125,"Ġthemes":5126,"agan":5127,"ĠGraham":5128,"rove":5129,"Ġyounger":5130,"ms":5131,"Ġtry":5132,"Ġprovides":5133,"Ġpreparation":5134,"ĠCzech":5135,"emin":5136,"Ġmargin":5137,"ih":5138,"Ġflooding":5139,"ĠLieutenant":5140,"elle":5141,"ĠGulf":5142,"Ġ1983":5143,"Ġnucle":5144,"Ġmouth":5145,"Ġ58":5146,"Ġ74":5147,"Ġawards":5148,"ĠMot":5149,"Ġpurchased":5150,"Ġconvers":5151,"Ġarrival":5152,"ĠDark":5153,"Ġdefensive":5154,"awn":5155,"Ġresemb":5156,"ologist":5157,"ĠBas":5158,"Ġthing":5159,"ĠOrder":5160,"Ġceremony":5161,"Ġabandon":5162,"ented":5163,"Ġquite":5164,"Ġ1964":5165,"Ã¡n":5166,"Ġgather":5167,"Ġcancelled":5168,"van":5169,"Ġworth":5170,"ĠSix":5171,"ĠBul":5172,"Ġ1969":5173,"ĠMitchell":5174,"Ġrecommend":5175,"Ġlocations":5176,"Ġexisting":5177,"Ġpulled":5178,"Ġescaped":5179,"Ġdimens":5180,"Ġperforming":5181,"Ġdemand":5182,"ĠOffice":5183,"Ġtim":5184,"wall":5185,"Ġdramatic":5186,"Ġrequest":5187,"rated":5188,"aint":5189,"ĠHeavyweight":5190,"Ġtele":5191,"Ġdeck":5192,"ingly":5193,"Ġintensity":5194,"ĠKey":5195,"Ġoccupied":5196,"Ġnor":5197,"Ġ1914":5198,"ĠBal":5199,"Ġwhy":5200,"ulate":5201,"ĠVe":5202,"Ġ1918":5203,"ĠMart":5204,"Ġperspective":5205,"ĠFre":5206,"Ġmounted":5207,"Ġcargo":5208,"ĠSaturday":5209,"inger":5210,"Ġnob":5211,"Ġ1982":5212,"ĠDylan":5213,"Ġide":5214,"Ġfix":5215,"ĠLo":5216,"Ġnickname":5217,"ibility":5218,"Ġplayoffs":5219,"Ġ1971":5220,"ef":5221,"ĠBrook":5222,"Ġrecru":5223,"Ġremnants":5224,"Ġstore":5225,"ife":5226,"Ġparent":5227,"ĠSteve":5228,"Ġclosely":5229,"ses":5230,"Ġconsists":5231,"Ġcurrently":5232,"ĠMiller":5233,"Ġfalse":5234,"Ġ1966":5235,"Ġindigenous":5236,"Ġtail":5237,"ĠAnderson":5238,"Ġbus":5239,"Ġ1972":5240,"ĠUr":5241,"Ġ1979":5242,"Ġsimple":5243,"Ġseverely":5244,"Ġinstitutions":5245,"ua":5246,"Ġ59":5247,"ĠKenneth":5248,"ĠOnce":5249,"Ġfacilities":5250,"Ġsupporting":5251,"ĠPhil":5252,"ocr":5253,"Ġsurvey":5254,"ĠMalcolm":5255,"yer":5256,"ĠGrant":5257,"ĠOlympic":5258,"Ġdrawn":5259,"ĠBureau":5260,"Ġtrains":5261,"Ġbelong":5262,"ĠMeteorological":5263,"pert":5264,"Ġmean":5265,"Ġprotection":5266,"mouth":5267,"Ġboats":5268,"ĠBrian":5269,"Ġrated":5270,"Ġbronze":5271,"Ġrestricted":5272,"ĠOrchestra":5273,"Ġrise":5274,"ĠBoulevard":5275,"Ġescort":5276,"Ġrot":5277,"ĠSher":5278,"Ġdefined":5279,"Ġwrest":5280,"Ġdynam":5281,"pir":5282,"ias":5283,"ĠSy":5284,"Ġdreadn":5285,"ĠSus":5286,"iger":5287,"Ġ1965":5288,"Ġdecre":5289,"Ġregions":5290,"awa":5291,"Ġprotected":5292,"Ġarrive":5293,"Ġcalls":5294,"ĠMurphy":5295,"Ġ#":5296,"ĠWrestleMania":5297,"Ġcomic":5298,"Ġmotion":5299,"Ġthrow":5300,"Ġstructures":5301,"Ġmaneu":5302,"Ġlap":5303,"Ġaid":5304,"ader":5305,"ĠGa":5306,"Ġshark":5307,"Ġmotor":5308,"sey":5309,"Ġobvious":5310,"Ġfocused":5311,"Ġopportunity":5312,"Ġ99":5313,"Ġ1975":5314,"Ġengaged":5315,"Ġreceiving":5316,"ĠBell":5317,"Ġeyes":5318,"Ġintellectual":5319,"ira":5320,"Ġunf":5321,"Ġnotable":5322,"Ã¸":5323,"Ġlabor":5324,"ĠJr":5325,"ĠWater":5326,"Ġreven":5327,"ĠPress":5328,"ĠRu":5329,"Ġexperienced":5330,"Ġdry":5331,"ĠSummer":5332,"Ġeduc":5333,"ĠSerb":5334,"Ġprotein":5335,"Ġproviding":5336,"Ġholding":5337,"ĠFederation":5338,"Ġsatellite":5339,"Ġautobi":5340,"Ġvisual":5341,"Ġmountain":5342,"ĠOnly":5343,"Ġ1974":5344,"Ġundertaken":5345,"ĠDelaware":5346,"Ġsoutheast":5347,"Ġwreck":5348,"ĠOriginal":5349,"Ġhired":5350,"Ġcharts":5351,"Ġsport":5352,"Ġstorage":5353,"Ġvir":5354,"oral":5355,"Ġviewed":5356,"oses":5357,"ĠBarb":5358,"sequently":5359,"ĠWild":5360,"ĠOppenheimer":5361,"ĠLithuan":5362,"ras":5363,"Ġliber":5364,"Ġ62":5365,"Ġrapidly":5366,"Ġrecognized":5367,"Ġ1973":5368,"Ġvolume":5369,"Ġtransform":5370,"Ġvac":5371,"Ġcarriers":5372,"Ġjoint":5373,"Ġrush":5374,"Ġvertical":5375,"Ġsurgery":5376,"ĠDemocratic":5377,"ĠReview":5378,"ĠBrit":5379,"Ġsites":5380,"Ġ63":5381,"ĠFe":5382,"Ġgain":5383,"Ġ77":5384,"Ġadventure":5385,"Ġexcellent":5386,"Ġshared":5387,"ĠJean":5388,"ĠUN":5389,"Ġ73":5390,"oz":5391,"ĠDown":5392,"Ġpublication":5393,"Ġpredominantly":5394,"rin":5395,"Ġcart":5396,"Ġpretty":5397,"Ġtemperature":5398,"iat":5399,"Ġ1976":5400,"Ġperceived":5401,"ications":5402,"ĠMas":5403,"Ġeconomy":5404,"verse":5405,"zen":5406,"ĠRome":5407,"Ġdeveloping":5408,"ĠBank":5409,"Ġconstant":5410,"Ġsteel":5411,"ko":5412,"oto":5413,"Ġreaction":5414,"Ġgover":5415,"Ġedge":5416,"ĠBernard":5417,"itors":5418,"Ġbattalions":5419,"Ġbat":5420,"ĠHun":5421,"Ġunc":5422,"hab":5423,"ĠCur":5424,"ĠAbbey":5425,"ĠCla":5426,"ĠLady":5427,"Ġlic":5428,"ĠNixon":5429,"Ġrac":5430,"Ġapproved":5431,"ĠBaseball":5432,"Ġchance":5433,"Ġsecondary":5434,"ĠRoss":5435,"ĠGreg":5436,"Ġwhilst":5437,"ĠTen":5438,"Ġinvest":5439,"ĠSand":5440,"Ġvon":5441,"ĠWat":5442,"Ġchamber":5443,"ĠSpongeBob":5444,"Ġmyth":5445,"Ġlosses":5446,"apolis":5447,"Ġcontest":5448,"Ġprepared":5449,"Ġbelief":5450,"ĠCampaign":5451,"Ġenl":5452,"Ġletters":5453,"ĠDaily":5454,"Ġsignificantly":5455,"ĠArnold":5456,"Ġexact":5457,"aka":5458,"Ġsave":5459,"Ġcard":5460,"Ġtransfer":5461,"bour":5462,"ĠJenn":5463,"Ġ250":5464,"anna":5465,"Ġmus":5466,"Ġknew":5467,"Ġgoes":5468,"Ġliterature":5469,"Ġinstruct":5470,"Ġheads":5471,"Ġsubsid":5472,"Ġtrou":5473,"Ġsouthwest":5474,"Ġcat":5475,"Ġactress":5476,"Ġtechnology":5477,"Ġ67":5478,"ĠOb":5479,"apes":5480,"Ġbands":5481,"ĠSchumacher":5482,"ĠLar":5483,"ients":5484,"apped":5485,"Ġnote":5486,"ĠInternet":5487,"ipe":5488,"Ġcab":5489,"Ġcool":5490,"udes":5491,"Ġmer":5492,"ĠMain":5493,"Ġpainting":5494,"Ġlb":5495,"Ġanything":5496,"Ġcars":5497,"Ġpione":5498,"Ġbehaviour":5499,"Ġprojects":5500,"Ġsand":5501,"ĠRa":5502,"Ġbrothers":5503,"ĠKen":5504,"Ġgameplay":5505,"Ġcore":5506,"ĠBra":5507,"ĠNick":5508,"Ġequal":5509,"ĠMcKinley":5510,"ĠYankees":5511,"Ġguilty":5512,"ĠFair":5513,"Ġshape":5514,"Ġstoryline":5515,"kes":5516,"Ġdropping":5517,"Ġrules":5518,"Ġtank":5519,"ogen":5520,"ĠImpact":5521,"Ġign":5522,"Ġemployed":5523,"ĠIV":5524,"ĠPlan":5525,"Ġoblig":5526,"bound":5527,"iest":5528,"avel":5529,"Ġtowns":5530,"Ġdaily":5531,"ĠStation":5532,"Ġshall":5533,"Ġinjured":5534,"ĠBuddh":5535,"Ġ1946":5536,"ĠSpring":5537,"Ġdemolished":5538,"Ġwatched":5539,"inder":5540,"Ġ1981":5541,"ĠEisenhower":5542,"Ġagent":5543,"ĠPearl":5544,"ĠRailroad":5545,"Ġrob":5546,"Ġpopularity":5547,"ĠEventually":5548,"Ġcomposition":5549,"uch":5550,"ĠUniversal":5551,"Ġ96":5552,"iy":5553,"oir":5554,"ĠRon":5555,"Ġinters":5556,"Ġadding":5557,"Ġenjoyed":5558,"Ġcold":5559,"Ġgetting":5560,"Ġpursue":5561,"ĠMcCartney":5562,"ĠHubbard":5563,"Ġdeclined":5564,"Ġcalc":5565,"ĠNorway":5566,"Ġbonus":5567,"ĠGlasgow":5568,"Ġcompris":5569,"Ġ68":5570,"rif":5571,"ĠKa":5572,"da":5573,"ĠBangladesh":5574,"Ġ72":5575,"Ġconnected":5576,"Ġestate":5577,"una":5578,"ĠKent":5579,"ĠHudson":5580,"Ġlov":5581,"Ġbed":5582,"Ġsun":5583,"ĠPubl":5584,"ĠGuadalcanal":5585,"Ġdrew":5586,"Ġ1917":5587,"ĠPsych":5588,"Ġpoem":5589,"Ġregarding":5590,"ĠOlympics":5591,"ĠReynolds":5592,"Ġstages":5593,"ĠGolden":5594,"Ġodd":5595,"Ġviews":5596,"Ġuns":5597,"Ġpublish":5598,"ĠTodd":5599,"leton":5600,"ĠDream":5601,"ĠRachel":5602,"ules":5603,"iling":5604,"ĠPict":5605,"inking":5606,"Ġallows":5607,"Ġalternative":5608,"va":5609,"ela":5610,"ĠBosn":5611,"Ġheaded":5612,"Ġ87":5613,"Ġoverseas":5614,"ĠCeltic":5615,"Ġdepth":5616,"amond":5617,"Ġbaby":5618,"Ġdeterior":5619,"aling":5620,"ĠPass":5621,"Ġmissing":5622,"Ġcited":5623,"Ġincreasingly":5624,"osis":5625,"Ġtra":5626,"Ġstream":5627,"Ġstadium":5628,"Ġapproached":5629,"cription":5630,"Ġ160":5631,"Ġturning":5632,"ĠAirport":5633,"ĠHart":5634,"ĠCanterbury":5635,"ĠIntelligence":5636,"ĠLeonard":5637,"gl":5638,"Ġnone":5639,"Ġplanning":5640,"Ġexerc":5641,"Ġaerial":5642,"Ġliquid":5643,"Ġeasily":5644,"ĠBasketball":5645,"iders":5646,"Ġwealth":5647,"Ġ1948":5648,"Ġaftermath":5649,"Ġoverl":5650,"come":5651,"onia":5652,"Ġcells":5653,"ĠOw":5654,"Ġrich":5655,"ords":5656,"rig":5657,"Ġ700":5658,"ĠAbout":5659,"Ġhidden":5660,"ĠDistinguished":5661,"Ġcollected":5662,"Ġsucceeded":5663,"Ġflu":5664,"ĠGriff":5665,"Ġdissipated":5666,"Ġspacecraft":5667,"Ġexistence":5668,"ĠSel":5669,"ĠLet":5670,"ĠAdditional":5671,"inks":5672,"ĠMatt":5673,"otic":5674,"Ġintroduction":5675,"fully":5676,"ĠFleming":5677,"Ġmodels":5678,"Ġlearned":5679,"ĠRun":5680,"Ġtrip":5681,"Ġremoval":5682,"Ġtall":5683,"ĠHan":5684,"Ġpromotion":5685,"Ġoperating":5686,"ĠSecret":5687,"Ġ69":5688,"Ġ1978":5689,"uration":5690,"ĠTit":5691,"ĠPokÃ©mon":5692,"ĠMcG":5693,"Ġcarrying":5694,"Ġefficiency":5695,"Ġcannon":5696,"Ġlimit":5697,"ĠSongs":5698,"ĠStand":5699,"Ġexchange":5700,"Ġtend":5701,"ways":5702,"Ġyouth":5703,"Ġshowing":5704,"Ġmarch":5705,"Ġburied":5706,"ĠJupiter":5707,"Ġ91":5708,"Ġrevol":5709,"gers":5710,"ĠVi":5711,"ographic":5712,"Ġhumans":5713,"Ġdefence":5714,"rett":5715,"Ġrebellion":5716,"mar":5717,"Ġcredited":5718,"ĠCle":5719,"Ġ78":5720,"Ġstereotyp":5721,"imet":5722,"Ġbaseball":5723,"Ġguarant":5724,"Ġimpl":5725,"ĠLi":5726,"Ġarranged":5727,"ĠOttoman":5728,"Ġimprove":5729,"Ġseems":5730,"Ġmagazines":5731,"ĠJay":5732,"Ġweakened":5733,"ĠCape":5734,"Ġdesigns":5735,"Ġ1915":5736,"Ġvan":5737,"ĠWhit":5738,"Ġproducing":5739,"wich":5740,"ĠPoland":5741,"Ġongoing":5742,"Ġton":5743,"anger":5744,"ĠMoore":5745,"ĠOper":5746,"Ġ1977":5747,"Ġcolleagues":5748,"Ġlasted":5749,"ĠMaryland":5750,"Ġsettlement":5751,"ĠCas":5752,"ĠRem":5753,"urd":5754,"ĠRoy":5755,"Ġretained":5756,"Ġacres":5757,"Ġtubes":5758,"Ġconstitutional":5759,"Ġ94":5760,"Ġflat":5761,"ĠTrophy":5762,"ĠNaval":5763,"Ġlaws":5764,"ĠSmackDown":5765,"ĠAD":5766,"Ġlandscape":5767,"ĠTru":5768,"ĠDwight":5769,"oid":5770,"zy":5771,"utt":5772,"Ġgenre":5773,"Ġsteam":5774,"AR":5775,"ĠBall":5776,"Ġprograms":5777,"rell":5778,"Ġassistant":5779,"Äģ":5780,"Ġreplace":5781,"Ġexposure":5782,"Ġhomosexual":5783,"Ġreserve":5784,"Ġspecimen":5785,"Ġcollapsed":5786,"Ġstatement":5787,"itage":5788,"Ġvirt":5789,"ĠParalymp":5790,"idd":5791,"time":5792,"Ġerr":5793,"Ġtrust":5794,"Ġ1963":5795,"Ġviolence":5796,"Ġscientific":5797,"Ġdensity":5798,"ĠArts":5799,"Ġ81":5800,"Ġcoastal":5801,"ĠNCAA":5802,"ĠLancashire":5803,"ova":5804,"hed":5805,"Ġfit":5806,"ĠInc":5807,"Ġhits":5808,"ĠBowl":5809,"Ġinstall":5810,"Ġdubbed":5811,"Ġ98":5812,"ĠWho":5813,"ĠUt":5814,"Ġpatrol":5815,"ĠFire":5816,"Ġitems":5817,"ague":5818,"Ġcandidate":5819,"Ġconventional":5820,"ĠBon":5821,"Ġindicated":5822,"under":5823,"Ġ1916":5824,"Ġpolitics":5825,"Ġtrail":5826,"Ġsubtropical":5827,"ĠProv":5828,"Ġdelivered":5829,"eless":5830,"Ġexhaust":5831,"Ġbird":5832,"ĠJan":5833,"Ġstopped":5834,"Ġchampions":5835,"Ġdistribution":5836,"po":5837,"Ġindependence":5838,"Ġbacter":5839,"ishes":5840,"ĠFerdinand":5841,"Ġtact":5842,"Ġsections":5843,"aked":5844,"Ġdetails":5845,"Ġter":5846,"ĠNatural":5847,"the":5848,"hi":5849,"Ġselect":5850,"ĠVar":5851,"Å¡":5852,"Ġdest":5853,"Ġcombination":5854,"Ġ71":5855,"rot":5856,"Ġsupplies":5857,"Ġways":5858,"unch":5859,"ĠBand":5860,"Ġglass":5861,"Ġparties":5862,"ÅĤ":5863,"ĠRalph":5864,"Ġengines":5865,"ĠCrystal":5866,"Ġprisoners":5867,"ĠTelegraph":5868,"ĠStadium":5869,"ĠAC":5870,"Ġ1919":5871,"Ġcampus":5872,"Ġ1962":5873,"Ġacts":5874,"owed":5875,"icks":5876,"Ġ89":5877,"ĠPo":5878,"Ġsecure":5879,"ĠCraig":5880,"Ġmigr":5881,"ĠVillage":5882,"Ġinternationally":5883,"Ġfinding":5884,"Ġuncle":5885,"ĠBet":5886,"Ġnaturally":5887,"Ġonline":5888,"Ġdecade":5889,"Ġshoot":5890,"ĠKim":5891,"ĠChronicle":5892,"Ġprovincial":5893,"Ġscattered":5894,"Ġevalu":5895,"ĠTa":5896,"Ġunderwent":5897,"Ġwinner":5898,"ĠStaff":5899,"Ġrepair":5900,"Ġ82":5901,"ician":5902,"Ġecosyst":5903,"Ġevening":5904,"ĠCop":5905,"Ġregiment":5906,"Ġ1938":5907,"Ġcousin":5908,"idents":5909,"Ġinvestigation":5910,"ĠCollins":5911,"ador":5912,"Ġ88":5913,"Ġpapers":5914,"ĠUs":5915,"Ġthreatened":5916,"Ġswimming":5917,"Ġbought":5918,"Ġmirr":5919,"ĠGh":5920,"Ġexternal":5921,"Ġsurvived":5922,"Ġthirteen":5923,"Ġknots":5924,"Ġconsum":5925,"Ġretain":5926,"Ġstudied":5927,"Ġreluctant":5928,"uous":5929,"okes":5930,"Ġempire":5931,"Ġwrites":5932,"Ġaddress":5933,"Ġdeaths":5934,"ĠJustice":5935,"Ġbeach":5936,"lection":5937,"Ġroutes":5938,"ĠMcCarthy":5939,"itter":5940,"Ġpictures":5941,"Ġruled":5942,"ĠMoon":5943,"ĠDiá»ĩm":5944,"met":5945,"ĠRad":5946,"Ġarc":5947,"Ġrelief":5948,"Ġdaughters":5949,"Ġmales":5950,"Ġbranches":5951,"ja":5952,"Ġvoted":5953,"BS":5954,"ĠGer":5955,"ĠDisc":5956,"arsh":5957,"Ġrevolution":5958,"Ġspons":5959,"Ġphase":5960,"ĠiTunes":5961,"Ġadjust":5962,"ĠNorfolk":5963,"Ġcomponents":5964,"ĠAge":5965,"Ġrecalled":5966,"Ġpercussion":5967,"Ġportrayed":5968,"Ġprices":5969,"Ġreducing":5970,"Ġsoul":5971,"eric":5972,"Ġimplement":5973,"ĠBeach":5974,"Ġreinforcements":5975,"iate":5976,"ĠHawaii":5977,"Ġrelations":5978,"uter":5979,"ĠLyn":5980,"Ġcontroversy":5981,"ĠBelgian":5982,"osaurus":5983,"ĠMemorial":5984,"ĠHere":5985,"ĠTony":5986,"Ġcauses":5987,"aki":5988,"most":5989,"ĠMetacritic":5990,"Ġeverything":5991,"Ġ1956":5992,"Ġbreeding":5993,"ĠBennett":5994,"Ġsell":5995,"Ġ130":5996,"Ġreferences":5997,"irm":5998,"Ġ175":5999,"Ġago":6000,"ĠRangers":6001,"ĠEric":6002,"Ġcapable":6003,"aints":6004,"ĠDavies":6005,"ĠServices":6006,"Ġacceler":6007,"ĠBermuda":6008,"Ġentry":6009,"Ġslavery":6010,"Ġprecipitation":6011,"Ġmeters":6012,"ĠSingles":6013,"ĠVincent":6014,"Ġoffers":6015,"Ġfossil":6016,"ĠKong":6017,"Ġtanks":6018,"Ġ79":6019,"Ġswe":6020,"asing":6021,"ĠCredits":6022,"Ġsufficient":6023,"ĠDirector":6024,"ĠCatherine":6025,"uded":6026,"Ġowner":6027,"ĠLauren":6028,"Ġopera":6029,"ĠAdams":6030,"iller":6031,"ĠLocal":6032,"Ġadmitted":6033,"ĠNic":6034,"Ġvaried":6035,"Ġdoor":6036,"Ġnomination":6037,"Ġartificial":6038,"Ġbor":6039,"ĠYellow":6040,"ĠPower":6041,"Ġmerg":6042,"ĠAlan":6043,"Ġ1936":6044,"Ġcrossed":6045,"ĠTransportation":6046,"Ġproducts":6047,"Ġtomb":6048,"ĠBush":6049,"ĠCritical":6050,"Ġinstalled":6051,"Ġearthquake":6052,"Ġmort":6053,"ĠGuitar":6054,"ession":6055,"ĠSimon":6056,"Ġpreced":6057,"Ġconcerns":6058,"ĠFA":6059,"Ġmedal":6060,"Ġautom":6061,"oys":6062,"Ġinvited":6063,"ĠMaria":6064,"Ġtrademark":6065,"ĠMerc":6066,"Ġones":6067,"Ġconqu":6068,"Ġinterested":6069,"Ġacid":6070,"Ġstarts":6071,"Ġboilers":6072,"ĠTaiwan":6073,"Ġtwentieth":6074,"aks":6075,"Ġcrime":6076,"Ġprincipal":6077,"bar":6078,"Ġfly":6079,"ĠAdam":6080,"Ġunderstood":6081,"Ġtell":6082,"Ġremainder":6083,"Ġfrequency":6084,"Ġmanner":6085,"ĠSaxon":6086,"ĠJane":6087,"ĠPlot":6088,"Ġactual":6089,"Ġretreat":6090,"Ġamateur":6091,"owing":6092,"Ġru":6093,"ĠDakota":6094,"Ġintelligent":6095,"Ġstock":6096,"Ġvent":6097,"Ġtexts":6098,"Ġcharged":6099,"ĠVII":6100,"Ġcommit":6101,"Ġsolid":6102,"ĠFriends":6103,"Ġconceived":6104,"ĠRenaissance":6105,"gress":6106,"Ġprice":6107,"Ġfunds":6108,"Ġobjects":6109,"ĠCameron":6110,"Ġphrase":6111,"Ġ1961":6112,"ĠForest":6113,"ĠCart":6114,"Ġcomposer":6115,"ĠBa":6116,"Ġ84":6117,"Ġconsisting":6118,"Donald":6119,"Ġpromote":6120,"inental":6121,"ĠKat":6122,"ĠBack":6123,"ĠSav":6124,"ĠDeath":6125,"ali":6126,"Ġpage":6127,"struct":6128,"ĠFa":6129,"ĠIndonesia":6130,"Ġauthentic":6131,"Ġhurricanes":6132,"Ġredevelop":6133,"Ġpartner":6134,"Ġconsiderable":6135,"Ġpraising":6136,"Ġdates":6137,"ĠAcc":6138,"Ġreminiscent":6139,"Ġtypical":6140,"Ġ1953":6141,"Ġspoken":6142,"Ġsoc":6143,"ĠHy":6144,"Ġgrounds":6145,"Ġprem":6146,"hold":6147,"ĠMun":6148,"Ġgall":6149,"erted":6150,"bro":6151,"Ġcounsel":6152,"Ġextension":6153,"ĠFred":6154,"ĠMass":6155,"ucks":6156,"ran":6157,"Ġevolution":6158,"Ġ93":6159,"Ġsomeone":6160,"apping":6161,"ĠGun":6162,"Ġreorgan":6163,"ĠAlaska":6164,"Ġdisliked":6165,"Ġrural":6166,"cribed":6167,"ĠAntonio":6168,"oli":6169,"ĠGameSpot":6170,"Ġnautical":6171,"Ġundergraduate":6172,"BI":6173,"Ġet":6174,"ĠIndiana":6175,"Ġspin":6176,"Ġsole":6177,"ĠProject":6178,"Ġhotel":6179,"ĠHoward":6180,"Ġattorney":6181,"Ġdecades":6182,"Ġimages":6183,"Ġdriving":6184,"Ġreading":6185,"gg":6186,"ĠJun":6187,"Ġidentity":6188,"down":6189,"Ġzone":6190,"iness":6191,"hire":6192,"ĠMarc":6193,"Ġexplicit":6194,"Ġsyndrome":6195,"Ġoccurs":6196,"Ġuranium":6197,"ĠCult":6198,"Ġnicknamed":6199,"ĠBry":6200,"rial":6201,"vest":6202,"Ġskin":6203,"Ġrocks":6204,"ĠContemporary":6205,"Ġlane":6206,"Ġremix":6207,"Ġsnow":6208,"empl":6209,"Ġtow":6210,"Ġmachinery":6211,"Ġfrag":6212,"ĠAftermath":6213,"ĠBrigadier":6214,"ca":6215,"Ġ1947":6216,"Ġvolcan":6217,"Ġdated":6218,"Ġ1958":6219,"ĠFlorence":6220,"ese":6221,"Ġalt":6222,"ĠFive":6223,"ĠGill":6224,"Ġcolour":6225,"iable":6226,"Ġnoting":6227,"Ġcrops":6228,"Ġproximity":6229,"ĠSheffield":6230,"ĠCons":6231,"Ġslowly":6232,"ĠJeremy":6233,"Ġclean":6234,"Ġposted":6235,"Ġ86":6236,"ensus":6237,"iley":6238,"Ġ1957":6239,"Ġ1910":6240,"Ġdescribing":6241,"ĠScience":6242,"Ġpronounced":6243,"ĠArkansas":6244,"Ġinvolving":6245,"Ġextinct":6246,"ĠOfficer":6247,"Ġ110":6248,"Ġentering":6249,"Ġprovinces":6250,"ĠAst":6251,"Ġ1937":6252,"Ġdress":6253,"Ġreserv":6254,"Ġclasses":6255,"Ġdin":6256,"Ġculmin":6257,"ĠCro":6258,"Ġsettled":6259,"Ġdebate":6260,"Ġobtained":6261,"Ġdepartment":6262,"ĠDallas":6263,"Ġsample":6264,"Ġaccur":6265,"Ġarmor":6266,"Ġparliament":6267,"ĠMountain":6268,"Ġbasic":6269,"ĠCyrus":6270,"Ġwarfare":6271,"ĠTogether":6272,"Ġpreliminary":6273,"Ġpurchase":6274,"IA":6275,"ĠRose":6276,"Ġfolk":6277,"Ġnest":6278,"Ġoldest":6279,"ĠPier":6280,"Ġfaith":6281,"Ġconcerned":6282,"Ġdeparture":6283,"ĠGuinea":6284,"ĠPerformance":6285,"ĠMalaysia":6286,"ĠNow":6287,"Ġformal":6288,"Ġdecline":6289,"Ġassess":6290,"Ġconnection":6291,"Ġincome":6292,"ige":6293,"ĠBah":6294,"Ġrecognition":6295,"Ġshifted":6296,"Ġtraditions":6297,"Ġproposals":6298,"ĠAllmusic":6299,"ĠOrthodox":6300,"Ġbiographer":6301,"Ġmemorial":6302,"Ġdisappoint":6303,"ĠThroughout":6304,"Ġrehears":6305,"Ġwarnings":6306,"Ġdiscontinued":6307,"ami":6308,"Ġdeleg":6309,"Ġaccused":6310,"ĠFranÃ§ois":6311,"Ġsequel":6312,"ĠNewfoundland":6313,"Ġ<":6314,"ĠParsons":6315,"Ġmedicine":6316,"ĠWeekly":6317,"Ġderived":6318,"Ġnineteenth":6319,"Ġdecor":6320,"Ġmode":6321,"ĠDub":6322,"Ġexpand":6323,"ĠAndy":6324,"Ġanth":6325,"ĠBeautiful":6326,"lan":6327,"Ġhip":6328,"Ġassumed":6329,"Ġdisturb":6330,"icate":6331,"western":6332,"ĠAz":6333,"Ġash":6334,"Ġ1959":6335,"Ġvaluable":6336,"Ġbrilliant":6337,"ĠâĢĿ":6338,"fe":6339,"Ġcommitted":6340,"obe":6341,"Ġaver":6342,"ĠMedia":6343,"ĠArmstrong":6344,"Ġwarm":6345,"Ġhosted":6346,"Ġdream":6347,"ĠThird":6348,"Ġreturns":6349,"Ġcitizen":6350,"Ġadministered":6351,"ched":6352,"Ġsail":6353,"Ġclim":6354,"Ġvalley":6355,"ĠJacqu":6356,"Ġdistricts":6357,"Ġpopulations":6358,"ĠJon":6359,"Ġdenied":6360,"Ġfine":6361,"ĠDou":6362,"ĠRecording":6363,"Ġtemple":6364,"uing":6365,"Ġflo":6366,"Ġestimates":6367,"aza":6368,"Ġcharges":6369,"Ġliterary":6370,"ĠHamm":6371,"iva":6372,"Ġregional":6373,"Ġthousands":6374,"ĠSweet":6375,"ĠMiss":6376,"Ġ1954":6377,"Ġtransition":6378,"Ġ1955":6379,"Ġbeneath":6380,"Ġrecurring":6381,"Ġsupposed":6382,"ĠSpirit":6383,"Ġsignificance":6384,"ĠâĢľ":6385,"uts":6386,"Ġinher":6387,"ĠMaster":6388,"Ġpriv":6389,"lets":6390,"ĠYour":6391,"Ġshots":6392,"ĠRain":6393,"Ġhang":6394,"Ġstrongly":6395,"Ġecclesiastical":6396,"Ġsounds":6397,"ĠAzerbaij":6398,"ĠKar":6399,"Ġcirculation":6400,"ĠOrleans":6401,"Ġsailed":6402,"Ġpossibility":6403,"Ġgeneration":6404,"Ġhope":6405,"ĠProductions":6406,"Ġanimated":6407,"Ġefficient":6408,"ĠAllMusic":6409,"RA":6410,"Ġgrandfather":6411,"ĠStan":6412,"ĠFederal":6413,"osph":6414,"ĠStockholm":6415,"Ġhill":6416,"Ġnet":6417,"Ġinclusion":6418,"Ġminister":6419,"ulations":6420,"abb":6421,"Ġbehavior":6422,"Ġcloud":6423,"ĠAk":6424,"ĠTro":6425,"Ġbrain":6426,"ĠÃĹ":6427,"Ġconsolid":6428,"Ġdig":6429,"ĠLow":6430,"ĠEst":6431,"Ġassistance":6432,"anth":6433,"ĠHead":6434,"Ġcommanded":6435,"Ġmoves":6436,"Ġmissed":6437,"Ġmissions":6438,"Ġexception":6439,"Ġcosts":6440,"Ġhighlight":6441,"Ġbringing":6442,"Ġtied":6443,"ective":6444,"ĠDem":6445,"isms":6446,"ĠWithin":6447,"ĠConstantine":6448,"writ":6449,"Ġintention":6450,"Ġfeeling":6451,"Ġspeaking":6452,"Ġdrafted":6453,"ĠSpace":6454,"Ġincomplete":6455,"book":6456,"Ġinner":6457,"ĠFame":6458,"Ġfinishing":6459,"Ġproportion":6460,"ĠPur":6461,"Ġincorporated":6462,"esis":6463,"ago":6464,"ĠScientology":6465,"ĠChancellor":6466,"Ġstayed":6467,"Ġshop":6468,"ĠPhill":6469,"Ġrecovered":6470,"ĠHo":6471,"Ġsons":6472,"Ġbreaking":6473,"Ġemerged":6474,"umin":6475,"Ġ83":6476,"Ġ1952":6477,"Ġserves":6478,"uted":6479,"Ġquar":6480,"Ġatmosphere":6481,"ĠStuart":6482,"emisphere":6483,"Ġscenario":6484,"Ġdancers":6485,"ĠMorris":6486,"Ġsegments":6487,"Ġpersuaded":6488,"Ġbeauty":6489,"ĠNorman":6490,"Ġtheatre":6491,"ĠUSA":6492,"Ġdriven":6493,"don":6494,"enses":6495,"ĠCricket":6496,"ĠYouTube":6497,"ĠApollo":6498,"ĠSky":6499,"ĠWonder":6500,"Ġclassic":6501,"Ġready":6502,"ĠPrior":6503,"ivals":6504,"Ġeffectively":6505,"Ġregularly":6506,"ĠIndonesian":6507,"ĠId":6508,"ĠFish":6509,"Ġestablishment":6510,"Ġ92":6511,"enny":6512,"Ġprey":6513,"Ġcourts":6514,"Ġmethods":6515,"ĠAmendment":6516,"ĠRaj":6517,"ĠAnim":6518,"Ġvary":6519,"Ġ1933":6520,"Ġdwarf":6521,"ĠJohann":6522,"Ġcolumns":6523,"Ġcolumn":6524,"Ġ176":6525,"oking":6526,"aled":6527,"Ġtransm":6528,"ĠAround":6529,"Ġmo":6530,"ĠWal":6531,"Ġshore":6532,"ĠUnlike":6533,"Ġmaterials":6534,"ĠApproximately":6535,"ĠCE":6536,"ĠSultan":6537,"Ġoriented":6538,"ĠConstruction":6539,"Ġconver":6540,"Ġwarning":6541,"Ġplutonium":6542,"ĠHell":6543,"Ġsurviving":6544,"Ġfields":6545,"Ġattracted":6546,"Ġprovince":6547,"Ġrebuild":6548,"ĠLev":6549,"ĠIron":6550,"Ġvoyage":6551,"Ġkidn":6552,"ĠPA":6553,"Ġquant":6554,"Ġclassified":6555,"Ġdifferences":6556,"ĠDanny":6557,"ĠDE":6558,"Ġtechnical":6559,"Ġdivisions":6560,"ĠNar":6561,"ĠFord":6562,"Ġshel":6563,"stitute":6564,"ĠSweden":6565,"ĠRow":6566,"Ġ1935":6567,"Ġswitch":6568,"ĠDis":6569,"ĠSin":6570,"ĠCavalry":6571,"ĠHenri":6572,"ĠDa":6573,"ye":6574,"ĠTechn":6575,"Ġcruiser":6576,"ĠBus":6577,"Ġpassage":6578,"abled":6579,"ĠUntil":6580,"ĠGabriel":6581,"Ġox":6582,"rant":6583,"ĠDog":6584,"Ã³n":6585,"Ġembarked":6586,"Ġclubs":6587,"Ġpot":6588,"Ġstood":6589,"Ġassociation":6590,"Ġratings":6591,"ĠDor":6592,"Ġeleven":6593,"Ġeru":6594,"ĠPatrick":6595,"ĠâģĦ":6596,"Ġmusicians":6597,"Ġrooms":6598,"Ġextensively":6599,"ĠMem":6600,"Ġ1951":6601,"Ġ1949":6602,"ban":6603,"ĠâĤ¹":6604,"agle":6605,"ĠWeb":6606,"Ġdesire":6607,"ĠBoeing":6608,"Ġhal":6609,"Ġseparated":6610,"ĠMorgan":6611,"Ġarrest":6612,"Ġclimate":6613,"Ġgal":6614,"Ġcod":6615,"ĠTurnpike":6616,"mes":6617,"ĠNations":6618,"Ġclassification":6619,"ĠSports":6620,"ĠDick":6621,"Ġcorpor":6622,"Ġgardens":6623,"Ġlifetime":6624,"Ġvehicle":6625,"Ġreality":6626,"Ġseemed":6627,"ĠLegisl":6628,"ĠTyphoon":6629,"Ġvotes":6630,"ĠPow":6631,"teenth":6632,"ĠAllen":6633,"Ġbattleships":6634,"Ġrose":6635,"ĠCab":6636,"Ġmemory":6637,"Ġembarrass":6638,"Ġhoped":6639,"ji":6640,"lock":6641,"ĠDer":6642,"Ġmovements":6643,"ken":6644,"Ġrequested":6645,"Ġdivorce":6646,"ĠJournal":6647,"Ġraise":6648,"oven":6649,"Ġhistorians":6650,"Ġquick":6651,"ĠSpe":6652,"ĠBan":6653,"Ġenzym":6654,"Ġdifficulty":6655,"Ġheat":6656,"Ġexpect":6657,"ĠEle":6658,"Ġcommunities":6659,"Ġempty":6660,"Ġrestored":6661,"ĠAttorney":6662,"Ġteen":6663,"ĠSupport":6664,"ĠRogers":6665,"Ġprogramme":6666,"Ġsettlements":6667,"Ġlit":6668,"Ġdie":6669,"Ġpremiere":6670,"Ġpure":6671,"ĠDean":6672,"Ġgarnered":6673,"Ġexcl":6674,"Ġrelative":6675,"Ġconsult":6676,"emic":6677,"Ġdiscovery":6678,"Ġtickets":6679,"Ġrescued":6680,"ĠBorn":6681,"Ġgreatly":6682,"ĠUSS":6683,"ĠDesign":6684,"ĠAgain":6685,"Ġaccounts":6686,"Ġsurrounded":6687,"Ġfunding":6688,"Ġdisorder":6689,"Ġflank":6690,"iments":6691,"ĠDomin":6692,"Ġproteins":6693,"Ġspoke":6694,"Ġneeds":6695,"Ġbatting":6696,"Ġ1900":6697,"Ġhoused":6698,"ĠHendrix":6699,"iph":6700,"rows":6701,"olve":6702,"ĠMarine":6703,"Ġmassive":6704,"ĠBishop":6705,"Ġclaiming":6706,"ĠBaltic":6707,"ĠRÃ¤ikkÃ¶nen":6708,"Ġsuit":6709,"Ġinnoc":6710,"ĠIceland":6711,"Ġconcurrent":6712,"lyn":6713,"ĠAnne":6714,"ĠEvery":6715,"Ġimprisoned":6716,"eway":6717,"Ġrap":6718,"Ġforming":6719,"Ġstrategy":6720,"ĠFront":6721,"Ġobtain":6722,"ĠHop":6723,"Ġteammate":6724,"Ġtries":6725,"Ġforg":6726,"Ġdocumentary":6727,"ĠArmen":6728,"Ġfled":6729,"Ġcrosses":6730,"bal":6731,"Ġanal":6732,"ito":6733,"Ġworst":6734,"illed":6735,"ĠCroatian":6736,"ĠWinter":6737,"Ġpoliticians":6738,"ĠHeart":6739,"ĠAIDS":6740,"Ġpredecessors":6741,"Ġstands":6742,"Ġarchitecture":6743,"ĠFerguson":6744,"ĠTchaikovsky":6745,"ĠLast":6746,"rim":6747,"Ġgirls":6748,"Ġchemistry":6749,"ĠComedy":6750,"Ġdetermine":6751,"ĠAut":6752,"oster":6753,"Ġrenewed":6754,"Ġplane":6755,"ĠRussell":6756,"Ġdismissed":6757,"Ġinvolvement":6758,"Ġsale":6759,"Ġbombard":6760,"Ġcategory":6761,"formula":6762,"Ġmixture":6763,"ĠCentre":6764,"Ġportrait":6765,"fall":6766,"Ġhear":6767,"Ġensure":6768,"Ġsight":6769,"Ġ06":6770,"Ġstolen":6771,"ĠGro":6772,"aternal":6773,"Ġpit":6774,"ĠHoly":6775,"ĠTribune":6776,"ĠCarter":6777,"Ġframework":6778,"Ġinterests":6779,"bre":6780,"Ġrendered":6781,"Ġpin":6782,"Ġcattle":6783,"Ġimmediate":6784,"Ġray":6785,"ĠBh":6786,"oles":6787,"ĠKhrushchev":6788,"uals":6789,"Ġpresidential":6790,"Ġstreets":6791,"Ġlibrary":6792,"Ġtaste":6793,"Ġabsor":6794,"ĠNebraska":6795,"arily":6796,"Ġtherm":6797,"ĠNewcastle":6798,"ĠPortugal":6799,"ĠPap":6800,"Ġincorrect":6801,"Ġlearn":6802,"ĠErnest":6803,"heim":6804,"Ġic":6805,"Ġlat":6806,"body":6807,"Ġfalling":6808,"Ġsed":6809,"Ġcolonial":6810,"ĠFree":6811,"Ġtissue":6812,"Ġpositively":6813,"oked":6814,"ĠAlong":6815,"Ġenforcement":6816,"aya":6817,"ĠLang":6818,"uding":6819,"Ġclassical":6820,"Ġfighter":6821,"Ġabsolutely":6822,"Ġinfl":6823,"Ġthrone":6824,"Ġstarred":6825,"Ġraces":6826,"AC":6827,"Ġbright":6828,"ĠMars":6829,"ĠTal":6830,"Ġadults":6831,"Ġjuven":6832,"ĠCharlotte":6833,"Ġclimb":6834,"Ã±":6835,"Ġoccasional":6836,"ĠHungarian":6837,"Ġgrant":6838,"ĠJosÃ©":6839,"night":6840,"Ġmeets":6841,"Ġacademic":6842,"ĠDom":6843,"Ġunnecessary":6844,"oned":6845,"Ġlake":6846,"ĠWright":6847,"ĠNob":6848,"ĠHerzegovina":6849,"Ġpound":6850,"Ġreviewer":6851,"ĠCatholics":6852,"Ġalien":6853,"ĠLy":6854,"ĠThus":6855,"ĠConstitution":6856,"Ġ1913":6857,"Ġpremiered":6858,"ĠAffairs":6859,"Ġupcoming":6860,"ĠLaboratory":6861,"Ġeth":6862,"Ġabsence":6863,"ĠBatman":6864,"aser":6865,"Ġseeing":6866,"Ġgoddess":6867,"hr":6868,"Ġfitted":6869,"Ġelse":6870,"Ġsuperior":6871,"onies":6872,"ĠTar":6873,"Ġinterior":6874,"Ġfavorite":6875,"Ġweigh":6876,"ĠParker":6877,"Ġengineer":6878,"ĠModern":6879,"Ġbomber":6880,"Ġbatteries":6881,"ĠVoice":6882,"Ġscandal":6883,"dy":6884,"iary":6885,"ennis":6886,"ĠFreedom":6887,"Ġimpressive":6888,"olph":6889,"Ġairport":6890,"ĠHarris":6891,"Ġattacking":6892,"ĠGard":6893,"aria":6894,"Ġappearing":6895,"Ġconclusion":6896,"ported":6897,"Ġvisible":6898,"ĠCinem":6899,"Ġdependent":6900,"opes":6901,"Ġ1926":6902,"Ġdating":6903,"Ġx":6904,"Ġcharacteristics":6905,"Ġleads":6906,"Ġelections":6907,"Ġrandom":6908,"Ġavoided":6909,"Ġoperate":6910,"Ġfacility":6911,"Ġencouraged":6912,"Ġ1927":6913,"ĠLibrary":6914,"Ġafterwards":6915,"ĠDNA":6916,"Ġlanded":6917,"eat":6918,"Ġcolony":6919,"Ġconvection":6920,"ĠMurray":6921,"Ġhospitals":6922,"Ġprogressed":6923,"Ġcelebrities":6924,"mo":6925,"Ġalleg":6926,"Ġeveryone":6927,"otten":6928,"Ġ1921":6929,"ĠFinn":6930,"ĠBi":6931,"ĠJam":6932,"ĠHorn":6933,"Ġsuffering":6934,"Ġdeputy":6935,"Ġrestrictions":6936,"ĠTaxonomy":6937,"ĠHutchinson":6938,"Ġbond":6939,"Ġcredit":6940,"asure":6941,"Ġ1934":6942,"Ġlegislation":6943,"Ġholds":6944,"ĠKnight":6945,"Ġmodified":6946,"ĠOscar":6947,"ĠProtestant":6948,"Ġlies":6949,"Ġshell":6950,"ogy":6951,"Ġpainted":6952,"ĠÄĲ":6953,"Ġtruly":6954,"ĠLate":6955,"Ġcontroversial":6956,"era":6957,"Ġwings":6958,"ĠBach":6959,"Ġtoxic":6960,"ĠEnergy":6961,"Ġcomprehensive":6962,"Ġgone":6963,"Ġrugby":6964,"asm":6965,"Ġbelieves":6966,"ĠPedro":6967,"Ġdistributed":6968,"ĠIsaac":6969,"ĠCommander":6970,"Ġattempting":6971,"ĠBerlin":6972,"Ġ08":6973,"ĠPolice":6974,"changed":6975,"ĠPalace":6976,"agu":6977,"uments":6978,"Ġstandards":6979,"ĠSilver":6980,"Ġlooked":6981,"Ġ900":6982,"Ġarchae":6983,"ĠBull":6984,"ĠAdvent":6985,"Ġsecured":6986,"ĠHolocaust":6987,"Ġmonarch":6988,"Ġdepicted":6989,"Ġ1912":6990,"eline":6991,"Ġcancer":6992,"ĠCare":6993,"Ġdominated":6994,"ĠTimberlake":6995,"Ġsan":6996,"Ġgrass":6997,"Ġhabitat":6998,"Ġinquiry":6999,"ĠÅ":7000,"Ġanyone":7001,"using":7002,"Ġcontinuing":7003,"Ġlawsuit":7004,"bra":7005,"Ġbet":7006,"Ġjudge":7007,"ĠAthletic":7008,"Ġlongest":7009,"Ġimmigr":7010,"Ġshut":7011,"ĠStory":7012,"ĠSanta":7013,"Ġathlete":7014,"ĠSum":7015,"ĠObs":7016,"ĠCyclone":7017,"aws":7018,"shire":7019,"ĠSwedish":7020,"Ġordinary":7021,"ado":7022,"Ġunion":7023,"Ġnephew":7024,"Ġsend":7025,"Ġneck":7026,"agh":7027,"Ġdecommissioned":7028,"Ġtrained":7029,"ĠEddie":7030,"rine":7031,"Ġwins":7032,"ĠHospital":7033,"Ġ1932":7034,"Ġadvis":7035,"Ġrum":7036,"Ġarrangement":7037,"Ġcarrier":7038,"Ġlesbian":7039,"ĠMort":7040,"Ġtriumph":7041,"ĠBeck":7042,"ĠWollstonecraft":7043,"yg":7044,"ĠRev":7045,"ĠIndians":7046,"Ġindustries":7047,"Ġencounters":7048,"ĠTournament":7049,"Ġlyrical":7050,"Ġmap":7051,"uv":7052,"Ġterritorial":7053,"ĠArchbishop":7054,"Ġcomplicated":7055,"ĠESPN":7056,"Ġmeasures":7057,"Ġinformed":7058,"yard":7059,"ĠCook":7060,"bon":7061,"ĠGib":7062,"Ġbelt":7063,"ĠRick":7064,"Ġrepresenting":7065,"ĠCarol":7066,"Ġvicinity":7067,"ĠScandinav":7068,"Ġreleases":7069,"ĠFuture":7070,"Ġachieve":7071,"town":7072,"ĠWarner":7073,"ĠNBC":7074,"power":7075,"Ġsees":7076,"Ġ09":7077,"Ġgarrison":7078,"Ġmammals":7079,"Ġconvention":7080,"ishment":7081,"ĠOmaha":7082,"Ġformerly":7083,"MA":7084,"ĠJason":7085,"Ġgrade":7086,"ĠCru":7087,"Ġgenerated":7088,"iac":7089,"inals":7090,"ĠDal":7091,"Ġcloser":7092,"Ġdeployed":7093,"ĠCopenhagen":7094,"Ġemergency":7095,"Ġarose":7096,"ĠGet":7097,"Ġrh":7098,"Ġfur":7099,"Ġbats":7100,"Ġmysterious":7101,"Ġsoft":7102,"Ġhistoric":7103,"Ġgets":7104,"Ġtrials":7105,"Ġgoalkeeper":7106,"Ġcycle":7107,"utes":7108,"Ġunhappy":7109,"sen":7110,"fire":7111,"Ġemotional":7112,"ĠMalta":7113,"Ġfeathers":7114,"iens":7115,"ĠCroatia":7116,"Ġthorough":7117,"ĠWagner":7118,"ĠFriedrich":7119,"ĠPC":7120,"Ġowners":7121,"ĠBerg":7122,"Ġham":7123,"ĠRAF":7124,"Ġsuccessor":7125,"Ġinfluences":7126,"ĠGaga":7127,"ĠTrack":7128,"Ġ1929":7129,"pan":7130,"Ġeat":7131,"Ġthin":7132,"Ġremoving":7133,"Ġpeninsula":7134,"Ġeccentric":7135,"ĠOak":7136,"ĠAncient":7137,"Ġ1911":7138,"Ġjournalist":7139,"Ġexcess":7140,"Ġexplanation":7141,"ĠAntarct":7142,"Ġchildhood":7143,"Ġconstruct":7144,"ĠGilbert":7145,"Ġfil":7146,"uster":7147,"Ġexperiences":7148,"Ġsustain":7149,"Ġfacilit":7150,"igan":7151,"Ġdefended":7152,"Ġdiscussed":7153,"ĠPrincess":7154,"ĠCzechoslovak":7155,"Ġlegs":7156,"Ġconcern":7157,"Ġapparently":7158,"ĠNormandy":7159,"Ġcanceled":7160,"ila":7161,"Ġcas":7162,"bl":7163,"Ġassass":7164,"Ġrelieved":7165,"Ġsiblings":7166,"ĠSpears":7167,"Ġ140":7168,"Ġtreated":7169,"Ġvictims":7170,"roc":7171,"ĠProgram":7172,"Ġgiant":7173,"Ġenvironmental":7174,"ĠDur":7175,"Ġexecuted":7176,"Ġmess":7177,"Ġcoins":7178,"ĠAsian":7179,"atically":7180,"Ġ1931":7181,"ĠVegas":7182,"eal":7183,"Ġ1922":7184,"rons":7185,"Ġdepos":7186,"ĠVladimir":7187,"Ġoffices":7188,"bridge":7189,"Ġbes":7190,"ĠDistribution":7191,"Ġfactors":7192,"30":7193,"atively":7194,"Ġmine":7195,"Ġoffshore":7196,"ĠKu":7197,"ĠCooper":7198,"ĠOlivia":7199,"ĠOd":7200,"ĠEdmund":7201,"achment":7202,"Ġenters":7203,"Ġbear":7204,"Ġwooden":7205,"Ġbrand":7206,"ĠEvans":7207,"Ġprosper":7208,"ĠPope":7209,"ogan":7210,"ican":7211,"ĠPen":7212,"Ġride":7213,"Ġflash":7214,"Ġhundreds":7215,"ĠVice":7216,"Ġresigned":7217,"raught":7218,"Ġgay":7219,"rip":7220,"Ġoutskirts":7221,"ĠSee":7222,"Ġskills":7223,"ĠBed":7224,"Ġhybrid":7225,"Ġdisappeared":7226,"ĠGuy":7227,"ĠLou":7228,"Ġchapter":7229,"ĠCategory":7230,"Ġpointed":7231,"Ġridge":7232,"atus":7233,"orous":7234,"Ġearn":7235,"adow":7236,"ES":7237,"ĠWy":7238,"ĠWing":7239,"Ġwatching":7240,"Ġprevented":7241,"Ġcoin":7242,"Ġfungus":7243,"Ġinducted":7244,"Ġconspiracy":7245,"Ġ05":7246,"Ġdrum":7247,"Ġpreferred":7248,"ĠËĪ":7249,"Ġfaculty":7250,"ĠPrinceton":7251,"Ġlarvae":7252,"Ġresponsibilities":7253,"ĠReal":7254,"ĠLim":7255,"Ġpushed":7256,"Ġpull":7257,"Ġformat":7258,"Ġromance":7259,"Ġdrums":7260,"Ġfootage":7261,"Ġflew":7262,"Ġdifference":7263,"Ġhappened":7264,"Ġcompanion":7265,"Ġcheck":7266,"Ġformally":7267,"urg":7268,"Ġintent":7269,"Ġreportedly":7270,"Ġfacing":7271,"Ġresign":7272,"Ġrelationships":7273,"ĠTigers":7274,"Ġchain":7275,"Ġgraph":7276,"Ġintense":7277,"Ġhanded":7278,"ĠOrganization":7279,"ĠSamuel":7280,"ĠMLB":7281,"Ġfundamental":7282,"ĠTower":7283,"ĠRaw":7284,"Ġdevice":7285,"Ġnotably":7286,"Ġpseud":7287,"ĠSarah":7288,"Ġanimation":7289,"Ġaesth":7290,"Ġsubmarines":7291,"Ġgrav":7292,"Ġfiring":7293,"Ġwhatever":7294,"Ġbreakthrough":7295,"Ġvision":7296,"Ġflesh":7297,"Ġexisted":7298,"Ġvisitors":7299,"ĠBird":7300,"Ġretreated":7301,"burn":7302,"ĠAud":7303,"ĠTs":7304,"ologists":7305,"Ġemployees":7306,"Ġcondemned":7307,"ĠinHg":7308,"Ġ170":7309,"ĠAustria":7310,"ĠNASA":7311,"ĠAlbums":7312,"Ġgentle":7313,"ĠHans":7314,"otes":7315,"Ġve":7316,"Ġdeparted":7317,"Ġlinked":7318,"Ġhearing":7319,"Ġexposed":7320,"Ġparticipate":7321,"ĠChamber":7322,"li":7323,"abe":7324,"ples":7325,"Ġpoetry":7326,"Ġdisbanded":7327,"Ġped":7328,"Ġfossils":7329,"ĠPolitical":7330,"Ġextent":7331,"ĠMcMahon":7332,"ĠSab":7333,"Ġdetailed":7334,"Ġtelephone":7335,"chester":7336,"ilgrim":7337,"Ġlearning":7338,"Ġaudio":7339,"Ġwelcomed":7340,"Ġcontemporaries":7341,"Ġcode":7342,"ĠLane":7343,"Ġinstance":7344,"Ġuniverse":7345,"Ġmachines":7346,"Ġcamouflage":7347,"Ġbattles":7348,"Ġpyramid":7349,"osa":7350,"Ġshear":7351,"ĠFifth":7352,"Ġconvoy":7353,"Ġstrip":7354,"Ġcruisers":7355,"Ġmention":7356,"Ġimpressed":7357,"ĠWriting":7358,"Ġinsurance":7359,"Ġperiods":7360,"ĠBurn":7361,"hips":7362,"ĠTintin":7363,"lor":7364,"Ġhuge":7365,"Ġmart":7366,"Ġplate":7367,"ĠTheodore":7368,"ĠMillennium":7369,"ĠSebastian":7370,"ĠWestminster":7371,"Ġeasy":7372,"Ġnitrogen":7373,"ĠAh":7374,"Ġstem":7375,"Ġske":7376,"Ġspan":7377,"Ġfavored":7378,"Ġterritories":7379,"ĠFarm":7380,"Ġdriver":7381,"Ġreviewers":7382,"Ġtesting":7383,"orph":7384,"Ġasc":7385,"ĠMercedes":7386,"Ġ1928":7387,"Ġtelescope":7388,"ĠBir":7389,"ĠBanks":7390,"Ġjersey":7391,"aders":7392,"Ġhappy":7393,"Ġupd":7394,"Ġtests":7395,"ĠHorse":7396,"Ġmyself":7397,"ĠHaving":7398,"ĠDynasty":7399,"no":7400,"Ġstable":7401,"ifer":7402,"Ġsurf":7403,"Ġreprod":7404,"Ġtheoretical":7405,"ĠMach":7406,"Ġcotton":7407,"ĠMethod":7408,"igs":7409,"Ġprompting":7410,"Ġsteadily":7411,"Ġnegotiations":7412,"Ġult":7413,"Ġwartime":7414,"net":7415,"ĠShar":7416,"Ġagents":7417,"Ġpicked":7418,"ĠMiddlesex":7419,"Ġspeak":7420,"ĠJess":7421,"Ġ1925":7422,"Ġmonastery":7423,"Ġmeanwhile":7424,"Ġdiscip":7425,"ĠMario":7426,"Ġfactor":7427,"Ġgoods":7428,"Ġencountered":7429,"Ġghost":7430,"ĠGlouces":7431,"Ġaltogether":7432,"ĠGothic":7433,"ika":7434,"Ġscreens":7435,"ĠBulgarian":7436,"Ġsit":7437,"Ġdiagn":7438,"ĠMarshall":7439,"Ġtroop":7440,"ĠUkr":7441,"Ġeligible":7442,"ĠAchievement":7443,"Ġfounder":7444,"borough":7445,"idae":7446,"ĠAnna":7447,"Ġaged":7448,"Ġagrees":7449,"atisf":7450,"Ġgusts":7451,"Ġut":7452,"ugg":7453,"lem":7454,"Ġreun":7455,"ĠTan":7456,"ĠAnglo":7457,"Ġdecisive":7458,"Ġdistinction":7459,"ault":7460,"Ġcosm":7461,"Ġkeeping":7462,"Ġexterior":7463,"ĠNevada":7464,"ante":7465,"tle":7466,"Ġtie":7467,"Ġpounds":7468,"Ġ1890":7469,"ĠLafayette":7470,"Ġmedium":7471,"Ġturb":7472,"Ġwalks":7473,"ĠExt":7474,"Ġsure":7475,"Ġecho":7476,"ĠBarcelona":7477,"ĠTerritory":7478,"Ġundert":7479,"Ġ1924":7480,"Ġtoll":7481,"Ġpartly":7482,"ĠMichaels":7483,"Ġkilometers":7484,"ĠPlayer":7485,"ĠChampionships":7486,"ĠSi":7487,"Ġlowest":7488,"Ġritual":7489,"Ġencompass":7490,"Ġprohib":7491,"Ġengineering":7492,"ĠTrek":7493,"Ġdom":7494,"ello":7495,"Ġindirect":7496,"ĠSoon":7497,"Ġdisag":7498,"Ġtraveled":7499,"Ġwhereas":7500,"ĠHand":7501,"Ġproced":7502,"Ġwindow":7503,"away":7504,"Ġdesigner":7505,"ĠBuck":7506,"Ã©e":7507,"Ġachiev":7508,"Ġrarely":7509,"Ġlose":7510,"Ġovert":7511,"Ġrefers":7512,"Ġtone":7513,"Ġdoesn":7514,"Ġtechnique":7515,"Ġcomplimented":7516,"FC":7517,"Ġchair":7518,"Ġweekend":7519,"Ġabundant":7520,"Ġenhanced":7521,"ĠMilwaukee":7522,"Ġvice":7523,"Ġintercept":7524,"Ġmansion":7525,"ĠSquad":7526,"Ġdeliberately":7527,"Ġax":7528,"umer":7529,"Ġorb":7530,"Ġspending":7531,"Ġfinale":7532,"Ġ07":7533,"Ġcriticised":7534,"Ġadvice":7535,"Ġpermission":7536,"Ġpeoples":7537,"Ġpreparations":7538,"ĠInt":7539,"Ġdiet":7540,"Ġheavier":7541,"TA":7542,"ĠMans":7543,"Ġdifficulties":7544,"Ġpartially":7545,"Ġphot":7546,"ĠBrunswick":7547,"Ġbypass":7548,"Ġpersonality":7549,"Ġsquad":7550,"ĠCall":7551,"Ġagree":7552,"Ġverse":7553,"ĠCre":7554,"ĠForces":7555,"Ġcompete":7556,"Ġindicate":7557,"Ġranking":7558,"ĠCircle":7559,"ek":7560,"ĠCong":7561,"pled":7562,"Ġrectangular":7563,"Ġsem":7564,"Ġrecordings":7565,"ĠDuchovny":7566,"Ġcomments":7567,"ĠSon":7568,"Ġremove":7569,"Ġseek":7570,"Ġpupp":7571,"Ġfinals":7572,"ĠGarden":7573,"Ġrefuge":7574,"ĠMembers":7575,"ĠSciences":7576,"Ġdiver":7577,"dale":7578,"Ġconcerts":7579,"Ġpropaganda":7580,"Ġ1923":7581,"ĠThen":7582,"Ġwindows":7583,"Ġmoral":7584,"ĠCanal":7585,"ĠTotal":7586,"Ġseats":7587,"ĠCharlie":7588,"ĠJamaica":7589,"ĠFal":7590,"Ġmonument":7591,"Ġfalls":7592,"ĠWell":7593,"Ġrates":7594,"ĠBrand":7595,"Ġhonour":7596,"ĠMP":7597,"Ġpitched":7598,"Ġtot":7599,"Ġrepresentative":7600,"ĠCalgary":7601,"Ġcovers":7602,"ĠYankovic":7603,"Ġalter":7604,"Ġtruth":7605,"ĠSenator":7606,"pine":7607,"ĠCam":7608,"ĠArena":7609,"Ġunanim":7610,"icy":7611,"ĠEP":7612,"Ġtenth":7613,"ĠBros":7614,"rum":7615,"ĠHenderson":7616,"Ġpermanently":7617,"Ġprompted":7618,"ĠIan":7619,"Ġadequate":7620,"Ġbureaucr":7621,"Ġforcing":7622,"Ġdescribe":7623,"Ġprotest":7624,"Ġhockey":7625,"ĠTun":7626,"ĠFall":7627,"ĠFloyd":7628,"Ġacknowledge":7629,"asters":7630,"ĠCR":7631,"ĠHur":7632,"Ġovers":7633,"Ġborders":7634,"Ġpresidency":7635,"ĠMinistry":7636,"Ġamphib":7637,"Ġdestroyers":7638,"ĠHu":7639,"CA":7640,"Ġprim":7641,"Ġclergy":7642,"Ġboys":7643,"ĠTownship":7644,"ĠImmediately":7645,"Ġhull":7646,"Ġchurches":7647,"ls":7648,"ilt":7649,"Ġfriendly":7650,"Ġexamples":7651,"Ġbases":7652,"Ġirregular":7653,"Ġsophisticated":7654,"ĠUSD":7655,"ĠHealth":7656,"Ġscrap":7657,"ĠBlood":7658,"ĠHungary":7659,"ĠCrawford":7660,"ware":7661,"Ġdrawing":7662,"Ġcancellation":7663,"Ġload":7664,"Ġminimum":7665,"ĠCountry":7666,"ĠDance":7667,"ĠCanyon":7668,"ĠSprings":7669,"ĠCrown":7670,"ĠLock":7671,"agg":7672,"Ġtravelled":7673,"Ġbombers":7674,"ĠWork":7675,"ĠStra":7676,"ĠThor":7677,"Ġjum":7678,"Brien":7679,"ĠLeicester":7680,"Ġdispatched":7681,"Ġmand":7682,"Ġapproval":7683,"ĠMuch":7684,"Ġdischarge":7685,"ĠVanDerWerff":7686,"Ġdisplayed":7687,"icated":7688,"Ġversus":7689,"ĠVeronica":7690,"ĠAustralians":7691,"10":7692,"Ġcreator":7693,"Ġcredits":7694,"ĠPalestine":7695,"Ġawareness":7696,"Ġunconscious":7697,"overs":7698,"Ġpoverty":7699,"Ġcorruption":7700,"Ġfrigate":7701,"wa":7702,"Ġgrown":7703,"Ġlisting":7704,"Ġjoining":7705,"Ġaware":7706,"Ġcopy":7707,"ĠSanskrit":7708,"ĠTucker":7709,"ĠFischer":7710,"Ġvictorious":7711,"ĠRand":7712,"ĠDiv":7713,"Ġexplo":7714,"ĠMedal":7715,"Äį":7716,"ĠJu":7717,"Ġshaft":7718,"Ġec":7719,"Ġacted":7720,"Ġchanging":7721,"Ġcreative":7722,"ãģ":7723,"Ġ*":7724,"encing":7725,"Ġdesignation":7726,"ĠAle":7727,"Ġcorn":7728,"ĠCold":7729,"Ġpowered":7730,"Ġmal":7731,"Ġinstrumental":7732,"Ġdioxide":7733,"Ġwheel":7734,"sex":7735,"Ġbench":7736,"ĠKepler":7737,"Ġasks":7738,"ĠDC":7739,"ĠFlanders":7740,"Ġsurpassed":7741,"ĠDead":7742,"ĠSafety":7743,"Ġkilograms":7744,"ensions":7745,"Ġradar":7746,"Ġrub":7747,"Ġcanal":7748,"Ġleagues":7749,"Ġguitars":7750,"ĠTruman":7751,"Ġmystery":7752,"sters":7753,"Ġstorms":7754,"Ġarts":7755,"Ġvillages":7756,"ĠRen":7757,"Ġ1905":7758,"Ġpossession":7759,"Ġ1908":7760,"Ġdollars":7761,"Ġtreaty":7762,"Ġscientists":7763,"ĠBaptist":7764,"Ġ1909":7765,"Ġsubmerged":7766,"Ġrounds":7767,"Ġcubic":7768,"ĠDudley":7769,"ĠKhan":7770,"Ġsurvive":7771,"ĠGuardian":7772,"iti":7773,"Ġlivestock":7774,"Ġcovering":7775,"ĠLegacy":7776,"action":7777,"Ġminimal":7778,"ida":7779,"Ġtasks":7780,"ĠHockey":7781,"Ġcrucial":7782,"mates":7783,"ĠBrisbane":7784,"Ġtelling":7785,"odies":7786,"ĠHills":7787,"Ġnewspapers":7788,"Ġsurprise":7789,"Ġmilk":7790,"ĠDeputy":7791,"ĠBeijing":7792,"ĠCarpenter":7793,"Ġwear":7794,"Ġloan":7795,"ati":7796,"ivated":7797,"active":7798,"ĠByzant":7799,"IS":7800,"Ġseeking":7801,"Ġposthumously":7802,"ĠAR":7803,"Ġanaly":7804,"Ġarriving":7805,"Ġhelping":7806,"Ġoccupation":7807,"Ġnervous":7808,"Ġess":7809,"Ġinadequate":7810,"Ġunlike":7811,"Ġvalues":7812,"Ġdispute":7813,"Ġchannels":7814,"Ġopinions":7815,"Ġtwin":7816,"uced":7817,"ĠRodrÃŃguez":7818,"Ġwet":7819,"unc":7820,"rupted":7821,"Ġrespond":7822,"bel":7823,"Ġsen":7824,"ods":7825,"Ġlegend":7826,"Ġoption":7827,"Ġbenefit":7828,"ĠKurt":7829,"ĠOpen":7830,"ographical":7831,"Ġsoil":7832,"ania":7833,"ĠFranklin":7834,"Ġfishing":7835,"ĠDave":7836,"Ġstruggle":7837,"ĠAlpha":7838,"Ġrepublic":7839,"Ġmarry":7840,"ĠPa":7841,"ĠMeyer":7842,"imeter":7843,"ĠTrust":7844,"ĠMeg":7845,"Ġcompromise":7846,"Ġ105":7847,"Ġbalance":7848,"agers":7849,"enc":7850,"acc":7851,"ĠKal":7852,"ĠAaron":7853,"Ġscr":7854,"Ġ125":7855,"roid":7856,"ibr":7857,"Ġ04":7858,"Ġteacher":7859,"ĠMobile":7860,"ĠComb":7861,"inated":7862,"Ġ1907":7863,"ĠWellington":7864,"ĠNash":7865,"ĠFlight":7866,"Ġfabric":7867,"Ġgauge":7868,"Ġensuing":7869,"Ġabsolute":7870,"yt":7871,"ori":7872,"Ġpublicly":7873,"Ġineff":7874,"ĠFeder":7875,"ĠSubsequent":7876,"tha":7877,"acle":7878,"ĠHong":7879,"Ġviolent":7880,"Ġcandidates":7881,"Ġresumed":7882,"Ġdangerous":7883,"ĠShelley":7884,"imm":7885,"Ġ164":7886,"Ġcompeted":7887,"Ġlemurs":7888,"ĠMonroe":7889,"Ġlisten":7890,"MS":7891,"Ġaristocr":7892,"Ġdies":7893,"Ġabilities":7894,"ĠSeymour":7895,"ĠPalestinian":7896,"Ġsup":7897,"Ġfraud":7898,"ĠRPG":7899,"Ġunveiled":7900,"Ġgarden":7901,"Ġeldest":7902,"Ġspl":7903,"Ġcrown":7904,"ĠPortland":7905,"Ġmulti":7906,"Ġcoordin":7907,"Ġintensified":7908,"ĠCole":7909,"Ġargument":7910,"Ġnominee":7911,"Ġunprecedented":7912,"Ġteaching":7913,"Ġadapt":7914,"Ġadvoc":7915,"Ġambassador":7916,"esh":7917,"emen":7918,"Ġassisted":7919,"Ġpoison":7920,"Ġdefeating":7921,"Ġelectronic":7922,"ĠPle":7923,"Ġlists":7924,"ĠHotel":7925,"ulating":7926,"ĠNag":7927,"ĠChoice":7928,"Ġnations":7929,"ĠWolf":7930,"ĠWolver":7931,"Ġserial":7932,"Ġsimpl":7933,"Ġrendezvous":7934,"adi":7935,"Ġrivers":7936,"ĠWard":7937,"ĠKarl":7938,"Ġsevent":7939,"ĠFemale":7940,"Ġenormous":7941,"ski":7942,"Ġassists":7943,"Ġfoundation":7944,"Ġast":7945,"ĠLad":7946,"Ġopponent":7947,"Ġinteresting":7948,"à¤":7949,"ĠMagn":7950,"ĠConn":7951,"Ġagricultural":7952,"Ġstabil":7953,"yll":7954,"oma":7955,"amas":7956,"Ġbusinesses":7957,"ĠIce":7958,"Ġbacking":7959,"ĠFranc":7960,"Ġsuitable":7961,"Ġ165":7962,"ĠCob":7963,"ĠMVP":7964,"rep":7965,"Ġmines":7966,"ĠRap":7967,"Ġsigning":7968,"Ġ1880":7969,"Ġsubmitted":7970,"Ġtunnel":7971,"Ġfifteen":7972,"Ġunderstanding":7973,"Ġtuberculosis":7974,"enna":7975,"ĠHemingway":7976,"elic":7977,"Ġinsufficient":7978,"ĠExpedition":7979,"face":7980,"Ġgrey":7981,"ĠBlues":7982,"ĠVenezuel":7983,"Ġciting":7984,"ĠHero":7985,"ĠWorks":7986,"iveness":7987,"Ġstroke":7988,"ĠChandler":7989,"Ġenrolled":7990,"ĠSpencer":7991,"ĠAdelaide":7992,"Ġwaves":7993,"ĠHalo":7994,"Ġorbit":7995,"ĠAlexand":7996,"ĠWWF":7997,"Ġdiseases":7998,"Ġworship":7999,"Ġspiritual":8000,"Ġsank":8001,"Ġsunk":8002,"Ġpercentage":8003,"ez":8004,"ĠNative":8005,"Ġparish":8006,"Ġforests":8007,"ĠArea":8008,"ĠVI":8009,"Ġforty":8010,"ĠHindu":8011,"ĠCurtis":8012,"ĠGeoffrey":8013,"Ġsituated":8014,"Ġsigns":8015,"opol":8016,"aken":8017,"Ġclosing":8018,"Ġsubjects":8019,"Ġmushroom":8020,"Ġanchor":8021,"ĠWarren":8022,"Ġvoiced":8023,"Ġdeclaration":8024,"ĠKings":8025,"Ġusual":8026,"Ġillness":8027,"Ġca":8028,"ĠAbraham":8029,"ĠAy":8030,"ĠHum":8031,"Ġrepairs":8032,"point":8033,"Ġrailroad":8034,"Ġresolution":8035,"ĠBox":8036,"Ġannoun":8037,"ĠPlymouth":8038,"CC":8039,"Ġspr":8040,"ĠSteven":8041,"har":8042,"Ġsuperv":8043,"ĠLucas":8044,"ĠGonz":8045,"Ġasking":8046,"ĠDest":8047,"Ġdisaster":8048,"Ġcollaboration":8049,"Äĥ":8050,"Ġ01":8051,"ĠApple":8052,"Ġattendance":8053,"Ġjoins":8054,"Ġinterference":8055,"Ġcust":8056,"Ġlieutenant":8057,"Ġevil":8058,"ĠEgyptian":8059,"ĠBreckinridge":8060,"Ġneg":8061,"Ġfeelings":8062,"Ġstring":8063,"rowned":8064,"Ġafraid":8065,"ĠCer":8066,"Ġjunction":8067,"ĠDaniels":8068,"sa":8069,"inations":8070,"Ġflights":8071,"Ġskull":8072,"ĠSurv":8073,"Ġsketch":8074,"Ġaffairs":8075,"Ġsuspended":8076,"Ġexit":8077,"odge":8078,"iar":8079,"Ġprol":8080,"ĠHancock":8081,"Ġrifle":8082,"pet":8083,"Ġwilling":8084,"ĠJosh":8085,"ĠLouisiana":8086,"Ġsupernatural":8087,"ĠTamil":8088,"ĠRace":8089,"Ġlect":8090,"Ġrecre":8091,"Ġ1906":8092,"ĠFer":8093,"ĠLam":8094,"ĠMack":8095,"Ġaffair":8096,"Ġlob":8097,"Ġoperational":8098,"ĠMcL":8099,"ĠHistoric":8100,"ĠCelebr":8101,"ĠWimbledon":8102,"ĠVis":8103,"Ġabol":8104,"Ġ360":8105,"Ġpoorly":8106,"ĠLabour":8107,"ĠTelugu":8108,"Ġhor":8109,"Ġmeasured":8110,"Ġ1904":8111,"Ġprofessor":8112,"Ġmountains":8113,"ĠBaldwin":8114,"ĠTasman":8115,"Ġfiled":8116,"ĠNa":8117,"ipped":8118,"Ġaimed":8119,"ĠAgricult":8120,"Ġinscriptions":8121,"Ġcircuit":8122,"Ġ1870":8123,"ĠUsher":8124,"Ġredesign":8125,"Ġcurrency":8126,"hu":8127,"iously":8128,"fish":8129,"ĠDragon":8130,"ĠTwenty":8131,"Ġstatue":8132,"Ġfavorable":8133,"ĠHergÃ©":8134,"ĠZagreb":8135,"Ġelder":8136,"ĠPreston":8137,"Ġliked":8138,"ĠLtd":8139,"ĠCow":8140,"Ġrecognised":8141,"Ġexplosion":8142,"ĠBilly":8143,"ĠHarvey":8144,"Ġjazz":8145,"otypes":8146,"Ġprestigious":8147,"ĠYe":8148,"Ġunaware":8149,"ĠEuro":8150,"Ġsector":8151,"ĠArchitect":8152,"Ġdelay":8153,"Ġsequences":8154,"ĠCritics":8155,"idel":8156,"Ġreplacing":8157,"Ġfifty":8158,"lam":8159,"hurst":8160,"ĠIUCN":8161,"ĠGuatemala":8162,"uce":8163,"Ġshells":8164,"Ġoffering":8165,"grade":8166,"Ġcyl":8167,"Ġfeud":8168,"ĠIndependent":8169,"ĠBengal":8170,"Ġwore":8171,"ĠRing":8172,"Ġresidence":8173,"iety":8174,"Ġ03":8175,"bb":8176,"ighth":8177,"ĠSkinner":8178,"ĠCapitol":8179,"ĠTolkien":8180,"Ġhun":8181,"ĠMess":8182,"issions":8183,"Ġreflected":8184,"Ġrestoration":8185,"ĠCharacter":8186,"ĠNov":8187,"Ġalliance":8188,"Ġprime":8189,"Ġexpensive":8190,"alysis":8191,"Ġmassacre":8192,"ĠHawaiian":8193,"ni":8194,"ĠConcer":8195,"Ġoccasion":8196,"umble":8197,"Ġterror":8198,"Ġfatal":8199,"ĠEdmonton":8200,"asant":8201,"enberg":8202,"ĠPenn":8203,"Ġtouring":8204,"ĠSpec":8205,"ĠMos":8206,"Ġseed":8207,"ĠIndustrial":8208,"ĠTrinidad":8209,"Ġcompleting":8210,"Ġamongst":8211,"Ġthinking":8212,"Ġdece":8213,"ĠLancaster":8214,"Ġsuggesting":8215,"Ġbanks":8216,"ĠMaur":8217,"ĠMcK":8218,"ĠMes":8219,"ĠNear":8220,"Ġdetail":8221,"Ġlicensed":8222,"Ġwonder":8223,"ĠSeven":8224,"ĠCuba":8225,"Ġtherapy":8226,"Ġuprising":8227,"Ġneighbouring":8228,"Ġdirectors":8229,"Ġtribes":8230,"Ġcoverage":8231,"ĠIll":8232,"erk":8233,"Ġbay":8234,"Ġdecides":8235,"Ġinstruction":8236,"ĠGuide":8237,"Ġwasn":8238,"Ġamounts":8239,"Ġclin":8240,"par":8241,"Ġfat":8242,"rage":8243,"estone":8244,"ĠEdge":8245,"Ġbarely":8246,"Ġdescendants":8247,"ution":8248,"Ġlacked":8249,"Ġcooperation":8250,"Ġmushrooms":8251,"ĠSyracuse":8252,"enz":8253,"Ġracing":8254,"ĠSnow":8255,"Ġcommunication":8256,"Ġclearly":8257,"Ġmembrane":8258,"ĠLov":8259,"Ġpatterns":8260,"anced":8261,"ĠFiles":8262,"Ġcomfort":8263,"Ġdeeper":8264,"Ġcorridor":8265,"Ġengagement":8266,"Ġfed":8267,"amps":8268,"Ġownership":8269,"Ġargues":8270,"ĠChesapeake":8271,"ota":8272,"abl":8273,"Ġmarks":8274,"uary":8275,"Ġfemin":8276,"Ġoutdoor":8277,"Ġambitious":8278,"oming":8279,"ĠTag":8280,"ĠNap":8281,"elli":8282,"Ġsaved":8283,"ĠPS":8284,"ĠIndies":8285,"Ġarmored":8286,"Ġfuselage":8287,"Ġibn":8288,"ĠSony":8289,"Ġcolonies":8290,"ĠPersian":8291,"Ġwicket":8292,"Ġdrove":8293,"Ġgang":8294,"Ġcontributions":8295,"Ġmerchant":8296,"Ġsolution":8297,"ĠIns":8298,"Ġprint":8299,"Ġfastest":8300,"Ġdoctor":8301,"Ġartistic":8302,"Ġadministrative":8303,"ĠScout":8304,"ĠSuch":8305,"ĠSierra":8306,"rh":8307,"Ġcharacterized":8308,"Ãº":8309,"Ġtag":8310,"ĠLeipzig":8311,"Ġcurriculum":8312,"ĠMarie":8313,"Ġboundary":8314,"ĠMath":8315,"Ġgreet":8316,"ĠIstanbul":8317,"Ġrising":8318,"Ġmilitia":8319,"Ġkings":8320,"Ġ115":8321,"Ġbattlecruiser":8322,"Ġconcurrency":8323,"anz":8324,"ĠGrey":8325,"oga":8326,"Ġcrews":8327,"Ġarmament":8328,"ĠEcon":8329,"Ġbadly":8330,"Ġom":8331,"Ġdepending":8332,"Ġtobacco":8333,"ĠZimbabwe":8334,"ĠConfederate":8335,"Ġflagship":8336,"Ã£o":8337,"Ġunemploy":8338,"orer":8339,"ĠSyn":8340,"Ġearning":8341,"uma":8342,"Ġgenetic":8343,"Ġdistinctive":8344,"Ġkitchen":8345,"ĠParachute":8346,"Ġbowling":8347,"nik":8348,"Ġexplains":8349,"Ġbulk":8350,"Ġideal":8351,"Ġnotice":8352,"Ġrecip":8353,"Ġabd":8354,"Ġing":8355,"acon":8356,"Ġexcav":8357,"Ġfallen":8358,"Ġaggregate":8359,"ĠParamount":8360,"ĠPrincipal":8361,"Ġranks":8362,"Ġspend":8363,"Ġcontext":8364,"Ġtrophy":8365,"ĠShanghai":8366,"ĠDeclaration":8367,"Ġfrust":8368,"Ġcomparison":8369,"Ġthrew":8370,"ĠNothing":8371,"Ġeliminate":8372,"ĠGiovanni":8373,"ĠCour":8374,"ĠLiz":8375,"Ġdemonstrated":8376,"lex":8377,"ĠNik":8378,"Ġexplain":8379,"Ġranging":8380,"aro":8381,"Ġrough":8382,"ĠBridg":8383,"Ġsac":8384,"ĠKnow":8385,"Ġpoems":8386,"ĠSmall":8387,"ĠChairman":8388,"Ġinland":8389,"Ġassign":8390,"Ġ174":8391,"Ġcontrols":8392,"Ġfurniture":8393,"life":8394,"rist":8395,"ached":8396,"ĠGor":8397,"Ġriders":8398,"Ġsisters":8399,"ĠAmy":8400,"Ġreserved":8401,"Ġauxiliary":8402,"Ġunbeaten":8403,"Ġblocks":8404,"Ġloop":8405,"Ġpractices":8406,"ĠkW":8407,"houses":8408,"Ġacquisition":8409,"Ġwants":8410,"ĠMrs":8411,"Ġmental":8412,"ĠLGBT":8413,"stream":8414,"Ġgap":8415,"Ġlyric":8416,"ĠMongol":8417,"Ġunusually":8418,"Ġfaster":8419,"acement":8420,"Ġelectron":8421,"Ġconservative":8422,"ĠBroadway":8423,"ĠABC":8424,"Ġwider":8425,"Ġmemorable":8426,"ĠPitchfork":8427,"ĠShepherd":8428,"zz":8429,"Ġshield":8430,"Ġdominant":8431,"ĠArctic":8432,"sky":8433,"ibly":8434,"Ġobstacles":8435,"Ġcaution":8436,"Ġreversed":8437,"Ġconjunction":8438,"Ġexperts":8439,"Ġsurge":8440,"Ġspotted":8441,"Ġstores":8442,"ĠZe":8443,"ĠBarry":8444,"ĠAf":8445,"Ġmeat":8446,"Ġ1901":8447,"Ġreaches":8448,"Ġdistinguished":8449,"birds":8450,"asts":8451,"Ġnorthward":8452,"Ġsubstance":8453,"Ġevolved":8454,"Ġexhibition":8455,"Ġrestaurants":8456,"ĠSaskatchewan":8457,"Ġplus":8458,"Ġapplication":8459,"Ġkeeps":8460,"TV":8461,"Ġcert":8462,"Ġgate":8463,"ĠStarting":8464,"onym":8465,"ĠAustrian":8466,"Ġartifacts":8467,"ĠiPhone":8468,"Ġhat":8469,"acked":8470,"Ġquarterback":8471,"Ġnominations":8472,"ĠWindsor":8473,"ĠSacramento":8474,"Ġpace":8475,"Ġagency":8476,"Ġtriple":8477,"Ġlifestyle":8478,"Ġwars":8479,"Ġframe":8480,"ĠDS":8481,"Ġprepare":8482,"Ġhouseholds":8483,"Ġprogression":8484,"Ġtunnels":8485,"Ġpredicted":8486,"Ġpalace":8487,"ĠVishnu":8488,"Ġretail":8489,"LC":8490,"ouch":8491,"Ġfestivals":8492,"ĠSolomon":8493,"EC":8494,"Ġslaves":8495,"Ġ1903":8496,"urer":8497,"ashed":8498,"Ġmuzzle":8499,"ĠKoreans":8500,"Ġmanifest":8501,"Ġequilibrium":8502,"craft":8503,"Ġerosion":8504,"Ġ155":8505,"Ġ1902":8506,"akh":8507,"ĠStalin":8508,"lu":8509,"Ġvs":8510,"azing":8511,"Ġarticles":8512,"Ġprinted":8513,"PA":8514,"Ġfer":8515,"Ġvast":8516,"Ġ02":8517,"ĠMonday":8518,"ĠBerkeley":8519,"Ġattained":8520,"ĠPerry":8521,"Ġrepeatedly":8522,"Ġpup":8523,"iral":8524,"ĠRub":8525,"ĠLex":8526,"Ġfixed":8527,"Ġstere":8528,"ĠScharnhorst":8529,"Ġallies":8530,"abs":8531,"Ġstrict":8532,"Ġsignal":8533,"ĠInvestig":8534,"ĠWednesday":8535,"ĠThanhouser":8536,"Ġpeaking":8537,"Ġes":8538,"Ġphilosophy":8539,"Ġamendment":8540,"Ġyield":8541,"itis":8542,"Ġboss":8543,"Ġstriking":8544,"lew":8545,"OT":8546,"ifts":8547,"ĠHann":8548,"Ġsuburb":8549,"ĠIg":8550,"Ġcameras":8551,"Ġinhabited":8552,"ĠAlbum":8553,"ĠDet":8554,"Ġchoose":8555,"Ġseriously":8556,"ĠDenmark":8557,"ĠBaby":8558,"ĠLas":8559,"ĠLess":8560,"Ġapartment":8561,"Ġremarked":8562,"oa":8563,"ĠTon":8564,"ĠRidge":8565,"Ġwestward":8566,"Ġuseful":8567,"Ġwaiting":8568,"ĠBulgaria":8569,"ocking":8570,"Ġpredict":8571,"Ġnearest":8572,"Ġmetabol":8573,"ĠBroadcasting":8574,"Ġtight":8575,"Ġcoinc":8576,"ĠPlayers":8577,"ĠShaw":8578,"ĠCommercial":8579,"Ġdrugs":8580,"Ġmeetings":8581,"ror":8582,"ĠCat":8583,"Ġorgans":8584,"ĠCretaceous":8585,"Ġdollar":8586,"Å«":8587,"Ġsick":8588,"ĠJohnny":8589,"Ġphone":8590,"Ġsky":8591,"Ġlayer":8592,"ĠRico":8593,"Ġcivilian":8594,"ĠChallenge":8595,"ĠRoll":8596,"ding":8597,"Ġarmour":8598,"Ġreaders":8599,"Ġ101":8600,"ĠWinnipeg":8601,"Ġreject":8602,"Ġcolleges":8603,"ĠLes":8604,"ĠInn":8605,"Ġmatters":8606,"ental":8607,"Ġcasting":8608,"Ġhorn":8609,"Ġstrengthened":8610,"ĠBang":8611,"Ġvisiting":8612,"Ġplanets":8613,"ĠJuan":8614,"ĠMaj":8615,"Ġinsp":8616,"Ġ168":8617,"Ġid":8618,"Ġsimilarly":8619,"Ġensemble":8620,"Ġmarijuana":8621,"ĠEdwards":8622,"Ġlegacy":8623,"ĠMol":8624,"Ġalternate":8625,"cles":8626,"hen":8627,"ois":8628,"rus":8629,"Ġdemanded":8630,"Ġbreath":8631,"Ġlegitimate":8632,"ĠGlobal":8633,"onial":8634,"Ġpanel":8635,"Ġjustice":8636,"Ġbrigades":8637,"ĠSpielberg":8638,"omen":8639,"Ġenlisted":8640,"ĠFletcher":8641,"ĠSoul":8642,"Ġalive":8643,"Ġbombs":8644,"Ġinsisted":8645,"Ġrookie":8646,"Ġeleventh":8647,"ĠLaura":8648,"Ġconstellation":8649,"ĠPrize":8650,"Ġhook":8651,"Ġshipping":8652,"ĠKeith":8653,"Ġcompensation":8654,"ĠSouthampton":8655,"mith":8656,"ĠKir":8657,"ĠJimmy":8658,"Ġroots":8659,"Ġtack":8660,"Ġpromised":8661,"Ġrevenue":8662,"Ġextend":8663,"Ġbombing":8664,"Ġdemands":8665,"Ġgenuine":8666,"ĠPlatinum":8667,"Ġchronic":8668,"ĠPirates":8669,"ĠPatton":8670,"Ġdefinitely":8671,"Ġinappropriate":8672,"enson":8673,"aughter":8674,"Ġmerc":8675,"ogn":8676,"Ġpersonally":8677,"Ġlanes":8678,"Ġathletes":8679,"rov":8680,"Ġconsole":8681,"Ġmainland":8682,"Ġdrivers":8683,"Ġstruggled":8684,"Ġdefinition":8685,"eek":8686,"Ġlooks":8687,"ĠNOK":8688,"Ġportions":8689,"Ġbacked":8690,"Ġorchestra":8691,"Ġaudition":8692,"Ġsung":8693,"ng":8694,"ĠArtillery":8695,"elt":8696,"Ġdemocr":8697,"ĠCost":8698,"Ġspawned":8699,"Ġunpopular":8700,"Ġartwork":8701,"Ġguitarist":8702,"Ġcockpit":8703,"ĠWehrmacht":8704,"Ġjobs":8705,"mi":8706,"eland":8707,"ĠRugby":8708,"Ġentertaining":8709,"Ġprob":8710,"Ġ166":8711,"ĠProd":8712,"Ġmarketing":8713,"ĠInf":8714,"Ġarmies":8715,"á»":8716,"Ġcoffee":8717,"Ġtap":8718,"stituted":8719,"ĠGray":8720,"Ġcomputers":8721,"ĠTreasury":8722,"ĠTracy":8723,"Ġdancing":8724,"ĠLost":8725,"Ġstarring":8726,"ĠFurthermore":8727,"Ġruling":8728,"ĠStefani":8729,"inding":8730,"Ġfeels":8731,"ĠVik":8732,"ĠObama":8733,"eer":8734,"ĠAS":8735,"ĠNine":8736,"Ġincreases":8737,"Ġquiet":8738,"Ġfactory":8739,"Ġprofile":8740,"ĠBismarck":8741,"ĠBomb":8742,"utions":8743,"ĠSet":8744,"Ġ109":8745,"rate":8746,"Ġpunk":8747,"oker":8748,"Ġmining":8749,"Ġheading":8750,"Ġstomach":8751,"Ġtheater":8752,"esty":8753,"ĠStat":8754,"Ġcounties":8755,"Ġretrospect":8756,"Ġtestimony":8757,"Ġpages":8758,"Ġexpression":8759,"Ġorganisation":8760,"Ġaffect":8761,"tery":8762,"oped":8763,"Ġbelieving":8764,"Ġconstitution":8765,"Ġappoint":8766,"Ġdiscovers":8767,"Ġforbidden":8768,"ĠMunicipal":8769,"ĠChild":8770,"Ġpatron":8771,"Ġcapabilities":8772,"ĠBaker":8773,"Ġsalt":8774,"Ġdelivery":8775,"Ġclothing":8776,"Ġunnamed":8777,"Ġsomewhere":8778,"Ġstick":8779,"opp":8780,"Ġports":8781,"Ġrelevant":8782,"Ġdrainage":8783,"Ġmagic":8784,"ĠColumbus":8785,"Ġkiss":8786,"Ġmobile":8787,"Ġcup":8788,"Ġdisastrous":8789,"Ġcrest":8790,"annon":8791,"Ġelevation":8792,"Ġextract":8793,"ĠAbd":8794,"ĠGirls":8795,"ĠBobby":8796,"ĠWayne":8797,"ĠIran":8798,"Ġbin":8799,"Ġadvent":8800,"changes":8801,"ĠUniverse":8802,"Ġdoubt":8803,"Ġsecretary":8804,"Ġsq":8805,"Ġaccum":8806,"Ġforecast":8807,"Ġilleg":8808,"ĠCitiz":8809,"Ġengage":8810,"ĠEuropa":8811,"Ġbid":8812,"OS":8813,"aman":8814,"ĠPeace":8815,"anton":8816,"enger":8817,"vy":8818,"irty":8819,"Ġaltered":8820,"ĠMorrison":8821,"Ġmayor":8822,"aux":8823,"ĠBeyond":8824,"Ġwarriors":8825,"ĠRights":8826,"ĠBath":8827,"Ġpool":8828,"ĠGreeks":8829,"ĠCunningham":8830,"ĠPast":8831,"Ġtwelfth":8832,"Ġdefences":8833,"ĠAberdeen":8834,"Ġenvisioned":8835,"Ġamalgam":8836,"Ġerected":8837,"Ġrenov":8838,"Ġanywhere":8839,"ingu":8840,"Ġgovern":8841,"Ġcry":8842,"Ġstress":8843,"Ġcompounds":8844,"earing":8845,"ĠFriday":8846,"Ġsoldier":8847,"Ġsettlers":8848,"Ġmusician":8849,"Ġunderneath":8850,"Ġendorsed":8851,"asy":8852,"building":8853,"ĠAmsterdam":8854,"Ġpale":8855,"Ġlegislature":8856,"Ġmeter":8857,"ĠSpart":8858,"ĠQuarter":8859,"ĠHoll":8860,"Ġobjective":8861,"ĠCommunity":8862,"ĠEth":8863,"aneous":8864,"Ġdiamond":8865,"Ġnickel":8866,"ĠHebrew":8867,"Ġdecisions":8868,"Ġhighways":8869,"Ġraising":8870,"Ġconversion":8871,"boy":8872,"Ġcongregation":8873,"Ġlemur":8874,"Ġaccordance":8875,"ĠRat":8876,"ĠAllies":8877,"ĠDie":8878,"Ġconcentration":8879,"Ġsolar":8880,"Ġhyp":8881,"ĠDefence":8882,"ĠUltimately":8883,"Ġsum":8884,"etown":8885,"Ġcampaigns":8886,"Ġsitting":8887,"ĠMS":8888,"Ġnamely":8889,"ĠEugene":8890,"ĠâĤ¬":8891,"Ġextraordinary":8892,"Ġindicating":8893,"ifies":8894,"Ġexactly":8895,"Ġmaturity":8896,"ĠEy":8897,"Ġprove":8898,"ĠPruss":8899,"ĠForeign":8900,"Ġcommerce":8901,"ĠElsewhere":8902,"Ġorganised":8903,"Ġacknowledged":8904,"Ġwealthy":8905,"amine":8906,"ĠBatt":8907,"ĠLen":8908,"raz":8909,"ĠJustin":8910,"Ġpermitted":8911,"ĠDerek":8912,"Ġimprisonment":8913,"Ġradical":8914,"Ġwrestling":8915,"Ġtrouble":8916,"ĠFitzgerald":8917,"ĠNuclear":8918,"Ġimprovements":8919,"Ġrealized":8920,"Ġski":8921,"Ġgraduated":8922,"Ġdressed":8923,"ĠTed":8924,"ĠWindows":8925,"Ġdism":8926,"ĠBoys":8927,"Ġappropriate":8928,"Ġconfron":8929,"Ġsafely":8930,"Ġdorsal":8931,"Ġexecution":8932,"Ġextinction":8933,"Ġjudgment":8934,"hard":8935,"Ġtort":8936,"Ġbath":8937,"ĠLat":8938,"Ġcompound":8939,"Ġobservations":8940,"Ġsubstantially":8941,"Ġalgorith":8942,"ĠRy":8943,"Ġraids":8944,"ĠOutstanding":8945,"Ġkeyboards":8946,"Ġinexperienced":8947,"Ġencl":8948,"Ġprofit":8949,"Ġinterpretation":8950,"ĠRebecca":8951,"Ġfewer":8952,"Ġtravels":8953,"Ġcatalog":8954,"Ġenacted":8955,"Ġbu":8956,"Ġpublications":8957,"Ġcelebrated":8958,"Ġvenue":8959,"Ġsang":8960,"ĠKo":8961,"Ġinitiated":8962,"ĠSoundtrack":8963,"gie":8964,"Ġbrick":8965,"ĠSeason":8966,"Ġturret":8967,"ĠGary":8968,"resc":8969,"Ġtheatrical":8970,"Ġchapel":8971,"Ġalbeit":8972,"ĠAssociated":8973,"icul":8974,"Ġpublishing":8975,"Ġrequires":8976,"ocation":8977,"Ġ152":8978,"Ġevacuated":8979,"Ġmillimetres":8980,"itudes":8981,"ivation":8982,"ĠLion":8983,"ĠMint":8984,"Ġdebt":8985,"Ġcopyright":8986,"eries":8987,"Ġorigins":8988,"Ġoriginated":8989,"Ġfounding":8990,"Ġded":8991,"ĠBeth":8992,"ĠJoyce":8993,"Ġstationed":8994,"ĠMand":8995,"ĠGate":8996,"ags":8997,"Ġconnect":8998,"Ġsocieties":8999,"ti":9000,"Ġdisadvant":9001,"Ġdischarged":9002,"Ġestablishing":9003,"Ġdefending":9004,"ĠSunderland":9005,"Ġho":9006,"Ġlie":9007,"Ġconsidering":9008,"Ġsteps":9009,"Ġmac":9010,"ĠSig":9011,"Ġshorter":9012,"Ġarrangements":9013,"Ġthroat":9014,"Ġbones":9015,"aja":9016,"Ġcutting":9017,"ĠChampions":9018,"Ġmurders":9019,"Ġpreservation":9020,"inter":9021,"ĠMountains":9022,"eter":9023,"ĠDrive":9024,"ĠFernando":9025,"ĠPresbyterian":9026,"Ġcomed":9027,"ĠSalisbury":9028,"ĠTNA":9029,"Ã¦":9030,"Ġaspect":9031,"Ġ173":9032,"Ġconnecting":9033,"ĠBrighton":9034,"ĠAndrÃ©":9035,"Ġmitochond":9036,"ĠJar":9037,"Ġapproaching":9038,"ĠOur":9039,"Ġhosts":9040,"Ġdonated":9041,"ĠBradman":9042,"Ġwalking":9043,"ĠChampion":9044,"Ġgro":9045,"ĠLib":9046,"ĠNi":9047,"ista":9048,"essed":9049,"Ġplacing":9050,"Ġstrategic":9051,"ĠPopMatters":9052,"Ġunre":9053,"Ġinsects":9054,"ĠPrim":9055,"Ġlying":9056,"ĠTriple":9057,"ĠAdministration":9058,"ĠConf":9059,"Ġinflicted":9060,"ĠAmbassador":9061,"bow":9062,"Ġdiscussion":9063,"Ġcontrary":9064,"itan":9065,"Ġoutl":9066,"Ġ104":9067,"Ġfunny":9068,"Ġtalent":9069,"ubb":9070,"Ġyoungest":9071,"Ġedited":9072,"ĠTem":9073,"Ġglac":9074,"ĠHIV":9075,"ĠRIAA":9076,"ĠJer":9077,"ĠAlice":9078,"Ġclosest":9079,"à¸":9080,"Ġqualified":9081,"Ġgathered":9082,"Ġpocket":9083,"ĠNathan":9084,"Ġhighlights":9085,"hol":9086,"Ġforth":9087,"itated":9088,"Ġpowder":9089,"ĠBern":9090,"ipper":9091,"atches":9092,"Ġvolumes":9093,"ĠAxis":9094,"ĠCambod":9095,"aternity":9096,"ĠPetersburg":9097,"ĠSay":9098,"ĠBase":9099,"Ġgray":9100,"Ġputting":9101,"Ġindicates":9102,"Ġcoup":9103,"ĠNorton":9104,"ĠBuenos":9105,"feld":9106,"Ġstrongest":9107,"Ġwithdrawal":9108,"Ġ1860":9109,"Ġsophomore":9110,"Ġembedded":9111,"ĠGene":9112,"angel":9113,"Ġdecide":9114,"Ġ1893":9115,"ĠPortsmouth":9116,"Ġavailability":9117,"Ġangle":9118,"Ġsupplied":9119,"je":9120,"ground":9121,"Ġmarkets":9122,"Ġidentify":9123,"Ġrig":9124,"ache":9125,"ĠScotia":9126,"Ġcircle":9127,"Ġarchipelago":9128,"Ġreferendum":9129,"Ġconfront":9130,"Ġmerely":9131,"Ġ1896":9132,"ĠRebellion":9133,"Ġbull":9134,"ĠKl":9135,"Ġpartial":9136,"Ġchallenged":9137,"ĠMik":9138,"angle":9139,"ĠReserve":9140,"ĠHonor":9141,"Ġbeam":9142,"Ġfault":9143,"ĠImp":9144,"ĠPotter":9145,"ĠMission":9146,"Ġshift":9147,"terfly":9148,"cliffe":9149,"ĠElliott":9150,"Ġvisits":9151,"Ġlimits":9152,"TS":9153,"ĠPam":9154,"Ġfeeding":9155,"ĠNonetheless":9156,"rain":9157,"ĠOliver":9158,"Ġhydrogen":9159,"Ġbotan":9160,"ĠBesides":9161,"ĠInformation":9162,"Ġendangered":9163,"Ġsuburbs":9164,"ĠPakistani":9165,"fect":9166,"ĠTob":9167,"ĠThr":9168,"ĠSud":9169,"ĠThose":9170,"ĠAbb":9171,"Ġmunicipal":9172,"ĠSicily":9173,"ĠFerrari":9174,"ĠDuchess":9175,"ĠDod":9176,"Ġoutf":9177,"ĠMarvel":9178,"Ġprize":9179,"Ġeducational":9180,"ioc":9181,"usc":9182,"Ġplain":9183,"ĠSom":9184,"ĠMick":9185,"Ġattribut":9186,"ĠFlying":9187,"Ġseized":9188,"Ġsubd":9189,"Ġduo":9190,"ĠYears":9191,"Ġannually":9192,"Ġmeteor":9193,"Ġbarracks":9194,"Ġbearing":9195,"Ġcorps":9196,"Ġconcentrated":9197,"Ġtopped":9198,"iper":9199,"Ġmembership":9200,"Ġattending":9201,"Ġ1898":9202,"vert":9203,"ĠVictorian":9204,"Ġassembly":9205,"Ġvarieties":9206,"Ġrehabilitation":9207,"ĠType":9208,"ĠCharts":9209,"Ġranges":9210,"uf":9211,"Ġtip":9212,"aches":9213,"ĠHugo":9214,"Ġ172":9215,"Ġdogs":9216,"Ġoffense":9217,"Ġbell":9218,"Ġdial":9219,"Ġnavy":9220,"Ġbishops":9221,"Ġdinosaurs":9222,"Ġphenomena":9223,"ĠBrezhnev":9224,"uj":9225,"ĠHold":9226,"ĠPink":9227,"Ġemphasis":9228,"ĠPersonal":9229,"ĠMaple":9230,"ĠCaesar":9231,"ĠHyd":9232,"Ġexaggerated":9233,"ential":9234,"Ġweekly":9235,"Ġ350":9236,"Ġorganisations":9237,"Ġproductions":9238,"Ġexercise":9239,"Ġticket":9240,"Ġunless":9241,"Ġtalking":9242,"Ġinvestigate":9243,"ĠList":9244,"ĠMonte":9245,"ĠKriegsmarine":9246,"ĠOh":9247,"Ġuncom":9248,"Ġtrough":9249,"Ġbasin":9250,"aze":9251,"Ã¼r":9252,"Ġanime":9253,"ĠFinally":9254,"Ġpuzzles":9255,"ĠMumbai":9256,"ĠNever":9257,"Ġpromotional":9258,"ĠKap":9259,"Ġtremendous":9260,"ĠBron":9261,"Ġ111":9262,"ĠAssistant":9263,"case":9264,"Ã°":9265,"Ġbone":9266,"ĠDemocrats":9267,"Ġrepertoire":9268,"rise":9269,"ĠMother":9270,"Ġterrestrial":9271,"Ġfract":9272,"Ġportrayal":9273,"ĠBeat":9274,"Ġfortress":9275,"Ġflooded":9276,"Ġceased":9277,"Ġinconsist":9278,"ĠCanberra":9279,"ĠEurasian":9280,"Ġsurveillance":9281,"yth":9282,"Ġ127":9283,"owski":9284,"Ġadvertising":9285,"Ġfill":9286,"Ġobservers":9287,"Ġborrowed":9288,"ĠBriarcliff":9289,"Ġregime":9290,"ĠArgentina":9291,"Ġbirthday":9292,"Ġconservation":9293,"Ġjury":9294,"iffs":9295,"Ġinvent":9296,"Ġemployment":9297,"Ġpersons":9298,"Ġisotopes":9299,"Ġmaritime":9300,"oup":9301,"Ġoutput":9302,"Ġqueen":9303,"ĠConvention":9304,"Ġsending":9305,"ĠWhere":9306,"ĠChristianity":9307,"ĠLopez":9308,"ĠConcord":9309,"Ġattitude":9310,"Ġphotographs":9311,"Ġexperimental":9312,"Ġbishop":9313,"oons":9314,"ĠAI":9315,"ĠBrothers":9316,"pin":9317,"Ġhitting":9318,"Ġquestioned":9319,"Ġmineral":9320,"ĠJerry":9321,"Ġballad":9322,"oviÄĩ":9323,"Ġguide":9324,"ĠOverall":9325,"ĠNME":9326,"odes":9327,"Ġscar":9328,"Ġdrinking":9329,"Ġdistant":9330,"Ġtranslation":9331,"ĠPearson":9332,"ĠEagles":9333,"asa":9334,"ĠRab":9335,"Ġris":9336,"Ġunclear":9337,"Ġmature":9338,"Ġconfiguration":9339,"ĠFund":9340,"Ġ1899":9341,"Ġdesert":9342,"Ġreplied":9343,"ĠAndre":9344,"Ġassembled":9345,"ĠRecreation":9346,"Ġtor":9347,"aus":9348,"Ġclock":9349,"Ġcens":9350,"itary":9351,"Ġrepresentatives":9352,"Ġliberal":9353,"Ġcongestion":9354,"alia":9355,"Ġcoat":9356,"Ġlawyer":9357,"ĠMarge":9358,"ĠBooks":9359,"Ġdrift":9360,"iblical":9361,"ayan":9362,"Ġcommentary":9363,"Ġwire":9364,"ologies":9365,"Ġtrilogy":9366,"Ġimagery":9367,"ĠFinland":9368,"ĠTampa":9369,"ĠGlastonbury":9370,"ĠAT":9371,"ĠMaya":9372,"ĠSid":9373,"ĠSex":9374,"ĠNad":9375,"Ġchest":9376,"Ġloved":9377,"Ġoversee":9378,"Ġunw":9379,"ĠDep":9380,"ĠHowe":9381,"Ġwait":9382,"ĠTak":9383,"ersed":9384,"uki":9385,"Ġterrain":9386,"Ġchoreograph":9387,"Ġdescriptions":9388,"icing":9389,"Ġslave":9390,"Ġexclusive":9391,"Ġduration":9392,"ĠTurner":9393,"Ġelectricity":9394,"Ġwish":9395,"ĠStock":9396,"eeper":9397,"Ġdrag":9398,"Ġmovies":9399,"Ġ108":9400,"Ġinvertebrates":9401,"Ġdevast":9402,"ĠWii":9403,"Ġportrays":9404,"Ġexpert":9405,"Ġfriendship":9406,"Ġsurrendered":9407,"Ġarrives":9408,"Ġtenure":9409,"ĠNeither":9410,"ĠHonduras":9411,"Ġstronger":9412,"Ġidentical":9413,"ĠLin":9414,"Ġburial":9415,"Ġsin":9416,"eto":9417,"Ġjump":9418,"Ġsuccession":9419,"ĠCecil":9420,"Ġpersuade":9421,"ĠSimilarly":9422,"Ġbeats":9423,"Ġheir":9424,"ĠHardy":9425,"Ġtoss":9426,"Ġprominence":9427,"Ġreverse":9428,"Ġcharter":9429,"Ġ169":9430,"ĠHeritage":9431,"ĠProfessor":9432,"ĠBoat":9433,"Ġwavelength":9434,"Ġmarsh":9435,"ĠDin":9436,"Ġchambers":9437,"Ġfrigates":9438,"ĠSign":9439,"place":9440,"Ġtooth":9441,"ĠVill":9442,"ĠBurton":9443,"ĠRodriguez":9444,"gate":9445,"ĠFat":9446,"Ġtrading":9447,"Ġprev":9448,"Ġpenet":9449,"ĠLem":9450,"Ġwatershed":9451,"Ġdiff":9452,"illes":9453,"Ġspaces":9454,"Ġdestroying":9455,"ĠNicholas":9456,"Ġfailing":9457,"Ġmechanical":9458,"ĠFel":9459,"ĠShak":9460,"Ġcompeting":9461,"uz":9462,"oria":9463,"ĠGlen":9464,"Ġexclusively":9465,"Ġwelcome":9466,"Ġcad":9467,"ĠCommunist":9468,"Ġpublisher":9469,"ĠAdriatic":9470,"ĠPhilosoph":9471,"Ġcomponent":9472,"Ġquad":9473,"Ġatomic":9474,"Ġstops":9475,"Ġ1850":9476,"ĠBak":9477,"Ġundergo":9478,"Ġreinst":9479,"Ġenlarged":9480,"Ġundefeated":9481,"Ġaforementioned":9482,"Ġburn":9483,"alling":9484,"ĠEmmy":9485,"Ġdict":9486,"ĠGw":9487,"ĠThunder":9488,"Ġdevelopers":9489,"ds":9490,"Ġask":9491,"Ġdevices":9492,"Ġpneum":9493,"Ġtraded":9494,"Ġgovernments":9495,"Ġpolar":9496,"ĠMann":9497,"ĠRud":9498,"ĠTradition":9499,"ĠRetrieved":9500,"Ġtongue":9501,"olithic":9502,"Ġresponses":9503,"Ġreward":9504,"ĠSwift":9505,"Ġconsistent":9506,"ĠSak":9507,"iga":9508,"ĠLiving":9509,"riage":9510,"Ġenfor":9511,"Ġcenters":9512,"ĠMedical":9513,"Ġbanned":9514,"ĠLiberal":9515,"kh":9516,"Ġobsc":9517,"onian":9518,"Ġflowers":9519,"Ġaugment":9520,"Ġisolation":9521,"ĠIndivid":9522,"Ġprehistoric":9523,"ĠBour":9524,"ĠDiamond":9525,"Ġtube":9526,"ensis":9527,"Ġradiation":9528,"ĠHughes":9529,"bur":9530,"Ġwaste":9531,"Ġdecay":9532,"Ġconsiders":9533,"Ġplatforms":9534,"Ġvirus":9535,"Ġfail":9536,"Ġcentimetres":9537,"ĠDeep":9538,"ĠLook":9539,"Ġresist":9540,"ĠShip":9541,"ĠAdv":9542,"Ġ163":9543,"ĠDonald":9544,"Ġcontribution":9545,"Ġcuisine":9546,"ĠManitoba":9547,"Ġelectrical":9548,"ĠTerr":9549,"ĠTraining":9550,"Ġrelegated":9551,"avilion":9552,"Ġkidney":9553,"ieve":9554,"ĠDarwin":9555,"Ġburned":9556,"Ġgalaxy":9557,"ĠMust":9558,"Ġ1897":9559,"ĠPrix":9560,"ĠHob":9561,"Ġarchitectural":9562,"Ġhumor":9563,"Ġsongwriter":9564,"Ġtalks":9565,"ĠÂµm":9566,"ĠQuatermass":9567,"Ġgubernatorial":9568,"ĠAntananarivo":9569,"Ġreviewed":9570,"Ġfourteen":9571,"ĠNext":9572,"Ġprofession":9573,"Ġproceeded":9574,"Ã§":9575,"avor":9576,"Ġadvised":9577,"Ġfierce":9578,"ĠRutherford":9579,"ĠObserver":9580,"Ġresid":9581,"ĠBlu":9582,"ĠHarvard":9583,"Ġhandled":9584,"ĠOslo":9585,"ĠTrail":9586,"Ġintersects":9587,"Ġrejoined":9588,"ĠSergeant":9589,"Ġcigaret":9590,"Ġvertebrae":9591,"ĠNav":9592,"Ġdestroyer":9593,"Ġimprovement":9594,"ĠXIII":9595,"ici":9596,"Ġcopper":9597,"ĠMultiple":9598,"ER":9599,"MI":9600,"itarian":9601,"ĠCO":9602,"ĠBru":9603,"ĠOri":9604,"ĠColl":9605,"Ġrequirements":9606,"ĠTibet":9607,"Ġtournaments":9608,"ĠNeptune":9609,"ĠLikewise":9610,"ĠMarket":9611,"ĠCrazy":9612,"Ġsamples":9613,"ĠSwiss":9614,"ĠYucatÃ¡n":9615,"run":9616,"Ġ106":9617,"original":9618,"ĠHutton":9619,"Ġphylogen":9620,"ĠKate":9621,"Ġinvestment":9622,"ĠFringe":9623,"Ġtelevised":9624,"Ġcricketer":9625,"Ġda":9626,"ĠâĢ¦":9627,"Ġsixteen":9628,"Ġreduction":9629,"Ġreferring":9630,"Ġshares":9631,"ĠUm":9632,"Ġoverhaul":9633,"Ġnarrator":9634,"ĠHalifax":9635,"Ġusers":9636,"Ġadvertis":9637,"Ġpronunciation":9638,"Ġworn":9639,"Ġairfield":9640,"ĠGallery":9641,"Ġcertainly":9642,"Ġcharity":9643,"Ġspark":9644,"ĠThailand":9645,"Ġlawyers":9646,"Ġdatabase":9647,"Ġhydraulic":9648,"Ġstyl":9649,"ĠHarbor":9650,"Ġvoting":9651,"ĠInv":9652,"lining":9653,"Ġcleared":9654,"Ġrespective":9655,"Ġ167":9656,"bach":9657,"Ġlabour":9658,"Ġparks":9659,"Ġcartoon":9660,"Ġplatoon":9661,"ĠAM":9662,"idal":9663,"agen":9664,"Ġheadquartered":9665,"Ġlock":9666,"Ġflows":9667,"Ġ154":9668,"Ġconnections":9669,"Ġphotography":9670,"Ġtactics":9671,"ĠReich":9672,"ĠScar":9673,"ĠWheeler":9674,"Ġsuperstructure":9675,"ĠCad":9676,"Ġgrossing":9677,"ĠKarnataka":9678,"pping":9679,"Ġtoured":9680,"Ġqualifying":9681,"Ġwelfare":9682,"ĠDiscovery":9683,"Ġblind":9684,"Ġparody":9685,"Ġsurvival":9686,"usive":9687,"ĠTerry":9688,"Ġshoulder":9689,"Ġcomparisons":9690,"Ã«":9691,"ĠTow":9692,"ĠProm":9693,"Ġmorph":9694,"Ġmathematic":9695,"Ġfo":9696,"Ġcontinuous":9697,"Ġautumn":9698,"ĠQueens":9699,"Ġruler":9700,"Ġstuff":9701,"ĠAli":9702,"Ġcommenced":9703,"Ġcommanding":9704,"Ġdramatically":9705,"Ġcriteria":9706,"Ġinferior":9707,"ĠMozambique":9708,"ĠNation":9709,"oda":9710,"Ġpatients":9711,"Ġpostponed":9712,"Ġconfidence":9713,"Ġlegislative":9714,"Ġtaxes":9715,"Ġtonnes":9716,"Ġtrafficking":9717,"Ġopportunities":9718,"Ġaffiliated":9719,"Ġfasc":9720,"Ġexists":9721,"ĠUpper":9722,"DS":9723,"OC":9724,"Ġmic":9725,"ĠAP":9726,"athy":9727,"Ġtransported":9728,"ĠWallace":9729,"ĠSugar":9730,"Ġrefusal":9731,"ĠTrafford":9732,"ĠCS":9733,"ĠUl":9734,"ĠPhys":9735,"Ġrenowned":9736,"ĠRest":9737,"ĠKane":9738,"Ġsignature":9739,"Ġcommunist":9740,"ĠKon":9741,"Ġcompetitive":9742,"ĠPengu":9743,"ĠMedicine":9744,"Ġartefacts":9745,"Ġtough":9746,"ĠMason":9747,"ĠCommon":9748,"Ġcamps":9749,"Ġlad":9750,"ĠDaw":9751,"Ġrelocated":9752,"Ġtranslated":9753,"Ġaccompany":9754,"Ġmidfielder":9755,"ĠJagdgeschwader":9756,"ĠNS":9757,"Ġmelody":9758,"ĠStill":9759,"ymn":9760,"ĠMayor":9761,"ĠBuchanan":9762,"Ġmol":9763,"Ġindeed":9764,"Ġtested":9765,"Ġminority":9766,"Ġmoderately":9767,"Ġterrible":9768,"ĠGang":9769,"Ġreinforced":9770,"ĠSyria":9771,"Ġfulf":9772,"Ġmoon":9773,"ĠIl":9774,"Ġtraveling":9775,"ĠStewie":9776,"Ġcalendar":9777,"ĠUstaÅ¡e":9778,"ĠHD":9779,"illo":9780,"ĠClay":9781,"Ġfairly":9782,"Ġuncon":9783,"ashi":9784,"Ġcommanders":9785,"Ġrevised":9786,"Ġrevolt":9787,"Ġtriggered":9788,"Ġpairs":9789,"Ġbizarre":9790,"ĠJurassic":9791,"Ġmonitoring":9792,"eenth":9793,"ĠPic":9794,"ĠPad":9795,"Ġimpression":9796,"ĠMendelssohn":9797,"ĠRuth":9798,"ĠCommodore":9799,"ĠCrow":9800,"Ġmanga":9801,"ĠXI":9802,"ĠAer":9803,"ĠLiterary":9804,"ĠEff":9805,"Ġwithdrawn":9806,"Ġrerouted":9807,"Ġpap":9808,"Ġflee":9809,"Ġabstract":9810,"Ġgrandmother":9811,"ĠWÅĤadysÅĤaw":9812,"ĠStars":9813,"ĠVel":9814,"Ġprogramming":9815,"Ġdiscrimination":9816,"ĠLuxembourg":9817,"Ġextending":9818,"ĠSteel":9819,"ĠIsraeli":9820,"ĠLarry":9821,"Ġdisplaced":9822,"Ġgunpowder":9823,"Ġhole":9824,"Ġ1895":9825,"Ġprinciples":9826,"ĠLuke":9827,"Ġvoices":9828,"ean":9829,"ĠHaz":9830,"antic":9831,"ĠKan":9832,"Ġfreestyle":9833,"ĠCass":9834,"Ġgospel":9835,"ĠPrivate":9836,"ĠAuschwitz":9837,"Ġconce":9838,"Ġrepresentation":9839,"ĠGrace":9840,"Ġlearns":9841,"Ġmagnitude":9842,"Ġcharacteristic":9843,"Ġprisoner":9844,"ĠHappy":9845,"ropolis":9846,"ĠKam":9847,"ĠJefferson":9848,"Ġgear":9849,"ims":9850,"Ġnurse":9851,"ĠBehind":9852,"ĠLudwig":9853,"iors":9854,"icious":9855,"ĠHerald":9856,"ĠCry":9857,"ĠPictures":9858,"atra":9859,"Ġcraft":9860,"Ġabuse":9861,"Ġmarine":9862,"ĠBonaparte":9863,"aco":9864,"Ġ171":9865,"ĠClarke":9866,"ĠBryan":9867,"Ġguidance":9868,"Ġnationwide":9869,"ĠRey":9870,"ĠJohnston":9871,"rik":9872,"Ġexacerb":9873,"ĠMacFarlane":9874,"ĠExp":9875,"ĠMix":9876,"aching":9877,"Ġrelatives":9878,"Ġbott":9879,"Ġpractical":9880,"Ġconven":9881,"Ġapproaches":9882,"Ġconvey":9883,"Ġrivalry":9884,"ĠQuest":9885,"Ġsupplement":9886,"Ġcuts":9887,"ĠAustin":9888,"ĠChile":9889,"ĠYam":9890,"Ġairing":9891,"ĠDefense":9892,"Ġdisplays":9893,"eness":9894,"ĠWells":9895,"ĠOrange":9896,"Ġburning":9897,"Ġpul":9898,"empt":9899,"Ġcarries":9900,"Ã©s":9901,"Ġskill":9902,"Ġlighting":9903,"ĠOwen":9904,"ĠSalt":9905,"Ġbachelor":9906,"ĠWoman":9907,"Ġblocked":9908,"Ã¥":9909,"Ġsings":9910,"Ġfee":9911,"Ġinstitution":9912,"ĠPil":9913,"berry":9914,"Ġrestore":9915,"Ġgraduate":9916,"Ġcant":9917,"ĠFBI":9918,"ĠNord":9919,"Ġparticipation":9920,"ĠOfficial":9921,"ĠGreater":9922,"enburg":9923,"Ã©t":9924,"ĠNeil":9925,"Ġrebels":9926,"ĠVocal":9927,"ĠEpisode":9928,"NC":9929,"cott":9930,"ĠFalls":9931,"ĠEight":9932,"Ġpreparing":9933,"Ġabsent":9934,"Ġtransportation":9935,"Ġscores":9936,"Î¿Ï":9937,"ĠVolunte":9938,"Ġbleeding":9939,"ĠRep":9940,"Ġ102":9941,"ĠTransport":9942,"ĠDanish":9943,"Ġ121":9944,"ĠMcClellan":9945,"Ġdemolition":9946,"Ã¢":9947,"ĠNat":9948,"Ġinterviews":9949,"Ġoptim":9950,"atty":9951,"Ġprotests":9952,"Ġcrush":9953,"Ġcyclones":9954,"ĠFormation":9955,"Ġprincess":9956,"Ġwished":9957,"Ġriding":9958,"Ġsalv":9959,"Ġsalary":9960,"ĠClassic":9961,"ĠCos":9962,"Ġfilmm":9963,"Ġpassion":9964,"ork":9965,"Ġfold":9966,"Ġoutnumbered":9967,"Ġpier":9968,"Ġlaugh":9969,"ĠSega":9970,"ĠBrazilian":9971,"ĠLebanon":9972,"LA":9973,"Ġrecovery":9974,"Ġcabinet":9975,"ĠEve":9976,"ĠNeg":9977,"weight":9978,"Ġmaintaining":9979,"ĠMiguel":9980,"Ġblues":9981,"Ġreforms":9982,"ĠStudio":9983,"Ġtroub":9984,"uri":9985,"ĠHav":9986,"ĠGreatest":9987,"Ġcinema":9988,"Ġshirts":9989,"Ġcontradict":9990,"ĠRio":9991,"Ġintervention":9992,"ais":9993,"Ġcreek":9994,"eli":9995,"Ġarguing":9996,"ĠDamascus":9997,"star":9998,"Ġdrummer":9999,"Ġcourses":10000,"ĠFourth":10001,"Ġracial":10002,"ĠHastings":10003,"ĠKaiser":10004,"ĠUnfortunately":10005,"Ġaft":10006,"ĠReform":10007,"ĠStein":10008,"Ġparas":10009,"sts":10010,"ĠActor":10011,"ĠEc":10012,"Ġconceded":10013,"Ġdivorced":10014,"Ġpeloton":10015,"Ġpetition":10016,"rav":10017,"Ġclar":10018,"Ġsynth":10019,"ĠHundred":10020,"ĠSaudi":10021,"car":10022,"Ġeating":10023,"Ġkills":10024,"Ġtowers":10025,"Ġupset":10026,"Ġaccurate":10027,"ĠSlovak":10028,"Ġdissipating":10029,"itic":10030,"ource":10031,"get":10032,"ĠGay":10033,"eston":10034,"Ġdiverse":10035,"ĠAlonso":10036,"ĠZelda":10037,"Ġconvincing":10038,"inth":10039,"Ġvalid":10040,"ĠCathedral":10041,"ĠAuthority":10042,"Ġnoble":10043,"ĠZh":10044,"ĠPlant":10045,"Ġcommunications":10046,"Ġstatistics":10047,"ĠTang":10048,"ĠAgency":10049,"ĠSiege":10050,"ĠInflu":10051,"Ġdesperate":10052,"ĠÐ":10053,"ĠVers":10054,"ĠHalf":10055,"Ġsponsored":10056,"Ġapplications":10057,"ĠNolan":10058,"ĠDoggett":10059,"Ġautonomous":10060,"imp":10061,"ĠSusan":10062,"ĠHispanic":10063,"Ġclothes":10064,"ĠUtah":10065,"Ġoffspring":10066,"ĠBud":10067,"ĠMarl":10068,"Ġshock":10069,"Ġsoprano":10070,"Ġunavailable":10071,"Ġnumbered":10072,"kn":10073,"uto":10074,"ĠHarold":10075,"Ġairline":10076,"ĠCultural":10077,"Ġdiminished":10078,"ĠInitial":10079,"Ġclusters":10080,"Ġrendition":10081,"ĠSteph":10082,"ĠRÃ©union":10083,"ĠGlobe":10084,"ĠTyler":10085,"ĠSerbian":10086,"Ġreddish":10087,"commun":10088,"Ġtoler":10089,"Ġ158":10090,"ĠJunior":10091,"Ġdecorated":10092,"ĠCBS":10093,"ĠFuller":10094,"riet":10095,"ellar":10096,"Ġlasting":10097,"Ġfaces":10098,"Ġessentially":10099,"Ġanswer":10100,"Ġshallow":10101,"ĠKÃ¶n":10102,"Ġaccusations":10103,"HL":10104,"Ġtale":10105,"Ġpm":10106,"Ġmate":10107,"Ġgender":10108,"ĠBuckingham":10109,"asha":10110,"Ġ1861":10111,"Ġsurprised":10112,"ĠMinneapolis":10113,"Ġspokesperson":10114,"Ġcharted":10115,"Ġmood":10116,"Ġjet":10117,"Ġ1889":10118,"Ġemotion":10119,"ĠRichmond":10120,"Ġcompanions":10121,"ĠWarriors":10122,"Ġliner":10123,"Ġtrick":10124,"Ġmini":10125,"Ã©n":10126,"ĠMeredith":10127,"Ġplumage":10128,"ĠWorcester":10129,"chi":10130,"ĠSle":10131,"ĠHil":10132,"Ġslight":10133,"aiden":10134,"Ġdeeply":10135,"Ġresurre":10136,"Ġabbey":10137,"Ġremnant":10138,"ĠAtlantis":10139,"yan":10140,"ĠMI":10141,"ĠHad":10142,"ĠNewton":10143,"Ġbeaten":10144,"Ġtheories":10145,"ĠEsc":10146,"Ġ161":10147,"Ġ1894":10148,"Ġratio":10149,"Ġfate":10150,"emat":10151,"ĠProvince":10152,"Ġmerged":10153,"Ġbackdrop":10154,"Ġlegitim":10155,"Ġmanage":10156,"Ġpotentially":10157,"Ġembr":10158,"Ġmanoeuv":10159,"ĠHalloween":10160,"ĠBren":10161,"ĠTam":10162,"Ġ162":10163,"ĠLanka":10164,"ĠScientific":10165,"ĠFact":10166,"Ġweb":10167,"ĠRepublicans":10168,"Ġ113":10169,"Ġdisintegr":10170,"Ġsummit":10171,"Ġmosque":10172,"Ġarchbishop":10173,"ĠPin":10174,"Ġprocesses":10175,"Ġtours":10176,"iko":10177,"Ġschemes":10178,"Ġhierarchy":10179,"ĠLinnaeus":10180,"Ġindefinitely":10181,"vet":10182,"Ġgrave":10183,"ĠFil":10184,"Ġplayoff":10185,"ĠMinor":10186,"Ġ1891":10187,"ĠOrigins":10188,"Ġ1000":10189,"Ġcrimes":10190,"qual":10191,"Ġune":10192,"Ġdescent":10193,"Ġorientation":10194,"Ġsentence":10195,"ders":10196,"Ġdual":10197,"Ġdemo":10198,"Ġhiatus":10199,"Ġpresumably":10200,"Ġbeating":10201,"Ġcivilians":10202,"Ġdense":10203,"ĠAA":10204,"ĠFighter":10205,"Ġclause":10206,"ĠShackleton":10207,"Ġpenalties":10208,"oded":10209,"rib":10210,"Ġheritage":10211,"Ġfunded":10212,"Ġimplemented":10213,"Ġunofficial":10214,"Ġhills":10215,"Ġaccommodate":10216,"ĠLeopold":10217,"ĠCochrane":10218,"born":10219,"ĠChe":10220,"ĠExper":10221,"Ġreactions":10222,"ĠPicture":10223,"Ġaltitude":10224,"Ġcounterp":10225,"ĠShrewsbury":10226,"Ġmanip":10227,"Ġcolors":10228,"Ġlights":10229,"Ġmonsoon":10230,"iano":10231,"Ġholiday":10232,"ĠAF":10233,"Ġpresentation":10234,"Ġgolden":10235,"Ġagriculture":10236,"ĠOrlando":10237,"Ġwine":10238,"Ġresident":10239,"ĠEt":10240,"Ġstructural":10241,"Ġcomplained":10242,"acrosse":10243,"Ġinfiltr":10244,"hill":10245,"Ġpip":10246,"Ġrib":10247,"Ġproof":10248,"Ġ156":10249,"Ġ1892":10250,"Ġfeared":10251,"ĠHitchcock":10252,"ĠDeb":10253,"Ġdevoted":10254,"Ġconventions":10255,"Ġportraits":10256,"hl":10257,"piece":10258,"Ġevident":10259,"ulk":10260,"Ġaddressed":10261,"Ġsoutheastern":10262,"Ġpole":10263,"ĠCardiff":10264,"Ġmetallic":10265,"Ġsailing":10266,"Ġnurs":10267,"Ġassum":10268,"Ġrequiring":10269,"sel":10270,"usty":10271,"ĠChambers":10272,"ĠDexter":10273,"Ġantagonist":10274,"Ġ135":10275,"ĠMcN":10276,"Ġbreaks":10277,"ĠDays":10278,"Ġsmoke":10279,"ĠConservation":10280,"ĠBloom":10281,"Ġcouncill":10282,"Ġabnormal":10283,"Ġfame":10284,"Ġobservation":10285,"ĠHunter":10286,"roy":10287,"olly":10288,"ĠKyle":10289,"ĠElectric":10290,"ĠBrooks":10291,"Ġerror":10292,"Ġsweet":10293,"ĠWesley":10294,"Ġenabling":10295,"Ġkilometre":10296,"Ġtruck":10297,"Ġ1800":10298,"Ġjack":10299,"Ġtribe":10300,"ĠBurns":10301,"iffer":10302,"anted":10303,"rench":10304,"ĠWithout":10305,"ĠHoffman":10306,"Ġrecept":10307,"Ġfollowers":10308,"Ġknee":10309,"Ġmythology":10310,"Ġcards":10311,"ĠSox":10312,"ĠRegister":10313,"Ġpregnant":10314,"Ġinteraction":10315,"Ġfantastic":10316,"Ġelectromagnetic":10317,"ĠEastEnders":10318,"Ġgene":10319,"Ġconfusion":10320,"Ġjudges":10321,"Ġpoly":10322,"Ġresearchers":10323,"Ġ240":10324,"ĠCrisis":10325,"Ġemerge":10326,"ĠComplete":10327,"Ġreporters":10328,"ĠKrishna":10329,"izer":10330,"Ġquarters":10331,"ĠMiddlesbrough":10332,"ĠReport":10333,"ĠSide":10334,"ĠNature":10335,"Ġoperates":10336,"ĠIslamic":10337,"Ġresemblance":10338,"ĠTransylvania":10339,"ĠIvan":10340,"Ġsuddenly":10341,"Ġcategories":10342,"Ġaqu":10343,"Ġdiplomatic":10344,"ĠVictory":10345,"ĠCoalition":10346,"Ġelimination":10347,"scopic":10348,"ĠBelarus":10349,"ĠHezbollah":10350,"Ġwritings":10351,"Ġstreak":10352,"Ġcommenting":10353,"Ġopens":10354,"Ġ153":10355,"Ġgirlfriend":10356,"backs":10357,"ĠSometimes":10358,"ĠHokies":10359,"ĠActress":10360,"Ġprominently":10361,"sk":10362,"Ġtension":10363,"Ġsugar":10364,"ĠMetropolitan":10365,"Ġphysics":10366,"ĠHope":10367,"Ġadvancing":10368,"Ġsculpture":10369,"Ġhighlighted":10370,"Ġhectares":10371,"ĠNumerous":10372,"Ġspirits":10373,"ĠSection":10374,"ĠAirlines":10375,"ĠGarcÃŃa":10376,"Ġsized":10377,"Ġdozens":10378,"ĠEncyclopedia":10379,"Ġfert":10380,"Ġhung":10381,"Ġbears":10382,"Ġthrown":10383,"quest":10384,"Ġsimilarities":10385,"Ġprinciple":10386,"Ġgaining":10387,"Ġages":10388,"Ġstudying":10389,"Ġchallenges":10390,"ĠMechan":10391,"ĠDixon":10392,"Ġcurrents":10393,"ĠBible":10394,"ĠShah":10395,"Ġresort":10396,"Ġdesp":10397,"ĠWatch":10398,"ĠAbu":10399,"Ġpink":10400,"ĠTrade":10401,"HS":10402,"icit":10403,"ĠEdition":10404,"ÃŃn":10405,"Ġequally":10406,"Ġsentenced":10407,"Ġstatements":10408,"Ġnostalg":10409,"ĠPhilharmonic":10410,"ĠOryzomys":10411,"ĠWa":10412,"Ġknocked":10413,"Ġboiler":10414,"Ġorange":10415,"othy":10416,"inson":10417,"ĠBark":10418,"Ġgift":10419,"ĠFell":10420,"Ġrivals":10421,"Ġlocally":10422,"ĠBarnes":10423,"Ġeducated":10424,"continental":10425,"Ġexpeditions":10426,"ĠSym":10427,"Ġuniversal":10428,"Ġdisturbance":10429,"ĠMind":10430,"immer":10431,"Ġwheels":10432,"Ġshoots":10433,"Ġalphabet":10434,"oves":10435,"Ġspur":10436,"ĠBased":10437,"Ġpredators":10438,"ĠSeas":10439,"Ġtraditionally":10440,"Ġdealing":10441,"Ġboundaries":10442,"Ġvariation":10443,"ĠGrade":10444,"Ġpriest":10445,"ĠMGM":10446,"Ġdeleted":10447,"Ġties":10448,"Ġhappen":10449,"ometric":10450,"Ġblow":10451,"Ġcrazy":10452,"ĠPradesh":10453,"ĠâĻŃ":10454,"ĠEleanor":10455,"ĠReconnaissance":10456,"Ġsword":10457,"ĠIndependence":10458,"Ġoverlook":10459,"ĠMi":10460,"Ġdocumented":10461,"ĠMiles":10462,"ĠWisden":10463,"Ġchaos":10464,"ĠAnglican":10465,"master":10466,"aper":10467,"Ġexplaining":10468,"Ġscenarios":10469,"otion":10470,"ipl":10471,"Ġresolved":10472,"Ġreopened":10473,"Ġjealous":10474,"omer":10475,"Ġ1888":10476,"ĠTurkey":10477,"rafts":10478,"ĠUC":10479,"Ġsometime":10480,"Ġabundance":10481,"Ġreceives":10482,"ĠPatri":10483,"ĠSaturn":10484,"Ġmud":10485,"Ġrings":10486,"ĠLeaf":10487,"ĠSean":10488,"ĠCentury":10489,"Ġvillain":10490,"ĠDiefenbaker":10491,"Ġenabled":10492,"ĠKid":10493,"ĠControl":10494,"ulsion":10495,"Ġrecruited":10496,"Ġtrenches":10497,"Ġagreements":10498,"Ġgasoline":10499,"ardo":10500,"ĠScots":10501,"Ġtape":10502,"Ġconsiderably":10503,"Ġ1885":10504,"Ġtravelling":10505,"ĠHyderabad":10506,"Ġnaming":10507,"ĠNon":10508,"Ġcaps":10509,"Ġcommercially":10510,"Ġexplore":10511,"Ġbenefits":10512,"ĠCP":10513,"ĠCemetery":10514,"ĠCher":10515,"Ġhelps":10516,"manship":10517,"Ġmetaphor":10518,"Ġlift":10519,"Ġnut":10520,"Ġhostile":10521,"Ġhatch":10522,"chy":10523,"Ġflex":10524,"Ġoptions":10525,"Ġanchored":10526,"Ġreclaim":10527,"Ġsad":10528,"ĠJoh":10529,"Ġcrashed":10530,"ridge":10531,"ĠÏ":10532,"Ġsubstitute":10533,"Ġashore":10534,"Ġriots":10535,"aters":10536,"ĠToy":10537,"Ġinvolves":10538,"Ġweakening":10539,"box":10540,"izz":10541,"ĠChristians":10542,"ĠMall":10543,"ĠWalt":10544,"Ġgods":10545,"Ġbatted":10546,"Ġguy":10547,"Ġtasked":10548,"ĠItalians":10549,"Ġawkward":10550,"ĠLink":10551,"ĠNas":10552,"Ġchrom":10553,"Ġconcerning":10554,"ĠAges":10555,"wald":10556,"Ġwr":10557,"Ġdying":10558,"ĠKil":10559,"ĠMovie":10560,"Ġescorted":10561,"ĠPierre":10562,"Ġdegener":10563,"Ġjungle":10564,"Ġbackgrounds":10565,"Ġsketches":10566,"Ġspar":10567,"Ġdoors":10568,"Ġdetect":10569,"ĠJen":10570,"Ġcongressional":10571,"ĠPrimetime":10572,"rene":10573,"lies":10574,"ĠPul":10575,"Ġcomplement":10576,"Ġdepicts":10577,"ĠCovent":10578,"ĠHÃ¤kkinen":10579,"ternal":10580,"Ġepic":10581,"Ġdinner":10582,"Ġinning":10583,"ĠPit":10584,"Ġvig":10585,"ĠSpider":10586,"Ġelaborate":10587,"Ġsulfur":10588,"Ġty":10589,"Ġ112":10590,"Ġvolunteers":10591,"Ġpursuit":10592,"edge":10593,"ĠJudge":10594,"Ġcoronation":10595,"iscopal":10596,"ĠReturning":10597,"ĠHom":10598,"ĠUlysses":10599,"Ġjournals":10600,"cut":10601,"Ġinhib":10602,"ĠSue":10603,"ĠManagement":10604,"ĠBenedict":10605,"ĠProgramm":10606,"tz":10607,"ÉĻ":10608,"ĠSor":10609,"Ġreass":10610,"ĠThames":10611,"Ġauthorized":10612,"Ġcollections":10613,"ĠRomney":10614,"ĠFro":10615,"orms":10616,"ĠBranch":10617,"Ġeditions":10618,"Ġcompetitions":10619,"Ġconflicts":10620,"Ġsusceptible":10621,"ĠWalk":10622,"ĠBaron":10623,"Ġcow":10624,"eeping":10625,"Ġcircular":10626,"Ġpursued":10627,"ĠValentine":10628,"ĠHearts":10629,"Ġ145":10630,"Ġtempo":10631,"Ġ1865":10632,"ĠAthens":10633,"ĠBarbara":10634,"ĠNicaragua":10635,"Ġliver":10636,"Ġrevival":10637,"ĠCedar":10638,"Ġregistration":10639,"dan":10640,"Ġpill":10641,"Ġramp":10642,"Ġeventual":10643,"Ġfavourite":10644,"Ġskyscrap":10645,"ynam":10646,"Ġ978":10647,"ĠMang":10648,"ĠReagan":10649,"ĠEvil":10650,"Ġharbour":10651,"Ġfungi":10652,"ĠGazette":10653,"Ġshooter":10654,"Ġextraterrestrial":10655,"inct":10656,"ĠSherman":10657,"Ġbeliefs":10658,"Ġvirtually":10659,"ĠZeppelin":10660,"wright":10661,"amin":10662,"Ġopposing":10663,"ĠRegional":10664,"ĠOrkney":10665,"Ġscreenplay":10666,"Ġurged":10667,"Ġ159":10668,"Ġmanufacturing":10669,"ĠAgainst":10670,"Ġabroad":10671,"ĠZone":10672,"Ġhandling":10673,"ĠRepresentatives":10674,"Ġveteran":10675,"Ġincl":10676,"Ġchase":10677,"ĠPanzer":10678,"intendent":10679,"Ġcensus":10680,"ĠHunt":10681,"ĠNaz":10682,"ĠNancy":10683,"Ġafford":10684,"Ġcable":10685,"ĠFight":10686,"iah":10687,"Ġhandle":10688,"Ġgorge":10689,"Ġchicken":10690,"ĠAthletics":10691,"gal":10692,"Ġstones":10693,"Ġleaf":10694,"Ġ117":10695,"Ġexamination":10696,"umps":10697,"Ġseas":10698,"ĠBrun":10699,"Ġsuspected":10700,"Ġuniversities":10701,"ĠVirgil":10702,"hart":10703,"ĠSonic":10704,"Ġcash":10705,"Ġmedals":10706,"Ġparticipants":10707,"ĠArk":10708,"ĠCrosby":10709,"Ġverdict":10710,"ĠCha":10711,"ĠChad":10712,"ĠChester":10713,"ĠMagic":10714,"Ġrushing":10715,"WA":10716,"ĠBert":10717,"Ġtrailer":10718,"uy":10719,"Ġlaps":10720,"ĠBord":10721,"ĠFace":10722,"ĠNova":10723,"Ġcolours":10724,"Ġpromoting":10725,"Ġremembered":10726,"Ġthereby":10727,"Ġorganisms":10728,"Ġunstable":10729,"Ġtragedy":10730,"ĠHeinrich":10731,"ĠStre":10732,"ĠAny":10733,"Ġsharks":10734,"Ġinherited":10735,"organ":10736,"Ġpitcher":10737,"ĠCond":10738,"Ġapply":10739,"Ġinterven":10740,"Ġcomics":10741,"ĠLeon":10742,"ĠDiane":10743,"ĠSovereign":10744,"hum":10745,"Ġdim":10746,"occ":10747,"haw":10748,"Ġtribut":10749,"Ġsor":10750,"ancer":10751,"Ġcapturing":10752,"ĠEminem":10753,"stan":10754,"mont":10755,"erts":10756,"Ġtrapped":10757,"ĠEnt":10758,"Ġ450":10759,"Ġdecreased":10760,"Ġneutron":10761,"ĠGuerrero":10762,"Ġloud":10763,"ĠDraft":10764,"Ġ114":10765,"Ġtracked":10766,"Ġcostume":10767,"Ġbombardment":10768,"isk":10769,"Ġ118":10770,"Ġmetric":10771,"ĠKrist":10772,"ĠAuburn":10773,"leutnant":10774,"ĠCoulthard":10775,"read":10776,"Ġvital":10777,"Ġhopes":10778,"Ġcompositions":10779,"Ġaccidentally":10780,"fr":10781,"asia":10782,"ĠVoyager":10783,"ĠSinclair":10784,"ĠShort":10785,"Ġinvaded":10786,"Ġcelebration":10787,"ĠBaghdad":10788,"ĠKin":10789,"nery":10790,"Ġconfirm":10791,"Ġalumni":10792,"Ġpromptly":10793,"iology":10794,"ĠFur":10795,"Ġprototype":10796,"ilda":10797,"ĠKannada":10798,"Ġembassy":10799,"Ġwisdom":10800,"ĠUNESCO":10801,"Ġsav":10802,"isan":10803,"ĠOthers":10804,"ĠPersonnel":10805,"Ġwarned":10806,"ĠPete":10807,"ĠChapel":10808,"Ġrituals":10809,"Ġgradual":10810,"Ġspectacular":10811,"Ġmaps":10812,"ĠJoint":10813,"Ġtornado":10814,"hall":10815,"Ġlinks":10816,"Ġdistract":10817,"Ġpromise":10818,"Ġplaque":10819,"Ġsuperhero":10820,"Ġmelodic":10821,"ĠSaw":10822,"Ġhoping":10823,"Ġthirteenth":10824,"ĠWembley":10825,"ĠTir":10826,"Ġrains":10827,"ĠYouth":10828,"Ġvariations":10829,"Ġ1864":10830,"Ġanticipated":10831,"ĠLiberty":10832,"ĠMaxim":10833,"Ġlunar":10834,"Ġaccompan":10835,"idia":10836,"ĠLegend":10837,"ĠJakarta":10838,"ĠTerritorial":10839,"ĠCornwall":10840,"Ġinterpre":10841,"ĠDardanelles":10842,"ĠSha":10843,"ĠTitan":10844,"áº":10845,"ĠSA":10846,"ptic":10847,"ĠThursday":10848,"ĠNirvana":10849,"Ġseparation":10850,"etta":10851,"lon":10852,"Ġrever":10853,"Ġdozen":10854,"Ġmarking":10855,"Ġprovisions":10856,"Ġlaboratory":10857,"Ġwhenever":10858,"Ġmerchandise":10859,"ĠBrittany":10860,"ĠPeloponnes":10861,"tes":10862,"Ġsinking":10863,"Ġaccessible":10864,"ĠSylvester":10865,"ĠAqu":10866,"Ġguests":10867,"Ġfires":10868,"rior":10869,"quer":10870,"Ġbiological":10871,"Ġeasier":10872,"ĠLabor":10873,"Ġpersistent":10874,"ĠDjokovic":10875,"Ġnose":10876,"Ġdrink":10877,"ĠFilming":10878,"DI":10879,"py":10880,"Î±":10881,"ĠSport":10882,"Donnell":10883,"ĠSesame":10884,"Ġvinyl":10885,"Ġkingdoms":10886,"Ġcommittees":10887,"Ġbesieged":10888,"ĠRush":10889,"Ġsupports":10890,"Ġpolitician":10891,"ĠWatts":10892,"Ġparliamentary":10893,"Ġthreats":10894,"ĠBohem":10895,"Ġcontingent":10896,"Ġhyphae":10897,"Ġpeculiar":10898,"orf":10899,"ĠReed":10900,"Ġconsumption":10901,"ĠPiÅĤsudski":10902,"Ġlighter":10903,"ĠMarines":10904,"ĠArmenian":10905,"ĠGustav":10906,"ĠJourney":10907,"ĠVernon":10908,"ĠOttomans":10909,"Ġelliptical":10910,"Ġjurisdict":10911,"eda":10912,"antly":10913,"Ġdepend":10914,"Ġaer":10915,"ulus":10916,"ĠVick":10917,"anne":10918,"Ġpamph":10919,"ĠWanderers":10920,"Ġvampire":10921,"var":10922,"ĠProp":10923,"Ġformula":10924,"Ġbiography":10925,"Ġmemoirs":10926,"Ġbankruptcy":10927,"ĠMÃ¼ller":10928,"ĠDJ":10929,"ĠMetro":10930,"ĠSlav":10931,"Ġvolcanic":10932,"Ġcorporate":10933,"elia":10934,"ĠGospel":10935,"ĠStructure":10936,"Ġgoaltender":10937,"ĠGalveston":10938,"mancipation":10939,"ieg":10940,"ĠTree":10941,"ĠLP":10942,"Ġimposed":10943,"ĠXX":10944,"ĠCand":10945,"ĠBears":10946,"etics":10947,"ĠTerm":10948,"Ġtrunk":10949,"Ġmixing":10950,"Ġankle":10951,"Ġparticles":10952,"Ġoccurring":10953,"Ġusage":10954,"Ġmurdered":10955,"ĠDublin":10956,"Ġgambling":10957,"ĠStyles":10958,"itches":10959,"ĠCena":10960,"Ġproduces":10961,"ĠThanksgiving":10962,"Ġnoticed":10963,"Ġenh":10964,"Ġevacuation":10965,"Ġlicense":10966,"ĠKemp":10967,"Ġloosely":10968,"Ġprolonged":10969,"iam":10970,"Ġchoir":10971,"Ġcustomers":10972,"ĠMoh":10973,"Ġconspicuous":10974,"Ġãĥ":10975,"Ġwound":10976,"Ġcontracts":10977,"Ġdefenders":10978,"ĠBurg":10979,"Ġcereb":10980,"ĠPhantom":10981,"ĠLamb":10982,"Ġacre":10983,"ĠTimbaland":10984,"ĠHas":10985,"ĠERA":10986,"Ġexile":10987,"Ġfruits":10988,"ĠTwilight":10989,"Ġeruptions":10990,"Ġhampered":10991,"arians":10992,"Ġrelation":10993,"Ġcathedral":10994,"Ġ1862":10995,"Ġmaxim":10996,"Ġincumbent":10997,"Ġcelestial":10998,"ĠVo":10999,"ĠZero":11000,"Ġ131":11001,"Ġrenew":11002,"Ġluxury":11003,"Ġintimid":11004,"Ġwake":11005,"Ġegg":11006,"oting":11007,"essions":11008,"Ġregister":11009,"ĠAction":11010,"Ġ107":11011,"ĠRoom":11012,"ĠCareer":11013,"Ġrendering":11014,"anus":11015,"Ġspeculation":11016,"Ġkiller":11017,"Ġol":11018,"Ġtimber":11019,"Ġcounterattack":11020,"ĠBos":11021,"ugs":11022,"Ġengineers":11023,"Ġdebris":11024,"Ġhence":11025,"ĠGlee":11026,"Ġplates":11027,"Ġangry":11028,"ĠScholars":11029,"ĠTrevor":11030,"ĠCharacters":11031,"ĠTake":11032,"Ġcann":11033,"ĠBradley":11034,"Ġdepicting":11035,"Ġdisappointed":11036,"DA":11037,"ĠAltern":11038,"Ġaside":11039,"ĠDale":11040,"aping":11041,"Ġeastward":11042,"ener":11043,"ĠOt":11044,"Ġdevelopments":11045,"Ġthreatening":11046,"eals":11047,"ĠCarm":11048,"Ġignored":11049,"Ġconquest":11050,"Ġrelegation":11051,"ĠLS":11052,"ĠGra":11053,"ĠContinental":11054,"Ġdecrease":11055,"ĠRef":11056,"Ġstricken":11057,"Ġcharm":11058,"overed":11059,"Ġthrowing":11060,"unct":11061,"ĠPick":11062,"Ġsubs":11063,"Ġconversation":11064,"Ġprecursor":11065,"ĠRafael":11066,"ĠGneisenau":11067,"ĠPay":11068,"ĠGuild":11069,"ĠSerbia":11070,"Ġward":11071,"Ġmechanism":11072,"Ġrevolutionary":11073,"Ġlikewise":11074,"Ġphoto":11075,"ĠAlberta":11076,"ĠSchwartz":11077,"Ġstern":11078,"ahl":11079,"Ġbreast":11080,"Ġhazard":11081,"BA":11082,"Ġconvicted":11083,"Ġmounts":11084,"arma":11085,"Ġhumanity":11086,"Ġelite":11087,"Ġtouchdowns":11088,"Ġstrikes":11089,"Ġensued":11090,"Ġdownloads":11091,"enes":11092,"Ġ157":11093,"Ġconfident":11094,"ĠTommy":11095,"Ġchampionships":11096,"ĠSpringfield":11097,"Ġå":11098,"unes":11099,"Ġexhibit":11100,"ĠAmericas":11101,"ĠEmpress":11102,"Ġreproductive":11103,"Ġsteep":11104,"ĠAnton":11105,"ĠCollection":11106,"Ġfocuses":11107,"Ġ220":11108,"ĠGot":11109,"ĠGates":11110,"Ġinaugural":11111,"ĠAmazon":11112,"odium":11113,"Ġlacking":11114,"Ġcontacted":11115,"ĠJoan":11116,"Ġpir":11117,"Ġrealistic":11118,"Ġsuspension":11119,"Ġsaxoph":11120,"ĠBattery":11121,"ĠChemical":11122,"ĠNottingham":11123,"ĠBee":11124,"cha":11125,"Ġboost":11126,"Ġpreserve":11127,"Ġfarmers":11128,"ĠPlace":11129,"Ġboyfriend":11130,"ĠUndertaker":11131,"ĠMuslims":11132,"Ġconstantly":11133,"igen":11134,"Ġpret":11135,"Ġmetre":11136,"Ġhelicopter":11137,"ĠNorthumberland":11138,"Ġreconstructed":11139,"Ġmoisture":11140,"Ġferry":11141,"Ġtom":11142,"ĠRic":11143,"ĠKru":11144,"Ġposts":11145,"ĠStudies":11146,"ĠLower":11147,"ocol":11148,"Ġinfection":11149,"ĠYugoslavia":11150,"ĠNickelodeon":11151,"ĠMut":11152,"ĠVilla":11153,"Ġpatri":11154,"Ġbol":11155,"Ġstim":11156,"ĠArg":11157,"Ġ1840":11158,"ĠMarshal":11159,"arded":11160,"Ġunl":11161,"Ġvoters":11162,"Ġcollaborated":11163,"Ġwrapped":11164,"ĠGentle":11165,"Ġsubordinate":11166,"cell":11167,"ĠRear":11168,"Ġasserted":11169,"coming":11170,"Ġconvex":11171,"Ġamidships":11172,"ĠJake":11173,"Ġpaint":11174,"ĠAL":11175,"ĠCort":11176,"ĠMaine":11177,"ĠRound":11178,"Ġpatient":11179,"Ġabsorbed":11180,"Ġlibert":11181,"Ġorphan":11182,"ĠPrinz":11183,"ĠMetallica":11184,"ĠHood":11185,"ĠKaz":11186,"ĠVic":11187,"ĠShiva":11188,"Ġcentered":11189,"Ġreleasing":11190,"Ġcastles":11191,"ĠãĢ":11192,"Ġmarginal":11193,"Ġbefri":11194,"Ġelephant":11195,"ĠMonthly":11196,"Ġundoubtedly":11197,"ĠHull":11198,"Ġuser":11199,"ĠRobin":11200,"Ġholes":11201,"Ġtune":11202,"Ġgrows":11203,"ĠWaters":11204,"Ġrenumbering":11205,"ĠIdaho":11206,"ĠAri":11207,"ĠFly":11208,"ĠParks":11209,"uka":11210,"ĠComics":11211,"rels":11212,"ĠEC":11213,"Ġillustrated":11214,"Ġalpha":11215,"utter":11216,"ĠAngelou":11217,"Ġapolog":11218,"Ġwilderness":11219,"ellers":11220,"stitutional":11221,"Ġknows":11222,"Ġspeeds":11223,"ĠFresh":11224,"Ġisotope":11225,"Ġsciences":11226,"Ġoutflow":11227,"Ġabortion":11228,"Ġprotesters":11229,"Ġsuspicion":11230,"Ġmanufacturers":11231,"ĠGalaxy":11232,"aris":11233,"ĠOk":11234,"ogg":11235,"Ġharsh":11236,"Ġcompiled":11237,"Ġ126":11238,"Ġ132":11239,"Ġantib":11240,"itadel":11241,"Ġfrozen":11242,"Ġheaviest":11243,"Ġunrelated":11244,"Ġturnpike":11245,"uke":11246,"ĠMaced":11247,"Ġisn":11248,"Ġbreeds":11249,"Ġmad":11250,"Ġsituations":11251,"Ġbowl":11252,"ĠPlanet":11253,"ĠAgreement":11254,"ennial":11255,"Ġindependently":11256,"ĠKosovo":11257,"ĠGettysburg":11258,"Ġtools":11259,"Ġcourtyard":11260,"Ġgravitational":11261,"ĠSem":11262,"Ġ1887":11263,"Ġdust":11264,"ĠPs":11265,"ĠIsabella":11266,"ĠHiroshima":11267,"orious":11268,"ĠHeath":11269,"ĠSpeed":11270,"Ġroadway":11271,"ede":11272,"Ġlib":11273,"Ġlover":11274,"ubl":11275,"Ġ119":11276,"opotam":11277,"Ġbrutal":11278,"Ġparatroopers":11279,"Ġsam":11280,"ĠShield":11281,"Ġpleased":11282,"ĠMontenegro":11283,"SA":11284,"held":11285,"sch":11286,"ĠAlliance":11287,"lett":11288,"Ġchoreography":11289,"Ġintellect":11290,"ĠObservatory":11291,"ĠKill":11292,"ĠTwitter":11293,"wan":11294,"rix":11295,"Ġsever":11296,"ĠMadison":11297,"Ġlayers":11298,"Ġmarched":11299,"ĠVIII":11300,"band":11301,"Ã´":11302,"ĠSoph":11303,"usions":11304,"Ġprovision":11305,"Ġreconc":11306,"enda":11307,"Ġ1863":11308,"Ġlocomotives":11309,"ĠDartmouth":11310,"Ġstun":11311,"Ġoutstanding":11312,"Ġviewing":11313,"Ġcouldn":11314,"ĠPros":11315,"ĠCrus":11316,"ĠKrakÃ³w":11317,"phal":11318,"Ġ1886":11319,"ĠConservative":11320,"ĠCairo":11321,"Ġretrieve":11322,"Ġsheep":11323,"Ġarena":11324,"Ġblast":11325,"Ġgenres":11326,"ĠBurke":11327,"Ġpaying":11328,"ĠSalv":11329,"Ġexpanding":11330,"ĠTechnology":11331,"Ġhollow":11332,"ĠCovenant":11333,"ĠIbn":11334,"Ġrolled":11335,"Ġsupervisor":11336,"Ġbackst":11337,"Ġclosure":11338,"Ġvarying":11339,"Ġhem":11340,"olves":11341,"ĠGregory":11342,"Ġgranite":11343,"ĠCommerce":11344,"ĠAlt":11345,"ĠLeeds":11346,"Ġproclamation":11347,"Ġmask":11348,"Ġcolored":11349,"ĠMorning":11350,"rint":11351,"instein":11352,"Ġsentiment":11353,"ĠFormer":11354,"iman":11355,"ĠBrooklyn":11356,"ĠSeventh":11357,"Ġbapt":11358,"izard":11359,"ĠRevolutionary":11360,"ht":11361,"oren":11362,"Ġregulations":11363,"Ġsuggestion":11364,"Ġreporting":11365,"Ã¶r":11366,"dnance":11367,"ĠROK":11368,"Ġpersecution":11369,"ĠPreparations":11370,"ĠJNA":11371,"Ġatop":11372,"Ġcelebrate":11373,"ĠJulian":11374,"ĠhPa":11375,"ĠTel":11376,"ĠMarqu":11377,"ĠOrton":11378,"Ġarmoured":11379,"atures":11380,"aku":11381,"ĠChang":11382,"zes":11383,"onnie":11384,"ĠMercury":11385,"Ġlung":11386,"Ġphysic":11387,"ema":11388,"ĠDennis":11389,"Ġattraction":11390,"Ġfiscal":11391,"Ġoccurrence":11392,"Ġpor":11393,"ĠBrowns":11394,"ĠHelen":11395,"Ġreporter":11396,"ĠBottom":11397,"Ġoverthrow":11398,"ĠAdvanced":11399,"Ġrepetitive":11400,"ĠMemphis":11401,"Ġcylindrical":11402,"Ġflour":11403,"Ġnevertheless":11404,"Ġeagle":11405,"Ġwitnesses":11406,"ĠHabsburg":11407,"Ġengagements":11408,"Ġpig":11409,"Ġblamed":11410,"Ġfuturistic":11411,"ĠStrategic":11412,"lav":11413,"Ġtent":11414,"Ġswept":11415,"Ġastronaut":11416,"igation":11417,"ĠÃī":11418,"Ġoxid":11419,"Ġorganic":11420,"Ġpianist":11421,"ĠIllustrated":11422,"Ġphilanthrop":11423,"ounded":11424,"ĠLeo":11425,"Ġintr":11426,"Ġremote":11427,"Ġpublicity":11428,"Ġbenzodiazep":11429,"Ġstored":11430,"Ġpositioned":11431,"ĠHistorical":11432,"ĠHassett":11433,"Ġparking":11434,"Ġmail":11435,"ĠMusical":11436,"ĠGhost":11437,"Ġdreadnoughts":11438,"low":11439,"ĠTu":11440,"Ġannex":11441,"nan":11442,"ĠBass":11443,"Ġstability":11444,"Ġverses":11445,"Ġdigitally":11446,"ĠGuevara":11447,"ju":11448,"mit":11449,"agi":11450,"eward":11451,"Ġtermin":11452,"Ġ1884":11453,"Ġfortifications":11454,"mitt":11455,"ĠSoc":11456,"ĠOrgan":11457,"Ġfocusing":11458,"ettes":11459,"Ġprogressive":11460,"Ġtargeted":11461,"Ġshelter":11462,"Ġpuzzle":11463,"ĠRan":11464,"osc":11465,"Ġnoise":11466,"Ġswing":11467,"ĠFather":11468,"ĠVermont":11469,"Ġprevalent":11470,"ĠClarence":11471,"Ġdestructive":11472,"Ġlucrative":11473,"ĠLÃ³pez":11474,"inus":11475,"acher":11476,"Ġflown":11477,"Ġdrunk":11478,"Ġcorresponding":11479,"ĠCanucks":11480,"Ġcrop":11481,"ĠStri":11482,"Ġ103":11483,"Ġpeasants":11484,"Ġow":11485,"ĠTests":11486,"Ġcurve":11487,"Ġresignation":11488,"ĠNass":11489,"iche":11490,"ĠIsle":11491,"ĠDevil":11492,"Ġrecruit":11493,"ĠOpera":11494,"Ġmuseums":11495,"ĠWalsh":11496,"Ġpotassium":11497,"ĠLanguage":11498,"armed":11499,"Ġdetected":11500,"Ġconfused":11501,"Ġconvince":11502,"Ġcruise":11503,"ĠMitsubishi":11504,"Ġwinners":11505,"Ġtorpedoes":11506,"Ġchallenging":11507,"Ġmagnetic":11508,"aba":11509,"issa":11510,"ĠHolland":11511,"Ġpreceding":11512,"Ġplasma":11513,"ĠHepburn":11514,"ĠEmergency":11515,"Ġroster":11516,"Ġrebounds":11517,"Ġambush":11518,"irth":11519,"avia":11520,"ĠJose":11521,"Ġmentions":11522,"ĠClyde":11523,"Ġadolesc":11524,"Ġaffiliate":11525,"ËĲ":11526,"eta":11527,"ĠPon":11528,"Ġquoted":11529,"Ġbrings":11530,"ĠBrah":11531,"ĠPhillies":11532,"Ġballs":11533,"ĠCA":11534,"Ġrice":11535,"ĠInside":11536,"ounced":11537,"ĠMontana":11538,"court":11539,"Ġwebsites":11540,"Ġinadvertently":11541,"ĠPÃ©rez":11542,"Ġovershadowed":11543,"ĠRav":11544,"Ġregiments":11545,"Ġstudios":11546,"ĠMyst":11547,"Ġworse":11548,"Ġbore":11549,"ĠSund":11550,"Ġcalculated":11551,"Ġmothers":11552,"Ġspokesman":11553,"Ġcomplications":11554,"Ġmillimeters":11555,"ĠOil":11556,"Ġdirecting":11557,"Ġterminal":11558,"Ġtourist":11559,"ĠHerbert":11560,"Ġconcepts":11561,"Ġsolely":11562,"ĠNASCAR":11563,"Ġcreature":11564,"ĠBCE":11565,"Ġdiversity":11566,"Ġoutpost":11567,"Ġpostseason":11568,"Ġunfinished":11569,"hal":11570,"omed":11571,"ĠChet":11572,"ĠChuck":11573,"Ġprejud":11574,"Ġdisposal":11575,"Ġautonomy":11576,"ĠGuadeloupe":11577,"leased":11578,"Ġthanks":11579,"Ġdarker":11580,"ĠLed":11581,"Ġjudicial":11582,"Ġrotation":11583,"ĠNHC":11584,"ĠShirley":11585,"Ġnice":11586,"ĠPoe":11587,"ĠGru":11588,"Ġ1877":11589,"ĠStrong":11590,"ĠAvalanche":11591,"ĠPunjab":11592,"Ġhistorically":11593,"ĠLoyal":11594,"rust":11595,"yst":11596,"Ġhide":11597,"ĠHus":11598,"Ġ138":11599,"ĠAdventure":11600,"ĠCEO":11601,"ĠThomson":11602,"ĠEverglades":11603,"ĠTaunton":11604,"ĠToledo":11605,"este":11606,"Ġscholarship":11607,"Ġexamined":11608,"Ġpsychedelic":11609,"ĠAustro":11610,"ĠDenver":11611,"cht":11612,"Ġjew":11613,"Ġ1876":11614,"Ġzero":11615,"ĠConversely":11616,"pus":11617,"ĠYard":11618,"Ġ122":11619,"ĠSever":11620,"acking":11621,"Ġfragment":11622,"Ġhieroglyph":11623,"imer":11624,"Ġbattlefield":11625,"ĠManuel":11626,"ĠExpl":11627,"Ġ230":11628,"ĠCox":11629,"opy":11630,"Ġ116":11631,"ĠUnit":11632,"ĠAlbany":11633,"Ġshifting":11634,"ĠBolshev":11635,"ĠReligion":11636,"do":11637,"Ġacclaimed":11638,"Ġreconstruction":11639,"Ġsanct":11640,"zed":11641,"Ġsharing":11642,"Ġtrio":11643,"Ġmessages":11644,"therapy":11645,"ĠProducer":11646,"ĠNguyá»ħn":11647,"Ġov":11648,"ĠOcc":11649,"iki":11650,"Ġrounded":11651,"Ġwalked":11652,"ĠTheater":11653,"Ġmasc":11654,"ĠNam":11655,"ĠPercy":11656,"Ġmeasuring":11657,"ĠRonald":11658,"ĠNigel":11659,"Ġ129":11660,"Ġelevated":11661,"Ġenergetic":11662,"Ġfluctu":11663,"ĠPeggy":11664,"Ġdeliberate":11665,"ĠFinancial":11666,"ĠSax":11667,"Ġposter":11668,"Ġ134":11669,"Ġconnects":11670,"Ġobsolete":11671,"ĠRivers":11672,"Ġoct":11673,"Ġagencies":11674,"ĠBeau":11675,"Ġguards":11676,"FA":11677,"rang":11678,"atar":11679,"izers":11680,"Ġflower":11681,"Ġradius":11682,"ĠCurrent":11683,"Ġfingers":11684,"ĠMoffat":11685,"ĠHimmler":11686,"ĠSurvivor":11687,"Ġthemed":11688,"Ġrefuses":11689,"Ġcurved":11690,"Ġrouting":11691,"Ġcommitment":11692,"di":11693,"ĠRou":11694,"rians":11695,"Ġpresents":11696,"ĠOttawa":11697,"ĠCarlos":11698,"Ġcrocod":11699,"Ġupgrades":11700,"Ġconscience":11701,"ĠMedieval":11702,"Ġmotif":11703,"Ġaccomplished":11704,"reh":11705,"opard":11706,"Ġkids":11707,"ahn":11708,"Ġopined":11709,"Ġclouds":11710,"ĠCinquemani":11711,"Ġcemetery":11712,"umi":11713,"Ġconducting":11714,"Ġarguments":11715,"Ġrevenge":11716,"Ġcul":11717,"icus":11718,"Ġincidents":11719,"Ġcivic":11720,"ĠSearch":11721,"ĠErnst":11722,"ĠHumphrey":11723,"Ġgenuinely":11724,"Ġphysically":11725,"Ġproclaimed":11726,"ĠMichel":11727,"ĠTudor":11728,"Ġconstraints":11729,"Ġeliminating":11730,"ĠLindsay":11731,"Ġobserver":11732,"Ġschizophrenia":11733,"Ġcreatures":11734,"Ġhilarious":11735,"ĠLichtenstein":11736,"Ġparanormal":11737,"ĠBournemouth":11738,"ĠWel":11739,"ulates":11740,"istical":11741,"Ġparticipating":11742,"Ġintegrated":11743,"Ġconsequence":11744,"Ġspell":11745,"Ġloose":11746,"Ġ1830":11747,"ĠKy":11748,"Ġcooper":11749,"Ġaggression":11750,"Ġprotagonists":11751,"ĠOlivier":11752,"Ġorthodox":11753,"ĠHey":11754,"Ġfinest":11755,"Ġadmir":11756,"ĠFisher":11757,"Ġcanon":11758,"Ġ1875":11759,"Ġwidth":11760,"ĠCardinals":11761,"Ġvenues":11762,"ĠÎ¼m":11763,"Ä«":11764,"icon":11765,"unge":11766,"avan":11767,"Ġscout":11768,"Ġrunner":11769,"ĠEnix":11770,"ĠEmma":11771,"Ġceram":11772,"tymology":11773,"ĠGlacier":11774,"ĠSarawak":11775,"ĠPack":11776,"ĠMega":11777,"Ġtheaters":11778,"ĠColin":11779,"ĠBrussels":11780,"Ġredesigned":11781,"ĠWilkinson":11782,"Ġchancellor":11783,"ĠShin":11784,"Ġdemographic":11785,"Ġlesser":11786,"Ġceremonies":11787,"Ġproperly":11788,"ĠLords":11789,"Ġsect":11790,"Ġlakes":11791,"ĠBod":11792,"Ġspots":11793,"ĠArc":11794,"ĠArchae":11795,"ĠLiterature":11796,"Ġchron":11797,"Ġprince":11798,"Ġextends":11799,"ĠDrake":11800,"Ġcontribute":11801,"ĠChurchill":11802,"Ġborough":11803,"enic":11804,"asi":11805,"ĠParkway":11806,"Ġbowled":11807,"ĠBorneo":11808,"ĠFoster":11809,"ĠRaymond":11810,"Ġmartial":11811,"ĠMend":11812,"ĠRBI":11813,"Ġvaries":11814,"Ġ1883":11815,"ĠRomanian":11816,"ĠCumberland":11817,"Ġremake":11818,"OM":11819,"Ġsouthwestern":11820,"Ġmammal":11821,"Ġcatastroph":11822,"ĠWings":11823,"Ġintermediate":11824,"Ġweakness":11825,"Ġinstructions":11826,"ĠIbrahim":11827,"Ġvulnerability":11828,"Ġministers":11829,"ĠOperations":11830,"ĠSantiago":11831,"ĠWikipedia":11832,"ĠSri":11833,"Ġonwards":11834,"orne":11835,"ĠComputer":11836,"Ġtransformed":11837,"ĠMak":11838,"Ġ1881":11839,"Ġpossessed":11840,"ĠShankar":11841,"Ġhurt":11842,"Ġcontinental":11843,"Ġplayable":11844,"Ġcoaches":11845,"Ġupdated":11846,"ĠBlair":11847,"Ġachievements":11848,"oust":11849,"ĠRNA":11850,"iang":11851,"Ġlinear":11852,"appa":11853,"Ġinitiative":11854,"Ġsensitive":11855,"ĠClifton":11856,"ĠMalaysian":11857,"ĠAlbanian":11858,"Ã¼hrer":11859,"ĠSoftware":11860,"Ġyd":11861,"enne":11862,"Ġairborne":11863,"Ġlogo":11864,"ĠAlam":11865,"Ġoutcome":11866,"Ġrider":11867,"Ġnineteen":11868,"ĠMinaj":11869,"ĠChopra":11870,"ĠEinsatzgrupp":11871,"ĠVenice":11872,"Ġtransmission":11873,"Ġaided":11874,"ĠPep":11875,"Ġcritically":11876,"ĠNorthwest":11877,"ĠBreak":11878,"ĠReturn":11879,"girl":11880,"Ġinaccur":11881,"Ġhabits":11882,"Ġprestige":11883,"Ġgalaxies":11884,"Ġconsideration":11885,"ĠRichardson":11886,"ĠSarajevo":11887,"ĠPleistocene":11888,"hem":11889,"igo":11890,"Ġallied":11891,"Ġvariable":11892,"ĠGround":11893,"Ġconsciousness":11894,"ĠCromwell":11895,"Ġemblem":11896,"Ġcorpse":11897,"ĠRegarding":11898,"Ġironclad":11899,"Ġdisabled":11900,"Ġhoney":11901,"Ġvegetation":11902,"Ġautobiography":11903,"ĠPowell":11904,"Ġ1869":11905,"Ġtaxon":11906,"Ġorchestral":11907,"Ġbicycle":11908,"ĠKoÅĽciuszko":11909,"Ġ151":11910,"Ġtourists":11911,"ĠWeather":11912,"Ġemerging":11913,"Ġdeposits":11914,"world":11915,"ĠTalk":11916,"Ġmonster":11917,"Ġdepiction":11918,"ĠComposition":11919,"Ġlandmark":11920,"Ġestimate":11921,"ĠDuncan":11922,"Ġexercises":11923,"Ġmimic":11924,"Ġcongrat":11925,"ĠBeauty":11926,"asse":11927,"ĠLie":11928,"enders":11929,"Ġspite":11930,"Ġgrid":11931,"Ġ128":11932,"olo":11933,"Ġworker":11934,"actic":11935,"ĠBiden":11936,"Ġminerals":11937,"ĠContinuing":11938,"Ġfixture":11939,"Ġdisagreement":11940,"ĠMic":11941,"ographer":11942,"Ġelectro":11943,"Ġpunishment":11944,"Ġ1866":11945,"Ġconsistently":11946,"Ġroutine":11947,"Ġcriminals":11948,"ĠTARDIS":11949,"ĠMaharashtra":11950,"Ġnortheastern":11951,"ĠDelta":11952,"Ġcomprising":11953,"ido":11954,"Ġdoctrine":11955,"Ġlatest":11956,"Ġtyrann":11957,"Ġlighthouse":11958,"Ġdisorders":11959,"ĠAbyss":11960,"Ġdock":11961,"ĠMills":11962,"opl":11963,"phet":11964,"ĠIsles":11965,"ĠMilan":11966,"ĠBuccaneers":11967,"Ġstaged":11968,"quir":11969,"Ġdamaging":11970,"Ġassassination":11971,"ĠDorset":11972,"ĠFowler":11973,"Ġreduces":11974,"ĠiPad":11975,"Ġion":11976,"adows":11977,"ĠBody":11978,"ĠRA":11979,"Ġperformers":11980,"Ġmanaging":11981,"Ġinsist":11982,"Ġsearching":11983,"Ġjournalists":11984,"Ġdelegates":11985,"Ġachievement":11986,"eded":11987,"asp":11988,"Ġpayment":11989,"Ġsailors":11990,"ĠIroquois":11991,"alle":11992,"Ġhonors":11993,"Ġbelonging":11994,"pat":11995,"Ġinput":11996,"ĠBou":11997,"Ġpref":11998,"ĠRoth":11999,"yne":12000,"Ġwitnessed":12001,"ĠSolar":12002,"core":12003,"ĠFrances":12004,"rington":12005,"Ġrevealing":12006,"Ġsubscription":12007,"ĠSpitfires":12008,"Ġclip":12009,"Ġpsychiat":12010,"Ġencourage":12011,"ĠEllen":12012,"ĠMalagasy":12013,"aton":12014,"ĠRange":12015,"Ġseal":12016,"ĠCloud":12017,"ammar":12018,"Ġ750":12019,"ĠUsing":12020,"Ġarchaeological":12021,"ĠHir":12022,"ĠViet":12023,"Ġpriority":12024,"alo":12025,"Ġshr":12026,"stown":12027,"Ġgest":12028,"Ġgates":12029,"Ġsilent":12030,"Ġpreventing":12031,"ĠBuffy":12032,"ĠAcademic":12033,"ĠFun":12034,"Ġunsuccessfully":12035,"tic":12036,"Ġ124":12037,"prises":12038,"ĠMaterial":12039,"ĠKombat":12040,"ĠTownsend":12041,"Ġinheritance":12042,"Ġmild":12043,"ĠSH":12044,"Ġanarch":12045,"Ġactively":12046,"Ġargue":12047,"Ġventure":12048,"Ġhypothesis":12049,"Ġbelonged":12050,"ĠSaffir":12051,"ĠEcho":12052,"ĠReverend":12053,"ĠColombia":12054,"ĠGrove":12055,"Ġlengths":12056,"ĠCarn":12057,"Ġcoaching":12058,"Ġswitched":12059,"OR":12060,"istle":12061,"Ġrelinqu":12062,"Ġcasemates":12063,"Ġsupreme":12064,"Ġmant":12065,"ĠSec":12066,"ĠFood":12067,"Ġicon":12068,"oning":12069,"Ġfinance":12070,"ĠEng":12071,"Ġeighteen":12072,"ĠBelle":12073,"Ġstrange":12074,"Ġdistinguish":12075,"Ġreligions":12076,"ĠFam":12077,"Ġlistening":12078,"Ġexecutives":12079,"Ġdisputed":12080,"Ġceiling":12081,"asaki":12082,"ĠMile":12083,"ĠPunk":12084,"Ġscientist":12085,"ĠWilmington":12086,"Ġfolklore":12087,"Ġsubfamily":12088,"Ġroot":12089,"Ġintroduce":12090,"ĠFilms":12091,"Ġ1882":12092,"bus":12093,"stand":12094,"ĠMull":12095,"Ġdirections":12096,"Ġmechanics":12097,"Ġcontributing":12098,"Ġhyper":12099,"Ġcompensate":12100,"ĠâĨĴ":12101,"ilation":12102,"Ġexploration":12103,"Ġ1871":12104,"Ġ1873":12105,"Ġexpectations":12106,"Ġphosph":12107,"ĠPeriod":12108,"Ġuncomfortable":12109,"iliation":12110,"uda":12111,"ĠRegion":12112,"Ġprocedure":12113,"Ġwhales":12114,"Ġconfer":12115,"Ġmetals":12116,"Ġtragic":12117,"ĠUruguay":12118,"iev":12119,"ĠHeavy":12120,"Ġformations":12121,"Ġcarved":12122,"Ġmolecular":12123,"ele":12124,"ĠRobb":12125,"Ġthesis":12126,"Ġwelding":12127,"ĠEugen":12128,"Ġmbar":12129,"Ġ1867":12130,"Ġobjectives":12131,"ĠChan":12132,"ĠAnat":12133,"Ġsheet":12134,"Ġadvocated":12135,"Ġimproving":12136,"Ġdimensional":12137,"ĠTuesday":12138,"Ġanxiety":12139,"ĠAntioch":12140,"ĠMauritius":12141,"Ġsaving":12142,"ĠPine":12143,"ĠRah":12144,"ED":12145,"isch":12146,"ĠUB":12147,"Ġdesired":12148,"Ġprivile":12149,"Reilly":12150,"ĠEpsilon":12151,"Ġadulthood":12152,"ĠKel":12153,"ulture":12154,"ĠCommons":12155,"Ġshipped":12156,"rome":12157,"PS":12158,"ci":12159,"ĠCant":12160,"itty":12161,"Ġgonna":12162,"ĠDavenport":12163,"Ġsheriff":12164,"ĠAhmad":12165,"ĠOct":12166,"Ġprocessing":12167,"Ġdiscussing":12168,"ĠVeracruz":12169,"Ãł":12170,"Ġremind":12171,"Ġoverwhelming":12172,"Ġrequirement":12173,"ĠHBO":12174,"ĠPatterson":12175,"Ġleisure":12176,"Ġnightclub":12177,"ĠCut":12178,"Ġ1878":12179,"Ġstaying":12180,"ĠStandard":12181,"Ġconvert":12182,"Ġ137":12183,"Ġtemples":12184,"ĠDesert":12185,"Ġacceptance":12186,"Ġdisappearance":12187,"ĠErlewine":12188,"Ġtransparent":12189,"wing":12190,"Ġreson":12191,"ĠTrav":12192,"Ġassociate":12193,"Ã¨re":12194,"Ġdive":12195,"ĠMail":12196,"Ġ202":12197,"Ġrational":12198,"Ġhorsepower":12199,"ĠWatson":12200,"rairie":12201,"Ġelongated":12202,"ĠSihanouk":12203,"Ġpartners":12204,"ĠMalay":12205,"ĠFlotilla":12206,"Ġexplored":12207,"ĠCM":12208,"Ġestates":12209,"Ġblockade":12210,"Ġcomprised":12211,"ĠMalvern":12212,"ĠHotspur":12213,"ĠRaid":12214,"Ġspeculated":12215,"Ġkeyboard":12216,"Ġrefugees":12217,"Ġcock":12218,"Ġcameo":12219,"Ġcomposers":12220,"ĠGibson":12221,"Ġphotos":12222,"ĠKylie":12223,"ĠControvers":12224,"ĠPotomac":12225,"rets":12226,"ĠEagle":12227,"Ġjaw":12228,"ĠNewman":12229,"ĠTrinity":12230,"anese":12231,"Ġcollecting":12232,"Ġnavigation":12233,"Ġroyalties":12234,"ĠChin":12235,"Ġresemble":12236,"Ġfragments":12237,"ĠSuffolk":12238,"ĠBollywood":12239,"ĠGoe":12240,"pling":12241,"Ġloaded":12242,"ĠBarr":12243,"Ġsuffer":12244,"Ġrebel":12245,"Ġaveraged":12246,"Ġundertook":12247,"Ġstupid":12248,"Ġcheese":12249,"ĠKanye":12250,"ĠOrigin":12251,"Ġingredients":12252,"ĠKer":12253,"Ġimmigrants":12254,"oi":12255,"omes":12256,"ĠFritz":12257,"Ġsporad":12258,"Ġgenera":12259,"Ġsettle":12260,"Ġhabitats":12261,"ĠProfessional":12262,"ĠCulture":12263,"Ġturbines":12264,"Ġvocabulary":12265,"ĠPu":12266,"ĠRif":12267,"ĠKatherine":12268,"Ġaccomplishments":12269,"Ġautomobile":12270,"Ġraw":12271,"Ġwhale":12272,"Ġseeds":12273,"ĠAmb":12274,"Ġstair":12275,"Ġants":12276,"Ġfaction":12277,"Ġmanufactured":12278,"Ġcomplaints":12279,"Ġrushed":12280,"Ġwarehouse":12281,"pes":12282,"ĠWhy":12283,"Ġassets":12284,"ĠMonster":12285,"ĠAngle":12286,"zh":12287,"Ġbars":12288,"orted":12289,"Ġdiscour":12290,"Ġhomeless":12291,"iggins":12292,"ĠLuther":12293,"Ġnetworks":12294,"Ġethanol":12295,"ĠIS":12296,"ĠPas":12297,"Ġreferee":12298,"Ġconsequences":12299,"Ġperipheral":12300,"Ġmanages":12301,"Ġunderwater":12302,"Ġplenty":12303,"Ġtelegraph":12304,"Ġpharmaceutical":12305,"Ġsic":12306,"Ġcoastline":12307,"Ġpsychological":12308,"Ġdissolved":12309,"Ġeruption":12310,"ĠNiagara":12311,"ocalypse":12312,"Ġbuff":12313,"Ġsymbols":12314,"Ġhonorary":12315,"ĠHersh":12316,"ĠWessex":12317,"ĠTalbot":12318,"ĠTex":12319,"ĠWant":12320,"Ġsymph":12321,"Ġbravery":12322,"Ġcloverleaf":12323,"ĠDist":12324,"ĠLis":12325,"Ġups":12326,"ogs":12327,"Ġconsensus":12328,"Ġlengthy":12329,"Ġultimate":12330,"ĠVettel":12331,"ĠPhelps":12332,"ĠPerhaps":12333,"RC":12334,"oland":12335,"Ġrelied":12336,"Ġcave":12337,"stad":12338,"ember":12339,"arks":12340,"Ġvariant":12341,"ĠRookie":12342,"ĠTomatoes":12343,"Ġprecisely":12344,"Ãª":12345,"Ġadds":12346,"Ġloyalty":12347,"ĠMachine":12348,"Ġfears":12349,"ching":12350,"ĠGab":12351,"otto":12352,"ĠCarr":12353,"Ġsingers":12354,"ĠCrim":12355,"ĠUrban":12356,"Ġcircum":12357,"Ġsignals":12358,"ĠWoods":12359,"Ġdegradation":12360,"ĠNeighbours":12361,"Ġintact":12362,"Ġlandings":12363,"Ġqualities":12364,"Ġreserves":12365,"Ġstyled":12366,"Ġchloride":12367,"Ġconvinces":12368,"icism":12369,"ĠSad":12370,"odon":12371,"arted":12372,"Ġ1872":12373,"ĠFu":12374,"ikes":12375,"Ġteachers":12376,"ĠSelena":12377,"Ġassessment":12378,"ieces":12379,"Ġyourself":12380,"ĠAntwerp":12381,"ĠDiocletian":12382,"ĠMC":12383,"Ġrocket":12384,"Ġ1868":12385,"ounted":12386,"ĠNotable":12387,"street":12388,"ĠLyrically":12389,"Ġremastered":12390,"ĠMarx":12391,"Ġdefenses":12392,"ĠPlat":12393,"Ġdoctors":12394,"Ġinteractions":12395,"ĠSÃ¡nchez":12396,"Ġbrigadier":12397,"Ġdiabetes":12398,"iri":12399,"Ġamid":12400,"Ġemigr":12401,"ĠPoll":12402,"ĠOtto":12403,"Ġmillions":12404,"ĠEngineering":12405,"ĠVaughan":12406,"clipse":12407,"Ġexcitement":12408,"Ġemotions":12409,"Ġspectators":12410,"Ġessay":12411,"arity":12412,"ques":12413,"heads":12414,"Ġdelight":12415,"Ġliterally":12416,"Ġprinting":12417,"Ġgrossed":12418,"ĠVarious":12419,"ĠOkinawa":12420,"Ġmonetary":12421,"ĠMacdonald":12422,"ĠSeydlitz":12423,"ĠGuatemalan":12424,"Ġcomparing":12425,"ikh":12426,"ĠAdd":12427,"ĠEllis":12428,"Ġpounder":12429,"Ġowing":12430,"Ġsongwriting":12431,"Ġweighed":12432,"Ġumpire":12433,"Ġrevelation":12434,"AL":12435,"Ġcostumes":12436,"Ġlifted":12437,"ĠDesc":12438,"ĠNumber":12439,"ĠFlames":12440,"ĠMoney":12441,"ĠCotton":12442,"Ġpreseason":12443,"Ġrhetor":12444,"aire":12445,"orus":12446,"ĠCabinet":12447,"Ġasylum":12448,"Ġcompatible":12449,"ĠAmbrose":12450,"Ġpsilocybin":12451,"ĠStage":12452,"Ġengaging":12453,"Ġexplosive":12454,"Ġbacteria":12455,"Ġrally":12456,"Ġtract":12457,"Ġinterf":12458,"Ġphrases":12459,"ĠTamaulipas":12460,"Ġheterosexual":12461,"ĠNed":12462,"Ġdealt":12463,"ĠLeigh":12464,"Ġtrips":12465,"Ġrevived":12466,"Ġbatsman":12467,"ĠHabitat":12468,"alid":12469,"izations":12470,"Ġrent":12471,"Ġappealed":12472,"Ġpolitically":12473,"Ġinstructed":12474,"Ġpatrols":12475,"Ġtissues":12476,"Ġbarb":12477,"Ġstrings":12478,"ĠGenesis":12479,"ĠMk":12480,"Ġdeals":12481,"Ġunt":12482,"ĠReporter":12483,"Ġunincorporated":12484,"Ġtensions":12485,"ulu":12486,"ĠNewport":12487,"Ġrelating":12488,"lington":12489,"Ġreader":12490,"Ġinstrumentation":12491,"urance":12492,"ĠSoviets":12493,"ĠPhillips":12494,"ĠPixar":12495,"ĠDirection":12496,"Ġarbitr":12497,"Ġaground":12498,"Ġderivative":12499,"Ġlifelong":12500,"ĠSut":12501,"Ġsuited":12502,"bery":12503,"ĠHeaven":12504,"ĠMaxwell":12505,"Ġbitter":12506,"Ġgraphic":12507,"Ġoutspoken":12508,"hn":12509,"hand":12510,"ĠPent":12511,"ĠNak":12512,"ppe":12513,"list":12514,"ĠRiley":12515,"load":12516,"Ġvocalist":12517,"ĠTottenham":12518,"ĠRKO":12519,"Ġchimney":12520,"Ġintervals":12521,"Ġnocturnal":12522,"Ġ123":12523,"mat":12524,"Ġclan":12525,"Ġslower":12526,"ĠAdult":12527,"Ġwidow":12528,"ĠButler":12529,"Ġcatalogue":12530,"wind":12531,"Ġtermed":12532,"Ġwoods":12533,"Ġchapters":12534,"lia":12535,"Ġfrog":12536,"ĠFab":12537,"ĠNorm":12538,"ĠMcM":12539,"Ġexhibited":12540,"ĠKnights":12541,"ĠSurrey":12542,"Ġintersections":12543,"ĠKubrick":12544,"Ġsurname":12545,"Ġexpendit":12546,"Ġguidelines":12547,"Ġreprinted":12548,"Ġfishermen":12549,"Ġclash":12550,"ologically":12551,"ĠBarrett":12552,"Ġmissile":12553,"Ġallegations":12554,"ĠCode":12555,"Ġincred":12556,"ĠTherefore":12557,"ĠMetal":12558,"Connor":12559,"Ġpistol":12560,"ĠFlynn":12561,"ĠWhedon":12562,"Ġstorytelling":12563,"ĠCarlisle":12564,"ĠEmbassy":12565,"pent":12566,"Ġwishes":12567,"ĠEssex":12568,"ĠMasters":12569,"adu":12570,"estic":12571,"Ġovercome":12572,"onde":12573,"Ġinvolve":12574,"ĠScreen":12575,"ĠCool":12576,"Ġmistake":12577,"Ġdiscipline":12578,"Ġlibraries":12579,"ĠVulcan":12580,"ĠConst":12581,"ĠMadrid":12582,"Ġmathematics":12583,"Ġtactical":12584,"ĠChevrolet":12585,"ĠPrison":12586,"ĠRight":12587,"agr":12588,"ĠCapital":12589,"Ġhammer":12590,"ĠPrivy":12591,"vi":12592,"Ġdens":12593,"ĠWald":12594,"Ġshirt":12595,"Ġemp":12596,"ĠProgress":12597,"Ġcultures":12598,"Ġsacrifice":12599,"ĠRomans":12600,"Ġgallery":12601,"Ġetc":12602,"ĠCombat":12603,"Ġhunt":12604,"ĠCou":12605,"Ġna":12606,"ĠBurger":12607,"ĠTwelve":12608,"TC":12609,"agons":12610,"ĠChes":12611,"Ġmodest":12612,"Ġquantities":12613,"Ġtransit":12614,"ĠMovement":12615,"Ġhesit":12616,"Ġconfiscated":12617,"Ġkilogram":12618,"ĠCC":12619,"ĠTall":12620,"Ġthickness":12621,"odied":12622,"ĠVa":12623,"ichi":12624,"Ġexpense":12625,"Ġproceeds":12626,"Neill":12627,"ĠTrondheim":12628,"ĠDru":12629,"ĠKerr":12630,"ĠSteam":12631,"agger":12632,"ĠChen":12633,"Ġrepe":12634,"ĠResident":12635,"ĠMarcus":12636,"ĠRevenge":12637,"ĠMorocco":12638,"Ġpivotal":12639,"Ġostensibly":12640,"oro":12641,"Ġfurn":12642,"Ġfinger":12643,"ĠCome":12644,"ĠAdrian":12645,"Ġcircles":12646,"Ġfights":12647,"Ġcaliber":12648,"ĠBosnia":12649,"ho":12650,"lings":12651,"ĠAlc":12652,"erves":12653,"Ġsupporter":12654,"Ġdiocese":12655,"Ġá":12656,"olia":12657,"ĠEqu":12658,"Ġimported":12659,"Ġmigration":12660,"ĠNL":12661,"Ġspores":12662,"Ġinterviewed":12663,"Ġpanels":12664,"Ġlocomotive":12665,"ĠRelations":12666,"ĠView":12667,"ĠBelfast":12668,"corrhizal":12669,"anto":12670,"ĠSupp":12671,"Ġrepaired":12672,"fa":12673,"Ġwashed":12674,"ĠMom":12675,"ĠBrew":12676,"Ġgaming":12677,"ĠâĢ²":12678,"Ġcontinent":12679,"icked":12680,"ĠAviation":12681,"Ġfluid":12682,"Ġreintrod":12683,"Ġseizure":12684,"ĠRockefeller":12685,"pendicular":12686,"ĠCancellara":12687,"ĠTales":12688,"ĠReading":12689,"ĠFlood":12690,"opsis":12691,"Ġdeton":12692,"Ġcommentators":12693,"Ġcustody":12694,"Ġinevitable":12695,"ĠKumar":12696,"ĠGarcia":12697,"ĠSaigon":12698,"ĠNapoleonic":12699,"rates":12700,"Ġfare":12701,"ĠPut":12702,"ĠEsp":12703,"Ġjoke":12704,"Ġmolecules":12705,"Ġshopping":12706,"ĠNobel":12707,"ĠAnaheim":12708,"Ġmisc":12709,"ĠPublishing":12710,"Ġhind":12711,"lass":12712,"Ġbeer":12713,"ĠFemales":12714,"Ġtriangular":12715,"Ġsatirical":12716,"Ġvacuum":12717,"nut":12718,"ilia":12719,"ĠBarn":12720,"ĠNorse":12721,"ĠAdmiralty":12722,"Ġlip":12723,"ĠRail":12724,"Ġassert":12725,"Ġpigeon":12726,"Ġejected":12727,"Ġcurves":12728,"ĠVienna":12729,"ĠAegean":12730,"front":12731,"ĠWer":12732,"ĠManning":12733,"ĠRomania":12734,"Ġacquire":12735,"ĠJennifer":12736,"acetime":12737,"Ġsubplot":12738,"oft":12739,"Ġcats":12740,"Ġallocated":12741,"nie":12742,"ĠSac":12743,"ĠSib":12744,"ĠLead":12745,"ĠArticle":12746,"Ġornith":12747,"Ġundisclosed":12748,"how":12749,"ĠBent":12750,"osity":12751,"Ġcontested":12752,"Ġresc":12753,"Ġsuccessive":12754,"Ġrelay":12755,"Ġseparately":12756,"Ġknowing":12757,"Ġrulers":12758,"Ġfloors":12759,"ĠBanksia":12760,"Ġreef":12761,"ĠStories":12762,"Ġmemories":12763,"Ġbetray":12764,"fleet":12765,"zac":12766,"ĠMcDonald":12767,"Ġdemanding":12768,"bank":12769,"igger":12770,"Ġpopulated":12771,"ĠBlake":12772,"Ġ1879":12773,"Ġaviation":12774,"ĠMotor":12775,"Ġadvantages":12776,"Ġepithet":12777,"ĠJG":12778,"Ġchem":12779,"Ġdisgu":12780,"ĠShadow":12781,"Ġmaneuver":12782,"ĠBudd":12783,"Ġdisrupt":12784,"Ġdiscussions":12785,"Ġfunctional":12786,"Ġgathering":12787,"Ġscheduling":12788,"ĠGlass":12789,"rob":12790,"achi":12791,"ĠShel":12792,"Ġnorthwestern":12793,"ĠLombard":12794,"ĠMake":12795,"ĠKes":12796,"Ġinterrupted":12797,"ĠMinogue":12798,"ĠPerth":12799,"Ġcomparable":12800,"ĠIdol":12801,"Ġally":12802,"Ġzones":12803,"Ġregardless":12804,"ĠElectronic":12805,"Ġscrapped":12806,"Ġcylinder":12807,"Ġbarriers":12808,"Ġhalftime":12809,"ĠRee":12810,"Ġchord":12811,"ĠMcCain":12812,"Ġgastrointestinal":12813,"Ġbills":12814,"Ġgolf":12815,"ĠChase":12816,"Ġscreening":12817,"Ġfarms":12818,"ĠChrys":12819,"Ġdowngraded":12820,"ĠTyrannosaurus":12821,"ĠAppalachian":12822,"Ġdemonstrate":12823,"ĠBowie":12824,"Ġeditorial":12825,"vo":12826,"Ġexport":12827,"Ġadvances":12828,"Ġcease":12829,"tt":12830,"Ġediting":12831,"Ġtourism":12832,"Ġdamages":12833,"Ġinstallation":12834,"ĠSvalbard":12835,"ĠRequiem":12836,"ĠGonzÃ¡lez":12837,"ĠIC":12838,"stitutes":12839,"Ġdynamic":12840,"ĠAvengers":12841,"ewicz":12842,"text":12843,"ĠAccolades":12844,"Ġanalyses":12845,"Ġpaved":12846,"ĠHous":12847,"ĠPall":12848,"Ġunrest":12849,"ĠBieber":12850,"Ġstanza":12851,"Ġproportions":12852,"ĠAristotle":12853,"Ġlongitudinal":12854,"Î½":12855,"ĠSpin":12856,"Ġ141":12857,"ĠBrother":12858,"Ġhalted":12859,"ĠHors":12860,"ĠSingle":12861,"Ġsporting":12862,"Ġmargins":12863,"ĠAthenian":12864,"Ġcertificate":12865,"Ġproud":12866,"ĠGretzky":12867,"ĠAssociates":12868,"Ġsew":12869,"Ġregained":12870,"Ġfluor":12871,"Ġgravity":12872,"Ġvoluntary":12873,"ĠPatricia":12874,"Ġarguably":12875,"ĠJericho":12876,"fare":12877,"zi":12878,"otus":12879,"Ġgrain":12880,"ĠSenior":12881,"Ġseemingly":12882,"tage":12883,"Ġcrowned":12884,"ĠTurks":12885,"Ġharbor":12886,"ĠChronicles":12887,"hausen":12888,"olar":12889,"Ġopted":12890,"Ġprojected":12891,"ĠHip":12892,"Ġcontracted":12893,"Ġdisputes":12894,"Ġprotecting":12895,"Ġspontaneous":12896,"ĠSamantha":12897,"ĠPartisans":12898,"ĠGalileo":12899,"ĠSugababes":12900,"ĠBrow":12901,"Ġperpet":12902,"Ġcreates":12903,"Ġlessons":12904,"Ġdescended":12905,"Ġvernacular":12906,"pa":12907,"Ġdeployment":12908,"ĠApart":12909,"ĠKlein":12910,"Ġarrange":12911,"ĠGallipoli":12912,"Ġopenly":12913,"ucky":12914,"Ġmasses":12915,"ĠCircuit":12916,"ĠEss":12917,"ĠSz":12918,"Ġjoy":12919,"Ġstrengthen":12920,"Ġhonest":12921,"Ġprivately":12922,"ĠJutland":12923,"ĠThereafter":12924,"ilis":12925,"ĠFM":12926,"ĠSenators":12927,"Ġsymmet":12928,"Ġbusy":12929,"ui":12930,"ĠFi":12931,"Ġ270":12932,"Ġcaptivity":12933,"Ġtotally":12934,"ĠCN":12935,"ĠLogan":12936,"Ġgenerals":12937,"ighters":12938,"Ġsteady":12939,"Ġnorthwestward":12940,"ĠPyramid":12941,"ĠAnth":12942,"Ġcoloured":12943,"Ġquit":12944,"Ġ146":12945,"Ġplanes":12946,"ĠBuddhist":12947,"Ġvolcano":12948,"Ġjumping":12949,"ĠSoldier":12950,"ĠClifford":12951,"ĠShepard":12952,"Ġparachute":12953,"HA":12954,"ĠSr":12955,"atha":12956,"Ġperf":12957,"ĠImm":12958,"Ġatmospheric":12959,"Ġthrust":12960,"hot":12961,"Ġfile":12962,"ĠCrew":12963,"ĠHit":12964,"umping":12965,"ĠMounted":12966,"Ġfarming":12967,"ĠJanet":12968,"ĠCaroline":12969,"ĠGandhi":12970,"ĠReconstruction":12971,"ĠSchmidt":12972,"roads":12973,"ĠBast":12974,"urred":12975,"ĠTiger":12976,"Ġchess":12977,"amma":12978,"Ġsummar":12979,"ĠMotion":12980,"Ġrapper":12981,"Ð°":12982,"lessly":12983,"Ġnecessarily":12984,"Ġdelegation":12985,"ĠLouise":12986,"ĠMilitia":12987,"Ġinvented":12988,"Ġdelays":12989,"Ġlacks":12990,"Ġcoalition":12991,"ĠAdventures":12992,"50":12993,"Ġcoc":12994,"Ġnests":12995,"ĠBear":12996,"Ġga":12997,"ĠTask":12998,"athers":12999,"ĠTrip":13000,"Ġmutual":13001,"ĠProtection":13002,"Ġdrifted":13003,"Ġgrief":13004,"Ġsubstances":13005,"atri":13006,"ĠSqu":13007,"Ġreiss":13008,"Ġcream":13009,"ĠGeneration":13010,"ĠNashville":13011,"ĠSchwarzenegger":13012,"Ġoak":13013,"ĠStore":13014,"Ġdecomp":13015,"inae":13016,"ĠAaliyah":13017,"ĠSusquehanna":13018,"ea":13019,"ĠRams":13020,"apa":13021,"IC":13022,"Ġornam":13023,"Ġdeveloper":13024,"Ġcook":13025,"ĠMcA":13026,"ĠÃģ":13027,"ĠFriend":13028,"Ġeverywhere":13029,"ĠReligious":13030,"Ġber":13031,"Ġmil":13032,"Ġkeen":13033,"ĠOnline":13034,"Ġretire":13035,"ĠSurvey":13036,"Ġfatalities":13037,"ĠVilleneuve":13038,"Ġbio":13039,"Ġjokes":13040,"Ġtracking":13041,"ĠPolit":13042,"Ġdeclaring":13043,"ĠLynch":13044,"Ġexcessive":13045,"Ġdwelling":13046,"ĠGameCube":13047,"Ġgeometry":13048,"imal":13049,"Ġ149":13050,"ĠHarper":13051,"ĠParadise":13052,"Ġambiguous":13053,"ĠPiccadilly":13054,"ĠHolly":13055,"ĠTrue":13056,"ĠSed":13057,"Ġteammates":13058,"ĠGran":13059,"ĠCommissioner":13060,"Ġadopting":13061,"Ġcoordination":13062,"ĠWaterloo":13063,"imi":13064,"ĠTat":13065,"Ġsubt":13066,"ĠPlaza":13067,"ĠEmily":13068,"ĠPalmer":13069,"Ġinject":13070,"Ġlava":13071,"Ġshops":13072,"ĠAirborne":13073,"Ġcalm":13074,"Ġprohibited":13075,"Ġinfrared":13076,"PC":13077,"Ġdug":13078,"Ġgains":13079,"Ġdivine":13080,"Ġpatch":13081,"ĠYet":13082,"Ġoperator":13083,"Ġstruggling":13084,"Ġfountain":13085,"ĠJedi":13086,"Ġunfortun":13087,"Ġmotorcycle":13088,"ĠKrajina":13089,"Ġjuxtap":13090,"ĠReznor":13091,"ĠSpotnitz":13092,"Ġcrustaceans":13093,"ĠAltrincham":13094,"mons":13095,"ĠAur":13096,"ĠTab":13097,"ovich":13098,"rah":13099,"ĠConsequently":13100,"Ġinspect":13101,"Ġsixty":13102,"Ġrecognize":13103,"Ġathletic":13104,"ĠBooth":13105,"Ġhonours":13106,"ĠCalvin":13107,"ĠDevon":13108,"Ġpregnancy":13109,"rolling":13110,"ĠBusch":13111,"Ġpledged":13112,"Ġendeav":13113,"ĠAver":13114,"irk":13115,"Ġconform":13116,"ĠMcD":13117,"Ġrealizes":13118,"ĠDrama":13119,"aurus":13120,"ĠGarfield":13121,"ĠDamage":13122,"Ġcabin":13123,"ĠMaurice":13124,"ĠPembroke":13125,"jan":13126,"Ġtender":13127,"ĠLav":13128,"Ġgenerate":13129,"ĠMFR":13130,"Ġrecomm":13131,"Ġrestrict":13132,"Ġ210":13133,"RS":13134,"iability":13135,"Ġsurplus":13136,"ĠHurricanes":13137,"ĠHavilland":13138,"iciencies":13139,"Ġpine":13140,"igu":13141,"esses":13142,"Ġouts":13143,"Ġbackup":13144,"Ġedges":13145,"Ġstorylines":13146,"Ġcollision":13147,"Ġtum":13148,"ĠCann":13149,"Ġoperas":13150,"Ġfindings":13151,"Ġ1848":13152,"Ġmerchants":13153,"ĠNorthumbria":13154,"ĠSuzuki":13155,"Ġpedestrian":13156,"Ġsimplicity":13157,"lude":13158,"Ġauction":13159,"ĠFoot":13160,"Ġclay":13161,"Ġsoap":13162,"Ġattractive":13163,"Ġunacceptable":13164,"ĠKot":13165,"Ġdraws":13166,"ĠDoyle":13167,"Ġretaliation":13168,"Ġroller":13169,"Ġtar":13170,"Ġ1874":13171,"ĠGriffin":13172,"brook":13173,"Ġsurfaces":13174,"Ð¾Ð":13175,"ĠElementary":13176,"Ġplagued":13177,"Ġdepleted":13178,"ĠReservoir":13179,"ĠSylvia":13180,"Ġabbreviated":13181,"Ġgrandchildren":13182,"VA":13183,"Ġremarkable":13184,"Ġanthem":13185,"Ġsecular":13186,"Ġgenes":13187,"Ġproceedings":13188,"ĠPanama":13189,"Ġpackage":13190,"Ġstreams":13191,"Ġscreenwriter":13192,"gh":13193,"Ġfreed":13194,"etically":13195,"Ġrepris":13196,"Ġadaptations":13197,"ĠFranco":13198,"ĠVukovar":13199,"ĠEU":13200,"istically":13201,"Ġspo":13202,"Ġgrants":13203,"legiate":13204,"Ġperfectly":13205,"ĠLarge":13206,"ĠFiji":13207,"Ġridiculous":13208,"ĠVeterans":13209,"OL":13210,"Ġchances":13211,"ĠSpy":13212,"Ġimpress":13213,"ĠIrving":13214,"Ġruins":13215,"attered":13216,"Ġtreas":13217,"ĠFinnish":13218,"Ġspherical":13219,"ĠVenetian":13220,"ĠBachelor":13221,"Ġtennis":13222,"Ġmour":13223,"ubble":13224,"Ġcarn":13225,"Ġmetropolitan":13226,"Ġsufficiently":13227,"Ġtier":13228,"Ġsubtle":13229,"ĠHolmes":13230,"Ġmotorway":13231,"Ġsearches":13232,"ĠBaroque":13233,"Ġmembranes":13234,"ĠJubilee":13235,"ĠThoroughbred":13236,"inary":13237,"Ġtut":13238,"ĠJunction":13239,"Ġpray":13240,"ĠMichelle":13241,"ĠArmenia":13242,"Ġlobby":13243,"Ġcottage":13244,"Ġcarriages":13245,"Ġfox":13246,"Ġ144":13247,"Ġdetached":13248,"etti":13249,"Ġallegedly":13250,"Ġworried":13251,"Ġveterans":13252,"Ġreservoir":13253,"Ġmodes":13254,"ĠSerbs":13255,"Ġemphasized":13256,"ĠLindwall":13257,"Ġassessed":13258,"ĠJacques":13259,"Ġfloating":13260,"Ġcoffin":13261,"ĠGaddafi":13262,"eted":13263,"ĠTunnel":13264,"Ġhiding":13265,"Ġdiving":13266,"Ġnights":13267,"loaded":13268,"ĠKendrick":13269,"Ġtopic":13270,"ĠCrime":13271,"ĠFormula":13272,"Ġunauthor":13273,"ĠYok":13274,"Ġdemonstration":13275,"ĠArabic":13276,"Ġtheorem":13277,"ĠMysore":13278,"Ġflattened":13279,"ĠSchneider":13280,"ĠEdwin":13281,"Ġloading":13282,"Ġincorporates":13283,"iform":13284,"ĠChand":13285,"Ġflotilla":13286,"Ġairplane":13287,"ĠBog":13288,"ĠStarr":13289,"ĠClaire":13290,"ĠStanford":13291,"Ġclimbing":13292,"Ġvit":13293,"Ġtrap":13294,"Ġspeeches":13295,"Ġweren":13296,"ĠSabbath":13297,"Ġsubstrate":13298,"Ġrepulsed":13299,"ĠØ§ÙĦ":13300,"ĠRandy":13301,"Ġmonitor":13302,"ĠSuperman":13303,"12":13304,"Ġdawn":13305,"acles":13306,"Ġattachment":13307,"Ġescal":13308,"Ġzo":13309,"Ġfloods":13310,"ĠLuis":13311,"ĠLegion":13312,"ĠInformer":13313,"ĠCarnegie":13314,"ĠInspector":13315,"Ġrays":13316,"ĠKiss":13317,"Ġobl":13318,"ĠGerald":13319,"Å¾":13320,"ĠMul":13321,"Ġputs":13322,"ĠPresley":13323,"ĠDresden":13324,"Ġrifles":13325,"ĠChrono":13326,"Ġdiscretion":13327,"ĠByrne":13328,"Ġwheelchair":13329,"uard":13330,"Ġinternet":13331,"ĠManor":13332,"Ġerrors":13333,"Ġdiagnosed":13334,"Ġtended":13335,"olic":13336,"Ġupgrade":13337,"Ġcentres":13338,"Ġinvestigated":13339,"ĠToo":13340,"Ġpleasure":13341,"Ġranged":13342,"Ġappreciated":13343,"ĠAuckland":13344,"Ġabruptly":13345,"Ġsurpassing":13346,"Ġtool":13347,"ĠNC":13348,"ĠMartha":13349,"Ġ....":13350,"Ġwarrant":13351,"Ġmodifications":13352,"ĠGuards":13353,"ĠMussolini":13354,"Ġadequately":13355,"ĠWorcestershire":13356,"ĠFac":13357,"opter":13358,"Ġintroducing":13359,"Ġmobil":13360,"ĠCuban":13361,"ĠMLS":13362,"ĠVlad":13363,"Ġsimultaneous":13364,"Ġenterprise":13365,"Ġmas":13366,"Ġnaked":13367,"ĠOber":13368,"ipping":13369,"Ġconsent":13370,"ĠCollect":13371,"Ġimmun":13372,"Ġmerger":13373,"Ġease":13374,"uns":13375,"ĠWake":13376,"Ġregul":13377,"ĠPierce":13378,"tempo":13379,"Ġrelaxed":13380,"Ġstraightforward":13381,"Ġmicrophone":13382,"Ġpetroleum":13383,"Ġvib":13384,"Ġgenerations":13385,"Ġlineup":13386,"ĠAnti":13387,"ĠKogÄĥlniceanu":13388,"Ġnotion":13389,"Ġsecuring":13390,"ĠFlow":13391,"ĠJennings":13392,"Ġcomfortable":13393,"bunal":13394,"Ġvivid":13395,"ĠIndustries":13396,"ĠAnniversary":13397,"ĠEthiop":13398,"Ġaster":13399,"Ġba":13400,"Ġitem":13401,"Ġbutt":13402,"Ġmonkey":13403,"ĠWarwick":13404,"ĠRhodesia":13405,"Ġnominees":13406,"ĠKathleen":13407,"zing":13408,"Ġgri":13409,"ĠAugustus":13410,"Ġconfined":13411,"Ġthoughts":13412,"Ġqualify":13413,"Ġbonds":13414,"Ġhamlet":13415,"Ġdolphins":13416,"Ġelephants":13417,"ĠPresidency":13418,"Ġbush":13419,"char":13420,"Ġstance":13421,"Ġenable":13422,"Ġstrengthening":13423,"Ġ280":13424,"Ġ1851":13425,"ĠDelhi":13426,"ĠFinals":13427,"force":13428,"org":13429,"oux":13430,"Ġampl":13431,"ĠChapman":13432,"Ġsabot":13433,"ĠMersey":13434,"ĠProvincial":13435,"ĠEurogamer":13436,"Ġcompact":13437,"ĠPrice":13438,"Ġreads":13439,"Ġmaintains":13440,"Ġpushing":13441,"Ġmuscle":13442,"Ġoverd":13443,"Ġelectoral":13444,"ĠSword":13445,"Ġfundraising":13446,"ĠKratos":13447,"Ġdub":13448,"ĠGamesRadar":13449,"eem":13450,"ĠLay":13451,"Ġstripped":13452,"Ġtrumpet":13453,"Ġdisgust":13454,"aru":13455,"ĠCoun":13456,"Ġmeth":13457,"ĠEnter":13458,"Ġwaterline":13459,"Ġdoubles":13460,"Ġwitch":13461,"Ġspeaker":13462,"ĠHayes":13463,"Ġcavity":13464,"Ġlavish":13465,"ĠOCLC":13466,"Ġneighbourhood":13467,"Ġdescendant":13468,"MC":13469,"ĠCG":13470,"osure":13471,"Ġmonks":13472,"Ġelderly":13473,"zo":13474,"Ġrect":13475,"ĠGren":13476,"Ġgraduating":13477,"Ġgrandson":13478,"ĠHopkins":13479,"ĠMongols":13480,"Ġlicensing":13481,"oping":13482,"quet":13483,"Ġflags":13484,"Ġawa":13485,"ĠSubsequently":13486,"ĠLadislaus":13487,"ĠBerry":13488,"ĠGlenn":13489,"Ġenthusiastic":13490,"Ġcrafted":13491,"Ġadjoining":13492,"Ġfranchises":13493,"Ġmillennium":13494,"ĠGoogle":13495,"ĠOm":13496,"ĠOpp":13497,"ĠThings":13498,"Äĩ":13499,"rock":13500,"ĠJes":13501,"osphere":13502,"Ġsacred":13503,"Ġworsened":13504,"ĠPioneer":13505,"ĠAdvisory":13506,"ĠCaucas":13507,"Ġresupply":13508,"ĠHarbhajan":13509,"DP":13510,"Ġdish":13511,"ĠSN":13512,"ĠPath":13513,"Ġsuccesses":13514,"ĠGener":13515,"Ġfilter":13516,"ĠPac":13517,"ĠGross":13518,"Ġ148":13519,"ĠBorough":13520,"ĠRescue":13521,"Ġmonasteries":13522,"ĠSheridan":13523,"ĠKantakouzenos":13524,"ĠMade":13525,"ĠEaster":13526,"ĠEdgar":13527,"Ġcarefully":13528,"ĠMirror":13529,"ĠDerby":13530,"Ġapocalyptic":13531,"Ġrestr":13532,"Ġcourage":13533,"Ġstepped":13534,"Ġbarrier":13535,"croft":13536,"Ġsleeve":13537,"ĠMacbeth":13538,"ĠHess":13539,"Ġknock":13540,"Ġescapes":13541,"Ġlaying":13542,"Ġlayout":13543,"Ġinfected":13544,"ĠManager":13545,"Ġincorporate":13546,"Ġsexually":13547,"Ġmonthly":13548,"ĠReviews":13549,"Ġanatomy":13550,"Ġcompulsory":13551,"Ġearthquakes":13552,"ĠSevastopol":13553,"Ġhur":13554,"ĠLoc":13555,"ĠKenny":13556,"Ġdarkness":13557,"Ġexceeded":13558,"ĠBrandon":13559,"bu":13560,"Ġwounds":13561,"ĠSaints":13562,"Ġfrontier":13563,"Ġhonored":13564,"ĠGallagher":13565,"Ġinaugurated":13566,"Ġlandslides":13567,"Ġoverturned":13568,"thal":13569,"uting":13570,"Ġpromising":13571,"Ġreadily":13572,"Ġhealthy":13573,"IT":13574,"ĠAw":13575,"Ġlord":13576,"ibal":13577,"Ġ136":13578,"Ã©l":13579,"Ġdefeats":13580,"ĠVenus":13581,"ĠBolton":13582,"ĠCredit":13583,"ĠCeltics":13584,"Ġprovisional":13585,"Ġbreakfast":13586,"Ġinvitation":13587,"Ġdrives":13588,"Ġpressed":13589,"Ġconsequently":13590,"Ġmistaken":13591,"rified":13592,"Ġpa":13593,"olt":13594,"ĠFan":13595,"Ġmonarchy":13596,"ĠByrds":13597,"ĠLÃ¼tzow":13598,"ĠSkanderbeg":13599,"Ġneurological":13600,"inite":13601,"edd":13602,"Ġfusion":13603,"Ġrely":13604,"Ġcapit":13605,"Ġmidnight":13606,"ĠBasin":13607,"Ġmaneuvers":13608,"ĠTruth":13609,"ĠCrescent":13610,"Ġshuttle":13611,"ĠSpokane":13612,"Ġconfluence":13613,"ĠMing":13614,"Ġmissiles":13615,"ĠArtist":13616,"Ġslowed":13617,"Ġdysfunction":13618,"ĠNathaniel":13619,"Ġinconclusive":13620,"Ġanger":13621,"Ġthirds":13622,"Ġdiary":13623,"Ġdispers":13624,"ĠHammer":13625,"eratops":13626,"Ġlocate":13627,"Ġ133":13628,
[...]
