#version: 0.2
Ġ Ġ
Ġ t
Ġ a
i n
h e
r e
o n
ĠĠ ĠĠ
Ġt he
e r
a t
Ġ s
e n
Ġ o
Ġ c
Ġ w
i s
i t
o r
e s
e d
a l
a n
Ġ p
Ġ f
Ġ b
Ġa n
in g
Ġ in
Ġo f
a r
i on
o u
Ġ m
Ġ d
i c
- -
Ġt o
l e
a s
Ġan d
ĠĠĠĠ ĠĠĠĠ
r o
Ġt h
en t
Ġ h
c t
Ġ re
e t
Ġ n
e l
s t
o m
Ġ e
i l
Ġ l
i d
o t
i m
i g
v e
Ġ is
u t
Ġ g
Ġ T
-- --
Ġ (
o l
a m
Ġ I
at ion
s e
c e
l y
â Ģ
Ġf or
u r
Ġb e
ĠĠ Ġ
Ġ S
o w
Ġth at
Ġ u
a d
Ġ on
Ġ A
Ġ C
Ġs t
c h
v er
a y
u l
it h
Ġ 1
i f
Ġc on
Ġw ith
r a
Ġ y
ĠĠĠĠĠĠĠĠ ĠĠĠĠĠĠĠĠ
Ġa s
i r
o d
t er
Ġp ro
0 0
Ġ "
at e
he r
Ġ $
Ġ it
u m
Ġ M
p e
Ġa l
a b
r i
Ġw e
g e
n d
Ġ v
Ġw h
Ġ 2
Ġ P
Ġd e
re s
= =
p p
q u
Ġy ou
a c
m ent
Ġe x
es t
Ġw as
is t
o s
ĠT he
Ġ B
u s
---- ----
Ġ he
* *
an t
Ġo r
Ġc om
Ġ \
e m
h t
Ġa re
t h
Ġa t
o c
er s
Ġs u
i v
es s
u n
it y
a in
Ġ =
Ġ r
Ġ D
Ġ H
Ġ F
Ġb y
l d
Ġs e
o p
il l
ct ion
ro m
o re
an d
Ġ W
n t
k e
Ġn ot
Ġ -
Ġ R
en d
Ġh a
i ve
Ġ L
or t
Ġn e
p t
Ġ N
Ġth is
Ċ ĠĠĠĠ
ig ht
Ġf rom
âĢ Ļ
ar t
u d
re d
Ċ ĠĠĠ
el l
p l
i al
Ġs h
i es
t e
Ġ G
Ġc h
at ed
Ġha ve
Ġ E
f e
Ġ *
u re
ou ld
' s
ou r
in e
al l
Ġ le
p er
Ġ 0
a g
{ \
o g
u st
ic al
am e
u e
) .
Ġc an
a ge
i z
Ġ O
ic h
r ou
c l
i b
Ġ 3
ar d
ou t
ab le
Ċ ĠĠĠĠĠĠĠĠ
Ġu s
as e
i e
om e
Ġre s
) ;
Ġc l
Ġw he
Ġa b
Ġ j
ul t
ac k
at h
as s
o st
a ct
Ġ {
. "
0 1
Ġ k
Ġcom p
an s
t her
id e
Ġp l
Ġa d
== ==
Ġm e
as t
Ġcon t
Ċ Ġ
Ġwe re
or m
Ġ âĢ
= "
T he
Ġ im
Ġal l
Ġ J
Ġt r
ig n
u b
a p
. .
Ġ U
ĊĠĠĠĠ ĠĠĠ
Ġd o
Ġ [
in d
it ion
i p
a k
Ġwh ich
ic e
p h
Ġh as
c c
on e
ar y
Ġ +
ou s
Ġin t
Ġb ut
im e
ĠI n
en s
-------- --------
/ /
ĠĠĠĠĠĠĠĠĠĠĠĠĠĠĠĠ ĠĠĠĠĠĠĠĠĠĠĠĠĠĠĠĠ
a re
c on
in t
ĉ ĉ
Ġw or
d u
Ġd is
res s
_ {
en ce
Ġ 4
ation s
on g
t y
Ġw ill
n e
f f
i le
o k
r u
Ġg o
) ,
Ġo ut
Ġ <
o se
an ce
e p
g h
Ġp er
Ġ if
Â ł
ent s
a v
Ġ en
a u
ĠT h
al ly
} }
Ġ 5
b er
Ġh is
a ce
Ġu n
Ġon e
s o
x t
el y
p ort
i a
or d
i re
or y
e ar
Ġthe y
e ct
a ch
Ġe v
ion s
Ġa pp
Ġs o
r y
f orm
Ġu p
Ġa r
re e
l ic
Ġ qu
an g
Ġthe ir
Ġm ore
Ġp art
âĢ Ŀ
Ġ K
a il
it e
l l
Ġa g
or s
Ġthe re
a ke
Ġp re
Ġo ther
y s
Ġh ad
ow n
Ġl i
ver y
ou nd
f t
Ġ$ \
Ġyou r
ur n
v el
ou nt
c re
fe re
ĠS t
Ġs a
Ġ }
ĠĠĠĠ ĠĠĠ
at a
Ġbe en
Ġm an
Ġs p
c om
k s
er v
Ġal so
w e
Ġwh o
Ġw ould
Ġan y
at es
Ġ V
m ath
d e
Ġn o
Ġ '
j ect
Ċ Ċ
nd er
Ġab out
[ @
l ow
et h
Ġwhe n
if ic
o ok
Ġt ime
Ġo b
Ġm y
p le
Ġth an
\ ]
er m
ic t
ro w
Ġo ver
w o
Ġ1 9
Ġas s
Ġ 6
' t
1 0
at er
Ġit s
re f
r ing
o b
Ġs ome
ri b
cl ud
ĠâĢ ľ
Ġs c
} $
c k
f ter
c es
Ġs pe
ay s
Ġb et
Ġ &
Ġg en
g et
le ct
Ġs y
< /
ol d
Ġne w
I n
Ġd if
ĊĠĠĠĠĠĠĠĠ ĠĠĠ
fe ct
o ve
ir st
Ġa m
^ {
i ed
h at
Ġt e
od e
ver s
Ġin ter
Ġ her
Ġsu b
1 9
Ġf e
Ġde f
Ġa cc
Ġk n
Ġg et
Ġ Y
Ġof f
il d
p s
re at
au se
Ġcom m
Ġint o
c ed
Ġa ct
Ġu nder
Ġo ur
Ġ ro
o v
is s
Ġcon s
in k
Ġm ay
ĠI t
ing s
Ġre l
Ġp e
Ġd es
u al
# #
Ġre c
ic k
ar i
m a
Ġon ly
at ive
Ġsa id
Ġt wo
p on
1 2
ie w
Ġthe m
pe ct
Ġy ear
er t
Ġv al
Ġwor k
ul ar
Ġbe c
Ġad d
Ġst ud
Ġwh at
Ġin d
Ġ 7
Ġli ke
Ġre t
he d
Ġm od
==== ====
ar k
ig h
Ġre g
Ġp os
Ġtr ans
ĠC h
Ġin v
un ction
ĠTh is
Ġe m
el f
c ess
p ro
Ġb l
Ġ2 01
st em
is h
Ġu se
o int
Ġc o
Ġsu ch
oc k
at ing
as ed
it t
Ġf irst
e f
e x
Ġj ust
Ġp r
Ġ 8
Ġp h
Ġp res
on t
Ġfor m
Ġthe se
ĠW e
ad e
ment s
Ġpro v
i an
" ,
Ġs he
} \
Ġdif fere
il ity
i ent
Ġc ol
Ġwhe re
ĠH e
Ġp ol
ĊĠĠĠĠ Ġ
Ġa fter
Ġ |
Ġd et
iz e
Ġs ign
Ġp at
d er
o od
Ġ1 0
s s
Ġh ow
id ent
we en
1 1
a w
e c
ra c
ot h
Ċ ĉĉ
f fect
Ġs et
Ġne ed
ol og
Ġc ould
Ġex p
pt ion
g r
Ġthe n
t he
_ _
ty pe
op le
ut ion
Ġcl ass
ub lic
Ġ 9
an ge
Ġc ell
Ġres ult
] (
Ġbet ween
Ġat t
( )
ou gh
is e
. ,
r ight
Ġre m
S t
00 0
f ig
Ċ ĉ
i ous
Ġsu pp
ol low
Ġ\ [
b le
l es
ĊĠĠĠĠĠĠĠĠ ĠĠĠĠĠĠĠ
e g
i x
rou nd
2 0
Ġus ed
Ġin clud
y pe
our t
E R
ib le
u p
i el
Ġd id
Ã Ĳ
a x
Ġd ata
al s
Ġn um
on s
u es
Ġsh ow
Ġkn ow
Ġf l
c y
** **
o y
Ġf act
) {
ra ct
ul l
Ġh im
ter n
Ġsh ould
ic s
rou gh
Ġpe ople
Ġa c
o x
n ing
Ġs im
Ġspe c
Ġc or
Ġre qu
m s
Ġs ur
it s
Ġf ollow
he n
Ġd ist
ru ct
" >
f ore
Ġus ing
s p
Ġb ack
Ġse e
in al
Ġbec ause
re n
Ġcon st
I N
Ġ i
in ed
---------------- ----------------
iel d
Ġf unction
) $
l i
f ul
Ġsy stem
o ol
it ies
Ġm ost
e ver
1 5
Ġin st
p os
it ed
r it
1 3
p ut
s c
ur ing
Ġ .
Ġs m
Ċ ĠĠĠĠĠĠĠĠĠĠĠĠĠĠĠĠ
Ġ end
Ġw ell
in s
Ġret urn
Ġth rough
1 6
u res
Ġr ight
Ġpro du
Ġgen er
ĠU n
" }
Ġt est
Ġt ra
( \
1 4
- >
Ġex t
Ġch ar
Ġag ain
Ġ[ @
Ġb u
rou p
] {
Ġw ant
m er
er r
he s
ow er
Ġe ach
iz ed
Ġh igh
ation al
t o
Ġdiffere nt
Ġc ase
2 5
Ġst ate
con d
at or
Ġ ent
Ġe ffect
i o
te xt
ical ly
ĠĠĠĠ Ġ
w n
O N
im es
Ġ **
Ġdo es
e w
Ġ2 00
T h
r ic
ĠS e
u ch
ot her
Ġev en
] ,
ction s
n ce
il y
t a
Ġm ake
or k
p ar
v al
le t
ro l
v ent
eth od
Ġm in
s et
i ents
Ġ ra
_ {\
1 8
Ġ @
u c
.. .
Ġe very
Ġc ur
ut e
re ad
Ġc all
Ġs ame
ar s
Ġ ke
ant s
: :
Ġw ay
c al
Ġa p
ain t
Ġl oc
Ġn ow
) )
ce pt
Ġde c
Ġan al
Ġin cre
Ġt ri
in ce
Ġf ind
Ġl ook
g er
ar ch
o id
f rac
]( #
Ġ very
Ġ /
st r
vel op
Ġd on
w ard
Ġd i
Ġth ose
Ġp oint
Ġyear s
Ġin te
Ġv ari
Ġl ong
oc i
Ġpart ic
as on
u g
Ġb oth
p r
en se
Ġhe re
Ġm on
3 2
? "
ire ct
Ġa ut
as es
1 7
Ġm at
a ir
Ġ :
re nt
u nd
d ay
A T
Ġf ound
in es
y m
ri v
Ġb el
re st
am ple
Ġex per
Ġ //
c ent
Ġbe ing
t ing
y p
l ed
r m
Ġman y
Ġapp ro
-- -
ag es
Ġpro te
$ \
Ġp ers
Ġm ed
" :
Ġp ar
Ġf il
if e
]{ }
Ġbe fore
ic es
ĠC om
at ic
n g
Ġ _
Ġpl ay
Ġm em
Ġnum ber
I t
] \]
Ġg r
a red
3 0
5 0
Ġs er
at ure
A R
Ġ Q
o ver
if ied
Ġ el
c er
E S
o f
al th
Ġ x
Ġc ar
Ġp ublic
t r
Ġo p
Ġres pon
ak ing
s h
ate g
le ft
âĢ ī
Ġc he
n er
od y
Ġhe l
a pp
ĠĠĠĠĠĠĠĠĠĠĠĠĠĠĠĠĠĠĠĠĠĠĠĠĠĠĠĠĠĠĠĠ ĠĠĠĠĠĠĠĠĠĠĠĠĠĠĠĠĠĠĠĠĠĠĠĠĠĠĠĠĠĠĠĠ
m in
2 4
Ġg u
Ġin s
Ġst r
ĠĠĠĠ ĠĠ
Ġc ourt
W e
ress ion
Ġth ink
Ġre p
Ġpro cess
Ġmod el
form ation
a ve
y l
Ġgo od
al e
Ġd own
an k
Ġin f
u pp
Ġm ade
en g
ĠF or
as h
Ċ ĊĠĠĠ
n ess
Ġval ue
is m
iv ely
i red
Ġre port
v iew
v en
u ally
Ġle vel
Ġ\[ [@
Ġwh ile
math b
Ġg iv
ĠâĢ ĵ
Ġpres ent
v ed
} {
: //
N A
' ,
2 01
g g
Ġ1 2
Ġde velop
Ġstud y
Ġs ol
l ine
ain ed
C R
m on
d ition
w ay
ĠL et
Ġl ar
g ht
ĠP ro
re t
Ġre f
O R
Ġst art
Ġse cond
Ġc ount
Ġdis c
Ġo wn
Ġsupp ort
er g
Ġm uch
m an
ĠR e
, \
Ġh and
is ion
Ġe qu
c ul
. âĢĿ
Ġt erm
Ġs erv
Ġth ree
ĠA l
iz ation
Ġm ethod
o le
um ent
Ġn on
ĠI f
r ay
am s
( "
le ment
id er
Ġ et
Ġ est
Ġre ad
g an
Ġor der
Ġ Â
Ġan t
Ġwith out
ff ic
Ġpos s
ign ed
Ġcell s
, "
o ad
Ġd uring
an y
$ .
en cy
Ġde p
Ġpat ients
al ity
W hat
ĠA s
us s
t on
c ri
ent ial
$ ,
n s
our ce
ab el
Ġn ame
am p
m ed
ar ly
8 0
ĠA nd
R e
Ġ2 0
E N
Ġhel p
2 3
Ġpro per
id ence
Ġl ine
et a
Ġc re
S T
n ame
id ed
I T
Ġact iv
ist s
c ial
n ot
Ġper form
00 00
Ġg roup
if y
Ġim port
ĠH ow
u se
9 9
t t
b e
at her
ab ility
r on
Ġpro ble
Ġc le
ter s
Ġle ad
Ġr un
Ġ z
Ġl ast
al k
Ġagain st
Ġis s
v ing
Ġa v
ou se
Ġs ay
ra ph
a h
ĠB ut
Ġm ust
Ġg l
4 0
an e
Ġsm all
am b
ro ss
ul ation
( -
h ip
ĠA n
2 2
Ġsign ific
am es
a im
Ġ ,
Ġo per
Ġcon f
Ġt ake
act er
Ġcont rol
Ġst ill
Ġle t
Ġl aw
ĠY ou
Ġt ype
Ġap pe
Ġpers on
ot s
Ġp ur
A N
C on
ph a
an n
it ive
\ [
ir c
3 3
L et
w w
ent ion
Ġm et
Ġd irect
o h
H e
Ġex pl
( );
Ġs om
Ġch ild
Ġc ou
Ġ1 5
m l
s erv
A L
Ġin formation
Ġc ent
6 4
Ġin c
d s
ys is
in ation
Ġf in
âĢ ľ
F ig
Ġ ed
Ġw r
âĢ ĵ
Ġd ay
ur ther
ch n
Ġqu est
y n
i er
l ess
olog y
at ch
e k
Ġt reat
Ġp ost
Ġresult s
id es
Ġ ident
Ġf am
Ġst and
6 0
Ċ ĠĠ
Ġc a
Ġme as
Ġe lect
] .
2 00
ot e
Ġ err
v ious
P ro
m e
et s
o ot
Ġsignific ant
f or
Ġfollow ing
i ence
E x
Ġ1 8
er al
Ġdet erm
ĠD e
Ġb re
at ely
iss ion
Th is
ĠN ew
Ġall ow
w ork
du ct
l and
Ġm ult
b r
ag n
) \
math cal
Ġ* /
i um
Ġgo ing
ord ing
ht t
Ġwith in
mer ic
ĠT r
it al
C T
t s
Ġcon dition
ã ģ
pl oy
a j
Ġf r
u red
ur al
I D
is hed
Ġl im
i or
if f
u le
} (
Ġcont in
âĢ Ķ
ain s
r ation
ater ial
3 4
Ġh um
Ġre ce
2 7
Ġs ince
Ġre al
Ġc are
g en
ion al
i vers
Ġst at
Ġl ife
Ġre du
on d
Ġwor ld
al pha
Ġde v
Ġa round
Ġst ruct
qu e
Ġinte rest
b l
Ġcur rent
Ġadd ition
ch ool
Ġ X
' m
a z
Ġ #
s elf
res ent
Ã ĳ
S E
Ġ1 4
Ġgo ver
de f
3 5
ent ly
Ġm ark
**** ****
ĠW h
Ġan other
d a
iv ed
r al
Ġp ass
, âĢĿ
Ġinv est
c rib
Y ou
Ġhe alth
ak es
Ġop en
Ġc r
2 8
Ġf ield
t ic
Ġp ower
Ġg reat
Ġar g
are nt
le x
Ġex ample
b ers
am et
Ġtr y
Ġ< /
Ġcomm un
Ġd el
gr am
ot t
Ġim p
iv es
Ġs elf
it her
## ##
======== ========
ur y
re l
Ġcl aim
ar g
d d
Ġl ist
]\] .
Ġinclud ing
v es
ĠC on
Ġo cc
ĠâĢ Ķ
Ġs l
Ġhe ad
f ace
se c
Ġm ight
Ġ Z
ĠC l
eth ing
^ {\
Ġbe h
Ġto o
w ays
Ġme an
Ġgiv en
rib ut
L E
ar get
o pe
C h
R E
Ġt em
Ġres pect
in ess
Ġb as
2 6
he re
ab ly
ar m
in ing
Ġch ang
Ġl ess
le ction
2 9
3 8
Ġass oci
Ġpl ace
0 5
Ġf ile
Ġre ally
um p
Ċ ĊĠ
Ġgover n
Ġ1 6
ĠHow ever
h or
le ase
ou ght
Ġad v
ĠA meric
ĠS h
a ult
st and
ĠThe y
ĠI s
Ġl ow
ic ro
Ġ{ #
Ġapp lic
ack age
Ġh ig
Ġb ased
ro ll
Ġ --
Ġc ap
el s
fere nce
Ġh ome
ain ing
Ġv is
et y
end s
Ġp ot
Ġha pp
Ġmon th
ateg ory
7 5
al se
eng th
f er
b y
Ġ$ $\
Ġg row
Ã ©
iv id
ver t
3 6
ra p
ar n
re g
( '
Ġ ve
Ġw om
Ġob ject
I C
' re
Ġto p
er y
th ing
at t
Ġfe w
Ġpro b
ĠN o
al cul
Ġs ing
Ġind ic
Ġb us
2 1
Ġanal ysis
Ġp op
Ġb est
os ed
le g
Ġob serv
Ġm ot
itt le
ĠĠĠĠĠĠĠĠĠĠĠĠĠĠĠĠ ĠĠĠĠĠĠĠĠ
A S
Ġev idence
Ġne xt
Ġte chn
Ġp ath
is ed
e xt
Ġimport ant
$ $
ĠA r
Ġle ft
Ġwhe ther
re qu
9 0
Ġo pt
ĠL e
Ġsom ething
7 0
Ġf our
4 5
os s
c ing
c he
Ġch ange
in f
Ġob t
Ġle g
m b
c ur
Ġb o
ert ain
Ġp ut
A C
pl ic
Ġprodu ct
Ġv iew
m un
b s
C l
Ġex pect
Ġcomm on
el ta
Â Ĥ
Ġsu gg
Ġbel ie
Ġsugg est
Ġpartic ular
ific ation
ĠThe re
â Ī
9 5
Ġf ail
h ib
us ed
Ġl ight
at s
ĠP h
oc ument
w are
Ġpro f
ĠE x
ĠI nd
ab l
Ġse em
ĠW hat
ro p
i k
cc ess
Ġdes crib
Ġu nt
Ġne ver
Ġ3 0
Ġab ove
m u
p or
Ġt urn
op y
en e
ad d
Ġinv ol
ne w
Ġcon ne
Ġas k
ĠP l
con t
) /
c ol
mathb b
a ction
vers ion
T o
l abel
ĠS o
l u
end ed
Ġbet ter
C om
p art
Ġs k
d iv
Ġlar ge
amb da
Ġre ason
Ġs it
3 7
end ing
e red
Ġ1 1
am ma
F F
s er
pl es
E D
Ġproble m
I S
A s
il ar
Ġtr ue
Ġs ize
ĠS he
Ġw ater
Ġcons ider
ir d
Ġp ay
Ġe as
orm al
Ġtreat ment
} ,
Ġle ast
Ġloc al
Ġg ot
Ġre se
4 8
Ġposs ible
ig ma
as k
Ġpos ition
Ġl ittle
N ame
ĊĠĠĠĠĠĠĠĠ Ġ
ĠA ll
Ġt yp
} ^{
Ġcom e
c o
= \
Ġm ov
Ġrep resent
ail able
Ġb i
Ġd ue
Ġto t
Ġbu ild
ivid ual
or n
Ġr is
ra in
H E
Ġo pp
Ġth ings
Ã ĥ
Ġim pro
ill ion
) :
Ġchar acter
p i
Ġdef end
Ġc y
ĠU S
s on
3 9
Ġ ide
Ġ1 7
d ata
pl ay
Ġh y
! "
Ġin it
i od
eg in
Ġf ree
ep end
b ack
Ġ {\
aj or
ir on
ar ing
an ces
Ġ ==
Ġre st
Ġo ld
in a
Ġtri al
h o
Ġel se
Ġquest ion
Ġse ver
Ġb ig
__ __
us h
Ġhum an
Ġsh own
ĠT o
Ġha ving
ct or
n al
Ġd ays
Ġrec ord
Ġb ro
Ġ2 5
s um
olog ical
6 6
Ġpro m
ĠA pp
Ġoff ic
ĠO n
id th
ĠSt ate
Ġf urther
Ġn et
Ġor gan
Ġg ive
erg y
Ġ !
ap s
Ġg ame
at ory
Ġem ploy
] ;
Ġb r
Ġg re
Ġh ist
Ġgovern ment
im al
Ġ es
} _
Ġs um
or g
Ġpro gram
č Ċ
m od
I f
4 4
it or
Ġj ud
S e
Ġprov ide
Ġpre vious
Ġind ividual
et ic
Ġexp ression
Ġc ost
re am
ĠA d
a ut
Ġc ode
Ġke ep
Ġp a
I d
Ġs w
Ġd en
in c
L L
Ġwe ek
Ġh ard
Ġd iv
Ġcall ed
Ġs chool
B ut
r t
Ġal ways
b ar
Ġe ither
} _{
u ro
Ġm ain
e ad
Ġkn own
Ġr ad
ĠC ourt
ĠThe se
8 8
b egin
ph i
Ġfe el
âĪ Ĵ
ĊĠĠĠĠĠĠĠĠĠĠĠĠĠĠĠĠ ĠĠĠ
R O
ĠUn ited
Ġsim ilar
Ġunt il
er n
u ck
A nd
y le
Ġpot ential
le v
A P
Ġcom b
6 5
Ġgener al
us ion
ip le
C ategory
T ype
Ġf ac
ĠF r
th ough
Ġav ailable
Ġch o
ce ption
Ġsing le
rou ps
Ġfam ily
Ġs ide
Ġp red
oc ial
Ġw on
u ff
Ġa ction
ent al
Ġ )
Ġdis e
one y
Ġpro ject
our s
Ġb en
Ġv ol
clud e
Ġp riv
Ġse qu
v ar
ra w
Ġme ans
op t
Ġ1 3
Ġspec ific
ke y
7 7
m it
Ġ %
Ġval ues
ĠR es
Ġpl an
Ġc irc
ess age
o or
Ġli k
9 4
9 8
itt ed
Ġab le
F or
is on
t en
Ġph ys
Ġte am
Ġm ajor
p one
Ċ ĊĠĠĠĠĠĠĠ
ĠC ol
ind ow
read y
ri es
it le
Ġc ases
Ġm aterial
Ġt imes
Ġsu per
Ġsever al
Ġh old
ivers ity
Â ĥ
im port
cl ass
res pon
Ġor ig
y stem
th is
1 00
Ġare a
r ict
p ackage
ress ed
ĠĠĠĠĠĠĠĠ ĠĠĠ
id s
our se
cri pt
Ġab s
}$ $
Ġt re
ĠS c
Ġunder stand
g ment
Ġstud ies
Ġd er
Ġper iod
op er
Ġhig her
pp ed
Ġt arget
Ġchild ren
ang le
con om
em ber
c le
Ġ1 00
ĠTh at
i ol
Ġb ody
ne y
E T
it ing
Ġerr or
h y
ore d
Ġke y
os p
St ring
R es
Ġ2 4
9 6
Ġm ove
en ces
Ġf ull
' ve
Ġ >
id d
htt p
Ġr ate
al igned
lect ed
Ċĉĉ ĉ
l ing
Ġtot al
A M
Ġbus iness
is ter
Ġen ergy
Ġstand ard
ict ion
> <
I ON
ou n
ffic ient
ri or
aint iff
A n
_ \
} ^
t est
Ġacc ess
Ġne g
ay er
Ġf ar
Ġwh y
Ġex ist
Ġl ater
t ime
m ission
ust om
0 4
T r
A D
ĠSt ates
um e
Ġre view
Ċĉĉ ĉĉ
s ub
Ġsp ace
m m
Ġpr im
9 7
.. /
ut es
er ing
ĠA t
al f
Ġsu re
Ġdid n
ep s
st ring
u ed
ib ility
Ġs ent
em pt
g ed
- \
Ġdif f
c d
Ġinvest ig
Ġlevel s
if t
Ġl ot
} )
Ġsh ort
a pe
l er
Ġassoci ated
g o
.. ..
cri ption
ver age
8 5
sp an
ĠS p
ab les
Ġstr ong
Ġc rit
ru g
Ġam ong
Ġth ought
Ġdisc uss
Ġal ready
O U
Ġc ertain
ur s
ak en
ou th
Ġ= >
V al
ch an
ĠW hen
Ġal ong
I G
Ġrespon se
n ces
ret urn
upp ose
Ġp ract
Ġm en
Ġreport ed
Ġrequ ired
iv ing
ĠB l
3 1
v iron
p m
Ġf inal
as ing
l ambda
Ġl a
Ġin j
ol ution
I I
Ġsub ject
Ġa way
s ide
Ġexper im
iv ity
at ors
Ġd one
Ġpar amet
ar row
Ġam ount
Ġiss ue
Ġm ass
ic y
mathb f
s w
t able
ens ion
Ġwom en
Ġdes ign
Ġv ir
Ġf ri
5 5
Ġ `
Ġd om
Ġs ays
se qu
Ġp ress
og raph
r ist
i ver
IN G
{ {\
' ll
Ġper cent
Ġrequ ire
ct ed
os is
pl ace
Ġof ten
av a
Ġg roups
u ation
Ġl og
Ġpol it
Ġdevelop ment
6 7
Ġ5 0
Ġterm s
Ġa ge
Ġd r
Ġhow ever
Ġf ore
e b
og n
le te
and s
re m
Ġev ent
Ã Ĥ
rib ution
L ist
Ġw ar
Ġp ort
is ing
Ġt ell
C ont
Â °
Ġ id
i que
Ġche ck
ĠC o
Ġs al
Ġex am
as ter
le y
Ġth ing
Ġsu ccess
Ġactiv ity
Ġl ower
" )
Ġm icro
or th
Ġs ens
Ġ$ {\
g a
Ġacc ount
Ġen c
-------------------------------- --------------------------------
Ġto ld
use package
c hed
Ġen ough
Ġth ough
Ġk ind
e y
8 6
Ġb ase
st it
Ġen g
Ġc ourse
> </
Ġa ff
Ġs at
Ġrel ations
Ġf ood
Ġf und
D E
s q
our ces
Ġris k
H ow
il on
A G
I s
ĠO r
Ġst ring
ĠĠĠĠĠĠĠĠ Ġ
Ġcomp ared
^{ -
ac y
Ġacc ording
Ġprov ided
Ġro le
Ġm aking
or ies
Ġv oid
iv al
Ġwork ing
d ing
Ġcondition s
Ġne cess
Ġinclud e
d ate
pe cial
Ġup on
ac es
om et
0 2
f l
O T
C ol
ub l
Ġaut hor
cre t
b eta
Ġag ree
o res
O b
Ġt ax
Ġte xt
s igma
Ġ Î
âĢ ¦
// //
g es
g in
Ġse en
A r
Ġus er
Ġ( [
Ġse ction
Ġincre ase
Ġeffect s
Ġd ou
t d
Ġr ange
c ode
g round
Ġrespon s
Ġprote in
Ġchang es
ut ure
Ġrese arch
Ġfl u
Ġm il
m ost
Ġ Ð
i ation
b t
Ġm oney
viron ment
Ġb it
Ġproper ty
un g
Ġs ource
Ġcomp ut
ang u
t ies
4 7
b ib
in ter
Ġben ef
n a
A l
e v
get her
Ġto gether
Ġan n
Ġcomp on
Ġde m
ord er
8 7
ĠR ep
ess ion
ac he
] ).
C C
Ġcomp let
Ġp ast
Ġj ob
Ġrequ est
Ġincre ased
Ġdet ail
at ures
ri ed
u it
Ġfact ors
e e
m p
Ġdoes n
ĠâĢ ĺ
med i
Ġbec ome
\ _
Ġt alk
ri x
U n
ro du
Ġcon duct
Ġcomp lex
Ġme chan
an c
Ġcan not
ri pt
he ad
Ġobserv ed
Ġe conom
ru ction
i ans
Ġ( [@
Ġse par
Ġin de
m at
min ist
Ġserv ice
pp er
r or
i j
Ġcount ry
Ġmonth s
Ġf oc
Ġph ot
ĠUn iversity
Ġm or
ul es
ur ation
Ġl ove
art ment
Ġm om
Ċ ĠĠĠĠĠĠĠĠĠĠĠĠĠĠĠĠĠĠĠĠĠĠĠĠĠĠĠĠĠĠĠĠ
O n
N o
ort un
uc le
Ġa ir
ist ic
Ġpartic ip
Ġdise ase
re ct
Ġest abl
"} ).
b o
Ġl o
Ġmeas ure
Ġim age
Ġdefend ant
Ġe p
Ġreg ard
w h
Ġcre ate
Ġs ocial
f ile
Ġb ook
Ġc ult
ht ml
Ġe arly
ĠSe e
Ġf requ
Ġth ird
Ġstruct ure
ww w
Ġdo ing
um ber
Ġcomp any
Ġdescrib ed
val ue
Ġde ath
Ġcle ar
D ata
Ġex c
en ed
l og
e ction
ĊĠĠĠĠ ĠĠ
im ate
Ġp rior
V iew
Ġn ormal
con st
8 4
Ġw a
Ġc alcul
Ġcl in
epend ent
m ber
ic ense
A pp
e q
Ġcont ent
Ġspec ial
Ġsign al
ĠG en
Ġmult iple
S h
o ff
C H
ĠM r
Ġac ross
a f
ĠA N
ic ult
in ary
Ġsur face
Ġme et
Ġbeh av
Ġpos itive
pe c
u f
on y
6 9
Ġpriv ate
ro id
Ġv iol
com m
ce ed
The re
Ġact ually
l oad
pos ed
Ġcon cer
it ch
O M
ĠC an
Ġ version
Ġse ason
% )
Ġqu ant
Ġe ar
} {\
im um
Ġpoint s
ib r
Ġr ather
ĠB e
om s
e qu
P h
Ġon ce
Ġd rug
Ġother s
Ġm ax
og en
Ġm illion
i res
Ġd am
ĠJ oh
ix ed
Ġc ut
Ġb ar
Ġe y
Ġbel ow
0 9
Ġinit ial
ir m
) *
Ġmat ter
ĠF ig
Ġbre ak
Ġp ick
Ġwe ight
Ġlik ely
A B
Ġmark et
Ġmem bers
Ġperform ed
Ġfact or
6 8
ud e
math rm
ound s
Ġshow s
en ing
ĠAmeric an
0 7
at ter
Ġf ive
. )
ĠĠĠĠĠĠĠĠ ĠĠ
it er
ĠM ay
0 8
Ġshow ed
O S
Ġcor respon
Ġc ause
Ġc ame
" );
ĠA ss
) (
Ġde mon
Ġ q
Ġre d
m y
Ġ ver
0 3
Ġapplic ation
ĠG od
Ġf alse
us es
Ġdet ect
Ġappro ach
Ġto ok
+ \
Ġsystem s
Ġspe ct
Ġd ri
b it
Ġm us
c ular
' d
Ġa ffect
ob al
Ġar t
ĠI N
Ġev al
Ġs ite
ã Ĥ
Ġvari ous
y ear
Ġbl ood
Ġobt ained
Ġm ar
5 7
Ð ¾
Ġde al
Ġh ouse
b ig
on al
t il
h ing
ens ity
on es
a i
ide red
Ġde cre
n o
S o
Ġm akes
Ġh tt
Ġadd ed
Ġ ÃĲ
Ġ$ (
Ġtem per
Ġn ight
Ġ( *
g ree
Ġso ft
Ġe ver
Ġs cre
Ġlim it
Ġocc ur
Ġt aken
Ġm ut
h old
Ġcl os
Ġv ar
Ġf low
Ġexper ience
I M
ag er
ra ft
ar c
am a
s y
Ġw rit
in o
sq rt
r ad
Ġcan cer
Ġadd ress
ple ment
Ġrel ated
00 1
Ġcons idered
Ġwho le
en c
ab or
Ġf uture
en n
g amma
ill ed
r im
Ġe le
ĠO ne
l im
Ġn ull
n ow
Ġant i
Ġdemon str
Ġdef ined
Ġl oss
ĠT e
op h
Ġar tic
Ġy et
Fig ure
Ġs am
Ġcons ist
um n
u ild
un t
ol l
8 9
Ġcon cent
am m
-------- ----
Ġbl ock
ĠW ith
d is
part ial
Ġbelie ve
Ġim mun
Ġrelations hip
id ing
angu age
p ly
r ho
O P
Ġr at
le q
' )
Ġcommun ity
Ġh om
Ġp arent
pp ing
ĠC ar
Ġst ates
Ð µ
s ize
ĠC al
ĠA fter
Ġdev ice
U T
5 4
ward s
er o
a ff
un c
ĠP at
/ *
the ta
Ġsol ution
* ,
b all
--- |
and om
Ġanal y
Ġass ess
d elta
Ġc amp
et ition
se e
Ġm aint
Ġse x
Ġmin utes
re c
Ġf ra
Ġw ent
I R
led ge
t es
Ġf ace
I m
ĠCh rist
I L
Ġit em
$ -
9 3
ag ed
Ġdec ision
ver se
ul ated
Ġc ard
ĠC ent
Ġc ross
Ġin hib
Ġdiff icult
r c
ĠThe n
ĠI nt
x i
Âł Âł
Ġl and
^ \
Ġcont ract
ĠO b
o ber
p ose
ĠÂ §
Ġen vironment
ide o
Ġg round
Ġm ind
itt ing
Ġ ur
od es
ch ie
******** ********
b ody
Ġtry ing
Ġde cl
Ġinclud ed
Ð °
Ġch all
I P
B y
ist ance
Ġc ustom
rib ute
ac hed
Ġtr ad
end er
Ġgrow th
iz ing
Ġapp l
Ġrece ived
Ġh alf
m itted
oc al
Ġcl ose
ĠA ct
Ġto day
ĠM ore
Ġs us
ly ing
Ġent ire
Ġdef in
ag ing
Ġaddition al
ind ing
Ġn at
Ġ\ \
U S
Ġ Ċ
ut il
ed eral
}} \
Ġreg ion
Ġnet work
at us
Ġrespect ively
Ġ ill
Ġinte gr
Ġb ound
Ġl ink
un e
Ġs ix
Â ±
Ġf av
w here
Ġt able
Ġany thing
Ġd at
Ġm agn
Ġask ed
he l
G et
g l
Ġc e
Ġc ity
Ġsim ple
Ġsignificant ly
Ġac cept
ĠM y
re ed
w ise
ĠĠĠĠĠĠĠĠ ĠĠĠĠĠĠĠ
Ġpat ient
Ġcom pl
Ġb ring
age ment
d ro
Ġ} ,
tern al
Ġ Ã
a pt
i ke
pos ition
ome ga
Ġd ig
l or
t imes
4 6
Ġp an
Ġlook ing
~ ~
ens ive
C L
pecial ly
Ġneed s
Ġpl aintiff
Ġhist ory
9 2
in clude
0 6
] )
Ġw in
4 2
r is
us ing
n u
Ġmethod s
Val ue
ic ation
Ġget ting
ac ed
Ġproble ms
Ġin du
Ġ ...
Ġt w
Ġne ar
g ress
p re
Ġl ength
Ġex ec
s el
m ary
4 3
m iss
], [@
u ly
ĠM an
or ld
Ġv ia
ĠM ed
n et
st ate
Ġimpro ve
EN T
Ġsub st
Ġpart y
Ġad j
T able
Ġcont act
inf ty
Ġdiffere nce
O L
ĠS te
Ġro om
A ll
ĠE ng
A A
Ġatt ack
Ġperform ance
Ġexpect ed
r id
op s
Ġiss ues
ĠB y
Ġhe art
b ased
Ġinvol ved
ie f
ful ly
b ut
Ġal most
Ġpat tern
is f
Ġser ies
I V
Ġth us
Ġnot hing
+ +
P E
Ġhe ld
9 1
Ġpre vent
Ġ2 1
Ġad minist
ĠĠĠĠĠĠĠĠ ĠĠĠĠ
ol ve
ĠC ount
ĠD ep
Ġneed ed
er c
Ġt um
ir l
W ith
Ġem b
Ġpa per
S S
Ġin put
Ġed uc
Ġh ost
\ \
Ġbl ack
Ġinf lu
Ġm iss
r am
W h
Ġserv ices
an ks
Ġthere fore
l t
U R
ĠM c
Ġh ours
5 6
u k
Ġe ff
il es
m ore
b ox
t au
um ents
E n
x im
Ġe lement
ĠM ar
ĠD ef
Ġpop ulation
Ġcol or
Ġan sw
Ġfil m
7 6
Ġwor ks
T hat
W hen
Ġass um
Ġatt empt
E M
č ĊĠĠĠ
Ġgen e
Ġan g
com es
o o
il t
ĠT HE
7 8
Ġl ines
Ġh ref
S et
Ġmot ion
Ġoffic ial
yn am
Ġa chie
f unction
Ġf all
g est
ĠC or
Ġp ubl
i i
) }
at al
P l
ĠM on
Ġ/ *
Ġrec ent
Ġim plement
ĠE uro
Ġrem ov
Ġ$ $
) );
Ġto ol
Ġinst ead
at ively
w ith
: **
Ġbe gin
l ist
Ġst ep
htt ps
itt en
ĠN ot
w idth
li ke
w ord
g ing
ĠC ont
ut h
Ġpol ice
Ġint rodu
Ġide a
! [
c ome
ro s
Ġcol l
al es
Ġprodu ction
rap y
ĠI m
ip s
ĠY ork
Ġdis play
Ġst ory
Ġcom es
Ġmodel s
row n
Ġ4 0
p x
Ġb ad
â Ķ
Ġseem s
Ġsh all
r s
Ġqu ality
il ities
Ġ( -
Ġprov ides
an ced
Ġt aking
4 9
ul ations
sel ves
x y
Ġsome one
Ġn ucle
st er
Ġ2 2
ĠĠĠĠĠĠĠĠĠĠĠĠĠĠĠĠĠĠĠĠĠĠĠĠĠĠĠĠĠĠĠĠĠĠĠĠĠĠĠĠĠĠĠĠĠĠĠĠĠĠĠĠĠĠĠĠĠĠĠĠĠĠĠĠ ĠĠĠĠĠĠĠĠĠĠĠĠĠĠĠĠĠĠĠĠĠĠĠĠĠĠĠĠĠĠĠĠĠĠĠĠĠĠĠĠĠĠĠĠĠĠĠĠĠĠĠĠĠĠĠĠĠĠĠĠĠĠĠĠ
t op
" ;
Ġf ig
Ġpol icy
I nt
Ġits elf
Ġre ve
Ġst e
Ġstud ents
Ġyou ng
8 3
Ġp age
Ġpred ict
Ġstart ed
}$ ,
Ġnecess ary
ĠA m
f ield
Ġdist ribution
ill s
ĠM in
ĠD o
ic le
ĠP ol
` `
Ġind ust
Ġright s
ast ic
Ġout put
T R
Ġrec ogn
Ġa verage
Ġl oad
c hes
y ing
d es
r ror
4 1
Ġse arch
M od
tr ans
ĠTh us
e ks
Ġd ocument
5 3
Ġcon fig
ĠTr ump
b ook
ĠP res
al ed
Ġinde x
am ed
b f
Ġmed ia
Ġfr ont
Ġappe ar
ens ure
Ġmom ent
Ġest im
T ext
Ġpro ced
d own
l ation
R NA
Ġclin ical
Ġal leg
P S
l ight
ĠO F
os ition
Ġd ire
s u
D elta
Ġsequ ence
Ġf oot
Ġcor rel
f r
p ri
Ob ject
Ġimp act
Ġcomp ar
Ġw alk
Ġ2 7
Ġprob ably
ut ions
Ġorig inal
ĠĠĠĠĠĠĠĠ ĠĠĠĠĠ
err or
it es
Ġsim ply
Ġ ess
Ġle arn
Ġ! =
}$ .
Ġfunction s
Ġdi agn
ĠN ational
Ġl ive
z e
cc ording
ec ause
8 2
Ġph ase
Ġex act
Ġtemper ature
ĠB o
../ ../
Ġes pecially
Ġcon text
Ġproper ties
Ġd im
Ġcor rect
osp ital
he m
el t
^ *
ribut ed
ove red
ĠJ an
Ġwor ds
Ġar ray
Ġcomp lete
Ġproduct s
er ation
Ġg ra
Ġdist rict
Ġpol y
Ġdep end
i qu
Ġcon v
Ġpolit ical
au gh
her s
cl usion
ĠEuro pe
ĠC ity
Ġdeterm ined
ist ics
ĠE n
Ġpre t
p oint
per ty
ĊĠĠĠĠĠĠĠĠĠĠĠĠĠĠĠĠ ĠĠĠĠĠĠĠ
et er
Ġd est
ã ĥ
Ġinst all
par am
Ġform er
\ *
Ġs ample
Ġperson al
ol ic
( $
O D
ard s
Ġc red
idd le
Ġval id
an a
Ġs il
Ġev ents
Ġche m
Ġc opy
Ġcons um
ar ily
ĠM e
---| ---|
Ġeff ort
Ġd ate
st ruct
M y
Ġder iv
un ch
ĠSt ring
in ally
E d
ĠIn c
il i
Ġ2 6
Ġout side
ref ore
Ġ2 8
Ġass ert
Ġqu ick
oc y
Ġpr int
Ġpress ure
Ġpres ence
Ġgen es
Ġm ole
Ġmed ical
a ctions
oc r
b b
c m
Ñ Ĥ
s l
Ġtyp es
o ke
Ġprim ary
com p
d om
U N
Ġ2 3
b or
I nd
Ġl ack
Â ¾
ar ray
A d
Ġs ense
Ġc reat
| \
Ġeffect ive
ch ar
ult s
Ġjud gment
i en
Ġstr ateg
Ġsat isf
in ks
Ġrem ain
]{} ,
âĢ Ĳ
ron ic
Ġdeterm ine
def ine
Ġl anguage
it em
Ġpresent ed
Ġc al
Ġevery thing
Ġse lect
Ġwr ong
Ġident ified
Ġp ain
p ath
Ġconst it
Ġ& &
Ġrun ning
5 2
ĠP r
Ġlong er
Ġphys ical
Ġins ide
is es
Ġm i
ĠC D
F ile
ĠG e
ÃĲ Â
M S
d o
Ġst op
Ġcre ated
Ġfe atures
A t
ĠJoh n
Ġwant ed
pl it
sc ript
Ġbas is
Ġsur v
Ġeas y
Ġmem ber
Ġf ire
u x
Ġqu ite
Ġt iss
v oid
fe ction
d ocument
ur ch
Ġp air
Ġincre asing
ym b
r an
Ġst atic
ĠG u
erv ice
qu ad
ĠH ar
Ġcont roll
r ast
s im
Ġst ay
ic on
7 2
r ite
. '
7 4
Ġstat us
ag s
Ġnew s
P ar
Ġs em
Ã ¡
5 1
Ġare as
Ġfr ame
av ing
Ġr andom
5 9
Ġfollow s
ap ter
it ary
pr int
es e
an cial
Ġac id
7 9
ac c
/ >
8 1
Ð ¸
Ġh ope
Ġparamet ers
Ġh yp
ĠÂ ±
l ig
Ġstate ment
Ġsam ples
ĠĠĠĠĠĠĠĠ ĠĠĠĠĠĠ
ĠS ystem
Ġeval u
ch i
er a
Ġst ra
Ġdirect ly
alcul ate
Ġmem ory
Ġele ments
as ons
h a
E L
Ġu nd
li er
og le
ĠP ar
Ġnat ural
ĠL icense
p ublic
Ġwh ite
Ġo il
ell ant
ers on
ann el
Ġwe eks
Ġm ice
cd ot
u ous
ĠP art
N ot
Ġtra ining
ri al
Ġconst ant
Ġpr inc
ra ck
it ation
Ġp ack
Ġf un
Ġquest ions
âĶ Ģ
us er
ott om
Ġis n
Ġse cur
ĠQ u
Ġcou n
ĠD r
T H
ial ly
ĠD NA
Ġ ?
O C
Ġtrans fer
oc ol
row s
is ions
Ġag o
g n
ear ch
eg a
7 3
Ġknow ledge
Ġbeh ind
n b
Ġre comm
P s
Ġdef ault
Ġopp ortun
Ġv ideo
Ġgr ad
Ġthe ory
} (\
Ġm ap
Ġfor ce
Ġp ie
Ġc ry
Ġbuild ing
Ġav oid
ĠA f
Ġst ri
ĠS uppose
lement ary
Ġl ayer
6 3
cl us
Ġext ra
Ġset t
Ġinclud es
It em
ro te
____ ____
Ġredu ced
Ġcont ain
s k
ĠP e
is ms
Ġv ict
Ġg as
Ġp le
Ġlim ited
Ġsh are
Ġappl ied
Ġre place
ĠH is
pl ate
fere nces
ve re
Ġsa w
ms g
o at
Ġn ational
Ġf em
)$ .
Ġcontin ue
O r
Ġclaim s
f rom
Ġ201 2
ay out
B C
Ġve h
" .
Ġst yle
le ge
Ġgre ater
5 8
p ite
c ell
Ġm essage
Ġm is
Ġprevious ly
Ġg ames
re et
I F
P L
ro ph
S he
ag ue
ad a
Ġj o
i et
Ġbehav ior
m et
or ks
ul a
Ġpres ident
Ġab ility
ad er
ĊĊ Ċ
Ġre lease
7 1
ma x
ĠIn tern
Ġm ach
u ary
p en
Ġdevelop ed
m pt
ĠV al
Ġexp ress
ĠPres ident
ĠO ur
Ġop in
Ġinv ention
ĠD es
ĠA P
Ġprote ct
ter m
ĠThe refore
Ġfri end
Ġf ul
de v
n ers
fe red
Ġ â
ri ef
ib er
ell ing
h ood
ĠN e
ch o
m ap
Ġim medi
Ġartic le
ĠI d
Ġcomp an
Ġb ur
ol es
Ġfav or
Ġant ib
Ġacc om
a ign
] ^
Ġdou ble
ĠS im
ä ¸
M L
D ef
Ġo ption
f ra
Ġt itle
ar ning
j s
Ġre ference
oc ation
Ġ ;
Q u
Ġind ependent
ĠD ist
Ġre v
ĠCount y
6 2
D e
ĠF urther
f o
Ġh ot
ish ing
ĠS T
ĠD em
um b
ĠO R
Ġm other
os ure
ĠCom p
am ent
Ġwor d
Ġsoft ware
Ġ( \[
Ġwr itten
Ġplay ers
ac hes
A dd
ot ic
til de
om a
ru pt
Ġappro pri
Ġpre c
Ġw indow
C D
ill i
Ġfollow ed
Ġnum bers
ĠWh ile
K ey
Ġaut om
Ġs low
Ġparticular ly
Ġcom ing
Ġ[ *
Ġwr ite
ĠP a
( ).
S P
ï ¼
M A
av es
ĠS outh
âĶĢ âĶĢ
r ant
r angle
os ph
f s
Ġ6 0
Ġr ule
Ġc and
C A
Ġhtt p
Ġmat ch
ĠJ ust
eth yl
Ġim pl
iv en
Ġ| |
Ġspec ies
Ġpre p
Ġ ir
Ġan im
\] )
right arrow
Ġfor ward
ĠP er
Ġle ave
at ives
E X
ĠS ince
.. ."
Ġref er
Ġn ature
ab ase
g or
ash ing
in ate
Ġappro xim
Ġl ate
r ange
Ġ201 3
Ġg irl
k n
Ġneg ative
S D
l ength
Ġv ot
Ġcorrespon ding
Ġm ention
ĠR eg
it ness
Ġwh ose
Ġobt ain
Ġback ground
Ġun it
Ġ/ >
Ġconst ruct
vent ion
Ġb rain
in ated
Ġus ually
ĠN orth
Ġsecur ity
s upp
Ġdiffere nces
Ġcomp et
Ġgl obal
ren g
Ġre pe
Ġal tern
o ch
ĠA b
Ġb ir
Ġ201 6
l ink
6 1
ĠR uss
Ġcle an
Ġw all
er ve
Ġoff ice
ĠW orld
Ġact ive
Ġb ox
he st
Ġp o
at form
Ġtri ed
m ega
qu est
Ġnot e
lev ant
Ġoff er
ap an
C E
Ġansw er
Ġarg ument
s m
Ġgener ally
T est
Ġon line
Ġd ynam
ĠHe re
čĊ č
Ġgr ant
Ġr ates
* ~
st e
Ġ201 4
Ġl iving
S uppose
Ġal though
Ġwe bs
ĠI I
ps ilon
) =
Ġhim self
ĠG o
Ġpur ch
ns el
ĠS m
Ġl ost
ĠE d
Ġpro posed
Ġinst ance
Ġreg ular
ill ing
p ret
D es
Ġg e
Ġrec ently
n on
Ġw atch
iv il
g roup
âĢ ĥ
ĠD is
Ġst ress
Ġor g
Ġpract ice
Ġres id
el ine
Ġagree ment
ur b
Ġet c
Ġany one
j oy
Ġthem selves
Ġcount ries
E rror
ar ies
Ġf ederal
en er
ĠS ome
Ġacc ur
Ġh ar
e es
Ġ201 5
Ġro t
o on
ĠM arch
or ph
p ace
ur ance
c ast
Ġt akes
P A
enc ies
L e
pr il
} =
ind ex
ch ange
Ġs ort
ang er
Ġex cept
Ex ception
ĠO ct
uf act
ĠD av
U LL
ve y
n ed
Ġess ential
Ġde ep
}} $
ĠF irst
Ġd riv
gor ith
Ġleg al
Ġb all
ĠPh ys
Ġtre ated
res h
Ġsay ing
^ [@
p an
Ġs le
Ġcent er
ĠA ust
Ġpur pose
Ġfe ed
ĊĠĠĠĠĠĠĠĠ ĠĠĠĠĠ
Ġbec ame
l in
ĠAmeric a
Ġd ensity
ĠB ar
Ġre le
Ġfin ancial
Ġco ver
p y
Ġdire ction
Ġ201 1
o e
Ġ2 9
G amma
Ġhe av
Ġen h
Ġpubl ished
Ġsit uation
Ġrel ative
b i
re w
Ġh or
T ime
ĠCh ina
nb sp
Ġsu fficient
Ġ );
p at
Ġpr ice
Ġj ury
Ġw ays
Ġser ious
Ġwom an
ĠH ouse
Ġfail ed
ĠA ug
ig en
ps i
Ġp hen
Ġallow ed
O ne
ĠDep artment
M an
( (
St ate
Ġchar ge
old s
Ġde gree
Ġhigh ly
re me
Ġper fect
Ġcamp aign
w ide
N ew
Ġrespon d
Ġinter n
d en
ĠG erm
ul ate
ac ity
Ġpret ty
od ing
port s
Ġst age
F L
Ġ vers
Ġderiv ative
Ġse lected
Ġsa f
rou ght
Ġspe ed
s ing
Ġhy dro
Ġg ave
00 3
Ġre str
Ġtrad ition
Ġ âĪĴ
Ġis ol
ĠJ une
th at
Ġb ank
b ase
Ġf ast
O mega
iz es
G F
Ġsubst ant
Ġcompon ent
Ġst ar
u el
[ '
l ock
Ġcomm and
Ġp ict
Ġdes igned
Ġcom ment
ach ing
ĠS u
P R
Ġindividual s
ail y
"> <
ĠI S
T T
Ġs qu
Ġlar ger
ad es
oci ety
v are
Ġ201 0
)$ ,
Ġpro ceed
Ġ __
Ġso on
Ġp sy
Ġfind ings
Ġcomm it
Ġloc ation
st yle
Ð¾ Ð
eps ilon
ou d
Ġk new
Ġwas n
Ġfil es
ibr ary
Ġd raw
ĠS ch
Ġmeas ured
Ġca used
our nal
in it
Ġal one
Ġey es
Ġl abel
\] .
Ġfri ends
ĠA p
Ġ: =
Ġaut h
Ġident ify
Ġst reng
ĠS er
u ge
z z
a e
Ġn ode
h aps
Ġcompon ents
Ġfoc us
Ġdetail s
c il
Ġprof ess
Ġa ud
ĠAl though
oc ks
ĠN ow
b on
Ġvis it
Ġoper ation
Ġrequ ires
ĠGen eral
Cl ass
Ġpro t
N S
E C
Ġp ull
Ġg raph
oper ator
i ated
var phi
Ġgiv es
Ġprote ins
Ġevery one
se mb
Ġim ages
Ġprom ot
Ġp oor
a ur
m ing
ã Ģ
Ġex erc
Ġhy per
Ġmat rix
arg in
om y
Ġs n
Ġfrequ ency
Ġcurrent ly
Ġcl ust
Ġ201 7
Ġappe al
Ġcompan ies
ĠRep ublic
ore m
an ch
ex p
ou ch
Ġc ook
i ency
Ġl ed
i us
( ),
Ġuse ful
Ġcho ice
Ġr ound
ob ile
l ib
r ate
O f
Ġst im
vare psilon
//// ////
} ;
Ġnot ice
Ġor d
B S
Ġlead ing
D o
Ġbe gan
Ġsu it
ĠJan uary
Ġ[ **
Ġsc ale
r un
ers ion
Ġ// /
Ġb al
ir ing
or age
Ġun ique
v is
ff er
her n
es tern
Ġf ight
ĠSe pt
ak er
Ġp en
ograph y
Ġdiv ided
Ġqu e
S ec
or ing
Ġro ad
ĠJ apan
ĠW ar
if ically
Ġrat io
Tr ue
Ġt en
f n
Ġsy nt
d im
Ġcirc um
ĠT H
Ġcost s
Ġopt ions
Ġus ers
ist ry
com ing
Ġsc he
Ġf ixed
ous ly
Ġfail ure
Ġatt ention
Ġeduc ation
Ġcand id
ell ow
ÃĲÂ µ
hes is
Ġman agement
os ing
ĠA pril
Ġcont ains
o ice
ra el
## #
re en
or ney
a it
* .
! !
ĠJ uly
Ġac qu
Ġtechn ology
Ġhe at
Ñ Ģ
Ġre cept
f il
Ġth reat
ĠW est
Ġem erg
Ġde b
Ġ" "
r ide
Ġconne ction
Ġcomplet ely
it ude
s pec
ĠG l
om en
Ġpr ime
N ow
Ġapp ly
Ġbu y
it ter
Ġser ver
Ġpart ies
te e
ĠĠĠĠĠĠĠĠĠĠĠĠĠĠĠĠ ĠĠĠ
Ġf air
} .
Ġb ed
Â ½
================ ================
Ġdist ance
Ġindust ry
Ġtra ck
act ive
Ġl at
Ġpart s
ĠC ir
ve c
S C
n es
kn own
ĠHe alth
Ġde ad
' );
The y
Ġman ufact
Ġappropri ate
k en
Ġen joy
Ġeconom ic
ĠS en
Ġgo al
se ction
Ġ( $
U L
ub e
Ġallow s
č ĊĠ
Ġne igh
c all
Ġear lier
ĠM ich
ens es
ir med
P ath
F orm
Ġexp ressed
Ġdev ices
Ġhe ight
Ġim m
Ġd og
Ġs on
Ġt im
ce mber
ĠJ ud
Ġbo ard
Ġdefin ition
F rom
Ġgener ated
Ð ½
M P
an cy
Ġca pt
Ġover all
() );
Ġ ----------------
ĠA g
for ce
Ġloc ated
} _{\
Ġ\ <
Ġestabl ished
Ġcont aining
st atic
b in
b and
Ġbro ad
ut ed
Ġf ine
Ġst ated
ĠF eb
Ġin form
Ġ- >
Ġre asons
Ġfil ed
S c
Ġeas ily
Ġsit es
ĠAN D
y ond
z ed
B e
Ġdis cl
Ġfind ing
h am
Ġh ospital
O W
ĠB rit
Ġcent ral
Ġequ al
. _
c ap
Ġ ĊĠĠĠĠĠĠĠĠĠĠĠĠĠĠĠ
Ġparamet er
D is
Ġlead ers
Ġw idth
" />
ef ore
Ġmult i
Ġactiv ities
ĠTr ans
k ing
^ +
Ġtr ust
Ġchall eng
Ġeng ine
Ġs ound
Ġa im
Ġcrit ical
Ġto wn
Ġsupport ed
i os
Ġn ames
ĠM od
Ġre levant
ĠR ed
Ġf elt
e ed
ur ity
Ñ ģ
Ġ3 1
Ġhig hest
Ġwe b
Ġprodu ced
Ġ200 8
Ġcle arly
) -
Ġ< <
ymb ol
Ġwor th
Ġopin ion
Ġmean ing
Ġf ather
* ]{}
Ġvari able
i ate
){ #
ail s
ĠSt ud
ĠE l
Ġredu ce
O ver
Ġa x
at he
Ġst ore
m en
Ġm ode
o very
Ġauth ors
p id
ol y
Ġon es
Ġrece ive
Ġve ctor
Ġact ual
ĠG r
. [
Ġ( \
S ize
č ĊĠĠĠĠĠĠĠ
Ġqu al
Ġexperim ents
Ġtum or
d f
con fig
Ġadj ust
ab led
Ġh it
Ġ3 2
Ġl iter
Ġpro of
Ġcon cept
m ar
Ġst aff
D A
od ies
ĠC ons
Ġinj ury
Ġin fection
Ġhand s
Ġdo or
re ak
Ġsy mpt
ĠF l
Ġcou nsel
= '
Ġbe yond
Ġb rought
Ġlook ed
b ra
Ġ3 5
Ġm id
al ing
ove mber
col or
w orks
AT E
Ġwebs ite
Ġappe ars
ib ly
Ġus es
h and
Ġpl ant
In fo
over n
g u
operator name
Ġh on
ashing ton
Con text
Ġwrit ing
Ġcomput er
Ġtra vel
ou ra
C S
Ġcont rast
c ount
ĠG et
clud ed
Ġd ro
Ġshow ing
Ġr ules
} ^{\
f ort
Ġm ys
if ier
Ġturn ed
Ġe ffic
Ġin n
Ġgo es
ĠĠĠĠĠĠĠĠĠĠĠĠĠĠĠĠ Ġ
rel ated
Ġ200 9
Ġchang ed
Ġhe ard
Ġsmall er
il le
a res
ĠS w
Ġcult ure
à ¤
Ġ util
Ġtrans ition
l ish
ĠF rom
Ġhe aring
Ġinter pret
Ġnum er
Ġtrans port
r um
Ġmil itary
Ġunderstand ing
Ġlook s
Ġelect ro
m ark
Ġd ark
Ġcar ry
S upp
Ġrem ains
Ġal gorith
Ġle arning
Ġbenef its
Ġse cret
Ġadv ant
Ġrel ig
Ġm er
att le
ri er
ar ter
Ġbu ilt
lic k
Ġs old
Ġg un
Ġmajor ity
Ġsk in
Ġb inding
ĠAug ust
Ġprodu ce
Ġregard ing
Ġro ot
ĠDist rict
Ġthe rapy
ren ce
Ġv s
Ġvir t
* -
l amm
t itle
Ġtiss ue
Ġsur pr
Ġwork ed
Ġre pl
R A
00 2
0000 0000
' ;
A fter
Ġd u
f ont
ĠS chool
Ġvari ables
Ġex ists
Ġto wards
ir t
ra g
ge q
Ġline ar
ĠIs rael
Ġbe aut
ĠC ong
ict ed
Ġdri ve
' :
Ġe ight
ĠP ublic
ut ive
Ġinter nal
Ġsub sequ
Ġitem s
Ġa w
Ġcoun ter
f ree
n ode
Ġwon der
Ġpre fer
S A
f ord
^{ (
ro om
Ġcont ribut
in ct
st ream
Ġp lease
Ġm ount
Ġext ract
Ġf at
Ġful ly
pect ive
Ġdec ided
ra z
Ġresult ing
Ġveh icle
E vent
ight s
al t
Ġmaterial s
ĠC he
e ah
it ro
en ge
as is
ĠOct ober
Ġindic ated
un k
ĠAf ric
) ).
Ġconne ct
ad em
Ġt ask
Ġsom et
Ġl ov
gr ams
ĠA ccording
Ġbir th
Ġco ol
Ġ201 8
Ġset ting
os ite
==== ==
ok en
Ġpro gress
Ġconst ruction
S im
ĠDe cember
g y
Ġcou ple
Ġreport s
Ġreason able
Ġexact ly
Ġinter view
Ġconcent ration
) ^
Ġcon sequ
Ġreg ions
Ġob vious
ĠSept ember
Ġw rote
Ġparent s
ic a
con ne
te red
Ġy ield
l s
Ġmed ium
Ġ ri
d b
R T
Ġsepar ate
\ '
in put
in st
S ub
M E
Ġdam age
Ġp ul
Con fig
ĠDem ocr
Ġfield s
D ate
Ġsaf ety
Ġmax imum
b m
Ġcol lect
Ġcol umn
if orn
Ġinst it
ot he
id ay
ĠD ata
inf o
om ic
os es
Ġro b
\ ,
C t
over line
ĠS ub
Ġinterest ing
Ċ ĊĠĠĠĠĠĠĠĠĠĠĠ
] :
c os
ic ip
ĠD et
ra b
Ġread ing
Ġsl ight
Ġmor ning
Ġpro p
ĠB r
Ġplay ed
Ġf a
l angle
Ġparticip ants
er ate
ES T
Ġse c
Ġco ord
ang ed
Ġadminist ration
B A
Ġget s
Ġdom ain
ru ary
are st
Ġvict im
e ch
Ġo x
AN T
A b
ĠP M
Ġapplic ations
Ġres istance
amet er
ĠCh ar
ic it
Ġthrough out
Ġfe ature
\ <
Ġc am
Ġprocess es
Ġcl osed
und red
Ġc it
P C
as m
Ġabs ol
Ġs ources
Ġar rest
Ġsol id
erv ed
Ġform ation
Ġref lect
Ġstart ing
Ġst ru
---- --
Ġform ed
Â »
Ġnot ed
Ġli qu
Ġ eth
ĠL a
ĠN ovember
ĠS y
Ġbe comes
ĠB ecause
Ġsa fe
Ġas pect
c ase
Ġdef ine
Ġs we
cul es
Ġintern ational
ĠH igh
Ġre action
Ġl ives
Ġconne cted
Ġvol ume
n y
l o
m aterial
Ġa ctions
}} _
l ong
im age
Ġf it
H T
F alse
FF FF
i ences
V ER
ĠW ashington
t em
Ġn or
ra int
Ġto ward
Ġtrans form
ES S
Ġgiv ing
Ġ/ **
Ġdem and
Ġsc ore
Ġand roid
Ġl ay
Ġz ero
Ġpa id
Ġrele ased
ur t
Ġhe ar
Ġreve aled
Ġ er
Ġm ess
Ġplay er
Ġlaw s
ĠA M
O ut
iforn ia
Ġ8 0
Ġconsist ent
Ġimmedi ately
Ġw ild
Ġother wise
con s
wh ich
cl es
Ġcap ital
ic o
et t
ĠP ark
Ġform s
Ġne ut
I A
Ġtest s
ct ors
Ġst d
Ġh ous
pl ing
Ġbas ic
semb ly
Ġopportun ity
p c
ĠSe ction
Ġ9 0
il s
im ony
Ġsc ient
oun ced
) **
Ġm ur
gr ad
Ġar ch
C O
Ġu lt
Â ¸
à ¸
Ġmeet ing
ĠCent er
ĠM ark
if orm
ĠMore over
ĠS an
Ġ ign
Ġinflu ence
5 00
Ġport ion
Ġdef ense
Ġcomb ination
Ġt er
Ġ ensure
ĠI D
id a
al le
Ġinter action
Ġcol lection
> >
Ġredu ction
i ance
uff er
st art
p ir
ĠR ec
G L
ot al
Ġfig ure
Ġres ources
Ġro ll
B ig
ĠT able
Ġph one
ĠIn st
Ġmechan ism
. \
Ġl es
bo ard
Ġw ide
Ġ ^
#### ####
ĠUS A
O h
E E
Ġstreng th
ĠA ng
ger y
ĠCom mission
Ġpop ular
l a
Ġalleg ed
Â Ń
a el
ĠO f
Ġrel atively
Ġm ort
ĠA D
Ġmov ed
Ġa ware
Ġequ ation
Ġf ix
Ġbl og
Ġtest ing
tr ue
Ġanim als
g s
C P
Ġcomm er
Ġl if
at ur
Ġquick ly
Ġc ore
ob ject
al y
' ]
Ġth ous
c in
m ail
Ġmov ing
Ġspe ak
ĠL ist
Ġm iddle
Ġj ur
Ġent er
pos es
He re
sp ace
Ã Ń
che ck
j ava
Ġrem ember
Ġcl ient
il ies
end ant
In st
Ġestabl ish
Ġne arly
ĠN ULL
Ġsomet imes
Ġrem ove
Ġcircum st
Ġsw itch
X X
ent y
Ġp etition
Ex p
Ġmove ment
Ġre ach
b ur
Ind ex
Ġhapp en
Ġthink ing
Ġb ottom
[ ^
Ġ( **
R I
Ġsp in
en cing
o oth
ir it
âĢ ¢
Ġdat abase
as te
F A
z ym
Ġ200 7
Ġprov iding
Ġb rief
Ġ ]
Ġcalcul ated
N ode
Ġexist ing
Ġhapp ened
Ġplay ing
Ġequ ival
Ġst ation
am in
Ġcy t
stit ute
Ġobject s
Ġdetect ed
Ġb acter
Ġleg is
if ul
}} (
Ġmem br
ĠI L
Ġw itness
Ġgre en
Ġconduct ed
ĠAust ral
, -
an o
le vel
Ġread y
ĠN et
ĠRe v
air s
Ġtr ade
Ġch ance
Ġproced ure
Ġph osph
Ġcho ose
Ġst eps
Ã ³
F ield
Ġmet ab
Ġcirc uit
k y
it ors
pon ent
Ġex hib
Ġm al
ĠT w
Ġfunction al
er ia
iqu es
Ġanal ys
Ġinc or
p arent
ens ions
Ġachie ve
Ġsle ep
ĠOb ama
F r
Ġfact s
[ ]
ĠĠĠĠĠĠĠĠĠĠĠĠĠĠĠĠ ĠĠ
Ġcr im
Ġdemonstr ated
ph p
at in
Ġindic ate
E qu
Ġmus ic
im ent
Ġne arest
i pe
om b
i ers
Ġmys elf
Ġpl aced
ot ype
Ġu pper
de red
Ġfin ally
ĉĉ ĉĉ
M ap
() )
% ,
U p
L A
ĠH er
Ġb and
indow s
Ġcom plic
D S
"} ,
Ġde bt
Ġh undred
i able
Ġc ivil
Ġset s
Ġch annel
Ġem ail
ĠFeb ruary
Ġpro ve
Ġconcent r
w as
Ġf ib
re es
ol ved
C ON
z a
ot o
\] ,
ĠC O
Ġun its
lic ation
Ġ row
Ġremov ed
so ft
Ġyour self
Ġc ert
ig ation
Ġ3 7
ock et
ĠCal ifornia
om in
Ġext rem
Ġcap acity
ĠAl so
j ection
v est
Ġy es
Ġtr uth
Ġwork ers
Ġse lection
Ġvari ety
u ced
Ġ4 5
Ġ ~
Ġprocess ing
Ġse ven
Ġcar ried
Ġra ce
Ġp ow
au ght
n um
Ġha ir
F T
Ġw ife
#### ##
Ġl abor
Ġd aily
ĠA T
ĠS ec
Ġw ave
Ġreg ul
Ċ ĊĠĠĠĠĠ
Ġcom ments
Ġd oc
pect ed
Ġwe ak
s ource
ate ver
f low
Ġf ear
ic ity
Î ±
Ġsh ape
R eg
Ġs en
a a
/ (-
Ġdist ributed
B U
Ġsus p
ĠT ex
ĠC ON
Col or
Ġstat ist
ĠL aw
Ġs end
Ġ il
ĠE ven
Ġmach ine
Ġscre en
Ġpe ak
} ,\
ro y
Ġbenef it
* (
ĠJ e
ru it
ĠAss oci
c irc
ĠK ing
ĠA dd
Ġincre ases
ith ub
el le
L og
Ġpre m
ĠP re
Ġsuggest ed
Ġlet ter
ĠO ther
P D
w ell
Ġbl ue
C ode
ut y
app ing
Ġn ation
Ġon to
ur rent
ĠA ut
Ġn amed
ra ce
Ġn orm
Ġconf lic
stit ution
A tt
Ġ Ãĳ
th on
ac ing
Ġman ner
M e
u i
um in
Ġem ot
Ġrespons ible
Ġinc ome
augh ter
Ġm it
Ġapp arent
at ically
Ar ray
R ec
as p
roll er
c or
ĠFig ure
Tr ans
rom e
o z
i pp
Ġmeas ures
Ġcompar ison
U M
Ġun f
S er
Ġpass ed
fra k
ify ing
Ġlet ters
ĠPa ul
Ġreplace ment
P T
]\] ,
ĠBo ard
Ġapproxim ately
Ġpl atform
Ġjud ge
Ġvis ual
h ost
p ass
Ġim ag
Ġdiscuss ed
Ġpick ed
Ġst uff
Ġpro grams
Ġ7 0
um an
ĠInd ia
Ġexp osure
d ot
ĠA c
Ġtest imony
Ġne ur
c oh
ond on
Ġrecomm end
ĠU K
ĠWh ite
u nder
Ġp ackage
ri e
Y es
: "
Ġm ac
Ġpsy ch
ber g
ĠEurope an
Ġn ut
Ġcontin ued
ou l
Ġpl aces
' '
Ġsh ot
Ġup date
om as
Ġexerc ise
Ġad opt
yn c
ĠT O
IN T
Ġ9 5
ĠF ound
Ġoper ator
I B
bl ock
Ġsa ve
Ġmagn etic
Ġun s
)/ (-
Ġup d
* )
k ay
Ġsympt oms
Ġ200 6
Ġmod ern
Ġstruct ures
ad o
Ġw id
Ġpan el
Ġexperim ent
Ġm ag
Ġ3 6
Ġmay be
ens ional
Ġhealth y
ist ant
Ġreturn ed
Ġcor por
Ġsp read
Ġfore ign
Ġad apt
it is
Ġb ud
Ġb illion
ĠB ro
Ġed ge
Ġb order
Ġins urance
Ġse vere
00 4
Ġfil ter
cont ent
Ġd ie
Ġcharacter istics
Ġcl ub
Re quest
Ġbegin ning
w id
ĠFurther more
n ormal
ĠRes earch
Ġf resh
cur rent
Ġm ale
Ġ2 000
ur l
Ġtalk ing
ĠR NA
Ġst ock
AR T
u ing
re ate
ĠĠĠĠĠĠĠĠĠĠĠĠĠĠĠĠ ĠĠĠĠ
Ġdis s
vent ional
Ġstra ight
Ġsc en
Ġ ut
Ġcontin uous
Ġb ill
ar r
Ġar m
Ġexp and
Ġm m
Ġass ume
Ġn il
Ġdrug s
Ġinvestig ation
Ġdes cription
Ġm ill
c ore
Ġa ward
ĠP al
l am
Ġl ib
d ict
ĊĠĠĠĠĠĠĠĠĠĠĠĠĠĠĠĠ ĠĠĠĠĠĠĠĠĠĠĠ
ĠIn ter
Ġra pid
c ar
Ġs ell
Ġactiv ation
Ġt end
Ġb ul
/ (
A ct
l en
Ġt our
È ±
Ġdel ay
l ast
ĠM or
Ġr ul
P O
p ol
Ġthe rm
or ter
Ġ\ ,
Ġsh ift
ĠM us
b an
or ge
Ġex ception
b uild
Ġchem ical
Ġh our
ĠW illi
fr ame
ĠS upp
Ġden ied
Ġdet ection
ĠH am
idd en
Ġsum mary
Ġag ent
Ġchall enge
ĠT est
Ġsex ual
F l
c an
U ser
H and
Mod el
Ġdi et
ren ch
Ġfam ilies
ip ment
Ġ4 8
pt r
Ġk ids
Ġb ab
ra v
Ġt ree
iz er
Ġspec ifically
Ġins ert
ç ļ
ari an
as ion
Ġaltern ative
Ġhapp y
ĠA tt
c her
Ġp ark
ĠIntern ational
ĠDav id
Ġwa it
Ġst o
cre ate
g ar
il ed
ign ment
Ġ( (
[ \
Ġsh oot
d i
Ġcare er
Ġm g
çļ Ħ
Ġr out
ap i
Ġtyp ically
Ġser ve
Ġn ice
Ġno vel
Ġmention ed
ab s
Ġcould n
Ġfem ale
ar ant
ĠEng lish
E G
Ġsc ript
_ .
Ġsent ence
Ġcompl aint
Ġe lection
go ing
Ġstrateg y
Ġsp ent
ic les
Ġsurv ival
. *
Ġp ush
ĠI ll
ĠG overn
Ġpl ans
Ġdes pite
Ġofficial s
Ġnucle ar
ic ial
Ġth ick
Ġcl ick
ial og
fect ed
Ġimpro ved
ĠÎ ¼
AL L
Ġ( "
ot a
Ġinter face
Ġ} );
Ġtest ed
ĠĠĠĠĠĠĠĠĠĠĠĠĠĠĠĠ ĠĠĠĠĠ
id ers
.... ....
Ġliqu id
or b
Ġwant s
Q L
Ġprep ared
c s
re ly
ĠP ost
Ġun less
ing u
ar a
pt ions
Ġcommer cial
C alculate
Ġth row
math frak
A V
C ount
Ġexperim ental
p ost
M O
b olds
Ġlead s
ab il
ari o
Ġl ip
ig ration
m and
Ġstud ent
Ġ( !
Ġt ouch
Î ²
Ġoper ations
Ġpl ate
ĠCong ress
m d
& \
Ġgrow ing
ic ed
r ary
as cular
en ced
up reme
Ġsur gery
Ġsu p
Ġun c
Ġd ed
Ġexpl ain
ĠO ff
Ġgu y
Im age
": "
Ġc op
ole an
Ġcomb ined
Ġsuccess ful
d ed
rac y
st ract
Ġclass es
A ss
ĠA nt
Ġstud ied
B L
ĠC oun
Ġn one
Ġcontrol s
Ġsol utions
g ithub
Ġk illed
W ell
Ġcircumst ances
Ġd anger
Ġk ill
ĠY our
at o
bolds ymbol
D R
Ġent ry
00 5
Ġcommun ication
it ivity
op en
Ġcy cle
Ġprot ocol
Ġdis miss
ĠInd ian
Ġs ociety
S ervice
Ġv ote
Ġmet al
Ġey e
Ġra ised
ĠN S
Ġelect r
Ġmod ule
Ġprofess ional
ust r
Ġv ac
pr ime
Ġmin imum
Ġl ock
C an
Ġhand le
Ġtrans l
ĠD on
Ġindu ced
Ġca uses
Ġconf irmed
č Ċĉ
Ġre ached
Ġh op
Ġopt im
ĠPl aintiff
ri a
ou te
Ġaffect ed
ĠC H
ic ks
il ing
Ġprote ction
ell ig
Ġpro sec
Ġmole cular
S igma
E nt
Ġemploy ees
Ġtool s
Ġ3 3
Ġd ied
Ġper haps
Ġwould n
ĠB ig
Ġmon itor
ĠC ode
Ġc ru
Â ·
Ġcall s
Ġstat ute
Ġoffic er
Ġv oice
Ġprob ability
ĠNew s
ĊĊ ĉ
Ġpie ce
ĠB ank
p g
Ġag reed
Ġenc oura
Ġcorrel ation
pro du
os en
Ġwhere as
ann ed
B uild
d ir
act ers
Ġdr ink
Ġs rc
Ġcred it
Ġst orage
it z
Ġexpl ained
** )
x x
wo od
ines e
Ġ-- >
ĠE m
Ġtr ig
M essage
ĠT V
Ġfe et
Ġoccur red
ri ent
w rite
R S
Ġpre par
C s
ing er
Ġl inks
Ġhist or
In ter
ar th
Ġcon ver
id el
ĠM ost
Ġe fficient
Ġ200 5
Ġim plic
Ġpro port
opy right
ĠG roup
Ġke pt
ĠR el
ad ing
W hy
g reg
Ġintrodu ced
Ġmot or
reed om
K E
Ġtradition al
Ġk in
Ġsub str
p o
Ġopt ical
Ġmin or
Ġassoci ation
act ory
Ġmed ic
Ġsur round
Ġ3 4
Ġapp ellant
Ġrel ation
Ġch rom
ld ots
ĠSu per
Ġanaly zed
ass ert
act or
S I
ĠN OT
Ġcol lected
Ġprote cted
Ġcard i
Ġsy n
Ġtechn iques
ĠN ote
iz ations
00 01
fere nt
^ âĪĴ
Ġschool s
Ġg one
Ġfoot ball
Ġc atch
Ġsu st
Ġcrim inal
Ġc ast
Ġm ental
ot yp
Ġinf lamm
l ocal
Ġdiscuss ion
Ġrem aining
Ġm ix
Ġrequire ments
M ethod
Ġbre ast
Ġbig gest
Ġmov ie
Ġch ain
Ġh uge
ing ly
res hold
Ġdiagn osis
ul f
ace book
Ġsu n
Ġcertain ly
ÂłÂł ÂłÂł
res ents
Ġeffort s
Ġsuggest s
i ra
. ](
m em
in ner
k g
ĠL ondon
ed s
Ġan imal
A ut
Ġt rou
Ġt al
Ġpl us
n el
d et
ist an
Ġadvant age
/ **
Ġm ist
en ame
ĠS et
Ġhtt ps
Ġestim ated
Ġu ne
Pro perty
S H
Ġbro ther
Ġpol ic
Ġalgorith m
is ation
it led
Ġcreat ing
L ambda
Ġpro s
k a
Ġrespons es
Ġcit iz
E lement
Ġfor ces
C M
Ġev olution
Ġgener ation
Ġp ool
P er
Ġabs ence
Ġvir us
Ġold er
AN D
Ġpur poses
Wh ile
omet ry
in n
i very
Ġv an
Ġbu ffer
Ġk id
O ur
app a
as er
Ġeconom y
Ġen zym
"> </
olog ies
. $$
u ate
Ġp un
ĠD i
ĠE ach
ograph ic
R ep
Ġtem por
Ġquant um
Ġfa ith
$ (
G roup
Ġserv ed
) ?
Ġelect ric
Ġgl ass
} -
p a
ill a
Ġrecord s
ĠO h
Ġbeaut iful
sub set
Ġorgan ization
Ġex ternal
Ġsubject s
Ġbehav i
Ġman if
Ġf old
Ġj ava
as ma
ĠE ast
ym ph
B I
sh ip
Ġwh om
Ġint ended
Ġform at
Ġocc up
Ġproper ly
Ġpict ure
ang ing
ri an
Ġrad io
in y
f unc
r d
s rc
in ity
Ġg al
Ġ( )
M T
coh ol
Ġmiss ing
; &
Ġst ream
Ġfl oor
icro soft
Ġ4 2
alle l
ĠJ ack
( &
p age
Ġder ived
res ult
w hat
z on
Ġadd ing
Ġauthor ity
-------------------------------- ----------------
Ġd oll
}} {
spec ific
Com p
ĠD E
Ġgu ess
riv ate
F il
Ġ$ {
Ġoff ers
**************** ****************
Ġdirect or
Ġres olution
Ġth read
Ph i
Ġext ent
und ay
Ġsc ience
c a
Ġatt orney
Â ģ
Ġc at
F irst
ĠBrit ish
ind uced
Ġd rop
Ġmechan isms
Ġ3 8
Ġ vert
def ault
ĠBl ack
\ |
Ġide as
Ġinterest s
t ical
Ġe at
Ġcr ime
ck now
Ġrep resents
ag o
Ġaut o
Ġcont ained
Â Ģ
Ġdecre ased
Ġs av
Ġexper ien
ĠTex as
( {\
h ow
ĠS upreme
Ġpr ison
Ġslight ly
ï¼ Į
S ource
on ic
wh ile
ou ble
C o
Ġd ry
C G
B l
s f
Ġbel ong
so le
ĠAn y
C I
op ic
ĠGo ogle
Ġlar gest
ĠE v
ĠR em
Ġj oint
Se e
F I
Ġdist inct
Ġte ams
s ens
Ġc old
Ġexper t
Ġent ered
id ge
Ġcon vers
Ġcom fort
ĠR et
Ġthan k
Ġsum mer
ot imes
ic ated
Ġgen etic
ari ant
we b
it ory
Ġwe ap
ĠĠĠĠĠĠĠĠĠĠĠĠĠĠĠĠ ĠĠĠĠĠĠĠ
ĠD an
mb ox
P P
re ated
ut or
Ġsal es
Ġag ency
ty p
C he
le br
mod el
Ġne uro
Ġfeel ing
Ġchar ged
or ry
t age
Ġem pt
OR T
Ġtechn ique
Ġr ise
Ġproject s
Ġchar acters
Ġcomp osition
Ġg old
L ine
as c
id em
ĠA L
Ġb ool
ru ctions
Ġdescrib e
il os
pos s
Ġreg ist
Ġstru gg
non umber
Ġelect ron
Ġf irm
How ever
Ġerr ors
U E
Ġdou bt
Ġcon ventional
ĠH ol
Ġhold ing
c ks
Ġneigh bor
es is
Ġte ac
Ġk it
ic ians
Ġoffic ers
Ġof fered
Ġmembr ane
ĠO ver
Ġ rac
a ud
âĢ ²
mm et
ĠG reen
Ġco e
ĠA S
C all
ĠJ ames
Ġsh ared
d ots
Ġlo op
Ġgr and
Ġann ounced
r ich
Ġar bit
( {
Ġv ent
Î ¼
ĠL eg
ĠSt reet
Ġlat est
N T
R L
Ġh us
ĠT wo
Ġep is
Ġd ra
Ġsm ooth
Ġw ind
Ġsy mmet
Ġopen ing
B ox
Ġc ir
C F
ĠCl ass
Ġsupp ly
ĠS uch
ĠJ ew
Ġsy mb
ang es
S te
Ġgu ys
S ome
Ġdri ver
Ġhyp ot
Ġag ents
Ġw el
c hen
il arly
Ġco verage
val id
Ġequ ipment
Ð° Ð
om an
Ġe arn
d oc
Ġinter actions
Ġsit u
ven ue
P re
ug in
ues day
ĠFound ation
onal d
q l
ĠC irc
j ust
in te
Ġown ers
Ġpl ants
ĠC a
Ġsequ ences
m ic
ĠS ur
}} }
Ġjur is
Ġdecre ase
Ġex change
ĠCoun cil
p ack
âĢĿ .
ĠCh inese
Ġ200 4
d raw
ĠCom mun
Ġdefend ants
Ġw ish
l if
y a
] [
ĠR E
Ġcons erv
ĠS ervice
Ġanalys es
ĠĠĠĠĠĠĠĠĠĠĠĠĠĠĠĠ ĠĠĠĠĠĠ
Ġtre nd
ĠD irect
}} _{
ĠU nder
ot ed
pl ed
h i
Ġp y
ĠFr iday
Ġrecept or
Ġg ain
Ġr ing
v ille
S ystem
Ġn an
Ġinvol ve
** ]{},
Ġ+ =
y ou
Ġme ant
ĠF OR
Ġel im
Ġout come
Ġcor re
ĠR ober
Ġsign als
ĊĊ ĊĊ
ĠCan ada
pon se
Ġrepe ated
ord ers
Ġcry st
Ġb oy
Ġst ars
P r
Ġst able
" ).
Ġposs ibility
Ġprof ile
i as
se m
am ing
xt ure
ĠM art
Ġpattern s
ĠE q
IT H
Ġoper ating
Ġr ank
Ġfin ite
j o
Ġl it
Ġexist ence
Ġhold s
Ġto x
ĠC alculate
c ence
Ġheav y
Ġcomplet ed
Ġwh atever
Ġw at
. [@
S U
Ġm ouse
ri age
Ġspect rum
ol ar
qu ery
Ġ} ;
Ġdise ases
1 01
Ġcontroll ed
Ġqu arter
OU T
ĠAd dition
Ġreturn s
mit tee
Ġconcentr ations
/ \
Ġgener ate
ĠD ay
N E
Ġm obile
os c
cre te
Ġindic ates
er ic
Ġbut ton
č ĊĠĠĠĠĠĠĠĠĠĠĠ
Ġequival ent
x ml
An y
AT ION
M R
Ġconf irm
ar p
ain er
R ef
Ġconfig uration
Ġ" [
ER T
Ġinterest ed
Ġdo se
ĠA rm
IT Y
op l
st on
Ġappe ared
Ġare n
ur ies
il er
Ġb ra
ĠPe ople
Ġview s
Ġseem ed
in i
ĠR ich
Ġ --------
ic ate
ĠComp any
ans ion
ĠW ed
ist ent
Ġmeasure ments
ĠĠĠĠĠĠĠĠĠĠĠĠĠĠĠĠĠĠĠĠĠĠĠĠĠĠĠĠĠĠĠĠ ĠĠĠĠĠĠĠĠĠĠĠĠĠĠĠĠĠĠĠĠĠĠĠĠ
ĠMon day
Ä ģ
iven ess
ensure math
S p
Ġident ity
======== ==
Ġab use
ch ild
Ġdriv ing
as ks
Ġv el
Ġcon clusion
ĠC A
Ġinte ger
Ġdis p
k i
Ġ201 9
Ċĉĉĉĉ ĉ
Ġdi ag
an cing
f aces
Ġflu id
Ġrefer red
Ġapp rec
m essage
il it
ject ed
ĠK e
k appa
Ġhapp ens
ĠIn s
Man ager
ow s
ĠD el
Ġpartic les
Ġf arm
clud ing
Ġ ------------
ĠW estern
Ġrepresent ation
urs day
Ġar riv
et es
Ġmaint ain
Ġimport ance
Ġsqu are
Ġincor por
E nd
h as
Ġcomp ens
ĠF acebook
ĠP D
Ġqu ery
Ġsu ff
he nt
el ess
O G
ĠK ore
Ġinst r
Ġremain der
am ily
Ġcon vert
k in
a fter
Ġstate ments
Ġsecond ary
Ġpe ace
Ġ ing
ĠB oth
Ġenvironment al
nes day
ge bra
. </
ad y
ĠSm ith
m t
But ton
Ġrun s
Ġf lex
c are
Ġdevelop ing
rid ge
Ġnet works
b a
P I
se y
Ġre ality
ĠTe chn
l ook
ra pe
Ġs ession
o om
Ġdig ital
he ight
Ġp ure
Ġpart ners
) "
v an
ĠO ut
Ġimmun e
} )$
âĢ Ĭ
oth ing
se lect
it ect
Ġc ateg
Ġb orn
sum mary
} +
N D
Ġv acc
ĠMich ael
ĠW ell
ĠIn stitute
ab ilities
ind er
Ġextrem ely
ra ction
Ġcent ury
Ġpre gn
Ġc atal
Ġappro ved
Ġtrans mission
Ġdown load
Ġiss ued
Ġb urn
ĠM iss
Ġ5 00
", "
d r
ĠF e
ãĢ Ĥ
Ġext ension
ap ache
Ġl ibrary
ant ly
Ġch ronic
Ġex cess
ĠB en
Ġjob s
am ine
] ),
Ġsh o
Ġcol lege
Ġl ung
ĠP ress
Ġbal ance
le m
A Y
P H
Ġcar bon
Re v
I ST
Ġorig in
$ $\
Ġsp irit
ĠA re
ell a
ĠS am
T O
ĠM al
Ġexc ell
ĠSe cond
d t
w in
ens or
Â ¶
å ı
t arget
Ġsur vey
Ġch urch
Ġliter ature
Ġc overed
ĠT ra
Ġempt y
Ġlead er
ĠM ac
Ġal cohol
Ġreg ulation
D on
m ain
ĠE very
ĠS unday
Ġext ended
P RO
Ġknow s
Ġtra in
Ġsubstant ial
Ġexam ples
Ġl atter
or row
M I
Ġopen ed
Ġhigh light
ĠM et
ail ed
f alse
C lick
du c
Ġ200 3
st d
ane ous
Ġint ent
Ġchar ges
g ments
Ġw ire
Ġocc urs
l n
pl ify
Ġspe ech
unt u
Ġassess ment
Ġ 00
ol f
Ġhus band
Ġmus cle
ĠChrist ian
v a
s a
w ed
Ġa head
ĠY es
Ġce lebr
ĠP ort
Ġsign ed
Ġatt ract
im g
f irst
r ig
Ġsp ot
Ġun iform
Ġexpl icit
Ġest imate
Ġt error
pro perty
Ġun ivers
ser ver
N et
as ure
Ġrece iving
n am
Ġdisc rim
om orph
Ġform ula
; \
ĠUn ion
Ġpol ar
end if
re al
Ġser um
Ġrepresent ed
h al
Ġin ner
Ġunder lying
Â ²
Ġallow ing
is her
og ene
ĠS un
B ar
Ġconcer ns
! --
Ġcustom ers
ribut es
\ {
$ {
c el
201 3
h ouse
Ġsc ene
ĠC R
il ty
Ġcall ing
ĠA ir
u ps
---- ---
an es
ĠF rench
)/ (
Ġimplement ation
Ġ7 5
Ġhelp ed
om es
y r
Ġdec isions
is hes
Ġsubsequ ent
Ġeffic iency
ste in
atur day
Ġ ĊĠ
leg al
Ġw ood
Ġdel ivery
Ġrecord ed
ĠE R
, '
Ġli ver
Ġpercent age
Ġh ab
ĠC T
s or
Ġass ay
Ġno ise
ortun ately
A ccording
stand ing
Ġexam ined
Ġv ill
Ġb ow
ĠGerm any
Ġth reshold
ok es
Ġgu arant
ĠCom mittee
ĠA R
Ġarg uments
Ġl ymph
i pped
U D
ĠF lor
Ġe lev
Ġar r
app ro
ell ed
Ċ ĊĠĠĠĠĠĠ
ĊĠĠĠĠĠĠĠĠ ĠĠĠĠ
al ysis
In put
Ġle aving
Ġtest ified
ĠWh y
P e
or gan
ro g
ĠLe ague
201 6
ĠD uring
ad s
let s
ok ing
ific ations
S ON
ĠI II
Ġevalu ated
ĠW H
z en
S M
row ser
A re
G en
end ment
ĠJud ge
it ative
Ġbe g
c i
Ġout comes
Ġpower ful
ĠL ou
Ġspec ified
Ġown er
Ġra ise
201 5
---|---| ---|---|
n ames
ĠG old
Ġpolic ies
ul in
Ġ3 9
Ġmost ly
) [
ĠThe orem
ĠF inally
b reak
{ {
land s
Ġlimit ations
E xt
ph one
Ġs ale
Ġbud get
ed y
====== =
Ġcandid ate
% %
Ġha ven
ĠU sing
ĠAmeric ans
il de
Ġevent ually
Ġapp oint
Ġwar rant
Ġm ixed
Ġcy cl
ĠJ es
a per
Ġhe ter
on na
âĶĢâĶĢ âĶĢâĶĢ
Ġcrit eria
aut hor
we ight
ĠM any
ĠS olve
Ġf ish
Ġdi ab
pro cess
r l
ĠM at
amp ions
it ely
ĠSc ience
pro duct
b al
Ġapp ar
Â ¼
n ight
Ġsche me
Ġthous ands
Ġsh ut
ĠT uesday
) =\
Ġviol ence
Ġposition s
oc ity
Ġ4 4
he tic
Ġrel ief
C K
Ġw arm
ĠI ran
ns on
Ġpl ane
Ġlearn ed
Ġv ary
Ġsupp osed
Ġbook s
Ġpl asma
J ust
Ġmanufact ure
Ġdig it
c f
Ġgreat est
s he
Ġgrant ed
est ed
Ġcur ve
Ġconstit ution
Ġst ored
ĠAssoci ation
ĠCol lege
} =\
Ġstandard s
The se
Ġre plic
ĠE X
: \
The n
en u
Ġcomp ounds
s ive
Ġl icense
Ġ200 1
ip al
' .
et te
ĠâĢ ¦
Ġchang ing
te x
d iction
? âĢĿ
Ġtyp ical
i h
im er
Ġapplic able
Ġdep ends
Ġt ub
P oint
z eta
cret ion
abl a
supp lementary
Ġinc ident
Ã ¶
Ġact s
ĠB ay
D L
Ġj ournal
Ġinvestig ated
Ġachie ved
Ġgo als
Ġm aster
F P
Ġg ar
\ !
form at
g ression
d em
N umber
Ġproced ures
ĠCh urch
Ġrestr ict
Ġfra ction
e rest
Ġvol tage
Ġdes ired
Ġ6 4
cd ots
est s
Ġsee ing
Ġde fect
---- -
Ġle aves
Ġf ans
al ty
Ġpay ment
Ġf ol
ak ers
iv o
)* (
c p
Ġd aughter
Ġen force
ĠF orm
ĠEng land
Ġeas ier
201 2
Ġc ategory
ĠP en
Ġa cknow
Ġ6 5
Ġstrong ly
F IG
ruct ure
0000 00
Ġinde ed
ĠWe b
j ud
ist ed
Ġpurch ase
Ġent itled
Q U
d ependent
ĠM o
ĠJ er
Ġp aint
Ġacc ord
Ġfl at
Ġman ager
Ġe cho
Ġrese arc
Ġfil ms
Ġeval uation
Ġrest aur
201 4
ĠM em
Ġf reedom
i ant
l aw
Ġsp end
ĠF in
Ġb ond
ect or
Ġad ult
Ġse ctions
Ġcomm itted
f old
Ġpath way
M D
CT ION
ost ic
Ġd uty
ocy tes
Ġisol ated
Ġin sp
Ġlist ed
but ton
Ø §
Ġ5 5
Ġrelig ious
Ġn av
Ġte le
oper ative
con text
Ġsp ring
Ġm o
ĠT ime
Ġcon clude
Ġrec overy
Ġdetail ed
Ġdeterm ination
Ã ¼
Ġch osen
Ġfund s
Ġpr ices
Ġfl av
velop ment
Ġf if
it able
Ġfour th
Ġre vers
R em
Ġem ph
Ġear th
Ġper t
od ay
Ġcomp r
Â ´
" ),
Ġinc ub
IN E
ill er
ple t
ä »
** (-
Ġdirect ed
dim ensional
201 7
Ġinvest ment
ĠM A
am ental
Ġfor th
Ġl ab
lev ision
ĊĠĠĠĠĠĠĠĠĠĠĠĠĠĠĠĠ ĠĠĠĠĠĠĠĠĠĠĠĠĠĠĠ
St ream
g ers
Ġmor ph
d el
ĠGovern ment
Ġal ter
Ġcr is
St art
B ack
n abla
ot es
Ġdoc uments
Ġpro pos
Ġconsider ing
R un
N ote
Ġacc um
Ġs ch
ĠC opyright
N O
Ġsubstr ate
Ġjo in
Ġbab y
Ġmetab ol
el se
Ġclust er
Ġwa iting
Ġf uel
Ġresult ed
b ed
"} .
Ġ200 2
Ġconflic t
Ġam az
Ġfor ced
ĠTh ursday
ĠPart y
^+ ^
U s
N F
ĠO pen
Ġvirt ual
Ġdam ages
> (
ĠS erv
ĠGe orge
Ġox id
S L
** ]{}
Ġaff ord
c at
Cl ient
ĠI T
he t
im ately
Ġfoc used
Qu ery
ĠI P
ce ived
ri end
Ġbelie ved
Ġh ol
ri ve
Ġstand ing
us hed
ain e
Ġacc ident
Ġpe pt
ĠR ob
ĠS H
Ġde g
ER R
ĠW il
Ġobserv ations
Ġsk ills
ĠT om
Ġmod ified
ĠB el
clus ive
ĠT R
ĠWed nesday
Ġc up
3 00
Ġoff ense
AG E
G E
Res ult
ĠAr t
Ġconcer n
est ic
re p
d at
Ġposs ibly
Ġdep th
Ġemploy ed
ĠB rown
Ġt ag
Ġang le
Ġhous ing
] --
el es
Ġvers us
Ġob lig
ition s
ĠW indows
fe e
ĠH ill
ann els
it a
Ġdep ending
Ġst ories
Ġn odes
Ġfe es
Ġc os
Ġcons ult
um er
i ot
Ġr ich
) ^{
Ġsee k
Ġd raft
othe rapy
ĠS al
Ð »
Ġpl ays
Ñ ĥ
Ġmin im
on ly
Ġl ose
ĠU p
ĠÃ Ĺ
ell ular
Cont roller
ĠFlor ida
ĠL em
Ġtra ffic
Ġequ ations
n ull
Ġexpl an
Ġelect ronic
Ġexcell ent
F C
ĠD iv
ĠF ederal
ĠP et
Ġce re
ĠWh ich
j son
Ġcomp etition
d y
Ġad vert
Ġsymb ol
Ġgal ax
rape ut
Ġstim ul
Ġsc an
se arch
Ġsal t
cl ient
ĠP C
in ations
D B
sc ale
Ġsc ope
ed ia
ry pt
ip her
ĠR ef
Ġcommun ities
ou nce
Ġfl oat
Ġst rain
ĠM ex
ĠH IV
Ġint ellig
Ġconcer ned
ĠB er
ĠRuss ia
Ġsh ock
Ã Ĺ
I E
b ug
s g
out put
Ġwill ing
Ã ¤
AS S
g ent
Ġfund ing
Ġmeasure ment
Ġ4 1
Ġro ck
Ġcomp are
s in
Ġcitiz ens
Ġ3 00
st ood
Ġappro aches
ĠF ree
ĠV ir
Ġhum ans
Ġsignal ing
Ġne ither
Ġ1 20
Ġtri als
Ġtw ice
e vent
Y PE
Ġsp at
Ġres ource
Ġplan ning
Ċĉĉĉĉ ĉĉ
ig r
Ġgu ilty
b ound
201 1
P art
Ġenh ance
Ġinvestig ate
u a
Ġfin ished
Ġsens itivity
S ince
Ġtrans cription
T A
Ġexperien ced
Ġappar atus
Ġst reet
EN D
Ġexp osed
ist ory
ĠN one
Ġconst raint
ĠS um
Ġb ag
Ġc ash
Ġemploy ee
Re ad
]-- [@
j e
---------------------------------------------------------------- ----------------------------------------------------------------
E O
en ance
Ġt un
Ġconf idence
g t
}} ^
st atus
Ġad ults
Wh ich
ĠP R
_{ {\
Ġinvol ving
Ġadminist r
ĠS N
Ġaccur acy
Ġcont ribution
Ġadv ice
int on
ic ations
m ut
Ġar ms
c r
Ġb atter
Ġrec ip
sm all
out hern
Ġframe work
201 0
% .
Ġhel ps
Ġrelationship s
Ġor dered
in v
dis play
ut ely
Ġplaintiff s
Ġb on
il ton
ber t
ĠCirc uit
M ore
Ġre nt
Ġassum ing
ater al
Ġmain ly
Ġwor se
Ġdat as
Ġg ly
idel ines
ĠF IG
Ġcap able
ant ic
/ -
Ġst ack
ĠS aturday
Ġd ys
ĠF ield
m id
Ġadv ance
ER S
00 6
ĠC I
ĠC L
ĠDef endant
Ġmur der
ĠB ur
s d
Ġpre val
Ġphen omen
re y
poss ible
ĠE nd
Ġr ats
ĠAustral ia
Ġas sembly
Ġadv anced
ĠU N
er ior
ic ian
l ayout
Ġrel ates
Ġgu ide
Ġ4 6
Ġask ing
Ġ4 7
Ġthan ks
add ing
S R
Cont ent
Ġexp ansion
Ġc ogn
Ġext ends
ft ware
Ġinter vention
ri p
c uss
Ġdemonstr ate
Ġchalleng es
ra q
wid et
ĠOff ice
ĠW ork
ap ers
mod ule
um ns
widet ilde
Ġcrit ic
Con ne
Ġevalu ate
es h
G B
AC K
Ġp al
Ġ4 9
Ġbound ary
act iv
Ġsett ings
Ġint ensity
Ġcontin ues
Ġf ab
ĠIs lam
Ġh arm
ĠC P
Ġl ic
Ġo xy
P ost
Ġsc ores
Ġarg ues
Ġpotential ly
Ġpers ons
Ġend ed
Ġb an
Ġclaim ed
D C
u int
Ġpart ial
ĠI F
O K
Ġ4 3
Ġst ability
ĠIntern et
Ġ ion
ĠR ule
Ġind epend
r r
Ġassess ed
w er
iver se
B O
k er
T e
j u
Ġt ight
ĠG a
Ġbur den
Ġstr ict
d ep
ĠM ary
Ġsuit able
ick et
Ġdep artment
Ġdel iver
ont al
ĠN a
Ġpop ulations
od ed
Ġu int
Ġanal og
Ġf ill
Ġdec ide
ĊĠĠĠĠĠĠĠĠĠĠĠĠĠĠĠĠ Ġ
Ġm and
Ġbi ological
Ġad equ
Ġsuggest ing
p ress
L ast
ĠF ile
Ġrad iation
if ies
Ġide al
Ġlegis l
ĠN O
Ġn ine
Ġr an
Ġantib ody
us iness
Ġann ual
Ġd il
Ġcon ference
Over ride
B ase
Ġsto pped
Ġrem ained
Ġim aging
________ ________
) ]
ĠH all
in ates
ĠJapan ese
pl oad
V ersion
Ġc ort
i ological
ap pe
Ġax is
Ġch ief
Ġdo ctor
M on
Ġpl ot
m ethod
Ġsecond s
ĠL ord
âĢĿ ,
et ime
Ġlim its
Ġrec all
ili ar
2 000
Ġcons ent
ear s
ort ed
12 0
ple te
G C
se ct
ĠP lease
Ġj ump
ro ke
Ġcons c
Ġfrequ ently
Ġre verse
Ġac ute
ort hern
Ġun known
G e
ty le
Ġprov ision
ĠAN Y
Ġe gg
ĠA lex
Ġb right
Ġvari ation
con f
Ġ ice
M C
Fr ame
Ġcourt s
ĠFr ance
Ġg onna
ploy ment
ĠU se
char ge
Ġm el
al ian
Ġd uration
ic ago
c up
B P
Ġdim ension
us al
S cript
Ġbr and
Ġbr anch
Ġs an
Ġ[ ]
Ġinst ructions
Ġ iron
ĠG ood
ĠO N
Ġstatist ical
Ġ ens
Ġmi xture
G A
ost er
Ġpol l
miss ions
Ġinter val
app ed
Ġar ter
Ġso le
Ġnecess arily
l ang
ĠRuss ian
as hed
G o
Ġthere by
Ġhe nce
" ]
clus ions
Ġ5 6
C reate
Ġident ification
We b
======== ====
m atch
arg s
ell o
Ġo rient
Ġb one
//////// ////////
N e
Ġimprove ment
requ est
i ary
ĠS and
RO M
Ġr ough
ent ry
dd en
Ġcell ular
ĠL og
Ġbre ath
ĠRepublic an
ens ed
Ġdisc overed
Ġmark ed
x e
V A
ĠSt at
ĠS D
omet ric
Che ck
du le
Â ¿
Ġth in
Ġs i
Def ault
g ical
Ã ¨
Ġsy nd
Ġgra v
Ġt on
ĠAp pe
Ġlink ed
Ġv itro
á ¹
Ġkeep ing
Ġph ilos
Ġst re
Ġ$ {{\
hel ial
Ġdest roy
ĠW ITH
L oad
and a
Ġpract ices
ĠP H
Ġs ides
Ġm RNA
oc hem
ĠGerm an
M ay
Ġemploy ment
Ġn orth
j pg
anc is
~~ ~
Ġaspect s
Ġindic ating
ĠAn n
L abel
Ġdefin itely
ĠMin ister
Ġill ustr
Ġjuris diction
Ġc row
ĠT ur
ic ious
Ġcon ven
Ġwid ely
ĠC ell
00 7
Ġpart ner
Ġ[ [
A ction
un it
Ġdist ingu
he ther
Ġdeg rees
om ial
V ert
Ġr oute
Ġfund amental
ag on
Ġnumer ous
i ples
as y
Ġsupp l
u h
it ud
ĠL in
201 8
Ġform al
Ġposs ess
if ferent
Ġcol on
Ġor al
( [
med ia
Ġinterpret ation
Ġaccept ed
Ġst ick
Ġh ole
Ġrecogn ized
and roid
ĠL ike
ĠJoh nson
ro ad
ĠO nce
mon th
ĠTw itter
Ġ1 50
Ġend s
Ġinter act
n av
Ġgirl s
Re ferences
Ġentire ly
Ġass igned
ĠH ence
Ġabsol ute
. **
Ġun able
"} )
ĠM ot
Ġsign s
ar ks
rodu ction
Res ponse
1 10
Ġ& =
Ġco ach
p ng
C ell
ĠT ype
A meric
ĠG ive
ĠS il
Ġconsider ation
m as
ĠSe cret
AB LE
Ġsu dden
Ġatt ached
w ar
ĠI V
m g
H S
) }\
D ec
ĠI raq
Ġpar allel
Ġa st
Ġattack s
C OM
k ins
Ch ar
Ġdef ic
T E
N N
Ps i
k et
Ġviol ation
ool s
ĠPl an
ad ata
St atus
Ġaccom pl
Ġra re
Ġwas te
ĠR iver
Ġtechn ical
F S
ĠOn ly
Ġopp osite
Ġbe at
Ġj u
ash ion
Ġcont ribute
å Ī
Ġn arrow
Ġest ate
Ġt ables
un s
cl aim
Fil ter
ĠJust ice
ern el
ir al
ĠÂ £
Ġs ought
Ġneur ons
12 8
or ters
t ra
f ind
Ġnot es
Ġre produ
$ )
Y eah
ĠS E
Ġsupport ing
Ġco h
Ġst em
om al
Ġm outh
ĠAfric a
Ġbe coming
ĠJes us
" "
U I
Ġpro test
Ġpur su
op hy
or a
ed ing
Ġtem plate
Ġcon cluded
c ut
Ġcam era
Ġimpl ies
Ġph arm
Ġstart s
Ġs in
P lease
Ġdepend ent
st s
Ġmil es
Ġeffect ively
Ġpoly mer
Ġman aged
R et
Ġtr uly
Ġmicro sc
ĠOb ject
Ġs pl
ne g
Ġb inary
ER E
ul ed
Ġdec ades
Ġmot iv
ĠC le
Ġmin ute
Ġen able
Ġm ission
Ġdynam ic
Ġdis put
Ġjust ice
Ġmole cules
ĠInst ead
Ġphot o
line ar
Ġsen ior
ĠD ec
Ġresid ents
ĠF ore
G l
P age
Ġrequire ment
fe ctions
ir ty
} /
ĊĠĠĠĠĠĠĠĠ ĠĠ
Ġm argin
y er
Ġswe et
* /
l ife
Ġoff set
ĠE arth
Ġ _{
Ġfac ilit
ĠThe ir
Ġcommon ly
Y our
Ġ ĊĠĠĠ
Ġartic les
Ġappear ance
ne xt
Ġamount s
Ġrespons ibility
y an
Ġ7 2
cont rol
Ġarch itect
Ġvel ocity
ef fect
ribut ions
Ġs outh
ĠPro gram
le ctions
Ġf illed
Ġus ual
Ġmass ive
Ġp ix
cle ar
ĠP A
Ġunder stood
Cont rol
t ag
Ġ5 2
Ġsc hed
201 9
Ġdynam ics
t ings
Ġhe m
ĠP RO
I O
Ġtri p
fl oat
Ġu l
ĠPro ject
Ġsm art
ur a
ant a
Ġneg ot
ĠM ass
os h
Ġp et
r ine
D et
Ġre nder
ick en
Ġpro lif
ĠJ ava
ard en
Ġac adem
á Ģ
Ġcharacter ized
Ġord ers
f ess
ust er
Ġrel ax
Ġaccur ate
Ġsim pl
he rent
cal e
Ġdis k
er ated
Ġmort ality
Ġsens itive
Ġc art
op ath
Ġcon j
opt ion
Ġdis cretion
Ġ5 1
and er
Ġes c
Ġs plit
Ġestim ates
ap se
msg id
ren cy
} )\
v in
os a
Ġar range
Ġc m
Ġsee king
msg str
y e
Ġass istance
F O
ro ot
æ ľ
ĠSen ate
app end
Ġpl astic
Ġsub set
Ġcustom er
ol a
Ġmess ages
4 00
N U
\] ).
L ayout
Ġsp aces
ad ian
Ġsh ip
ĠTh omas
| |
2 14
ĠPh il
ive red
à ¬
\[ [@
Ġep it
Ġconsum ption
rapeut ic
ĠN E
Ġcomp ound
Ġcomm ission
Ġap art
Ġstra ins
i pping
Ġca using
ĠG L
Ġoxy gen
ĠS O
w ing
F e
ĠInd eed
? ?
T D
ĠS ing
T wo
v ant
Ġad mitted
ĠLou is
č ĊĠĠĠĠĠ
or al
S olve
ĠS pec
] ]
OR D
ch ron
ĠD en
P ol
Ġstruct ural
Ġf ont
Ġg ender
Ġch air
Ġp ed
* ^
sc rib
ĠM S
per ties
m L
ĠM il
us cript
Ġsp ending
Ġan c
Ġp ages
ĠT imes
ist or
Ġtiss ues
at ric
Ġscient ific
ĠP CR
}} {\
ĠM I
Ġpredict ed
ob j
or ation
Ġflu ores
O ff
ĠAP I
Ġint ra
pro te
Ġf an
Ġobject ive
Ġsmall est
Ġun ion
200 9
Ġint ention
Ġte levision
Ġz one
n ut
T C
f it
Ġprinc iple
Ġhor iz
Ġf ell
am i
an i
Ġto ler
++ )
ĠFr ank
ĠT or
T ER
Ġstrateg ies
Ġsec ure
p rivate
Ġfavor ite
Ġ19 99
Ġbro ken
Ġexp ensive
G u
ac ent
Ġco f
Ġgl uc
Ġse ctor
br id
Ġ5 4
Ġgu ard
ĠM a
ĠP y
Ġcor ner
al a
ĠW ill
ĠH el
ĠRober t
ĠFr ancis
Ġwatch ing
ne ver
gr ade
# :
ĠB ill
Ġre b
ĠM ag
ĠS P
(\ [
ĠMus lim
AR R
t ab
Ġtrans cript
Ġacc el
Ġper man
Ġp H
L S
Ġinf o
Ġb attle
Ġsup ra
w s
200 8
NA ME
Ġpartic le
L ook
Sim plify
ĠSt r
F R
Ġg ap
** ,
Ġex ceed
Ġb ath
`` `
ĠPro te
- (
ĠM ethod
Ġt or
ĠE duc
sh ow
ĠSo ftware
ak ed
Ġal t
Ġem ission
ress ive
val ues
Ġredu cing
Ġv ess
Ġrecomm ended
Ġsupport s
ĠN or
oun ter
' ).
in ite
Ġab und
Ġrepresent ative
Ġhom es
Ġsuccess fully
en a
li k
Ġsupp lement
Ġcris is
ĠSc ott
Ġobserv ation
O B
ĠB i
S u
ĠCh icago
ĠCar ol
Ġher self
IC E
ĠV iew
Ġpie ces
ox id
Ġse at
Ġlar g
ul ating
ĠM ont
Ġfor get
Ġdi vers
ad ow
w ater
B D
i ability
â ĸ
Ġatt end
Ġinform ed
Ġp ig
Ġfor g
Ġs itting
ĠAfric an
Ã §
Ġla unch
go ogle
A m
Ġam b
ĠR ad
Ġinhib ition
Ġpair s
D NA
Ġmar ried
u um
am ber
Ġmar riage
Ġjo ined
Ġtarget s
Ġantib odies
ĠF ed
ollow ing
Ġap opt
Ġdeterm ining
Ġover l
ogen ic
Th anks
ĠC r
str ong
Ġgen ome
s ign
Ġcomp act
ĠA rab
Ġlarg ely
wide hat
ĠH uman
Ġim possible
r ition
ag ger
Ġse gment
Ġprom ote
om er
V E
od er
Ġch annels
ĠY OU
U P
Ġb ott
s ystem
L C
Ġexam ination
Ġman uscript
Ġautom atically
Ġrepl aced
ott ed
p hen
im b
ij ms
ĠV ol
Ġsc r
[ "
th m
n umber
Ġam pl
Ġdom in
Ġinstall ed
h igh
R el
}} ,
et ch
Ġput ting
z ing
Ġcomp re
Ġ19 90
are n
Ġse a
Ġproport ion
ĠC ap
Ġ1 01
ĠE U
ĠIn formation
Ġs q
Ġn ative
cre en
Ġkn ock
Ġrep air
Ġconcer ning
Hand ler
Ġwor ry
ĊĠĠĠĠĠĠĠĠ ĠĠĠĠĠĠ
ĠB ack
ĠSt and
Ġmat ters
cont in
Ð º
L a
Ġthe ore
ex ec
Ġs and
Ġs ac
se ud
Ġst ret
Ġout er
ĠM ath
Ġassum ed
Ġvis ible
Ġlay ers
& =
Ġsol ve
Ġorgan ic
N ext
ig an
z y
ĠCl inton
W here
st ar
ĠU s
ĠM ad
Ġdifferent ial
Ġre act
Ġcomp osite
Ġdeb ate
Ġbas eline
ĠVal ue
Ġreg ister
M r
Ġme rely
Ġcandid ates
ogen esis
Ġn om
Al though
ĠH y
we et
ok ed
Ġv ivo
Ġm aps
Ġed itor
st ack
ple x
p et
Ġl ie
b our
Ġdanger ous
ĠG al
Ġclos ely
] );
UL T
Ġbl ocks
ĠS ol
ĠB re
Ġpers pective
ĊĊ ĠĠ
Ġturn s
Ġfin ish
Ġpolit ics
en ess
Ġad m
Ġal gebra
ĠAn other
Ġprim arily
Ġauthor ities
Ġinvol ves
Ġdirect ory
T em
Ġresearc hers
G G
Ġ" (
ott en
ĠMed ical
> ,
co in
Ġv ision
Ġf aster
ĠG reat
15 0
Ġ ---
Ġde let
Ġl uck
Ġsu gar
** *
Ġmut ations
ĠIt s
An other
Ġ* )
Ġprov ed
Ġterm inal
Ġt ro
Ġdes c
Ġin equ
medi ate
Ġhundred s
ĠE qu
ox y
v ol
c ss
Ġde pos
Ġwalk ing
Ġsignific ance
Ġa id
Ġlov ed
Ġprop ag
C IT
B uffer
Ġweek end
Ġinj uries
Ġpass ing
le ments
Ġre form
Ġemerg ency
Ġneg lig
Ġexpl ore
ort ion
at rix
Z E
Ġ19 98
m o
Ġse ed
ĠI R
ĠSt ar
c ers
Ġl ived
Ġfac ilities
ym met
ampions hip
B R
U til
Ġinstit ution
M M
ĠS l
Ġmil k
Ġ20 20
ĠSec urity
Ġass ault
Ġact ing
ars h
Ġinn ov
Ġlow est
Ġmonitor ing
mat rix
ap ed
ĠP ut
Ġ{ {\
ane ously
Ġsim ult
Ġe ating
Ġcontain er
ul s
Ġemb ed
G R
Ġinitial ly
Ġprinc ipal
Ġ19 97
. -
} |
ĠF our
ĠL ong
pl ant
ar ge
Ġarg ue
Ġp p
ĠCh ild
Ġamaz ing
re r
Ġg ate
Ġfam iliar
25 0
Ġexec utive
\* \*
Ġpost ed
Ġtre es
Ġconvers ation
ĠCent ral
Ġaccord ance
f riend
Ġexper iences
pro ject
eg er
Ġpre v
Inst ance
opt ions
Ġshe ll
Ġc ities
Ġr ational
t w
Ġ9 9
Ġbehavi our
Ġcontribut ions
Ġclos er
s plit
ach ment
d ist
Ġd ual
Ġob ser
H z
Ġv it
ĠD O
Ġtell ing
Ġhon est
Form at
Ġli ability
Ġimplement ed
lect ric
Ġfl ag
ĠA v
pt ic
Ġ5 3
ult ure
IN D
ĠL ife
Ġpro hib
p df
Ġint r
D P
av el
Ġleaders hip
Con st
Ġde fe
ord s
Ġp ip
Ġloc ations
Ġve get
ay ers
F unction
ur ally
ĠA cc
ĠO ffic
ĠH en
a id
Ġr ig
Ġf ruit
H el
Ġb odies
Ġbacter ia
M ax
k l
01 0
Ġdoll ars
rac ellular
the less
Ġdel ivered
Ġarriv ed
Ġur l
per t
s i
Ġmaint enance
tem plate
Ġhe ll
Ġconsequ ences
ĠM er
Ġc aught
Ġcl ients
Ġb ind
ĠCont rol
p ers
D ev
the n
ĠĠĠĠĠĠĠĠĠĠĠĠĠĠĠĠĠĠĠĠĠĠĠĠĠĠĠĠĠĠĠĠĠĠĠĠĠĠĠĠĠĠĠĠĠĠĠĠĠĠĠĠĠĠĠĠĠĠĠĠĠĠĠĠ ĠĠĠĠĠĠĠĠĠĠĠĠĠĠĠĠĠĠĠĠĠĠĠĠĠĠĠĠĠĠĠĠ
Ġl ig
av en
Ġâ ī
ident ial
Ġext end
u zz
Ġv ul
el i
Ġdis order
Ġc oc
and on
f ast
Ġwe ar
ĠS ocial
Ġm ethyl
OR E
amet ers
l ines
Ġbusiness es
Ġb io
pro p
Ġopt imal
Ġconv iction
Ġl ots
ĠV is
ro t
Ġcl ar
Ġelectr ical
Ġsus pect
M ode
Ġcons ists
ĠApp ellant
id ents
f oot
Ġclos est
Ġwr t
Ġinst ruction
Ġinj ection
Ġtherm al
Ġcorrespon d
Ġdog s
Ġgrow n
O H
V is
Ġl aser
et her
Ġ4 00
UR L
call ed
Ġen em
II I
ru ption
Ġj our
Ġra il
Ġd ress
]^ .
Ġenh anced
Ġil legal
M ENT
AR E
Ġpat ent
Ġp ump
ir us
Ġsens or
ĠQ ue
AC E
um s
S tyle
Ġfra ud
ĠRich ard
Ġdiab etes
hy dro
Ġintegr ated
Ġrem ark
z er
ĠM ax
Ġpract ical
) +
Ã £
Ġopportun ities
R ight
O ther
sens ors
ĠLem ma
å ®
Ġc as
reat ment
200 6
ĠDemocr atic
ĠH ospital
Ġcre ation
Ġfig ures
Ġmark ets
c ard
Ġd ream
EX T
i pl
ag en
ĠCol or
li ament
f a
Ġdisplay ed
on ym
Ġbe am
P at
ĠE xt
ĠW here
Â º
or ption
re v
Ġpoint ed
=" ../../
m i
s up
Ġle ague
Ġemot ional
ro vers
ĠSp ring
ĠB E
ĠC y
Ġpath ways
Ġremov al
Ġaccount s
ole cules
Ġs orry
Ġres on
I ES
ĠC all
00 000
B efore
200 7
Out put
Ġphot os
oh n
Ġabsol utely
ot ing
Se lect
Ġconstruct ed
com mon
ĠH T
Ġtax es
Pro v
ç Ķ
Ġto m
Ġarg ued
ĠĠĠĠĠĠĠĠĠĠĠĠĠĠĠĠĠĠĠĠĠĠĠĠ Ġ
) |
g ence
ĠÎ ±
Ġden ote
Ġtrou ble
Ġcorrect ly
Ġorgan izations
Ġr ub
Ġsynd rome
Ġeven ing
B M
Ġneighbor hood
f lu
y les
Ġbi as
Ġinst ant
Ġbig ger
l oc
Ġ19 96
Ġam ino
ĠR T
ĠÎ ²
Ġcount s
i ations
Ġne ck
ĠJ ones
Ġx ml
av as
Ġfac ility
Ġupd ated
ĠĠĠĠĠĠĠĠĠĠĠĠĠĠĠĠĠĠĠĠĠĠĠĠ ĠĠĠ
č Ċĉĉ
Ġ1 000
sc he
] $
Ġdis orders
Res ults
Ġk ick
ic ular
Ġmen u
des cription
Ġst ages
Ġp in
Ġthought s
h r
ĠPol ice
b uf
Ġsurround ing
3 10
Ġb le
Ġhelp ing
( *
^ -
Ġra w
2 32
ĠWilli ams
ĠC amp
Ġm ine
. âĢĻ
Ġ\ >
L R
ist ing
Ġr id
ĠR oy
Ġneut ral
ĠW all
23 1
Ġmed ian
Ġapparent ly
Ġme at
t xt
W H
a o
Ġsol ar
Ar g
Ġadopt ed
Ġdep ression
Ġp il
ĠC up
// /
Ġag greg
Ġkit chen
sp ring
Ġsub mitted
rol og
C ons
erv es
ell ar
Ġcateg ories
ĠN on
Ġdep art
if ts
Ġmin imal
Ġt ail
Ġsc al
Ġfeed back
Ġmaint ained
ree k
equ iv
otyp es
Ġing red
Ġw arn
ri ers
s pe
Ġhouse hold
ĠN ame
Ġman age
Ġwe alth
Ġspat ial
Ġpreval ence
Ġ9 6
Ġj e
erm an
Ġpre ced
Ġsub t
ĠMc C
Ġinter net
m osp
ĠN av
ĠCom mon
Ġk ne
Ġs ports
Ġserv ing
Ġcou pling
Ġsu c
Ġdescrib es
Ġrec over
Ġunc ertain
Ġprov isions
Ġrem ote
Ġdes ire
och ond
Ġult imately
Ġprof ession
Ġin fections
Ġoper ators
F E
end ants
Ġimpl ied
Ġmet ast
Ġshe et
e per
urn s
Ġessential ly
Ġinstr ument
{ -
Ġf ellow
duct or
Ġ5 7
Ġreg ression
Ġflu x
Ġexplan ation
cent er
ĠVir gin
ĠCor p
Ġspe aking
O pen
Ġfab ric
ĠRe ad
ä ½
Ġcharacter istic
Ġdisc overy
P CR
ĠR ap
ĠD C
Ġcommit tee
Ġclass ical
L D
Ġt ip
roll ed
Ġ8 5
Ġcor on
ĠCh ief
r b
v o
Ġcoll abor
ĠDe velopment
N ET
L ink
al ign
r ics
th let
ĠĠĠĠĠĠĠĠĠĠĠĠĠĠĠĠĠĠĠĠĠĠĠĠ ĠĠ
ĠC ath
Ġappro val
is ters
Ġtot ally
Ġc ov
Ġf iber
Ġprepar ation
ĠS ign
Ġreg ulations
Ġspect ra
= {
Ġs ounds
Ġas c
ĠF ire
as ic
Ġident ical
Ġenc oding
Ġill ness
} );
ĠRe view
Ġcopy right
ä º
Ġs ong
Ġ5 8
Ġmod ify
Ġconsc ious
å Ĳ
=" #
ĠRep ort
}\ ,
Ġam plit
Ġdr am
Ġrequest ed
24 8
sc r
Ġsynt hesis
ĠW al
Ġf er
Ġpull ed
Ġadv oc
f ill
b ool
O ptions
Ġpost s
ik i
######## ########
12 5
Att ribute
Ġimmedi ate
Ġcatal y
Ġ1 10
Ġs ke
Ġp it
Ġ"" "
at ural
ĠM ult
ens us
200 5
Ġhypot hesis
ĠH ome
se cond
et al
ĠChe ck
m ode
man n
Ġsur ve
Ġt asks
Ġp ri
id ity
serv ice
ĠDe v
ĠL i
T ex
Ġass ign
ĠServ ices
Com mand
Ġf ashion
Ġrec ording
1 000
ĠH E
Ġch apter
Ġt it
ĠM icrosoft
S O
b orn
Ġh al
ĠĠĠĠĠĠĠĠĠĠĠĠĠĠĠĠĠĠĠĠĠĠĠĠĠĠĠĠĠĠĠĠĠĠĠĠĠĠĠĠĠĠĠĠĠĠĠĠĠĠĠĠĠĠĠĠĠĠĠĠĠĠĠĠĠĠĠĠĠĠĠĠĠĠĠĠĠĠĠĠĠĠĠĠĠĠĠĠĠĠĠĠĠĠĠĠĠĠĠĠĠĠĠĠĠĠĠĠĠĠĠĠĠĠĠĠĠĠĠĠĠĠĠĠĠĠĠĠ ĠĠĠĠĠĠĠĠĠĠĠĠĠĠĠĠĠĠĠĠĠĠĠĠĠĠĠĠĠĠĠĠĠĠĠĠĠĠĠĠĠĠĠĠĠĠĠĠĠĠĠĠĠĠĠĠĠĠĠĠĠĠĠĠĠĠĠĠĠĠĠĠĠĠĠĠĠĠĠĠĠĠĠĠĠĠĠĠĠĠĠĠĠĠĠĠĠĠĠĠĠĠĠĠĠĠĠĠĠĠĠĠĠĠĠĠĠĠĠĠĠĠĠĠĠĠĠĠ
un te
Ġ$ (\
** (
athe red
E very
rit er
R ow
Ġtreat ments
ĠJ ose
Ġl en
Ġthe rapeutic
Ġv en
ĠL ib
Ġcl imate
Ġfind s
ĠMed ic
: (
ad ed
te en
Ġall oc
respon se
Ġemb od
ut ory
f fered
Ġdif fer
od ium
Ġqu iet
tt p
Ġbu nd
ĠC are
Ġinc idence
Ġm ic
B ecause
M B
M in
Ġin fected
Ġ5 9
pro t
Ġprinc iples
N one
Ġb ars
et ing
sk i
ĠAddition ally
Ġreport ing
be red
In it
Ġprom pt
ail ability
G ener
Ġsp oke
in et
\] ),
ĠH aw
ĠG O
Ġcur ves
Ġwor st
att ice
Ġepis ode
Ġobvious ly
Ġpur s
Ġlog ic
Ġcru cial
O per
n ger
00 8
Ġreal ize
Ġpict ures
Ġrul ing
Ġexam ine
Ġrecogn ition
Ġreg ime
Ġh urt
C urrent
A K
ĠS k
Ġinit i
E ng
avas cript
Ġshoot ing
Ph ys
S m
u able
S pec
W ork
Ġso il
Up date
Ġrot ation
L ength
Ġl ob
Ġpay ing
à ®
ak istan
ĠV er
Ġvot ers
> &
Ġcon sole
Ġcont em
ell er
Ġplan et
ĠApp le
Ġsq rt
Ġtrans formation
Ġrequest s
Ã£ o
} +\
ve ctor
Ġper mit
b el
as ive
V D
Ġl ies
ner gy
crib ed
å ħ
Ġcof fee
Ġoff ering
Ġscre ening
Ġrespect ive
$ ]{}
Ġte aching
Ġcont ents
Ñ ı
U RE
is er
h ome
Ġdra wn
Ġtrans action
om atic
Ġclass ification
h ar
Ġhelp ful
ari able
Ġb ought
ĠO S
in ition
Ġpl ain
Ġ ],
Res ource
AT A
Ġ\ {
ĠMr s
ĠL abor
ĠIs land
\ "
ne q
Ġsitu ations
head er
Ġhe ro
Ġtell s
g raph
Ġcogn itive
empt y
D I
ĠDemocr ats
est ion
Ġarrest ed
ent ed
Ġf urn
ĠP ower
Ġth r
Ġsubstant ially
K e
& &
Ġsome what
u ke
Ġcont rovers
ĠKore a
Ġg ast
Ġpick ing
Ġweap ons
b uffer
Ġm ask
Ġcompre hen
Ġtop ic
ĠZ e
cuss ion
Ġf uck
Ġp or
Ġdriv en
Ġcontroll er
ĠEduc ation
is c
Ġt aste
Ġass ets
ĠTh ose
t x
Ġcompl iance
ĠDet erm
an ol
Ġe igen
Ġper ipher
Ġapp lying
ĠT ext
ap h
ST R
Ġmechan ical
Ġsur gical
T ab
sc ill
Ġnorm ally
yn omial
Ġvir al
Ġsust ain
Ġs ick
Ġcar cin
T oken
Ġyou th
ĠR oad
LE CT
Ġpres um
ter day
Ġdiv ision
ĠAd minist
Ġfight ing
200 4
Ġtrig ger
au ge
Ġg ro
Ġgu idelines
Ġreal ized
ĠP o
Ġro les
Ġposs ession
Ġv ide
F ind
Ġs ister
ĠN Y
ĠLe e
in er
Ġcarry ing
xi ety
rupt cy
Ġprefer red
F actory
Ġspect ral
ÃĲÂµ ÃĲ
Ġcount y
qu are
Ġdeath s
az ine
Ġn urs
Ġper mission
âĢ ĺ
ĠM ur
ĠDirect or
Ġm ent
Ġexper ts
ĠInt erest
in ical
ĠF il
ish ment
ic ide
Ġent ity
ĠSecret ary
ĠWilli am
Ġlist en
Ġenforce ment
Ġth or
Pro cess
Ġre in
Ġenzym e
ĠS pe
AT H
ĠB it
bl ing
List ener
W ho
Ġh all
ĠI C
k t
f ortunately
Ñ Į
Ġ\ *
Ġre nd
Ġo d
ĠCor por
M em
not e
k o
Ġgr ade
ĠHam ilton
r h
ĠP eter
Ġopp osition
N OT
ĠC OM
t ml
Ġdi ameter
. /
g i
Ġlo an
ĠF und
d irect
Ġacc used
ag raph
Ġinstit utions
Ġhapp ening
h an
ARR ANT
b ottom
cl ose
16 0
Ġn m
Ġat mosp
Ġch art
)) )
ĠMod el
B lock
ĠS ociety
ĠI r
ĠM el
M ult
}^ \
Ġregist ered
Id ent
conne ct
s ur
Ġman ip
Ġexc ited
Supp lementary
ĠD onald
ĠB al
Ġ> =
ever al
{ "
Ġun iversity
Ġocc asion
font s
ĠMart in
Ġh ate
ĠAr ch
Ġsuper ior
Ġgr id
Ġtransfer red
up date
Ġvert ical
em ia
out s
Ġread s
Ġattempt s
Ġpow ers
e lement
ĠM ount
Ġdis ag
Ġcult ural
ost on
Ġsur faces
% ),
è ¿
Ġk ing
He y
Ġh idden
ion e
Ġm ail
Ġprom ise
Ġsepar ated
Ġ19 95
Ġ$ -
~ ,
ian a
Equ al
ãģ ®
es ides
ĠW ARRANT
Ġtum ors
ĠD ate
Ġwe ather
Build er
ĠN ov
6 00
Ġinc red
Ġdro pped
ĠWh o
p ower
ĠA ri
ĠJ ournal
typ es
Ð ¼
Ġprolif eration
Ġb low
Ġown ed
min imal
Ġ6 2
ĠAt l
Ġsubst ance
Ġfe e
Ġnot iced
document class
Ġintellig ence
ic ing
ĠM s
ĠT em
Ġre ct
Ġmedic ine
r if
int age
Ġo kay
m ult
Ġal pha
Com ponent
m es
Ġt ube
Ġdecl ared
ins on
Ġmill ions
Ġm ir
is or
W S
âĢĶ âĢĶ
Ġm M
Ġinhib itor
Ġco al
ĠB et
ĠW ood
25 6
Ġcorrel ated
Add ress
ar ia
-------- -
Ġknow ing
am ples
Ġpurch ased
Ċ Č
Ġour selves
b en
ri um
ĠN ever
Ġor th
Ġimag ine
Ġaut hent
ch ain
ĠT im
Ġret rie
Ġcon version
od ds
ĠMex ico
ĠB uild
Ġac ids
cl ick
Ġcomplic ated
ĠS C
all ow
Ġ6 3
Ġrapid ly
Ġslow ly
the re
appro x
Ġm ob
un ched
Ġext ensive
34 9
Ġcapt ure
Ġassum ption
' $
V AL
Ġcoh ort
ch ing
olog ic
W indow
Ġaud ience
ĠTh anks
ha ust
IG HT
Th ank
Ġb rowser
ÃĲÂ º
M et
igh ter
Ġfe els
ent er
Ġcent re
Pe ople
Ġo scill
Ġbo ost
Ġf o
Ġvictim s
ess ions
ud d
Ġpass word
Ġf le
vent ions
s v
Ġadd ressed
p ush
d x
Ġ6 6
Ġn ic
Ñ ĭ
ĠDiv ision
H L
Ġpl anned
ĊĊ ĠĠĠĠĠĠĠĠĠĠĠĠĠĠĠĠĠĠĠĠĠĠĠĠĠĠĠĠĠĠĠĠ
200 1
= (
V F
Ġform ing
ĠG NU
Ġgluc ose
D M
Ġbi om
Ġcir cul
f iles
Ġincreasing ly
Ġpay ments
. $
Ġrad i
it ure
Ġorig inally
Ġs izes
Ġt rac
Ġrad ical
ĠA ff
ent h
it o
um a
Ġdocument ation
Ch ild
Ġacqu ired
N C
Ġfail s
ym pt
Ġcorpor ate
ĠĠĠĠĠĠĠĠĠĠĠĠĠĠĠĠĠĠĠĠĠĠĠĠ ĠĠĠĠĠ
Ġlegis lation
p in
ific ate
atter ing
Ġsh aring
ar ation
Ã³ n
Ġcryst al
k es
W idth
D eb
P a
ol id
Ġshe l
Ġre actions
Ġansw ers
Ġw ine
Ġw ww
fil ter
Ġbatter y
Ġ rows
St r
Ġdom estic
j a
-------- --
Ġc ars
Ġintrodu ce
ĠGr and
] \
at tr
Ġconsum er
Ġpre jud
B E
u y
Ġaff irm
om ething
Ġatt ribute
Ġyou nger
Ġclust ers
"} ),
ĠOh io
ĠAtt orney
en v
d ouble
Ġdepend ence
Ġde grad
Ġsh op
Ġpursu ant
Ġinst ruct
Ġbo olean
Ġmoment um
is ely
99 99
25 5
ĠAc adem
P AR
Ġset up
am ination
s n
s ome
Ġconstitution al
Ġrecogn ize
Ġd a
ĠCon st
Ġris ks
Ġret ail
Ġcal c
ĠI g
D irect
ly mp
Ġkind s
Ġintegr ation
ĠÂ µ
Ġthe orem
Ġev ident
Des cription
O ST
rib le
Th read
V ID
Ġf ault
Ġ6 7
Ġscen ario
Ġindust rial
Al so
n ic
ĠJ o
Ġt ort
or ne
Ġrel iable
Ġpro be
Ċ ĊĠĠĠĠĠĠĠĠĠĠĠĠĠĠĠ
T YPE
Ġpresent ation
Ab out
Ġa ver
ib ilities
Ġrelig ion
00 9
Ġfair ly
Ġtw enty
Ġmi R
ut ing
Ġpublic ation
ĠF ood
b les
Americ an
( _
Ġal ign
Ġfe at
Ġinflamm atory
Ġcompens ation
Ġmet ric
T S
Ġsh ares
Ġindu ction
Ġcol umns
Ġproceed ings
Ġreview ed
Ġfac ing
\ ^
Ġser ial
Ġmit ochond
ĠÐ ¿
Ġtemper atures
Config uration
Ġf ant
ĠA ma
q quad
ob s
er red
Ġwindow s
Ġsu ffered
Ġc ro
Ġeng aged
Ġc ab
Ġnew sp
ĠL and
Ġl ift
Ġrad ius
col umn
osp it
ĠL ake
Ġlabor atory
Ġregul atory
Ġd ust
ĠU RL
sequ ently
Ġb in
H C
Ġl ens
Ġattempt ed
ĠTr ust
Ġstat istics
Ġw ound
) }{
}} ^{
f ix
Ġ6 8
Ġwin ning
Ġcou pled
Ġv ast
Ġover ride
Ġwalk ed
D IR
Ġmanif est
act ic
c pp
Ġcomp at
Ġdis charge
Ġh ur
p op
Ġg od
Ġg ift
Ġconsum ers
Ġpol ym
Ġsim ulation
s id
Ġcho ices
Ġ< -
G T
sc ri
an el
Ġprodu cing
] [@
Ġp ars
Ġsubsequ ently
ĠMay be
Ġcl ock
ĊĊ ĉĉ
w est
Ġwar ning
Ù Ħ
H A
Ġ19 80
ĠAppe als
Ġref used
Ġf ly
Ġf re
Ġsuff ering
E l
ĠP akistan
v m
Ġapopt osis
oc racy
ira ble
bl og
Ġintegr al
Ġwall s
Ġm es
ax is
Ġhead er
G ET
Ġcalcul ation
B B
Ġre new
am ely
Ġwhere in
V er
ĠO per
ĠR un
Ġin qu
off set
app oint
y es
Ġst ead
Ġperiod s
Ġbuild ings
c ert
ĠMe an
)* (-
Ġcirc le
ĠL os
Ġad verse
Ġk illing
ĠCon stitution
S F
Ġb are
Ġed ges
Ġs ad
Ġ6 1
}{ -
Ġparticip ate
Ġturn ing
Ġhot el
Â ®
æ ĸ
ĠF ind
rou d
st ep
Ġy e
aw s
set length
Ġst ores
A CT
ag ues
not ation
Ġver dict
ĠP ac
Ġany way
t ed
Ġal le
uss ian
ĠEx p
ĠJe ff
Ġregard less
W rite
H R
Ġcol le
ĠTh ree
Ġst ood
Ġrestaur ant
Ġstri ke
Ġw ra
Ġcomfort able
oid s
Ġgood s
Ġ{ }
p ool
Ġb rown
ri ver
ĠC am
m ake
el ly
Ġdivers ity
Ġs port
Ġ --------------------------------
N R
ffic ients
Ġb anks
Ġdec ade
Ġveh icles
Ġas ide
G ood
Ġsche dule
Ġoper ate
L ocal
Ġdis appe
Ser ver
01 5
Ġbacter ial
A c
M any
Ġinflamm ation
Ġcry pt
Ġrecept ors
h ab
Ġsm oking
Ġadj acent
Ġ ),
Ġre n
Ġdecre asing
Ġpol ynomial
s en
ĠEx per
reg ulated
Ġprep are
min us
Ġwonder ful
ĠVirgin ia
Ġrepresent ing
Ġsus cept
Ġdecl ine
Ġthick ness
G S
Ġ7 7
Ġm apping
ys ym
T HE
Ġsatisf ied
x p
Ġext reme
ĠDo es
8 00
Ġesc ape
T arget
Ġacknow led
L O
Ġun iverse
ĠI M
Ġt ough
Ġfl o
Pro ject
Ġemploy er
Ġ& \
94 6
Ġrem ind
Ġpropos al
Ġsem icon
ams math
Ġhy brid
Ġmanufact uring
C ore
Ġappl ies
Ġbo ys
Ġvers ions
C or
ro sc
ct x
g age
Ġm a
Ġsim ulations
Ġbas ically
ĠM i
os ome
Ġcorrespon ds
Ġelectro de
Ġ2 50
es ter
č ĊĠĠĠĠĠĠĠĠĠĠĠĠĠĠĠ
Ġsupp ress
Ġconne ctions
ri ents
) }$
ĠAccording ly
E ven
rop y
ĠE D
Ġc rack
ĠPro v
% ;
Ġres pir
Ġ19 94
Ġte ach
gree k
Ġbelie f
EN SE
ĠB ush
Ġpro gression
Ġfood s
Ġperform ing
A g
Ġreg ional
bs y
Ġcalcul ate
Ġhydro gen
Ġground s
Ġst er
agn etic
am ss
Ġcon d
P M
Ġbe er
amss ymb
Ġbe ar
ĠB ook
Ġaccom mod
Ġcol ors
as tern
all oc
Ġtechn ologies
idem argin
il a
ĠV ersion
ĠJ ul
Ġequ ally
Ġal ert
ĠGe org
Ġel ig
ams fonts
raz il
Ġres c
Ġmin ister
Ġsepar ation
rs fs
odds idemargin
U se
Ġw ed
was ysym
math rsfs
men u
k it
Ġobser ve
ass oci
ams bsy
me an
ĠJew ish
Ġmov es
v als
ĠG ame
ĠG iven
Ġf ro
up greek
pos itive
oper ation
Ġmut ant
Ġsp okes
Ġn a
Ġv eter
Ġteac her
D id
fr ont
OC K
}^{ (
Ġmor al
Ġcont ributed
Ġag ed
in als
Ġo dd
bur g
ĠJack son
Ġre const
Ġmod es
Ġh un
l ocation
ĠL o
ĠAm ong
n i
H is
Ġmark ers
as i
Ġmut ation
Ġw inter
Ġsav ed
ĠC ard
Ġit er
Ġunivers al
ĠÃ ł
Ġ$ |
Ġadequ ate
Ġbeg ins
Ġstrong er
u ity
Ġprof iles
C al
ter ior
ĠRepublic ans
Ġcard s
th read
Ġcont rary
Ġperman ent
Ġ" \
or ig
-------- ---
Ġopp osed
ĠCan adian
Se cond
Ġpl enty
P tr
Ġarbit rary
Ġgu id
ĠS U
ĠOr der
Ġstim ulation
Ġis land
Ġdisc over
ĠL ine
Ġon going
Ġm eth
con duct
Ġrob ust
ĠP T
Ġmod erate
Ġper m
Ġconsequ ence
d est
D D
z ero
ĠN ext
ast s
200 3
Ġde lete
Re ference
Ġencoura ge
ĠB oston
Ġag encies
8 25
if er
ĠBl ue
ĠB ob
Ġtra ined
Ġl augh
Ġn od
Ġex cluded
elle e
no on
en ger
Ġan s
Ġfor t
ĠL ast
Ġ Ø
ĠK ey
ĠAm endment
? '
N ull
Ġob st
Ġextract ed
Ġvill age
Ġuns igned
)$ $
ĠArm y
ag ers
He ader
Ġemph as
Ġus age
A F
t mp
Ġs elling
Ġb oot
ĠT op
Ġex haust
Ġvul ner
omet imes
er ry
form ed
}_ \
Ġmiss ed
B o
ĠNet work
ĠOr gan
"} ](
Ġbring ing
Â §
ĠR o
Ġfam ous
Ġstand s
Ġread er
ĠY et
Ġwrit er
Ġcomput ed
port ed
Ġrequ iring
AR Y
i ology
re ason
Ġy ellow
che m
Ġhyper t
is a
Ġass ist
Ġvol unte
Ġt ract
Ġinvolve ment
Ġinj ured
Ġn g
Ġfl ight
Ġnew ly
Ġl osing
gh an
ino is
ĠIn it
Ġcre ates
Ġex it
Ġthere of
av ed
pro v
Ġdeal ing
Ġdist ributions
Ġmagn itude
Ġfac es
ĠAut hor
Ġ19 93
em a
Ġsuc ceed
Ġl attice
ĠR am
Ġeffic acy
Ġvict ory
Ġ19 92
Ġw al
Ĥ ¬
}. $$
Ġcardi ac
ĠĠĠĠĠĠĠĠĠĠĠĠĠĠĠĠĠĠĠĠĠĠĠĠ ĠĠĠĠ
æ ķ
Ġres erved
he mat
Ġcoe fficient
Ġdim ensions
Ġsp an
names pace
Ġrepe at
Ġinst ances
Ġtarget ed
Ġteac hers
ot ox
L ocation
IL ITY
R ed
b ial
Ġexec ution
ĠM ake
Ġs ight
Ġstat utory
Ġch amber
w hen
S l
Ġcyt ok
ON E
Ġcoe fficients
est inal
Ġord inary
Ġan xiety
Ġinf rast
Ġdifferent iation
ĠCarol ina
Ġwe aring
ĠPro fess
ĠT re
Ġmom ents
ut ch
gen er
X F
Ġreview s
Ġstatist ically
Ġsurpr ising
iction ary
Ġch icken
ans as
Ġ ::
ex ample
ĠW ater
ĠR ock
Ġsem i
raz y
Ġby tes
ĠU ser
0 20
------------ -
S QL
ra ge
ef ined
Ġke ys
ĠDan iel
Ġm igration
Ġre venue
Ġth rows
Ġal k
Ġ rib
Ġpregn ancy
Ġap artment
lik ely
Ġsatisf y
Ġre nal
Ġdec ay
10 5
ĠB ased
ĠSim ilarly
z o
ĠDes pite
Ġsum mar
Ġre ly
S V
ĠAn alysis
Ġelect ed
Ġwith draw
Ġne u
ĠPar is
n c
------------ --
Ġ Ï
ĠF ROM
Ġter rit
Ġf ed
Ġbet a
S Y
ac cess
Ex ternal
D own
å ¤
ĠĠĠĠĠĠĠĠĠĠĠĠĠĠĠĠĠĠĠĠĠĠĠĠ ĠĠĠĠĠĠĠ
ĠM E
b ul
1 12
10 3
Ġann ounce
end ar
il ib
Ġcheck ed
Ġacadem ic
eli hood
ĠCon ne
M ark
ĠV ict
p erson
Ġinter mediate
ure au
}\ \
Ġsurpr ise
Ġim posed
um es
ÃĲÂµ Ãĳ
P i
b ro
Ġemb ry
Ġpen alty
ogene ous
Ġst aining
Ġalleg ations
t wo
ĠJ im
Ġexpl o
Ġo l
ĠAng eles
par ams
Ġt ab
P V
C ar
D r
T yp
Ġ7 4
Ã ħ
Ġshould n
ay lor
Ġcl oud
Ġinv al
S ION
ĠChar les
L ike
in cluding
conom ic
a ft
v as
AP I
19 99
200 2
ĠE ll
ĠPal est
Ġactiv ated
Ġto ken
Ġur ban
Ġcalcul ations
ĠN C
ap es
Ġe c
ON T
M ost
l ie
Ġhistor ical
App lication
ĠN A
Ġgl ut
Ġcut ting
Ġbring s
y g
a us
mon d
Conne ction
AR D
Ġo k
if act
ĠTr ue
Ġpriv ile
Ġpart ially
v y
Ġany where
Ġd inner
ĠM ike
dev ice
Ġre ferences
Ġclass ified
Ġpred iction
Ġles ions
Ċ ĠĠĠĠĠĠĠĠĠĠĠĠĠĠĠĠĠĠĠĠĠĠĠĠĠĠĠĠĠĠĠĠĠĠĠĠĠĠĠĠĠĠĠĠĠĠĠĠĠĠĠĠĠĠĠĠĠĠĠĠĠĠĠĠ
Ġt ou
ĠL ook
r in
is ition
Ġco ast
ic an
Ġ6 9
Ġden omin
un icip
Ġtr uck
Ġgalax ies
ĠB usiness
for ward
Ġded icated
Ġcomplex ity
; </
Ġpres ents
Ġgl ob
ub untu
Ġla unched
Ġ }}
Ġf inger
comm and
ric es
ĠAg ain
ĠC OU
g ly
, $
Ġch ose
Ġcare fully
Ġincub ated
ĠCl ub
u ction
), \
~~ ~~
le ep
Ġsam pling
Ġ< =
Ġdiscl osed
clud es
} [
itro gen
è ¯
Ġserious ly
U C
Ġdis pl
Ġm ild
Ġcont ends
Ġdiagn ostic
il ation
Ġnumer ical
ju ana
Ġqu ad
Ġdist urb
ĠIm age
r ick
Ġ9 7
ir ms
ak s
ari juana
Ġthem e
ier arch
Ġdiv ide
Ġdiag ram
Ġd ict
Ġres olve
Ġm arg
f oo
Ġr ide
ĠJ on
Ġval uable
Ġtrans lation
ire ment
aut h
Ġdiscrim ination
Ġconstraint s
Ġperfect ly
c b
ov ascular
Ġmarket ing
ĠS her
Ġ1 80
Ġm eta
F D
T V
Ġor b
Ġ== =
Do es
Ġg el
Ġhab it
un ct
Ġint ake
M enu
Ġeng age
Ġ ..
Ġprof it
ĠB efore
Ġtheore tical
m olecules
ox ide
A cc
Ġ9 8
Ġapp ell
Ġst abil
Ġ\ -
ĠĠĠĠĠĠĠĠĠĠĠĠĠĠĠĠĠĠĠĠĠĠĠĠ ĠĠĠĠĠĠ
Ġ era
Ġb at
Ġne ural
Ġsufficient ly
Â ¤
U ST
10 2
oles ter
13 0
ĠE rror
Ġdiagn osed
Ġdatas et
b efore
Ġmat ches
Col umn
Ġconv in
Ġwhe el
Ġg ather
Ġad hes
H D
Ġt ack
Ġ Ã©
Ġc odes
ĠP age
is k
avel ength
Ġst roke
Ġd ialog
erv ation
Ġfra gment
im a
pro d
ĠC ase
Exp and
ol ars
ell i
ĠY ear
ĠRe al
Ġindu ce
ĠAr ray
Ġphosph ory
ĠChrist mas
ocy te
ath an
Ġste el
ĠS pecial
cl ip
Ġcar rier
). $$
os ity
. ^[@
rom ise
Ġpl ur
] "
Ġs now
point s
Ġg auge
Ġcon form
ĠTe am
Ġcorre ction
Ġabs orb
medi ated
Ġbeh alf
ad ium
ĠFor ce
ĠL ab
Ġeduc ational
Ġche st
Ġpetition er
Ġf ract
et ies
Ġh orm
Ġb its
Ġsome where
ual ity
math scr
ious ly
aterial s
Ġint el
ĠIt aly
ĠR ight
} -\
ĠCom put
} ]
ĠB ase
Ġab normal
s uch
Ġch lor
D uring
Ġac et
ĠCh apter
Ġsymmet ry
rem ove
Ġsk y
Ġp seud
Ġ- \
is ons
Ġcoun cil
Ġcre am
v i
C ase
Ġclass ic
Ġvari ations
add ress
ĠW omen
ĠIn vest
Ġdisc ipl
Ġcomplic ations
Ġdom ains
l ate
Ð ²
ow a
Ġ7 8
Ġreve al
Ġafter noon
Ġyes terday
Ġinfrast ructure
ĠL ocal
Ġc ited
du ction
aw a
æ ĺ
Ġbre aking
Ġh ospit
18 0
Ġconserv ative
a ver
Ġcontroll ing
Ġdrink ing
ĠB ow
ĠD M
Ġbr idge
ĠDeterm ine
01 4
lim its
Ġthous and
og ether
Ġhand ling
ĠO lymp
Ġflu ct
L Y
ĠS QL
de c
Ġbelie ves
C V
Ġre ar
u an
ĠH ot
---|---| ---
ĠHen ry
ĠT own
Ġsemicon ductor
Ġintrodu ction
Ġcop ies
w r
Â ³
Ġgreat ly
Ad dition
ĠCorpor ation
d l
ĠG re
irt ual
R R
ce an
ĠM iddle
F OR
sh ould
ĠPl ay
Ġev il
Ġpul se
Ġmat hemat
Ġun us
Ġal ive
Ġ$\ {
Ġm amm
Ġchalleng ing
pl us
Ġload ed
Ġround ed
pl an
Ġmetab olic
op rote
ĠBrit ain
ĠMich igan
Ġim per
add r
G O
Ġsimult aneously
ub y
ĠAustral ian
oc ard
M ar
Ġsh arp
on ia
text bf
ĠTechn ology
irc raft
Ġrout ine
Ġcompar able
A ccess
ãģ Ħ
Ġpl ug
mon ary
HE CK
J ohn
Ġre com
Ġins ulin
Ġcl ot
ĠJ ac
Ġnat urally
Ġab andon
Ġgre w
RNA s
Ġt ens
ĠCath olic
Ġcomprehen sive
Ġcont rad
sc ape
ochem ical
Ġwel come
w an
th rough
C ome
ĠM D
Ġant icip
tic le
Ġp roud
Ġabs orption
O kay
par se
D ep
Ch apter
Ġserv es
Ġarg s
ĠO ld
Ġbut ter
Ġelev ated
or se
ĠVal ley
Ġrestr icted
ĠAma zon
gress ive
ĠJ oe
IM E
ĠP oint
st one
r ical
Ġbl ind
Ġv o
S ign
f inal
Ġ7 6
ĠN umber
Ġc ache
O nce
W R
Ġcomp aring
Ġprec isely
F inally
Ġins u
Ġnear by
Ġag ing
Ġb read
Ġprov ider
Ġb il
sq l
r ams
Ġs oc
um ps
Ġhere in
Ġhard ware
E v
Ġre jected
Ġo mitted
use um
TT P
Ġmark er
Ġkin ase
Ġa thlet
Ġmov ies
es ome
gy pt
in ction
Ġant igen
' ),
Ġk ernel
Ġar my
in ating
Ġexplicit ly
in ternal
Val id
Ġadministr ative
Ġm ales
st ore
Ġ1 30
n m
Ġcon sec
Ġapproxim ation
text rm
ot ion
Ġben ch
Ġmetabol ism
az e
T op
j i
im ents
Ġamplit ude
Ġinv ent
Ġdes cript
Ġingred ients
year s
g rav
Ġmagn et
Ġfew er
Ġ7 3
Ġbu ying
10 4
Ġmult ip
Ġsign ature
Ġrespond ed
Par ameter
Ġr u
r as
Ġinequ ality
ĠB razil
Ġyield s
ĠIll inois
s ite
ĠâĢ ¢
Ex ec
FL AG
Ġg all
ĠF ox
Ġleg it
og g
Ġgen u
let on
P ER
) ),
Ch ange
ĠR om
cl er
N um
Ġve ctors
we red
d p
Ġ8 8
W E
Ġvari ance
Ġperipher al
Ġfif th
ĠApp lication
ĠE nergy
ĠDes cription
Ent ry
12 3
frame work
Ġn amely
Ġadjust ed
Ġune x
Ġmeas uring
Ġimpro ving
Ġs oci
IC ENSE
Ġ8 4
Ġaud io
Ġdisag ree
$ _
Ġdi verse
c it
c aps
Ġc av
ul er
Ġdifficult y
Ġs ending
ĠB est
Ġnot ion
com ment
Ġ7 1
Ġun con
T ask
old er
an im
ĠCol umb
ĠK im
, $$
ĠMed ia
Ġjour ney
n n
Ð ´
Ġ icon
Ġredu ces
Ġmach ines
R ange
Ġbro ke
ann a
Ġrece iver
ĠT oday
Ġw est
ĠH R
ĠC ivil
all s
T ree
f ull
Ġpartners hip
Ġquant ity
N on
ĠRap ids
Ġinvest ors
Ġdo ctors
Ġn erv
min ent
Ġcap ac
ra ined
Ġleg s
Ġp apers
Ġ1 11
ĠSt art
Ġcr imes
à ¥
ĠB rad
Ġunder t
ĠE th
Ġpresident ial
% ).
Ġscient ists
Ġcoord inates
b re
Ġen abled
Ġexhib it
ĠG R
Ġra in
Ġindepend ently
Ġhas n
ĠH and
c ule
Ġweap on
ĠJ r
Prov ider
Ġadd s
U rl
E ach
p ref
Ob v
Ġcare ful
Ġele ctions
! âĢĿ
Ġcomp osed
Ġb omb
m eta
Î ³
us r
ĠL ight
ĠC ast
Ġcommit ment
m aster
ĠSp an
IV E
Ġs ulf
pon ents
ne um
Ġg ent
Ġpro gn
Ġsched uled
ĠR est
ult y
Deb ug
ch arg
e z
01 7
P osition
ĠC EO
+ ^
Ġf unc
f i
Ġo s
}} )
Ġdo ct
Ġclos ing
Ġsurpr ised
back ground
m al
Ġexp enses
Ġ! [
Ġy ards
Ġpass ion
wed ge
Ġle af
et he
ant i
ð Ł
AM E
ĠF ar
ĠK ar
u ct
Ġtim ing
Ġcook ing
Ġs ou
Ġprov en
Ġvide os
or ial
ol t
ĠAs ia
Ġrev olution
I LL
Ġhealth care
Un c
Ġwitness es
Ġlip id
Ġph r
Ent ity
Ġs au
Ġ9 4
}^{ -
on a
Ġpos it
Ġcover ing
Ġe ase
st at
w ill
Ġfor um
oc us
Ġtra ce
Le vel
Ġimp air
Ġsett lement
Ġmod ification
Ġwat ched
Ġshould er
ul ous
f amily
C a
re q
10 7
Ġde com
Ġ{ {
w art
', '
ir y
ĠB ern
ĠHT ML
ĠYou ng
S ch
ins ic
ĠW is
ãĢ ģ
Ġ19 91
Ġloc ally
Ġparticip ation
Ġt ick
ĠP ers
yl van
inst all
ĠEng ine
Ġunder w
Ġmod ul
Ġdri vers
red it
Ġexec uted
rou s
Â Į
Ġha z
ĠF unction
ĠK n
Ġbus y
He ight
S um
or i
Ġprec ise
Ġmist ake
Ġdenomin ator
Ġfail ing
St at
ĠAf ghan
ĠDav is
ĠC reate
ĠD own
fra id
wh ite
ire ction
Ġ1 25
em ic
Ġwhe never
Ġload ing
Ġtalk ed
ĠK en
k ind
Ġprodu ces
Ġref ers
Col lect
Ġt rib
ĠC hem
Ġad mission
Ġche ap
b ot
ĠCh ris
Ġdu plic
ct ic
Ġ+ +
olog ically
Ġp itch
12 7
Ġany more
M ed
Ġsub stit
Ġaccom pan
we ek
Ġrespir atory
N P
ab out
Ġprior ity
Ġde ploy
Ġin clusion
Ġcontin uing
Ġob j
' _
Ġpros pect
V M
em ail
ib ration
Ġcommun ications
Mod ule
Ġatt ributes
Ġloss es
Ġgr an
Ġbas ket
æ Ī
On ly
Ġdes k
Ġfem ales
Ġs ed
Ġsc ored
e h
iv a
ĠG ar
igr ants
ĠS ar
c raft
id get
Ġat oms
E m
ut able
aw n
Ġfeel ings
Ġe ast
ak a
Ġa fraid
Ġl ists
Ġ\ |
Ġbl ank
Ġopin ions
Ġ** (
IG N
Ļ ª
P o
Off set
angu ages
Ġdecl are
the y
Ġrec ipe
ĠA ction
T ag
Ġn erve
leg ate
Ġpl ates
FFFF FFFF
Ġ} )
ours es
ĠCol l
ĠE nt
olog ist
Ġsw im
ĠPol icy
ov a
ĠU I
< \
uc ks
The ta
Ġrestr iction
Ġdis h
T P
f act
ĠR ights
ĠD R
Ġ\ "
Ġt aught
Ġh o
ari ate
Ġt ank
Ġh oles
bl ue
U nder
------------ ---
at i
iss ions
Ġlaw yer
math sf
Ġreason ably
ĠC ook
St ud
Ġ8 7
Or der
S earch
Ġfrequ encies
Ġdomin ant
N ames
Ġprov iders
Ġp our
Ġ Ñģ
et ics
ĠRes ults
Ġbul k
Ġte eth
Ġs oul
Ġsudden ly
Ġtempor ary
sh ot
mpt y
U sing
r ont
ĠSp ace
Ġ8 3
Ġ9 3
ur able
ĠMan agement
Ġsil ver
Ġc able
it an
Ġc yl
Ġin her
Ġsuper v
........ ........
d c
d iff
Ġa er
ERR OR
Ċĉĉĉĉ ĉĉĉĉ
Ġhead s
Ġri ver
Ġf el
are t
ĠC ross
Ġprogram ming
Ġign ore
çĶ ¨
Ġmatch ing
onym ous
Ġw estern
Ġh ook
Ġent ries
Ġper mitted
ĠEx ec
Ġun w
Ġgener ating
Ġ( $\
ĠL ow
Ġimprove ments
ĠIt alian
ogen ous
\ }$
Ġdis appoint
ĠSupp ort
Equ als
Ġtal ks
Ġexpl ains
Ġaware ness
Ġg ang
rop ic
ĠB on
B r
Ġsupp ose
ne cess
p res
ĠW ay
Ġconsist ing
Ġsu ffer
ar ters
ĠR oman
re ll
Ġre ward
. ;
Ġ7 9
Ġpar as
su per
Ġperson nel
SE T
ĠM ap
de bug
ĠPr ime
ĠS i
Ġm arijuana
Ġprocess ed
ĠW T
Ġcut s
}( {\
ĠCons ider
Ġinhib itors
ylvan ia
> \
P ort
Ðµ Ð½
ĠEn ter
Ġpark ing
P G
Ġaim ed
olester ol
Â ĩ
ĠC urrent
ĠU V
M intage
Ġl ayout
Ġstr ange
Ġfrequ ent
y d
Ġgener ic
ĠF A
Ġ8 2
h ave
Ġu b
Ġad vent
ask a
Ġfl ash
Ġv ascular
IT ION
Ġsub mit
P ORT
Ġpept ide
ilib rium
D ialog
P ut
Ġche cks
Ġ19 70
Ġstrugg le
Ġorgan ized
f c
ĠC ur
Ġpart ition
Ġrec ur
Ġalgorith ms
Ġorient ation
Ġver tex
ion ed
Ġtrad ing
Ġsing ular
Ġon set
ĠSt an
uns igned
Ġag ric
ĠPro position
Ġro oms
ĊĠĠĠĠĠĠĠĠĠĠĠĠĠĠĠĠ ĠĠĠĠĠ
st op
ile y
Ġbar rier
Ġw avelength
Ġse asons
d rop
Ġh at
Ġmed ication
Ġwere n
Ġtr ick
ĠH D
Ġ8 9
ĠF L
pr ise
---|---|---|---| ---|---|---
h av
Ġdisput e
Ġextra ction
Ġbroad cast
ĠC M
ant ed
Ġsome how
t ree
ist ence
Ġun likely
Ġread ers
Ġsp ons
ĠR ay
D ir
Ġc razy
Ġp ushed
Ġgover ning
Ġcult ures
Dev ice
Ġdiv isor
sh ift
ear ing
ĠO K
Ġhous es
Ġfluores cence
d ays
Ġnut rition
Ġplur ality
ĠU k
C ustom
t reated
Ġd b
y nt
ĠGl obal
Ġcol our
= >
á »
Ġw aves
s ys
Ġreturn ing
print f
back s
Ġt ape
01 8
Ġwork er
Ġconv icted
Ġre ject
ĠE gypt
erg ies
ĠTh ank
Ġowners hip
Ġco inc
Ġg iant
Ġ1 15
Ġco vers
m ov
w ho
Le ft
} "
Ġ" /
Ġmar ks
ĠL ie
P ass
il ly
Ġsc attering
Ġtrans plant
ĠB Y
w orld
Ġrough ly
O p
ĠI re
and o
Ġuncertain ty
Ġfold er
ist ical
Ġbound ed
es ity
Ċ ĊĠĠĠĠ
ST AT
ĠE L
Ġpow der
act ivity
Ġ} \
Ġpharm ac
Ġf ing
Ġ> >
Ġthe rap
ad or
Ġ8 6
ag ent
Ġstre ets
in ator
ĠE lect
14 0
Ġcompr ising
p ay
Ġs odium
u ce
Ġcar b
m ac
m ay
vious ly
Ġmod ules
Ġelse where
ps on
AB ILITY
E CT
ang ers
Ġover come
Ġ9 2
Ġun a
Ġconsider able
Se ction
19 98
ĠWil son
Ġupd ates
on ical
ĠE vent
Ġmaint aining
< !--
Ġgovern ments
Ġdire ctions
hand le
Ġphenomen on
S che
ĠP ur
el a
ĠC amb
ial s
ut ies
ĠS M
ĠSer ver
Ġdi ver
Ġ: )
hold er
s end
a fe
ad vant
d oor
Ñ ĩ
Ġ( âĢľ
a ired
ink ing
ĠSc ot
ĠA G
ĠP L
Ġte en
{ (
< ?
Ġfil ing
ĠB as
Ġme al
Ġsat ell
Ġclean ing
s ession
ill ance
ult ural
i ro
Ġadvant ages
| ^
ĠB O
Ġcontract s
Ġbo at
Ġopp on
SI ZE
ater nal
ĠA LL
Ġpriv acy
erg ic
ĠCommun ity
}} }\
ĠM iller
Ġdev iation
Ġp ra
Ġcoord inate
Ġthor ough
g ame
Ġcon clusions
Ġsequ encing
ros is
ĠS ource
Ġmanufacture r
l ers
op es
Ġut ility
Ġdys function
b c
p ie
Ġa ircraft
Ġatmosp here
ĠÐ ²
ĠPro cess
zon a
ou red
V C
y y
Ġperson ally
T itle
Ġconven ient
Ġpass age
se ason
Ġbu g
Ġt iny
Ġcomplet ion
Ġh ide
ep ing
Ġthe ories
Ġaffect s
p ot
ed ef
ĠL A
Ġview ed
i est
Ġkeep s
ĠM ain
Ġ ì
Ġw et
ĠB ra
ns ylvania
m aking
Ġoper ated
ĠSy ria
Ġ à¤
por ary
O ption
Ġ9 1
ĠSh ow
supp ort
Ġimmun ity
f ound
al i
IT E
st o
)) /(
Ġres olved
Ġh am
ro oms
ĠR od
s es
ĠA ge
Ġport ions
Ġby te
Ġsize of
Act ivity
ific ial
Ġocc as
Ġnames pace
ĠD ou
c ache
Ġcompet itive
ĠW ild
Ġpath s
ow nt
Ġ1 12
Ġguarant ee
Ġcan n
11 1
Ġregular ly
Ġr ural
Ġcon crete
em s
Ġ( (-
ĠV an
equ al
Ġcompet ing
f in
im p
put ation
ail ing
ÂłÂłÂłÂł ÂłÂłÂłÂł
b ell
f ol
Ġg ut
Ġcomp ute
ry st
sec urity
ris es
F urther
que ue
Ġintel lect
f ire
ad der
ĠW hether
Im pl
Ġ1 40
Ġcapt ured
Ġ1 13
w a
Ġel der
Ġav ailability
et ary
Ġst orm
Ġaccum ulation
Ġcolle agues
Ġent r
G r
Ġst ations
Ġconvert ed
Ġval ve
Ġcrow d
Ġapprec iate
Ġinval id
Ġprofess or
Ġinter ference
ĠL uc
I X
Ġprevent ion
Ġmount ed
Ġvacc ine
c opy
Ġm uc
ke ys
ĠDes ign
material s
elf are
ĠWITH OUT
over ty
Ġg ay
Ġcy cles
Ġnerv ous
re place
Ġ" $
Ġ19 89
und le
Ġth inks
Ġvac uum
ĠE ffect
Set tings
inst ance
f d
n one
Ġfall ing
Ġqual ified
o ir
Ġcent ers
Ġtarget ing
ad ers
Ġge ometry
Ġproceed ing
Ġdismiss ed
Ġ8 1
h ash
Ġfall s
associ ated
}} $.
v s
Â ı
Ġris ing
Ġf ired
ord an
Ġover w
Ġdiscuss ions
Ġquant itative
Ġ1 19
ĠS outhern
ĠP ay
Ġarchitect ure
reg ulation
Ġind irect
ibr aries
Ġaff ili
d ra
H ttp
ĠS ix
Ġincorpor ated
G rid
Ġc ust
ĠC ustom
ĠS at
Ġinter ior
u its
bl ack
Ġfav our
d ig
ac le
mon y
Un it
Ġsust ained
ĠSpan ish
ĊĠĠĠĠ ĊĠĠĠ
ĠL I
A p
Ã ł
au g
Ġre aching
Ġg arden
Ġspec im
Ġple a
L ong
ij er
ĠH ig
je ctions
ĠM en
l at
Ġinter ventions
dom ain
end ix
Ġro of
Ġappe als
, {\
Ġexpand ed
Ġr ice
se x
Ġpar agraph
Ġfac ed
Ġsold iers
OU R
Ġent ering
P os
Ġ$ [
Ġref lected
ĠAp ache
Ġpert urb
em ed
Ġvari ants
Ġst one
id al
Ġver ify
MA X
com plete
Ġstring s
Ġst up
Ġst ir
ĠM ajor
T otal
Ġ Ù
ĠAcadem y
ff ff
Ġref uge
ĠAnd roid
by te
Ġremov ing
Ġcon ve
ĠH a
Ġdis ability
Ġd op
Ġex clusive
ĠW alk
E A
ĠAd v
Ġp od
low er
Ġworld wide
ĠJer sey
Ġadvert ising
Ġinn oc
i otic
B T
w indow
end a
Ġsystem atic
x c
est ival
ĠIsrael i
Ġbank ruptcy
cont ainer
1 19
et ry
Pro duct
å Ĭ
Ġass ays
scrib e
r at
}} }$
p red
doc s
Ġhoriz ontal
os omes
Ġsc hem
Ġtele phone
Ġc oding
ro se
ĠN orthern
Ġr h
ang ular
ĠÂ °
Ġpromot er
ĠDef endants
B it
ĠAb out
() :
ial ize
conne ction
Ġu pt
Ġb ands
we alth
miss ible
ĠCent re
Ġre fere
ast y
cond ition
ĠÂ ¶
Ġconf ront
Ġphys ics
p u
Ã© s
omorph ism
M ake
ĠM R
ĠGeorg ia
inf lamm
ĠStand ard
D O
Ġc raft
Ġrestrict ions
Ġtox ic
Ġinv asion
Ġ ĊĠĠĠĠĠĠĠ
ĠS n
l ayer
ĠOffic er
am ps
ĠS A
Ġfib ers
Ġpsych ological
on ing
est yle
Ġsepar ately
ocol ate
ĠA gree
d on
Ed it
Ġsatisf ies
Ġstri p
Ġvol unt
En c
Ġhon or
Ġphilos ophy
Ġrec ru
su ccess
Ġfol ks
form s
Ġal ignment
Ġacqu isition
ĠM O
10 8
Ġ1 14
01 6
Ġfl ood
Ġabs ent
ĠFrancis co
ĠT aylor
Ġconstit ute
Ġrel ating
Ġd ump
10 6
neg ative
def ined
ĠB a
Ġcre w
h is
Ġrat ios
Ġmax im
Ġexpress ions
or ia
Ġmed i
Ġhas h
ĠD id
at abase
ĠCon ference
= -
subset eq
^{ *
Ġlimit ation
Ġbund le
ĠE V
ath y
pon ential
Ġprotect ive
RE F
Ġdecre ases
AM P
hel p
) _
Ġhospit als
Ġmac roph
Ġaward ed
Ġflex ible
ĠL ew
Ġdem ands
' \
re ams
er k
Ġkid ney
ES M
Ġappoint ed
ĠStud ies
ĠT otal
Ġcreat ive
Ġdegrad ation
Ġtempor al
Ġst uck
Ġ10 4
Ã ¢
ont o
Ste p
Ġo lig
11 7
Ġche ese
g it
ĠN FL
RE G
Ġin fect
G raph
t otal
S w
Ġsim ilarly
hold ers
h us
ynam ic
Ġal b
Ġsole ly
Ġt ensor
X iv
Ġvalid ation
Ġbon ds
Ġro se
Ġro ots
Ġquestion na
Ġinsu fficient
C N
Ġad mit
u ations
ĠM ic
Ġdraw ing
Ġanaly ze
ĠL u
ach ine
ãģ Ĺ
Ġul tr
be ing
Ġ\ #
ä¸ Ģ
ĠP S
ev in
M s
Ġan ch
rop ri
ot ide
t ons
Ġinf inite
Ġ19 88
Util s
Ġpre lim
Ġinter vals
ig ate
Ġbenef icial
set minus
Ġtom orrow
ĠPlaintiff s
b et
Ġle an
Ġaddress es
Ġman ual
ac er
ĠC ou
z one
ĠP ath
Ġcomp rises
Ġsc ales
SE LECT
Ġadminist ered
Ġvot es
ijer ph
s is
Ġhar ass
Ġheav ily
ch anged
Ġdest ination
Ġimplic ations
Ġ10 2
h space
Ġhe pat
h our
ĠAnd rew
ãģ Ļ
Ġsyn chron
ang o
ĊĠĠĠĠĠĠĠĠĠĠĠĠĠĠĠĠĠĠĠĠĠĠĠĠĠĠĠĠĠĠĠĠ ĠĠĠ
Ġgrad ient
and ed
cm d
Cont ainer
ĠPen nsylvania
f ish
è ®
ĠG ra
Ġ= \
Ġdeterm in
Ġ10 6
ĠAs ian
Ġl iber
viron ments
T ool
Ġpix el
ol ly
enn is
Ġpar a
c ustom
Ġhor se
Ġconstant ly
en able
Ġtrack ing
s ch
ul ative
u v
ĠE st
Ġf usion
Ġh ack
ol ine
big g
Ġhe ating
scri ption
Ġpass es
ra ine
h ire
ĠF ollowing
Ġrecommend ations
ol ving
wid get
i Ã³n
Ġhad n
ĠTH IS
* ]{},
he rence
Ġab stract
Ġdistingu ish
TH ER
Ġv ice
Ġfriend ly
Ġ rom
b inding
Ġ1 17
ĠT ax
Ġfound ation
E P
Ġm sg
Ġfeed ing
Ġresid ues
ĠF air
ad i
Ġla id
ĠSc ient
Ġang ular
ĠPalest in
M ac
Ġ ----------------------------------------------------------------
Ġn ations
Ġconsec utive
ĠH un
Ġse es
}} $,
ĠJose ph
Ġsever ity
ĠRes pon
Ġsuppl ied
Ġ\ ;
Ġsent encing
d epend
cy cl
u ated
ens ities
ĠST AT
Ġmove ments
n l
Ġu pload
In v
[ [
ict ions
Ġprofession als
Ġsur ge
Ġt u
Ġstru ck
D raw
Ġex em
jo in
n ament
Ġb ull
Ġengine ering
Ġb unch
Ġinstall ation
Ġag es
Ġvary ing
Ġmass es
t ask
ĠE p
Ġans wered
Ġg est
ĠM att
S ort
Ġoccur rence
> .
Ġa f
Ġmal ign
="../../ ../../
Ġbeaut y
Ġin line
ĠPat ients
N av
ĠM icro
Ġspec ify
Ġsubject ed
fl ags
Ġbow l
ĠT ake
Ġcamp us
Ġsh it
str on
AN G
Ġmir ror
; ">
al d
z i
ry ing
omet er
ĠH on
Ġl unch
c am
ou ston
ac et
Ġmet all
âĶĢâĶĢâĶĢâĶĢ âĶĢâĶĢâĶĢâĶĢ
Ġr anging
Ġaccess ible
e en
ĠC ru
Ġenjoy ed
ĠD ie
g reen
Ġfore st
ĠP ass
Ġdef ines
D i
F s
ins ert
Ġpro jection
Ġhar vest
pl ot
Ġ( %)
Ġsm ile
E V
Ġclot hes
Ġrec ruit
ç »
rac le
Ġer red
ack et
b old
Ġir re
ĠPat ent
æķ °
L P
Ġ[ '
Ġlight s
ĠÐ ½
PE CT
R ES
Ġlik elihood
Ġanc ient
o vers
ĠIre land
Ġp m
ig er
com mun
ex port
olog ists
form ance
Ġlib eral
S W
ĠP an
pt on
ĠL ear
ĠLet t
Ġdesign s
_{ (
Ġjud icial
Ġarrange ment
Ġresid ual
ĠM AP
Ġvis ited
ov ed
Ġox ide
Ġass ignment
ĠSw ed
16 8
Tem plate
app y
Ġeffect iveness
st able
Ġcon ce
Ġde position
e cho
0 23
Ġmonth ly
. ),
ĠIm ages
com ponent
clip se
Ġj et
Ġhop ing
Ġal tered
Ġnewsp aper
Ġs essions
Ã ª
Ġbe ach
ĠUn fortunately
Ġn arr
ĠF red
Ġcomput ing
qu ot
y o
Ġpil ot
itud es
d ent
Ġbre ach
Ġb ub
iz able
rep resent
ĠColor ado
Ġdestroy ed
Ġse eds
Ġdis advant
Ġimm igration
Ġ6 00
. ]
ĠC rim
Ġle uk
]{} ]{}
n an
Ġviol ated
H as
Ġt et
Ġte a
ick ing
ĠRoy al
ĠNever theless
B ody
el ing
}} (\
Ġatt ended
Ġunus ual
\ >
er ies
is cal
å ľ
Ġexpect ations
aut o
19 96
Ġdes irable
Ġphys ician
Ġexec ute
Ġsh orter
Ġin cons
w all
Ġ19 83
Ġegg s
Ġevery body
script style
' >
iv ariate
ace ut
Ġep idem
t oken
â ī
Ġenzym es
Ġintegr ity
t k
Ġexpl os
g roups
if iers
V ector
Ġoff ensive
C B
b p
Ġend ing
Ċĉ ĠĠĠ
Ġ1 60
Ġdi pl
Ġpar ad
w orth
Ġw ake
b ind
ĠF ort
Ġearn ed
Sh ow
MO ESM
Ġar med
Ġb id
Ġdeep ly
Ġspirit ual
Ġo v
Ġ1 18
ĠAri zona
Ġt ur
ĠD ar
]{ }\
Ġill ust
st ra
Ġl umin
C le
t i
Ġp adding
ĠO l
Ġins ight
Ġpo inter
ard ing
Ġrul ed
ĠT al
Ġpolit icians
Ġchem otherapy
â Ħ
E val
ĠCon f
ĠInd ex
Ġpack ages
Ġad en
Ġh ierarch
Ġidentify ing
Ġfacilit ate
re nd
Ġ0 1
Ġ19 87
Ġch ip
effect ive
im ages
Ġprosec ution
h ard
ĠB ru
Î Ķ
ur i
M c
al and
ubl ished
Ġbl ess
Ġgl ad
Ġsk ill
ĠAdminist ration
Ġst om
Ġprosec utor
ĠPy thon
at ile
ĠBe ach
ĠT ri
ĠCan cer
Ġpan els
ĠL td
ĠSte ve
Ġpregn ant
ob ic
Ġ( @
Ġsymmet ric
Ġaccept able
Ġj ail
Ġsho pping
Ġconsist ently
M ain
t ri
d ers
gl obal
00000000 00000000
hes ized
ãĥ ¼
Ġsw it
Ġ( '
Ġmeet ings
h ang
IS A
F B
F ONT
Ġgr ass
Ġalleged ly
Ġelig ible
Ġoverw hel
Ġ1 24
Ġvot ing
ĠA ccess
Ġconj ug
Ġun clear
Ġbi ke
Ġult imate
Ġt all
Ġrandom ly
11 5
Ġwrit es
Ġcorrel ations
01 3
as hes
all ing
ĠLin ux
Ġcarcin oma
R ad
Ġ10 5
ĠS che
Ġv ital
k m
BU G
ĠB ell
Ġviol ent
Ġarter y
og l
Ġra rely
Ġt ips
Ġp neum
Ġl ys
g ood
Ġn it
Th ree
Ġ19 86
Ġj son
_ ,
Ġsupp orters
e ven
Me an
sh ape
E mpty
S pe
_ +
ĠRep resent
Ġprelim inary
ĠM aster
ĠSer ies
aud i
\ }
ac co
Ġtreat ing
inter face
Ġnormal ized
c us
Ġm unicip
Ġdis crete
ĠCh ampionship
*~ *
] -
H ave
W idget
St ore
Ġutil ized
pl ates
Ġautom atic
Ġy eah
ĠR yan
Ġdo ors
Ġexhib ited
Ġd rag
ĠM P
ĠF BI
U SE
ari ous
000 2
ul ator
Ġprec ision
Ġd uties
ro le
Ġmat rices
Ġpack et
inte gr
Ġc um
Ġam ended
Ġvess el
Ġsub sid
01 2
opl us
ĠE r
ody nam
re nder
ĠCont in
Ġcollect ive
Ġprom ising
Ġt urb
è ¡
ĠIslam ic
ĠCar l
Ġbl ot
Ġdevelop ers
ãģ «
19 97
are a
H ost
KE Y
as ant
Ġmole cule
aw ay
Ġoccur ring
Ġcorpor ation
Ġas ympt
Ġcl ause
Ġcalc ium
ill ary
Ġmix ing
ge red
Ġguid ance
Ġs lic
ĠStud y
d ated
ub le
Ġ10 9
e lect
g if
Ġo ste
ĠPac ific
Ġenem y
ĠInt roduction
" ))
^ ^
ĠK enn
Ġfun ny
ĠD ue
Ġabund ance
m ask
ir ation
Ġembod iment
Ġin herent
Ġrec overed
ĠL im
Ġphot ograph
Ġdecl ined
11 6
Ġper ceived
em an
ii i
Ġtransport ation
Ø ±
AA AA
Ġl in
Ġpred omin
Ġreve als
ph y
b u
ĠT erm
Â Ĺ
Ġlabel s
re ference
Ġsau ce
Ġaccompan ied
t rack
og ram
Ġhard er
Ġkne e
ot on
ĠG i
Ġsurv ive
is p
ĠTh ough
ur g
Ġarr anged
Ġdis abled
ĠM id
Ġar c
Ġcomplex es
st ic
Ġdec ent
gen ic
ĠInd ust
ocr atic
Ġf ert
_{ -
Ġl anguages
Ġmitochond rial
Ġtra il
ĠG ene
res ource
ĠR og
R ect
m ethyl
ĠKing dom
Ġun like
Ġphen otype
H igh
Ġsm oke
Ġâī ¥
ĠO x
ug ht
Ġme re
Ġlegisl ative
Ġstead y
anc hes
clus ively
end ers
Inter face
V I
ĠB L
Ġwas hed
Ġpul monary
Ġtro ops
å Ń
Ġres ist
Ġcool ing
ĠJew s
av or
}} _{\
Ġdec or
ĠQu ant
\ .
Ġread ily
iz z
Ġl ying
Ġdeb ug
ĠA B
ĠT urn
l ated
Ġbu ck
ĠP ART
lo op
am ic
ab b
Ġrevers ed
12 4
Ġlik ed
Ġlif etime
Ġwire less
Ġsn ap
ĠP ot
Ġevery where
ĠS everal
ĠCom mand
D el
ble m
ĠPro duct
ie ve
Ġ ip
al ities
Ġc od
ĠB R
Ġent ertain
Ġdiff usion
ĠN ick
Ġra ising
ov es
reg ular
Ġbott le
Con vert
M at
Ġph ases
ĠGu ard
ul um
Ġcheck ing
ed ge
Ġauthor ized
l ined
12 6
Ġstudy ing
19 95
ps y
Con f
ĠC OP
Ġex port
- *
D ocument
Ġpr on
ac on
ar se
Ġ+ /-
ick er
Ġp ending
Ġ1 16
ET H
11 3
inflamm atory
pe ction
ĠM arc
Rec ord
Ġembed ded
H i
Ph one
ĠJ SON
Ġillustr ated
Ġchild hood
ad el
ĠTh rough
pi racy
Ġtri v
AS H
omorph ic
01 9
mer ce
Ġact or
reg ister
Ġvot ed
field s
Ġexc iting
Ġh ang
Ġflav or
Ġsch olars
T L
ĠD ig
Ġp ipe
b ecause
Ġinterpret ed
Ġput s
n orm
Ġm as
Ġen vironments
IN S
Ñģ ÑĤ
ĠMethod s
S ur
ĠT er
Ġj oy
ĠS ir
Ġob esity
J S
ock er
ĠHe ad
ĠG ames
Ġ[ "
Ġdis rupt
qu es
Ġdoct rine
ĠÂ Ĺ
Ġcr ash
Ġrepeated ly
ru le
ĠEn vironment
ra pper
Ġfl ags
ĠTh ird
Ġpar se
Ġcur rency
u id
Ġscal ar
ĠH istory
Ġfe as
Ġfore ver
\_ [
ĠR en
ĠSil ver
ĠWARRANT IES
Ġdefect s
Ġtext ure
word s
orne ys
ĠC u
Ġexpress ing
ĠP B
ol i
Ġinflu enced
Ġfr anch
Ġpro pose
LE D
Ġt one
Ġh tml
Ġ19 85
sh ort
RE AD
Ġ" #
d agger
C ache
Ġcult iv
ĠCP U
ĠP E
ush ing
Typ es
necess ary
Ġisol ation
Ġatt itude
en ant
Ġres idence
Ġt y
ow ski
' }
a que
Par am
ĠD am
vers ely
10 9
In s
Ġpat ch
Ġcardi ovascular
Ġg ained
13 5
ir k
ĠChild ren
Ġderiv atives
off s
ro at
Ġcomb ine
Ġpros pective
Ġmount ain
Ġsurve illance
Ġcomput ation
Ġcontact s
br al
Ġpe pper
Ġelim inate
Ġf i
Ġpsy chi
is l
Ġk iss
ĠMedic ine
Ġgun s
i pt
Ġ12 8
ĠA C
Ġden ial
Ġtop ics
âĢ ħ
ann y
Ġconcept s
Â µ
ĠSp ain
Â ĭ
Ġsystem ic
Ġrep orter
ĠAnd erson
P RE
Ġpro minent
Exp ression
x s
~ *
ĠK it
01 1
Ġd ad
%% %%
ur ations
ĠE s
& #
Ġc ourses
ari ance
ĠM L
Ġbir ds
") );
Ġch olesterol
Ġepis odes
Ġswitch ing
ment ioned
ur d
cl osure
t bl
ot helial
Ġt ension
}} }}
end o
Ġs outhern
ric ular
ãĤ ĭ
lic enses
Ġtrans actions
Ġton ight
Ġhop es
l ot
am ond
pr im
b order
Ġprevent ing
o a
Ġpublic ly
nes ota
G P
ou ter
ch annel
A SE
w rap
Ġdem ocracy
Ġconnect ing
ĠP sy
Ġse gments
Ġprint ed
Ġtrans mitted
ĠAgree ment
Ġreg ulated
() {
\ ,\
Ġneigh b
ru p
ret t
ĠI owa
Ġar ise
ph al
FI LE
ĠL ove
ĠF alse
id av
Ġam endment
Ġassum ptions
ĠBro ok
Ġper ception
Ġp el
om ers
Ġbox es
an alysis
Ġg ear
Ġimpro per
Ġ" <
Ġr um
P anel
b d
ber ry
Ġsome body
S ession
ĠE astern
I ter
sc ope
id x
Un ited
c as
Ġ< !--
al so
Ġinv ariant
i atric
j avascript
Ġp ace
Ġvalid ity
Ġweight s
Ġunex pected
oc oc
ack s
ĠWith out
ac her
Ġlo ans
b led
Re ader
Ġcol i
ĠP rem
ure r
Ġen ables
Ġincor rect
Ġexcess ive
/ .
per p
des c
os omal
ĠAddition al
or ous
38 7
Ġwor ried
Ġinsp ired
Ġprint ing
u cl
ĠWe ek
ĠHar ris
end or
ri val
H ello
ĠP rim
================ ====
Ġlabel ed
Ġed ition
Ġr ating
b oot
t n
Ġvis its
Ġatt ributed
aw are
o pp
Ġm ad
() ->
Ġind ices
Ġf its
vent h
ĠF amily
Ġobt aining
May be
Ġvit amin
Ġvir uses
re lease
Ġp ub
Ġstup id
W indows
Ġde als
Ġen v
]{ .
Ġfound ed
new s
Ġm old
ĠR A
pl ugin
Ġp overty
Ġp ounds
ar on
F ound
r andom
ph asis
Ġassoci ations
Ġra p
Ġk il
y ers
$ ^{-
Ġ19 84
der ived
Ġblock ed
st ers
ĠĠĠĠĠĠĠĠĠĠĠĠĠĠĠĠĠĠĠĠĠĠĠĠĠĠĠĠĠĠĠĠ ĠĠĠ
ãĤ Ĵ
Ġ10 3
S erv
g ov
Ġf ung
Ġst ellar
ud io
Ġret irement
Ġt ang
Ġd rain
^{ +
m ember
o i
ĠAg ency
Ġd oses
ĠP rior
Ġtax p
ĠPer haps
Ġb atch
Ġg ross
Ġsearch ing
Ġg otten
Ġbound aries
Ġf itness
A v
Ġpl asm
Ġover night
ĠAr ticle
Ġphys ically
7 00
Ġf illing
st rap
ĠZe aland
Ġbe aring
Ġret ain
iz ers
pl ain
Ġphys iological
Ġign ored
L INE
ĠR a
; ;
OL D
Ġhard ly
ĠSpec ifically
h ot
gg ed
au x
ĠA ward
Ġf itting
ĠF re
Ġo ven
Ġlim iting
Ġgenu ine
Ġinter rupt
part y
Ġreson ance
Ġ č
Ġfoc using
Ġsusp ension
pos itory
ag an
Ġdelay ed
ĠH ave
Ġth rom
Ġfunction ality
im mun
ĠF oot
Ġliter ally
ĠSte phen
de lete
Ġsens ors
Ġsho es
Ġ âĪ
cell s
ap or
D av
ab is
ob acter
ĠR ather
Ġinsert ed
ole cular
ĠC C
19 94
ĠF ord
Ġab ortion
Ġed it
ĠC apt
it ical
Ġt ill
plic ity
Ġas ks
Ġselect ive
eng ers
Q ue
Ġcap s
. *]{}
ĠA sh
Ġad oles
requ ency
AV E
en ergy
el d
Ġaffect ing
Ġaw esome
Ġregist ration
c hers
Ġden otes
en um
Ġreflect s
et erm
he ast
Ġb orrow
Ġ1 32
Ġspecific ity
Ġ10 8
az a
) _{
s ave
Ġgrav ity
en za
CH AR
Ġepit helial
âĦ ¢
Ġqu ot
19 2
roph y
Ġinvestig ations
Ġbl ame
Ġdesign ated
pr ison
Or ig
Ġ1 35
Ġdest ruction
us et
' (
I AL
Ġpe er
Ġfl our
Ġdisc ount
Ġtrend s
Ġb att
Ġd ial
Ġ{ "
Ġdispl ays
Ġattract ive
c ategory
Ġad s
ĠĠĠĠĠĠĠĠĠĠĠĠĠĠĠĠĠĠĠĠĠĠĠĠĠĠĠĠĠĠĠĠ ĠĠ
F ree
ber y
Addition al
Ġdifficult ies
Ġint racellular
Ġcall back
ĠW E
c ases
rit is
Int eger
Ed ge
Ġmort gage
ak i
ĠMin istry
Ġsuppl ies
Ġcompat ible
U G
Ġdef ensive
Ġex ponential
Ġn orthern
c over
Ġin k
Ġgent le
Ġat om
ĠN AS
p ow
/ âĪĴ
u z
ĠSt ill
Ġc ord
ish op
ucle ar
[ $
app lication
che ster
S ing
et c
h ad
à ¹
Ġfarm ers
Ġconscious ness
Ġm ock
Ġd ip
ĠJ ordan
é Ģ
ĠT itle
D em
ens ing
Aut hor
å °
Ġpy thon
p d
Ġpr ay
Ġmax imal
Ġsp r
++ ;
Ġmag azine
Ġinterview s
Ġcont ra
Ġvari ant
20 5
St ack
Ġref lection
Ġrend ered
b ad
Ġper missions
Ġdescrib ing
Ġter rible
Ġdel iber
Ġsu icide
Ġcon vey
y ard
Ġres istant
! )
for all
Ġang ry
ĠCon sequently
im ation
Ġacknow ledge
Ġc ock
Ġd ates
ow ed
Ġphosphory lation
Ġh int
Ġh its
ĠW ord
con v
Ġxml ns
Ġelectric ity
** .
ĠF R
Ġ{ @
CON FIG
ĠT enn
ĠS aint
tr ation
e gr
g ra
un ior
ĠL y
ĠM ah
Ġbreak s
col l
n ie
Ġst ake
Ġvert ices
Ġcos m
ĠC ore
ĠL ic
Ġor bit
ov iet
Ġgener ator
Ġfr ames
Ġc ub
Ġcan cel
ĠAs sembly
P ref
h h
H ar
Ġdifferent ly
Ġgen omic
Ġfing ers
æĺ ¯
Ġintellect ual
app ropri
Ġmil it
Ġpan cre
com fort
Ġass istant
Ġadapt ed
Ġt ied
ĠS us
IT ED
Ġcort ex
Ġrepresent ations
Ġpolym orph
N G
Ġ Âł
Ġb oss
Ġfact ory
Ġcomp lement
å Ľ
Ġprem ium
ph ase
f usion
mat o
ĠH ard
fig ure
č Ċĉĉĉ
Ġsub group
Ġcomput ers
o is
Ġequ ilibrium
Ġcons piracy
Ġh ung
19 90
ĠCommon wealth
rit ing
Ġre con
Ġin verse
Ġsh ots
Ġk m
Ġd ownt
oc key
Ġbehavi ors
Ġclin ic
J o
* \
qu al
P res
Ġle ak
ĠC as
Ġhypert ension
on ed
ĠW in
Ġunderw ent
Ġlaws uit
Ġres erv
Ġtoler ance
ĠS af
B s
H er
Ġvar ied
Ġneglig ence
ring e
Ġpeak s
Ġv ag
\! \!
A nal
Ġmat ched
Ġlog ical
ĠĠĠĠĠĠĠĠĠĠĠĠĠĠĠĠĠĠĠĠĠĠĠĠĠĠĠĠĠĠĠĠ ĠĠĠĠĠĠĠ
T ra
Ġl os
ph osph
Ġsynt hetic
g al
Ġp i
Ġgr ate
Ġattempt ing
Ġdiscl osure
Ġre ven
u er
Ġm ood
place ment
Ġaim s
pass word
ĠT our
h l
Ġext ending
j ar
op her
Ġmus cles
sl ant
HT ML
, _
Ġ ions
E F
19 93
ul ent
ĊĠĠĠĠĠĠĠĠĠĠĠĠĠĠĠĠ ĠĠĠĠ
ast ed
Ġstrict ly
Ġgalax y
Ġprogress ive
ĠĠĠĠĠĠĠĠĠĠĠĠĠĠĠĠĠĠĠĠĠĠĠĠĠĠĠĠĠĠĠĠ Ġ
ĠA z
ag ram
Ġstret ch
Ġb ills
Ġpen et
ĠS R
ĠColumb ia
Ġprogram me
ĠS on
{ }
ĠC S
Ġreg ulate
Ġcomb at
Ġequ ality
ãģ §
ĠPl ace
abl ing
N ULL
ĠR ound
Ġle ase
ĠS anta
Ġtrans mit
Ġdam aged
E ffect
Ġfavor able
R ule
æ Ĺ
Ġman ually
Par ams
Ġvulner able
Ġint ense
ĠC ost
Ġcont est
Ġfat ty
un a
est amp
us ive
az z
čĊ čĊ
Ġju ice
Ġconf ident
Ġ ï
he et
ĠHol ly
m ates
Ġl oud
- $
Ġde eper
m ons
å ¼
og rap
Ġwonder ing
er as
oph ag
Ġlater al
ge x
aps ed
Ġeng agement
Ġelder ly
ĠSc iences
Ġwe ird
Ġco at
Ġn ons
ĠP BS
Ġcoll apse
Ġpredict ions
ur se
ĠUn ivers
A ng
Ġret ro
Ġexp ense
Ġmembers hip
Ġqu ote
GF P
P arent
Ġgu est
Ġth y
âĢĻ .
l arge
conne cted
Ġen act
cur sor
PO ST
plet ion
ĠProfess or
Ġo vere
Ġmicrosc opy
t an
19 91
Ġcomb inations
D oc
child ren
Ġdetect or
ĠAfghan istan
Ġob jection
Ġbelie fs
T M
Î º
Ġlik es
Ġpush ing
Ġemot ion
Ġcon cur
Ġemerg ing
* (-
ik es
Ġc ig
^{ -\
J an
y our
Ġnucle us
Ġsett led
: =
R ound
Ġj unction
17 5
ĠPro perty
Ġdoll ar
l anguage
. ).
h om
` ,
^ )
ĠO p
pro file
Ġas sem
Ġun em
ential s
Ġoblig ation
Ġestablish ment
F ont
h ol
ĠY eah
Ġcomm ands
ĠAd am
do i
cons in
ĠGa ussian
Ġcho osing
Ġvisit ors
ĠB C
Val ues
m ma
m ade
Ġrel iability
`` ``
Ġs ir
,\ ,\
ĠTur key
it arian
ou ri
Ġmin i
Ġis o
ĠC ub
Ġsc oring
ro cy
Ġtre m
Ġrep ly
top l
Ġprefer ably
^ ,
ĠBit coin
d am
Ġm s
Ġm l
Ġag gressive
Ġlist ening
Ġtox icity
par ison
Ar gs
11 4
Col lection
Ġvess els
Ġinqu iry
Ġpro position
Ġcateg or
he ld
mod ules
Ġimplic it
pp at
Ġenc ounter
By Id
Ġsh aft
Def inition
Gen eral
gr id
e ach
under line
ĠS ort
Ġsusp ended
t ail
Ġb ounds
Ġden y
Call back
aceut ical
Ġpres erve
Ġprom ised
p ur
~ )
he x
ne x
e re
Ġcl imb
view s
ir uses
ĠMin nesota
t im
t ool
ĠKore an
) }}
it age
ĠH o
20 4
ĠMo ore
f b
rom agnetic
dis p
nut rients
h uman
Ġch a
ĠL ind
form ing
ymmet ric
ĠK ent
Ġquant ities
Ġequ ipped
Ġpromot ing
art icles
Item s
Ġagree ments
B V
ĠP ract
Ġent ities
Ġx e
ĠSystem s
al g
Ġp ill
Ġtrans parent
m ove
ĠReg ister
ĠF ull
Ġhol iday
Ġm ath
13 4
ĠIndian a
Ġwe igh
ob e
ĠCamb ridge
i em
Ġp ocket
Ġsp ont
ĠPH P
ĠTh om
Ġisol ates
ut ter
ol s
ad min
Ġmodel ing
b es
13 6
m n
Ġsc aling
Ġweek ly
Ġrestaur ants
vert ed
al o
Ġd ance
Ġsm ell
ĠD aily
ĠW el
Ġto mato
cript or
ĠS av
Ġcons ensus
Ġupt ake
um my
T EST
ĠG reek
Ġch ains
Ġ10 7
Ġat he
h u
Ġto w
Ġexist ed
Ġstay ed
Hand le
Ġart ificial
p rom
sk y
Ġelectr ons
Ġwed ding
ĠD ifferent
Ġinv ited
ĠG P
Ġparticip ant
Ġoxid ative
Ġsp ray
13 2
ĠPar liament
19 92
Ġt weet
Act ive
Ġbasket ball
Ġcon dem
ress ing
itud inal
ĠF if
og ens
Ġlif estyle
Ġ+ \
W orld
Ġar ising
ĠJe an
Ġc ow
." ,
ĠUn less
Ġphys icians
Ġdim in
Ġw elfare
Ġdevelop er
p read
Ġfac ulty
Ġvari ability
Des pite
Ġmag ic
Ġde emed
pl ane
ĠHar ry
ĠL atin
=" @
Ġunf air
ĠF isher
ĠG rant
Ġphr ase
Ġcap abilities
Ġin cent
}, $$
Ġt icket
Ġregard ed
b its
> ();
ĠT NF
Ġadjust ment
Ġdef ining
Ġparticip ated
ĠHamilton ian
' ],
I RE
ime q
Ġin jected
Ġab dom
a ire
ĠP K
ĠTH AT
Ġqu asi
Ġmeaning ful
ĠH z
Ġtr im
Ġpar ams
Ġhead ed
Ġfund ed
Ġdefic iency
Ġsatisf ying
cept ions
Ġaccur ately
ir th
Ġbirth s
ĠH u
Ġpar am
Ġdocument ed
Ġtransform ed
av irus
Ret urn
q q
in th
A E
Ġent re
b ec
ĠO UT
Ġr anges
D ist
Ġno body
Ġn itrogen
if ting
Ġplatform s
b ow
ãģ ¦
Ġen ergies
se q
14 5
Ġtal ent
T F
w d
t ocol
Ù Ĩ
ol is
Ġpro long
Ġapp s
Ġcust ody
Ġsus pected
s imeq
ĠLeg end
pp ers
Ġt ired
ol ves
Ġl ibraries
Ġdist ances
Ġvis iting
ä¸ ª
Ġ$ .
cl osed
Ġar rive
Ġden ying
ot ropic
ĠIF N
g un
on i
Ġe q
Ġdes per
Ġpot ent
x imate
ĠD ocument
Ġs oph
ĠR h
As ync
Ġmot ions
Ġdemonstr ates
term inal
reason able
Ab stract
Ġpun ishment
Ġcirc ular
Ġar th
0 22
ĠH or
Ġpoint ing
w alk
ĠP etition
ph ys
Ġdefinition s
Ġ25 5
ĠP I
ab eth
Ġchalleng ed
Ġdefe at
ĠL ibrary
Ġfin ance
XX XX
Ġb es
ed ed
Ġtra its
B ased
Ġjust ify
ĠSh ould
Ġindic ation
E Q
Back ground
ĊĠĠĠĠĠĠĠĠĠĠĠĠĠĠĠĠĠĠĠĠĠĠĠĠĠĠĠĠĠĠĠĠ ĠĠĠĠĠĠĠ
Ġthreat s
Ġt ends
p ad
ĠSp irit
Ġd ense
h bar
Ġs aving
Ġth irty
Ġnav igation
en na
J son
ĠS audi
ĠF ather
ari os
Ġf ru
ig m
Ġcert ificate
Ġpers u
F iles
util s
Ġemerg ed
CO DE
Ġt act
Ġle ct
Ġ19 60
Ġimp ressive
Ġsp ots
å º
ĠCo ast
Ident ifier
ĠM athe
bt n
Ġcompar isons
Ġsuper n
ol en
ĠF IT
IN K
ĠE mp
h ma
Ġinhib ited
T oday
Ġrem em
24 0
Ġbehavior al
Ġstom ach
op sy
Ġsec ured
el ve
ut ers
Ġcomplaint s
h op
ph ia
Ġlock ed
Ġ -------
og a
Ġind ict
Ġpolar ization
ens ively
M AT
Ġl ady
Ġalong side
ac cept
ON G
Ġaff idav
ĠB oy
cent ury
im pl
Ġv ibr
Ġrepl ied
ides pread
gen eration
anc ies
Ġm erg
ĠA BC
Ġ1 33
ard ed
)) /
ĠIN T
ĠDef ense
Ġminor ity
Ġye ast
ĠH oly
Ġprepar ing
m ate
Ġbase ball
Ġinf lation
ang el
GF R
Ġw ing
Ġl um
st age
ific ant
pro gram
? )
Ġlocal ization
col on
ĠE C
Dis cussion
bur gh
Ġpept ides
Ġem pir
Ġf iscal
h abil
A nt
P y
Ġinput s
Ġ19 81
Ġwin ner
acc ount
Ġass et
itz er
Ġin ev
Ġend othelial
ĠTor onto
Ġterrit ory
A uth
as ia
ĠT yp
Ġapprec iated
art icle
14 7
od d
Ġque ue
m M
Ġb ases
ce ive
ĠH ouston
Ġch ocolate
Ġtim ely
Ġconstit u
Ġwarrant y
ĠP op
ed u
iot ics
Ġant agon
D U
m c
il st
Ġvirt ually
Ġflu or
Ġpip eline
M AP
Ġestim ation
in ance
Ġd ried
ĠB ul
Oper ation
i ating
Ġwat ers
Ġsp ark
ian o
Ġd ental
ĠN F
Ġdiv or
Ph oto
ĠC F
Ġcav ity
Ġin ject
Ġhead ing
Ġcult ured
ĠCommission er
B ER
e ff
ĠF arm
14 4
17 0
Ġefficient ly
m argin
v c
m itting
Ġsuggest ions
ĠC at
ĠChrist ians
Ġres ident
ĠM u
Ġcan cell
Ġpl ugin
20 20
Ġindu ces
Ġ1 34
ĠO P
ĠG all
Ġup set
33 33
ĠL O
Ch rist
Ġprotocol s
Ã ±
ĠB ible
Ġcommun icate
Ġfil ename
Ġreplic ation
T ake
ent ity
w ait
H ash
ĠMark et
12 2
Ġclaim ing
Ġdeterm ines
ĠL ittle
Ġn ose
m akers
Ġsatisf action
Ġf ake
Int roduction
ĠL at
Ġsh r
ĠInterest ingly
.. \
li um
Ġinstr uments
Ġad min
Ġse ats
) }(
ar ched
******************************** ********************************
Ġshort ly
Ġsil ent
Ġact ors
f our
"} ;
Ġflow s
Ġn p
ãģ Ł
ĠD u
Ġad ip
adel phia
Ġmother s
Ġrespond ents
) âĢĵ
Ġsent enced
Ġbr anches
Ġ ×
Ġco ating
Ġse iz
Ġc ot
Ġ19 82
re port
Ġfro zen
all as
Ġpot ato
l ab
ÃĲÂº ÃĲ
S n
b untu
row th
Ġen um
item s
s creen
Ġb ird
000 5
Ġsil icon
Ġrefer ring
Ġconver gence
Ġaff irmed
Ġex clusively
ade qu
ĠE ag
y cl
Ġf lying
os in
uck y
H H
Ġgovern or
Ġtra uma
0 25
F ull
Ġw ins
ĠS em
at on
Ġcounter part
c ourt
Ġrece ives
stitution al
f ers
ĠS ports
Ġgraph s
Ġnon linear
Ġestabl ishing
Ġperson ality
$ ).
G M
Ġprejud ice
12 9
Ġ** *
Ġod ds
Ù İ
D IS
Ġmin ing
Ġsent ences
AR N
Ġsol ved
ĠO pt
ĠLew is
met adata
Ġtrac ks
Ġop ens
stand ard
Ġevery day
@ "
im m
ĠL C
B oth
Ġb old
Ġan ger
Ġor ange
ĠW he
ĠK now
ĠSe a
Ġhistor ic
ĠB ab
ĠĠĠĠĠĠĠĠĠĠĠĠĠĠĠĠĠĠĠĠĠĠĠĠĠĠĠĠĠĠĠĠ ĠĠĠĠĠ
ict ure
ĠIm mun
Ġbreak fast
000 4
ĠPro of
AL SE
om ain
ĠS S
ĠPh ot
Ġelectro des
M iss
Ġres et
Ġspect rosc
Ed itor
Ġch ances
ĠV iet
ap ing
Ġgeneral ized
Ġple asure
Ġ' '
Ġprob able
Ġrac ial
Ġconfig ured
Ġsh ield
ĠE M
//////////////// ////////////////
it ations
Ġhe aling
in ely
Ġper pet
Ġfact ual
L icense
R oot
Ġcons erved
Ġl ap
. (
ĠD B
Ġsupp ression
E rr
Ġsc roll
Ġo z
Ġre putation
ĠN ations
Ġout break
ĠB rian
um ing
Â £
AS K
âĢ² -
ad en
Ġrespond ent
ĠA h
Ġse al
Pro perties
Ob j
D F
2 11
Ġp ad
Ġst ained
Ġex clusion
ĠK ansas
mod els
Ġact ed
Ġm L
ĊĠĠĠĠĠĠĠĠĠĠĠĠĠĠĠĠ ĠĠĠĠĠĠĠĠĠ
Ġcap ability
Ġthreat ened
w t
im ental
l ay
els on
Ġclos ure
_ [
Ġcirc uits
Ġhost s
ĠIns urance
O VA
s ort
Ġtra ject
oprote in
op ed
Ġsal ary
ĠÐ ¸
Ĩ Ĵ
Ġdebt or
Ġdiet ary
er ator
Ġtra v
Ġw idespread
ĠÎ¼ g
D ay
I SE
Ġs el
rit ical
bib r
A ge
tem p
OR Y
at om
Ġ< ?
Ġconf usion
Ġtem p
Ġth rown
de gree
ĠG C
ĠS W
us ers
Ġcritic ism
ĠL iber
Ġatt achment
Ġblock ing
Ġdec imal
f all
Ġc ul
Ġview ing
Ġmo ist
Ġacknowled ged
Ġd ent
ĠWis consin
âĢ ĭ
Fl ags
ffic iency
Ġdist inction
it ated
ĠD ise
$ _{
ĠL ar
p any
Ġ1 36
A X
ĠK evin
Ġrest ore
Ġcan cers
Ġbelong s
Su per
ĠR os
ãģ ¯
v t
ĠH ay
ĠPr inc
Ġoptim ization
ĠScot land
Ġs hed
or ient
Ġam end
topl asm
Ġcon vention
AR S
Ġdesc ending
M o
x f
c anc
Ð ¿
N a
ĠCl inical
Cl ose
trans form
Ġroad s
ĠF O
Ġsatell ite
ĠK elly
Ġpost erior
Ġred ist
d k
ed it
Ġgrad ually
Ġstri king
ĠQue en
W ill
. :
ĠN ature
W ARE
Ġcomp ression
V ol
Ch anged
a is
ant e
Ġtun nel
h d
s ample
Ġstimul us
Ġmethyl ation
Ġag enda
OR K
ĠA st
Ġtriv ial
ĠV ill
pe ople
Ġlegit imate
D H
Ġli able
atch ing
Ġaccompl ish
Gl obal
Ġir rad
Ġcook ies
ĠM ill
Ġ19 77
ĠL ink
hip s
ĠCon dition
Ġcharacter ization
ãģ ¾
C r
Ð¾Ð ²
ced ure
Ġtri es
16 5
Ċĉĉĉĉĉĉ ĉ
N s
ĠÎ Ķ
OM E
Ġhe x
Ġsee ks
ĠCh air
Ġsav ings
Ġres idential
ethe less
Ġbrief ly
ĠC NN
Ġpix els
ĠIg G
Ġst ating
ĠG M
ple ments
Ġcal m
\ /
Ġm im
Ġprevent ed
at ers
us p
b est
Ġmut ants
Ġbare ly
Ġwh is
pro fit
id o
Ġcir cles
B F
Ġg rain
ĠE S
se lected
2 20
Ġres in
are r
ĠAn th
ĠAl tern
Ġinc hes
Ġdecom position
ĠB u
Ġpart ly
Ġpres cribed
l b
fl oor
Ġimpair ment
Ġunder go
Ġgrav it
Ġd ivid
oc l
ĠĠĠĠĠĠĠĠĠĠĠĠĠĠĠĠĠĠĠĠĠĠĠĠĠĠĠĠĠĠĠĠ ĠĠĠĠ
Ġd y
Ġin sect
á º
Ġoverl ap
Ġf irms
4 50
ĠS oviet
Ġsimilar ity
Ġdiscl oses
Ġc athe
13 7
id ine
lin ux
P ublic
Ġrepresent atives
Ġman aging
Ġany body
Ġte ch
ĠS Y
Ġim prison
reg on
V ar
Ġe leg
ivid ually
Ġmer ch
Ġveget ables
uset ts
Ġin cl
Ġenhance ment
Ġf ur
ex pected
Ġjo ining
Ġgu ests
Ġfranch ise
h s
p gen
im on
un ning
ach usetts
Ġb arg
pos ing
D iv
Ġindepend ence
Ġsure ly
Ġ ^{
ĠĠĠĠĠĠĠĠĠĠĠĠĠĠĠĠĠĠĠĠĠĠĠĠĠĠĠĠĠĠĠĠ ĠĠĠĠĠĠĠĠĠ
Ġar row
Ġconst ants
ID S
Ġappoint ment
Ġem issions
Ġscen es
Ġcan onical
13 3
Ġhand ler
Ġsl ide
) </
ĠDe bt
enn y
ĠE ric
Par ameters
Ġdon or
ĠX ML
Ġincred ible
Ġ8 00
set tings
em at
G ame
oph il
Ðµ ÑĤ
t ools
id en
Ġcor ruption
Ġmembr anes
Ġpar liament
Ġfil ters
ĠHaw ai
ist a
h w
Ġprotect ing
!! !
ĠM as
ogl ob
m ass
ĠSh ort
L i
H istory
b ury
ĠAT P
he p
Sub ject
Ġ ).
15 7
in stein
Ġmind s
Ġd ating
Ġr ings
FA ULT
Ġgr ay
rec ord
Ġf ool
ĠÐ º
ocy t
F our
Dis play
let ter
ĠS a
P ars
ar ity
py thon
Ġdram atic
Ġsy mp
ĠRet urns
ol ver
ĠEx ception
Ġnot ation
cl oud
Ġrecur rence
Ġs quad
Ġun necessary
att ribute
Ðµ ÑĢ
Ġproport ional
Ġconserv ation
Ġg erm
Ġinter section
eng ine
id ate
ĠS cale
iz abeth
ĠS ometimes
ine ment
Ġmat ure
Ġsign ing
)\ ,
RE E
ĠSand ers
Ġs ake
15 6
Ġland scape
og s
if def
Ġsp inal
inte rest
ĠIr ish
L ife
B IT
Ġatt orneys
Ġkn ife
qu ired
T ube
Ġag grav
ĠB ang
ĠG OP
Ġcont ention
Ġmem or
Ġlit igation
he ll
Ġste re
ĠB MI
Ġmot if
Ġquestionna ire
lic t
Ã¡ Âº
and al
ah oma
Ġneu rolog
Ġr s
Ġart ist
b us
Ġsh adow
Ġmod ifications
Th us
Ġout standing
Ġprov ince
Ġinit iated
am y
Ġdis charg
Ġadv ised
Ġpur ified
Ġsan ctions
nt il
čĊ čĊĠĠĠ
ĠL ess
r ank
display style
) ^{\
h ole
Ġbed room
ĠN atural
Ġrob ot
Ġm oon
ãģ ¨
eq n
fil ename
Ġw age
ĠT en
Ġimp ose
I con
ĠA RE
19 86
: </
FLAG S
) ^{-
ap ore
ab stract
art s
reg ion
r ons
By tes
Ġemot ions
================================ ================================
Ġp iv
ĠT ask
Ġlov es
Ġbiom ark
Ġ ------------------------------------------------
Ġthere in
Pl atform
Ġ&= &
Ġcoron ary
Ġw is
Ġpre ference
IC K
od ge
L ayer
Ġm aternal
ĠH im
Ġmed iated
Supp ort
Ġaccompl ished
e val
Ġb ron
Ġb ene
ĠR ose
Ġint estinal
l an
ab ama
Ġmy th
Ser ial
Ġf iring
Ġpl ots
Ġs li
e rer
ig ue
Ġstud io
Ġ| \
âĢĻ ,
at re
Ġg ains
Ġt ar
M icrosoft
pat ient
Ġdro ve
pm atrix
Ġret ired
Ġt ags
Ġro y
Ġencoura ged
Ġinf ant
Ġinvestig ating
Ġaccom pany
Ġ1 38
ĠO s
Ġmacroph ages
B ook
Ġh ipp
11 8
az y
Ġaut on
Ġmem ories
Ġperiod ic
ogene ity
Ġwarn ed
ay a
Ġex ert
ĠOr ig
Ad apter
Ġen orm
in ent
ĉĉ ĉ
Ġl ands
ĠĠĠĠĠĠĠĠĠĠĠĠĠĠĠĠĠĠĠĠĠĠĠĠĠĠĠĠĠĠĠĠ ĠĠĠĠĠĠ
Ġbar rel
Ġattack ed
Ġel astic
ĠAre a
Ġfr ustr
=" ../
Ġremark able
Ġh oney
Ġair port
Ġaw ait
Ġnurs ing
Ġrel ies
ail ure
Ġrel ate
Ġconf used
Ġf ibr
iter ator
UL AR
Ġst yles
Ġflow ers
N ESS
am ide
+ )
ĠD un
m icro
ĠDef ault
gen erate
L o
U V
ors es
Ġro d
ĠNav y
i y
ĠR ail
Ġwebs ites
Ġmanif old
Ġimp aired
r ass
Ġco operation
Ġdep riv
M AN
Ġqu oted
Ġfant astic
OR S
IS H
Ġanti oxid
Ġinstitution al
Ġw ider
ĠBl ock
vis or
Ġde put
Ġluck y
Ġintr insic
x sl
Ġlet ting
Ġ19 79
Ġsecret ary
Ġcoc aine
ĠF C
ĠHolly wood
Ġcompet e
ĠAr g
ĠM ut
Ġexpert ise
15 5
Ġra b
Ġconsist ency
Ġresc ue
ĠN othing
comp at
ĠUp date
Ġcomp ly
Ġret ained
ĠAr k
ĠH aving
Ġlic ensed
ĠB ox
Ġfluct uations
* =
Ġal umin
Ġpubl ish
Ġent hus
it ored
sh aped
Ġdom inated
ĠAnt on
ĠH as
Ġoff ices
St ar
he alth
Ġar rival
Ġburn ing
oc om
Ġam big
Ġh ired
á¹ ĩ
Ġimportant ly
Ġaccept ance
e a
12 1
Ġble eding
` .
ĠL ED
ER V
Ġadv is
ĠPl us
Ġde but
Ġen rich
Ass ert
p riv
ĠS L
Ġat omic
p resent
less ly
Ġchrom osome
Ġtri ple
ov ing
Ġoption al
Ġfel ony
Ġsymbol s
Ġimpl ant
Hel per
ok er
pref ix
[ **
Ġc ake
pre ne
Ġmel an
Ġenthus i
Ġl ux
ĠW as
Ġf ishing
Ġrel ied
Ġprocess or
Ġviol ations
b at
ĠK ong
Ġdatas ets
g athered
New s
Ġconvin ced
trans lation
Ġfeat ured
ĠP UR
Ġb ags
script scriptstyle
Ġguarant eed
} '
ĠMary land
Ġsh ipping
Ġreason ing
Ġhaz ard
Ġwrit ers
ili pp
Ġrandom ized
Ġpro xy
Ġres ort
r us
requ ire
| -
_ -
Ġt ie
ĠM C
play er
Ġsurv iv
Method s
Rep ort
Ġcontrovers ial
con g
Ġper me
ord inary
Ġconflic ts
th ur
ĠSe attle
Ġbrother s
com put
Ġposit ively
O F
O pt
h box
ĠO kl
Ġinf ants
ãģ ª
G iven
Ġprof its
Ġmac ro
Ġperm its
Ġcomput ational
Ġch ampionship
ator ies
Pr int
$ ^{
Ġup coming
Ġret ros
ĠB an
Ġg ri
iqu it
Ġcontem porary
ĠEd ward
ogg le
19 88
r ans
ĠS earch
av ailable
Ġsubst ances
Ġparticip ating
L ICENSE
Ġch at
En ter
s un
Ġemph asis
Ġl on
own ed
[ (
Ġc erv
Ġsil ence
Ġan terior
Ġfunction ing
Ġcontinuous ly
Ġhe p
Ġstrateg ic
ta h
Ã© e
ore r
F UN
Ġco pper
================ ========
Ġeng aging
ĠPr ince
Ġo h
Ġcur v
T im
Ġg raft
Ġeth nic
f p
Ġo ught
ĠScient ific
Ġ" ,
ĠG ree
Ġact ively
Ġder ive
ĠAll en
ĠPhil adelphia
Ġp ic
Ġu m
ĠL ag
_ ;
æ Ŀ
Â ¹
to String
Ġd ot
Ġcryst all
\ )
Ġb rack
be an
Ġmedic ations
Ġs que
Ġch amp
Ð° Ð½
Ġto oth
Ġscan ning
Ġd ies
Ġ12 7
at omic
Ġre aches
Ġform ulation
Ġser vers
Ġentr ance
Ġdis aster
m ill
Ä ±
th ree
Ð ·
ĠO nt
Ġa ux
PO SE
Ġst ops
ro it
ĠH ong
ĠUn it
rel ation
Ġmathemat ical
Ġgrate ful
T X
Ġgener ates
Ġannounce ment
En abled
Ġfib ro
Ex ample
Ġpen al
Ù Ī
ĠK IND
19 85
S pace
IN FO
Ġindic ator
Ġaff inity
Com mon
Ġcross ing
19 89
Ġdim ensional
Ġsh ips
Ġbu ff
Ġpurs ue
C ap
ut f
opath y
Ġschem es
D onald
re a
Ġpers istent
ĠExec utive
for ced
ĠĠĠĠĠĠĠĠĠĠĠĠĠĠĠĠĠĠĠĠĠĠĠĠĠĠĠĠĠĠĠĠ ĠĠĠĠĠĠĠĠ
s quare
I ED
f ive
000 3
Ġcollabor ation
P ATH
Ġlo ose
Ġlack ing
Ġwant ing
Ġlocal ized
IP T
product ive
ĠN az
ru ed
ĠRel ated
ĠF ou
ĠB AS
De lete
es see
ar ms
Ġrad ial
el and
ä ¹
il bert
25 4
Ġbath room
pe at
overn ment
ik a
Ġwas h
am on
ĠN ode
Ġexpect ation
Ġstay ing
ĊĊ ĊĊĊ
w ould
qu ality
ĠK a
Ġins pection
_ (
L oc
ĠSe lect
Ġpoor ly
13 8
Ġtrans ient
Ġal igned
ĠLe on
ĠMan ager
Ġgrad uate
Ġd Ã©
ĠH TTP
Ġra pe
Ġbeg un
ĠMuslim s
ĠM om
cle an
Ġal arm
O ct
ĠI l
ĠSm all
osc opic
Net work
ĠA venue
Ġne c
Ġ------------ -
Ġscre ens
Ġover t
Ġang les
Ġtend ency
h alf
AC C
X ML
Ġl oy
Ġs per
)âĢĵ (
Ġcar ries
ia h
ĠFr ame
l ings
Ġsl ope
ĠC G
ĠMathe mat
ĠMass achusetts
ĠLe ft
}$ $\
Ġdown stream
Ġexpl ored
Ġlov ely
Ġsc ar
map sto
Ġ19 75
Ġcitiz en
rif ug
Ġalle le
Ġto b
Ġover r
Ġf itted
æ ī
c ou
Ġgra ce
z ip
~ \
}} =
Ġdriv es
W est
ĠH art
Ġbirth day
mon ic
d riv
Con n
ĠSim ilar
Ġb ip
or ic
Ġorder ing
ĠG reg
dep th
Ġg athered
Ġsh ifts
Im port
Ġrid ic
? >
16 6
Ġterm ination
åľ ¨
Ġnan op
Ġfra gments
Ġsynt ax
p b
Ġan th
Ġrout es
l it
ur red
qu ence
ĠMi ami
ed a
**** ,
Ġinhib itory
Ġminim ize
App ellant
Ġconsist ed
ĠV AL
ĠO ption
Ġstrugg ling
Ġbreath ing
Ġd os
âĢ ¯
at tered
Ġbro ader
2 10
D ER
Ġimp ression
19 87
Ġexcept ions
Ġterror ist
Ġind ividually
own er
Ġlong itudinal
AN K
Ġ12 3
Ġstimul i
Ġneed le
ĠLe vel
========== =
ĠCell s
Ġinhib it
Ġchrom at
Ġcytok ines
ĠCl aim
ĠRet urn
Ġm ile
Ġhe mat
Ġgener ations
Ġpresent ing
yn chron
Ġconsider ations
J SON
ĠL E
T w
Ġ1 37
Ġcontribut ing
< <
Ġa rom
Ġgr ants
w p
ĠM ER
Ġdel icious
ĠStud ent
sche ma
ĠB io
res ults
ract ed
Ġaff airs
ig ger
ĠIn f
ĠA F
ĠA SS
Ġm os
Ġincub ation
} :
ĠF lu
Ġgu ilt
B el
Ġentertain ment
look ing
appropri ate
Ġanalys ed
Ġnegot iations
f illed
ris k
Ġconstruct or
St and
Ġposs ibilities
Ġarr ays
Ġf atal
G od
Ġposition ed
le ading
Ġqu it
ĠOb serv
Ġang i
Ġscen arios
ort ic
ĠUk raine
b ian
ater n
. \[[@
Ġ$ ('
Ġorg ans
Ġfuck ing
Ġcorre cted
Ġassoci ate
Ġmand atory
Ġsecret ion
P F
sw itch
W riter
ch a
Ġc ure
ĠN orm
ĠG raph
Ġaccount ing
Ġoccup ied
ĠHill ary
p adding
Ġrepl acing
activ ation
g b
ount ered
Fl oat
Ġsurround ed
en z
ĠPh oto
semb led
he res
Ġexp end
AC H
del im
ĠT ry
file ID
Ġt we
Ġhand led
Ġindict ment
Ġdis posed
Ġm ol
ĠF ive
Ġneighb ors
Ġequ ity
2 30
ĠR oss
Ġdel ight
Ġmer it
ĊĠĠĠĠĠĠĠĠĠĠĠĠĠĠĠĠ ĠĠ
Exp ress
ise ment
Ġflex ibility
Ġspokes man
ĠJava Script
Ġmy ocard
V P
qu ant
âĢ¦ .
et o
v ard
Ġplace ment
Direct ory
P UT
w ave
Ġclub s
Ġchair man
R est
is an
Ġra ises
Ġcoll ision
eles c
Ġnot ing
P K
ĠO regon
Us ers
ĠRad io
Ġap olog
Ġcl othing
Ġdecl aration
M ich
ric hed
34 5
print ln
č ĊĠĠĠĠ
ĠIn clude
ĠBro ad
ant h
ast ing
Ġmut ual
âĸ Ī
16 7
Ġtransl ate
Ġreconst ruction
v ia
Ġquad r
ĠB ureau
Ġyour s
Ġes cap
am er
ment ed
â Ĥ¬
å ĩ
Ġex ch
}} }_
Ġlob by
M edia
Ġdist ant
Ġinf il
Sh are
Ġimpact s
â Ļª
19 0
Ġh ip
lev ance
ĠT ai
ord on
Ġchemical s
Ġbe ings
), $$
Ġt ong
14 6
ik ip
ĠÎ¼ M
Ġdisp ers
Ġbel t
ĠR ome
14 3
Ġpromot ion
Ġt el
ĠI O
b age
ĠH ope
AT ED
ĠM essage
Ġmicro bi
ĠVis ual
ĠC hen
Ġrep orters
Ġleg end
ĠL LC
F actor
ĠC it
p air
Ã Ħ
ĠD rug
igh ters
ĠAl abama
ĠA k
Ġcy toplasm
I H
ul ing
ĠM it
Ġ0 2
Ġenc ountered
Ġbar riers
ck er
Ġcar riers
Ġoccasion ally
Ġmob ility
D a
t u
ĠM ir
th an
Ġd ying
Ġdetect ing
i ac
Ġinter fer
ĠN ation
st yles
const ruct
ĠCons erv
ĠFore ign
cont aining
Ġstraight forward
ĠEx pl
Ġbal anced
Ġpure ly
ĠK at
ĠPro p
Run time
spe ed
Ġexpand ing
ĠÎ¼ m
Ġlaw yers
Ġeth ical
xt ures
Ġ19 76
Ġcann abis
oc amp
ĠAss ert
ĠP erson
CL UD
Ġg olf
Eng ine
0 30
Ġanc est
ĠOn line
Ġdr ama
ĠT ok
Ġbi os
ĠC reat
Ġwhe at
Ġk g
St op
ĠOver all
um or
ats on
19 84
Ġres erve
Ġman agers
Acc ount
ro c
ab ases
Ġaddress ing
Ġtob acco
rit ic
ĠGold en
99 9
qu arters
old ing
ĠT E
Ġneur onal
C ur
Ġ ,\
ĠV en
by tes
Ġphot on
Ġsol vent
Ġproceed s
Ġincons istent
Ġim plements
cy cle
sh a
ix el
ĠR O
Ġbr illi
r ust
)* -
ĠFoot ball
ac char
Ġ1 70
T G
it ance
st ud
Ġ19 78
Ġdevelopment al
&= &
Ġcl im
ĠSt ation
OW N
Ġaccording ly
M OD
am ous
sh ared
W A
Ġvol umes
Ã º
ĠIn vention
] =
Ġiniti ative
ĠC t
Ġlet s
Ġassert ed
Ġshift ed
Ġ( <
Ġsim ulated
Ġver ified
ĠCh ange
Ġsw ing
)/( (-
L OG
ĠP ack
Ġsp oken
Ġplace bo
Ġsuggest ion
ĠMiss ouri
Ġlig and
em ale
Ġtransition s
Ġar ises
Ġcor n
Ġins ights
Ġdelet ed
Ġtranscript s
wr itten
13 1
ĠDis ney
t c
ĠD utch
11 11
Ġsl ot
V ideo
Ġdisp ersion
pro of
CR E
ĠCont ent
ĠP itt
Ġfe ver
Ġexpl aining
ĠG ro
ĠPr ice
st im
ĠÐ ¾
Ġg rap
Ġ[ $
Ġpredict ive
Ġhighlight ed
with out
roph ic
ikip edia
Ġed iting
---------------- ----
ï¼ ļ
Ġprivile ge
W ait
] }
ĠIn v
ĠDie go
i ar
Ġtour nament
P al
ĠT B
Ġdo zen
Ġbur st
ĠLeg isl
Ġvar ies
ĠM useum
Ġmod ulation
spring framework
pie ce
ĠJac ob
ĠF actor
)$ -
Ġinnov ation
Ġfound er
Ġt ender
at ar
Ġ3 50
nd ef
it ual
Ġn est
Ġsupp ressed
ĠFore st
ĠF uture
ĠR OS
3 50
n p
ĠS ky
}} ^{\
l ibrary
ĠO il
) }{\
E q
Ġn as
Ġhorm one
c ost
ĠF I
Ġst iff
test s
E mail
ĠB ol
ĠN ic
in ic
Ġanaly tical
eterm ined
Ġex clude
Ġpoll ution
ĠThe ory
bin ant
p oly
cont rolled
Ġarg uing
J ava
Ġpres cription
bb ed
vel ope
Ġsol ving
organ isms
P op
par a
ĠF ac
( :
w ich
Ġsl ice
Ġdistrict s
ia z
Ġappro ached
Ġins pect
Ġathlet es
Ġshe ets
av age
ĠM oh
Ġovere xp
J ECT
Ġ' \
Ġreal istic
Ġlight ing
erv ing
Ġappell ate
ĠPART IC
In tern
ogen etic
u is
Ġund efined
9 00
B Y
Ġwis dom
Ġfore cast
Ġsuscept ibility
Ġfoc uses
Ġut ter
Ġsh apes
pro perties
de velop
Ġh anging
Ġpl acing
ĠWith in
B ank
b urn
ose x
ĠM arg
Ġsp ac
mark et
U ID
Ġfall en
Ġweak ness
Ġ ------
Ġconfig urations
Ġp ist
ĠIn n
Ð° ÑĤ
D ITION
ĠC V
Ġcompl ain
ro gen
DE V
Ġexhib its
Ġv ig
Ġprodu cer
Ġleg ally
Ġabandon ed
ĠEm ploy
it ol
Reg ister
f x
ĠP ow
== =
ĠRe quest
Ġl as
Ġconduct ing
$ :
er ge
min ute
Ġles ion
Ġple ased
oc on
p ic
}$ )
Ġinnoc ent
at um
ĠB BC
Ġrem arks
Ġproject ed
à ¶
Ġbelong ing
Ġspecim ens
ĠS oc
Ġst olen
P ool
Ġmon itored
Ġc ats
ĠC HECK
Ġpull ing
ex per
ĠCol lection
Ġimplement ing
app ly
Ġconvers ations
æ ł
Ġincred ibly
v ideo
Ġt ies
ĠM RI
ĠB UT
Ġimp ly
Ġtit les
ĠB ud
on der
Ġs ys
W T
ĠW ars
f g
he ne
Ġnucle i
Ġpo ison
es ian
Ġanim ation
ĠOx ford
č ĊĠĠĠĠĠĠĠĠĠĠĠĠĠĠĠĠĠĠĠ
ĠA li
ĠHow ard
Tr ump
Ġ-------- ---
0 24
k now
Ġt ears
ĠH ub
j ob
w atch
Ġoper ational
Ġless ons
Ġbi ology
class es
Ġassert s
Ġcontrovers y
* \<
Ġsub stitute
Ġenem ies
ĠR ules
Ġlog in
Eval uate
er ver
Ġin adequ
crib e
S k
Ġconsider ably
> ::
ĠS F
ĠU SE
yl ation
Ġheart s
ĠN ob
s ol
ĠI de
Ġrem edy
Ġneigh bour
Ġo cean
and y
Ġeth anol
ĠUS B
Ġfem in
ĠAut o
Ġcorpor ations
s r
ou ds
Ġdis pos
Pol icy
Ġ ë
ĠB udd
15 4
Ġmer ge
ĠD A
Ġs ocket
ĠL oad
pl atform
S K
Ġreview ing
Ġgly c
D ATA
Ġa ug
ĠC ab
Ġpre fix
DE BUG
ĠOkl ahoma
b oth
hy thm
ĠÐ ´
Ġme als
}{ {\
ĠTrans port
M art
Ġast hma
L ock
ĠM ars
Ġm ig
per iod
Ġout door
Ġpost ing
prote cted
Ġapp end
)\ \
Ġd reams
let al
ĠCOU RT
, âĢĻ
Ð¾Ð »
C OL
Ġ1 39
13 9
Ġconstit utes
ĠM Y
de cl
Ġenc oded
Ġpro c
ĠW atch
Ġint act
Ġatt ach
her lands
Re lease
Ġsix th
habil itation
ex tern
Ġinflu enza
Ġext racellular
iz za
icip ants
ĠBro ther
r ays
sh are
Ġp as
ut s
Ġv iable
im et
ĠT arget
Ġh itting
ĠT an
Ġcons olid
( !
_ >
d one
Ġth rew
Ġdram atically
b id
Th ose
cons ider
ĠAcc ount
Ġrat ings
Ġconven ience
ĠB ry
Ġrecruit ment
3 20
f ar
ĠM oon
fe ed
Ġless er
Ġofficial ly
Ġem bar
Ġinvestig ators
ĠN BA
Ġcondition al
Ġreported ly
Ġur ine
Ġroll ing
ĠC ome
Ġcon cert
Re al
Ġdis se
ĠC e
plic ation
gorith m
Ġsustain able
Ġhand ed
ic ion
comp ass
ĠU lt
Ġcred ibility
T erm
Ġmod est
Ġobject ives
ili ary
ĠT i
Ġafford able
Ġf ate
Ġan not
ĠC SS
re z
Ġr iding
ĠD IS
Ġorgan isms
aa aa
Ġsto pping
Ġ-------- -
=" /
l ied
ĠL es
ĠH ind
Ġent ropy
Ġmorph ology
ell s
VER SION
\ #
ĠU pon
" ],
m ia
Î ¿
at iv
Ġnecess ity
Ġgast ric
K it
ion ic
ĠH an
ĠOrgan ization
ĠMot ion
ord ered
Ġimm igrants
Ġme ets
ĠLab our
it ate
Ġsp here
Ġprom ises
Ġevalu ating
Ġmethod ology
C opy
19 5
pl er
17 7
ĠAlex ander
ab c
Ġpromot ed
Ġ âĢĻ
Ġinit iation
à ¯
Ġball s
FT WARE
Ġc ups
ĠF inal
Ġprev ents
Ġnarr ative
ĠB rief
Ù ħ
Ġrob bery
ĠProte ction
Â Ĵ
(" #
Ġhe s
Ġrem ed
Ġph yl
Ġmer its
Ġ$$ {\
Ġvolunte ers
Ġh ub
Ġden oted
Ġn urse
ĠD allas
Ġalter ations
in ch
Ġpro xim
Ġassert ion
L im
Ġdet erior
ĠM B
Ġan est
Ġart ists
Ġmotiv ation
2 64
: #
Ġins ured
br as
Ġcount ing
C ard
ĠT OD
ivers ary
ĠG ab
Ġ0 9
Ġin ference
Ġste pped
ĠEl izabeth
ch lor
ĠB or
bs ite
Ġsleep ing
Ġas pir
sc ious
d h
ic ode
ĠG ib
he imer
Ġcomb ining
ĠGovern or
pe red
Ġerr one
ors hip
de hy
bul let
b x
Ġa u
ĠJ en
Ġoverwhel ming
âĢĿ )
ĠSum mer
Ġcent rifug
Ġgen otype
Ġult ra
Ġ" -
}$ -
trans fer
ĠS elf
in fected
ĠÃĲ Âº
typ edef
Ġrecip es
Ġd ensities
Ġr ally
ĠTur k
m ind
Ġc DNA
gen eral
D im
Ġpro state
Ġutil ize
ag a
Ġde leg
ĠEd itor
Ġampl ification
m ers
$ ;
ĠP U
ĠN R
Ġmy st
ir ds
Y P
Ġbo ards
ĠB at
Ġprem ises
ĠT ony
Ġpack ed
Ġri val
ĠPalestin ian
al ine
22 2
Ġadapt ation
re view
View Controller
Ġhighlight s
Ġmetast asis
23 4
Ġextract s
Ġadopt ion
det erm
Ġn ick
CH ANT
Ġf erm
ĠB ridge
par ameter
Ġcas ual
is ite
p ed
ĠIm port
s ized
est abl
Ġb reat
ĠD im
Ġsh irt
18 5
Ġgar lic
Ġt ent
Ġdis contin
Ġrem and
ĠC orn
Ġ1 75
ĠW orks
Ġph ones
Ġtest ify
Ġcam eras
Ġinnov ative
Ġpro pri
ĠĠĠĠĠĠĠĠĠĠĠĠĠĠĠĠĠĠĠĠĠĠĠĠĠĠĠĠĠĠĠĠ ĠĠĠĠĠĠĠĠĠĠ
Ġg amma
I K
ĠB all
Ġcurv ature
ound ing
exp ression
qu oting
Ġoper ates
ĠFin ancial
og onal
Ġcl ip
Ċĉ Ġ
.[ ]{
Ġdiscuss ing
user name
ĠPUR POSE
D T
ĠS K
Ġinf ra
Ġsh ame
Ġob sc
j ack
Pl ayer
Ġacqu ire
ä¸ Ń
T ON
č ĊĠĠ
ĠCom b
c ourse
is en
ĠR F
Ġun iqu
Ġinvest ments
Ġmy el
ĠD ouble
Ġpr ayer
Ġatt ending
Ġret ention
ĠEX PECT
Ġ" %
ateg y
Ġsaf ely
æ ŀ
op ol
ĠIn cre
Ġ% >
Ġre cre
ad ies
Ġ` `
ud es
Ġpost operative
ĠMat the
p ing
Ġgra b
Ġresid ue
A H
Trans form
ĠLic ensed
ud ge
Ġup grade
Ġhuman ity
ymmet ry
Dav id
M IN
g z
o en
art ifact
Ġso vere
Ġw ages
ĠW ould
Ġappe aring
ĠN ight
Ġarbit ration
x ff
ĠS ep
30 5
Ġdevelop ments
pl o
Ġdis hes
Ġconfirm ation
r ific
ĠC re
s ent
Ġ' /
Û Į
S i
ex ists
ir ts
ĠBer lin
m k
Ġt mp
Ġp s
om ing
Ġelect roph
ĠT reatment
ar ound
=" -
Ġra ces
Ġjud ges
ĠTenn essee
Ġt utor
æľ ī
ĠExp ression
Ġp ink
if ndef
Ġsuscept ible
Ġab ilities
Ġi o
return s
Â» Â
Ġoccas ions
t ain
Ġlength s
hav ior
ĠC lick
ock ets
ĠC N
Ġdownt own
Ġchar ging
uls ion
ĠMean while
Ù Ĭ
Ġy ard
Ġdist ribute
osc ow
Ġun ity
20 6
Ġearn ings
iss ue
lim ited
24 7
Ġ Ø§
ĊĠĠĠĠĠĠĠĠĠĠĠĠĠĠĠĠ ĠĠĠĠĠĠĠĠĠĠĠĠĠ
Ġref rig
19 80
app er
Ġvalid ate
Ġdiag onal
In valid
e conomic
ĠM other
ential ly
v ariant
equ als
Ġb ol
t f
Ġre pository
ĠB ad
ĠH al
Ġtrig gered
Ġw rap
ĠV ery
Cons ider
g el
Ġshe ep
~ -
ĠH om
Se lected
fl ag
in ery
ri ends
20 9
Ġd ated
ĠB M
Ġtravel ing
Ġ12 1
Ġfre ely
Ġfru its
c ies
Ġflo ating
3 000
å ¯
Ġlegisl ature
qu ire
ĠCapt ain
Ġg li
he art
Ġm esh
Ġspe aker
' ))
ĠYou Tube
V V
y t
Ġp ole
Ġ2 40
j or
Ġrot ating
ens ation
B LE
Ġv as
Ġheav en
ur ches
oc he
Ġint ensive
hes es
Ġover se
ĠÃ ħ
ĠS quare
Ġhom ogeneous
ĠInt eger
ĠStud io
ĠC IA
ik ing
ous es
av ax
Ġol ive
Ġrece ipt
Ġindust ries
ĠBl ood
ĠAuthor ity
5 12
init ial
2 25
CHANT ABILITY
ex cept
CR IPT
Ġmist akes
Rem ove
ig hed
ĠE mer
EN CE
17 6
Ġspeak s
ĠE ar
[ :
p ub
2 16
ĠO ak
ĠTr ade
Ġprotest s
ĠPARTIC ULAR
mer cial
G RO
k w
Ġ0 8
Ġload s
b rief
pl ug
Text ure
i ors
it us
Ġcent uries
Ġunivers ities
G H
}} }_{
ĠSing apore
ĠHot el
ĠJ am
ĠRober ts
f ox
Ġexc itation
F i
Ġdist ress
ĠAust in
Ġle mon
Ġinv asive
Ġprogn osis
T ry
g p
in os
ì Ŀ
Ġt ap
Ġhe lic
UT F
) ->
M atrix
Ġdef icit
Ġst ain
M ember
By te
V R
le e
Ġh ire
ĠP u
Ġ-------- --
Ġenorm ous
ĠWH ERE
tw itter
]- [@
ĠS ure
Ġgrant ing
ÃŃ a
ĠCap ital
p aren
ed itor
Ġd ont
tr l
Ġb other
od a
ann on
Ġbas al
![ ](
c u
Ġdro ps
ĠSy rian
ĠCru z
0 38
res olved
re ction
m ys
o ft
ĠP ear
ir i
Ġte asp
Ġmotiv ated
m ag
Ġsh out
ĠJ ay
}} }(
Ar ch
Ġgold en
Ġoxid ation
ĊĠĠĠĠĠĠĠĠĠĠĠĠĠĠĠĠ ĠĠĠĠĠĠĠĠ
ĠEx press
Ġmay or
Ġadv ances
big l
Ġstation ary
ick ed
ĠCl ark
Ġpain ful
Ġexperien cing
d istance
Ġavoid ed
z ens
ĠV ector
0 28
ig g
Ġ Ñ
Ġpass enger
Sh ort
Ġens uring
Ġaver aged
)) ?
Ġtherap ies
j oint
Ġfluores cent
amp ing
Ġsubstr ates
Î ½
ĠApp ro
t ically
ĠJ osh
.. .,
Ġprob ation
Ġselect ing
Ġ19 73
to o
18 8
ĠFIT NESS
, [
Ġaltern atives
ĠNot ice
ĠF act
ug g
Arg ument
30 3
Ġl act
pro b
Ġgre y
oc ur
Ġar ts
Ġinfect ious
ĠN H
Ġint im
Ġsk ip
Ġfurn iture
= $
ĠT rib
g on
Ġw x
Pro gram
D ouble
Ġall ocation
ĠH ur
re act
ut ors
ĠC redit
Ġpres erved
ess ages
ĠW ales
ĠEx ample
P rim
ĠNet herlands
}} )$
t or
S al
ĠT am
Ġcon c
Ġharass ment
Ġas ync
Ġp uzz
d frac
ĠM arsh
cont roller
Ġem ails
Ġbr ands
Ġill um
Ġempir ical
ĠBe ing
Ġhydro ph
Ġcross ed
Ġre levance
Ċĉ Ċ
Ġred irect
Ġ19 50
Ġref use
Ġsup ers
ĠSO FTWARE
Ġsh ops
19 7
19 8
Ġg it
Sum mary
ĠSt ock
ĠR ab
Ġprof ound
Ġnurs es
H ome
Ġde ck
Ġdes erve
Ġ------------ --
Ġembar rass
D an
Ã ¥
Ġantib iotics
ĠKe ep
) -\
Ġcont amination
Ġoblig ations
z es
ĠL ater
15 3
Ġbe ef
ĠJ ason
J ob
ĠA I
Ġ12 2
Ġb os
ĠRes ponse
ĠLouis iana
Ġentre prene
Ġo c
ĠH A
ĠN eg
Ġp ap
, ,
h ou
\| _{
activ ated
ut o
Ġconve x
Ġmanufacture rs
oh ist
Ġdis cre
Ġthrow ing
Po inter
_ *
en ch
s ince
Ġprec ip
o ose
p us
Ġexc use
h idden
em en
ĠL ive
Ġc md
A ug
ic ating
red uc
Ġtyp ename
Ġd ir
14 8
odynam ic
Ġc rop
Ġdon ors
19 82
de g
}_{ -
och astic
' -
P ad
ĠEngine ering
ĠĠ Ċ
Pl ay
ĠP ri
res istant
18 4
Ġjust ified
Ġcho pped
ĠH istor
Ġ3 60
Ġcor rupt
18 7
Ġcount ed
F in
Ġrev ised
ĠJ ane
Ġthere after
ix on
Ġadhes ion
L IB
W in
que ous
Ġsoph istic
g ate
ĠL yn
AR K
oph ys
ãĥ ³
[ ]{
ĠW right
op a
Ġa pt
ĠH ad
Ġinc idents
Ġca f
init ely
L in
Ã§ Ã£o
ĠK h
ĠâĢľ [
ĠN i
at isf
ĠUn like
Ġamong st
re x
requ ired
Ġvolunt ary
Ġf ought
Ġv iability
P ay
Ġex empt
Ġtransl ated
Ġillust rate
Î µ
ol er
ĠGen er
Ġinst ability
ĠWalk er
c ross
arc hes
Ġbl ade
Ġgast ro
Ġhipp ocamp
Ġreg im
I Z
å į
Ġcon current
om ics
we re
Ġmet rics
d id
l ass
Ġt err
Ġintrodu cing
she ll
ĠSt ore
Ġse arched
Ġtr unc
Ġp ressed
Ġal ien
os ures
z an
DE F
big r
Â ¡
Ġpro x
ĠO THER
Ġun law
link ed
L eg
19 83
Ġ19 72
r ator
cept or
net work
ĠOlymp ics
ex pr
oll ary
Ġrank ed
L V
S il
od ot
** _
Ġtum our
Ġinsert ion
d river
ĠD ark
ĠN ev
17 4
ĠMor gan
A h
ed ly
ĠBuild ing
Ġp aste
se par
Ġcataly st
S ave
T rack
Ġf asc
Ġre active
ĠE PA
Ġhop ed
Ġpseud o
âĢ¦ âĢ¦
Ġdiscipl ine
ĠN M
ph ant
Ġclin ically
ĠDo ctor
Ġcomb ust
t ry
ĠB esides
se a
Ġback up
Ġpul s
{ $
0000 000
B i
Ġcert ified
l m
ĊĊ ĠĠĠĠĠĠĠĠĠĠĠĠĠĠĠĠĠĠĠ
æ ³
ĠU r
les h
20 2
ĠSar ah
ĠSum mary
ĠMER CHANTABILITY
} )$.
ĠS ab
M us
ĠR on
M ask
m ouse
Ġf etal
Ġinter ven
air y
=\ "
Ġconj unction
A ST
ĠSen ior
ĠMount ain
Ġdisappe ar
et ically
S am
re str
her ry
ĠP ier
G a
-------------------------------------------------------------------------------------------------------------------------------- --------------------------------------------------------------------------------------------------------------------------------
ĠNAS A
Ġprim ers
Ġdiscl ose
Que ue
Ġp and
g ency
Ġfig ured
st ock
ant o
Ġch ips
UT H
Ġbu f
atal og
Ġst ocks
ĠL iver
Ġ$ |\
Ġr if
." "
ex ception
Ġdat abases
Ġf n
Ġspec ification
Ġcurrent s
ĠT a
em phasis
Ġshow er
Ġprodu cers
Ġbut tons
Ġloc us
Ġa wards
Ġb ail
Ġle mma
Ġdelet ion
Ġmarg inal
Ġann oy
ĠOther wise
Ġw ise
Ġend orse
Ġt ear
em b
s omething
P LE
ul ates
Ch annel
ĠPh ilipp
15 2
Ġel abor
og rams
ij ing
ĠSen ator
Ġexpl oration
Ø ª
ĠA A
Ġactiv ists
ĠPsy ch
ge bras
Ġpred etermined
orig inal
ul atory
Ġinter rog
ĠFr ont
Bl ack
ĠM g
ĠB P
her ical
Ġprov in
Ġless on
Ġdis placement
Ġmain stream
l g
Ġtop ology
des ign
Ġ ĊĊ
Ġoutput s
Ġcorre ctions
Ġagric ultural
Ð¸ ÑĤ
he a
Ġswim ming
Ġcon ced
os er
chn ology
Aut o
Ġdemonstr ating
Ġcyt otox
j ango
Ġt ons
os itory
b one
ĠE T
ad ition
ud a
Ġdismiss al
A x
P IN
> ;
Ġa qu
Ġachie ving
Ġcomp iler
Ġappro ximate
ĠRec ently
w iki
3 60
L ight
Ġdis par
Ġev olved
And roid
B inding
Ġunem ployment
Ġan onymous
ess ed
Ġext r
Ġcur ious
Ġgravit ational
( {{\
w oman
Ġun stable
Ġdes ert
Ġrent al
Pl aintiff
oz yg
ĠU tah
Ġqu i
ĠHe art
Ġcyl inder
Ġqu eries
Ġcontrad ict
er on
K n
oid al
W ORD
Sec urity
ĠDe cl
Ġinstruct ed
ĠC E
ĠN at
Ġseem ingly
0 40
Ġback ed
Ġtra p
Ġign or
Ġlo ops
res et
Ġtrans it
ful ness
Ġhold er
ĠM ember
A bs
Ġcerv ical
Ġcomp ile
Ex per
Ġdistingu ished
3 75
int o
22 1
p end
ĠA mb
ĠC ra
Ġwithdraw al
ut her
Ġeth ics
ĠFou rier
) +\
j et
com b
pat tern
Ġthread s
ment ation
14 9
ĠDet roit
Ġconsum ed
hand ler
en o
Ġtw elve
Ġvac ation
ĠE conom
Ġsubt le
ĠA bs
Ġsc ared
Ġl ips
ĠN K
Ġtra iler
ĠAtl anta
Ġbene ath
- ,
il ateral
). \
Ġevolution ary
Ġ Ä
ĠNe ither
Ġreserv oir
Ġv i
add y
ĠMon te
Ġ12 6
Ġdiss ent
Ġtack le
ĠThom pson
Ġcere bral
Ġauthent ication
X i
ĠU P
De cl
Ġprolong ed
Ġde ar
ID E
Ġdem ocratic
Time out
BA SE
20 7
ene z
$ ),
Ġcal endar
Ġpack aging
s pect
Ġadapt ive
t ox
Ġincre ment
Ġclust ering
A pi
om on
ĠV E
Ġtop ological
ĠSim on
Â ħ
0 26
r ated
ĠS EC
ĠCO VID
################ ################
in ters
ellig ence
Ġd ans
Ġh ill
s pecial
ĠL ore
ĠAl aska
Ġpromot es
Ġs ends
ĠS TR
Ġextra ordinary
ĠDemocr at
Ġveter an
ĠI ss
Ġext ensions
Ġmus ical
ĠAff airs
H y
66 66
x sd
Ġoccup ation
v irtual
im ore
ty pen
Ġemploy ers
Ġcontact ed
Ġconcentr ated
Ġgraph ics
Ġco aches
par allel
S ample
Ġm elt
Ġstat utes
20 86
Ġtick ets
ĠAnth ony
ess ment
Ġpublic ations
hent ication
ynt hesis
> "
20 8
sp in
) ](#
olog ous
ĠG irl
ĠMus ic
Pars er
az ole
Ġvirt ue
E Y
Ġh orses
ill in
The refore
Ġreg ret
__ (
ol ute
ĠPhys ics
^ ](#
Ġsort s
ĠSaf ety
e u
ex e
Ġdr inks
Ġaffidav it
f ather
ly n
hy d
pol icy
Ġrelax ation
Ġrecom binant
T EXT
à ·
ĠC ulture
ĠM oscow
ĠF a
Ġcompr ised
Ġmicrosc ope
0 27
ro ck
Ġcrit er
Ġ19 74
Ġhead ers
ĠFrank lin
Ġ" ",
19 9
Ġalumin um
f actory
ĠRem ove
ĠM T
ĠG ET
Ġend ogenous
M EM
e very
m us
Ġhapp iness
Ġrig id
ĠMay or
ul ence
ĠV ideo
Ġsub section
Ġtrans verse
Ġra ck
Ġdirect ors
Ġident ifier
Ġinflu ences
Ġv on
ãģ ĭ
Ġuniform ly
ĠB ull
Pro xy
Ġa stron
14 2
Ġtrans fected
pr ice
Ġactiv ate
Ġweight ed
typen ame
Ġres ign
ĠU buntu
F ore
ĠAn aly
Det ails
ĠP rom
Ġleg acy
Ġst ip
ĠE arly
ĠApp endix
e an
it one
ĠM ove
ĠRes ources
! \
ĠCon fig
ĠBack ground
å Ĩ
Ġvent ricular
Ġpropos als
Con clusion
Be an
Ġd rew
her ic
Ġr ic
Ġen abling
Ġ0 5
Ġdepend ency
ĠD uke
Ġtem pt
Ġth roat
Ġneut r
Ġen rolled
che ll
M Y
am med
ĠV eg
M ath
t ip
Ġhe ated
b n
Ġa queous
Ġl ake
ol o
ĠWH O
Ġ12 9
Ġcyt os
t l
Ġne on
,\ ,
ig ious
Ġbr ut
Ġ" âĻª
ĊĠĠĠĠĠĠĠĠ ĊĠĠĠĠĠĠĠ
ĠĠĠĠĠĠĠĠĠĠĠĠĠĠĠĠĠĠĠĠĠĠĠĠĠĠĠĠĠĠĠĠ ĠĠĠĠĠĠĠĠĠĠĠ
ĠFil m
Ġabdom inal
He alth
ell ants
ĠE ight
cler osis
Ġ[ $\
Ġ. $$
us ions
ĠMc G
iss on
Ġdemand ing
ra gment
ub unt
Ġ7 00
per ature
pro ps
Ġneg atively
Ġ ]{}
Ġfeas ible
Ġcomp ass
Ġfac ial
Ġconv ictions
Ġdu ct
Ġcarb oh
Ġdis position
Ġsynt hesized
Ġch ap
Ġj ew
S pan
cl ock
ĊĠĠĠĠĠĠĠĠĠĠĠĠĠĠĠĠĠĠĠĠĠĠĠĠĠĠĠĠĠĠĠĠ ĠĠĠĠĠĠĠĠĠĠĠ
ĠBel g
P ers
Ġrecommend ation
ĠCh annel
Ġcampaign s
Ġ0 7
* ),
Ġenter prise
r uby
ĠA K
Ġautom ated
PD ATE
Ġh ind
sc an
ith m
Ġsh aped
ä¸ į
F ollowing
ĠA ve
Ġcontribut es
Ġin effective
im eter
if iable
Ġdist al
ĠAss istant
own ers
ĠMan chester
Ġto ll
S N
Ġel ite
Ġpass ive
ĠMc K
ĠGu ide
Ġfor cing
ĠR ick
* ^*
ĠE N
Ġeas tern
ĠBar ack
dehy de
c ook
Ġub iquit
Ġcollect ing
ĠCou nsel
To String
sem ble
Ġwh ilst
IC O
ĠId ent
Ġdev ast
ĠS ud
Ġse cre
Ġdec iding
ĠPh ill
Ġdynam ical
ĠMex ican
claim ed
is ations
ĊĠĠĠĠĠĠĠĠĠĠĠĠĠĠĠĠ ĠĠĠĠĠĠ
Ġsett le
ç Ľ
-- >
ip h
Ġphenomen a
Ġdivor ce
H P
or o
Ġmount ing
* :
ĠSur vey
( __
Ġsub div
c ents
Ġla pt
ĠE ss
Ġspect rom
ar Xiv
Ġup stream
) )$
v ation
}$ ]{}
Ġs ink
Ġcook ed
Ġar rows
2 12
ig ens
ĠM aterial
ĠR ow
Ġwor ship
Ġrender ing
N ever
Ġb aking
Ġtong ue
Ġcomp rom
ĠĠĠĠĠĠĠĠĠĠĠĠĠĠĠĠĠĠĠĠĠĠĠĠĠĠĠĠĠĠĠĠ ĠĠĠĠĠĠĠĠĠĠĠĠĠ
char acter
Ġtranscription al
ĠV ice
ĠCON DITION
Ġorb ital
ĠInt egr
Ġcatal og
ord inate
Ġdialog ue
Ġsu ck
Ġsle e
Ġcum ulative
+ -
ph an
Ġdef ence
ãģ Į
Ġconnect ivity
D est
id i
ĠS V
J P
Ġf ut
j k
t le
24 5
Ġste am
Ġwra pped
Ġv es
Ġant enna
Ä «
Ġ0 4
cer y
Ġca ution
Ġtra ff
ĠLabor atory
Ġreconst ruct
ig e
Ġab road
sa fe
B undle
b ank
in formation
Ġdead ly
Ġharm ful
ĠW rite
é ĩ
ĠS I
Ġcelebr ate
cp u
Ġthe ft
Ġexpl oring
ĠRel ations
Ġa fore
15 9
ĠAd ams
Ġterror ism
f ly
ĠA SP
ĠM M
Ġunder going
Ġpr ide
Ġrele ases
Ġl iv
) ~
M sg
W ord
m ir
Ġa z
ĠDe ath
Ġavoid ing
Ġcomp romise
riv ial
Com ment
R D
m el
m ol
ĠJ S
14 1
F unc
Sh ould
Ġrub ber
\ {\
rec ip
u j
Ġno vo
ĠPol y
ĠDel hi
P ower
ĠIn put
Ġcou ples
.... ..
Ġalloc ated
Ġthorough ly
G D
Ġoppon ents
ĠC ole
U ES
es y
Ġf oo
build ing
ĠAnt i
Ġsl ip
am l
run time
Ġopp osing
Ġdepos it
Ġhun ting
Ġcl one
Ġpl otted
ci pl
er cul
ĠI mp
MO DE
co very
St orage
20 3
ĠB arn
ĠH um
[ *
ing ton
Ġz ones
rop ical
Ġutil izing
Ġcircul ation
Ġencoura ging
month s
or rh
Ġcon e
Ġgr ams
åı ¯
Ġillustr ates
Ġfil tered
Ġcharacter ize
Ð¾Ð ´
Ġpropag ation
Eng lish
res p
17 9
igen ous
Ġv oc
Ġag on
gen erated
OS S
Ġdepos ited
X ml
16 4
Ġp ose
ĠSt aff
In formation
mar ks
AD D
un its
Ġed ited
Ġcal ibration
Ġsoc io
16 2
ĠR aj
ryst al
ĠSupp lementary
Ġcriter ion
Ġexam ining
w ind
Ġto ss
Ġprim er
âĪ Ĺ
Wh ite
Ġâī ¤
Ġasc ending
Ġadvent ure
Ġrest ored
test ing
---------------------------------------------------------------- ----------------
Ġelement ary
Ġhope fully
m ount
th row
ĠR ub
const raint
M ED
Ġw ars
ĠFour th
ĠÂ »
lu x
Ġd x
Ġmount ains
ĠL ady
gl as
Ġaccel eration
Ġreven ues
D ig
ip eline
Ġprob es
è ¦
Ġc ra
Ġfibro bl
ĠSt op
ipp i
[ -
Ġp ension
il ization
Ġout let
)) \
Ġassess ing
Ġslow er
Ġpron ounced
ĠDise ase
IN ST
Ġdemand ed
Ġon c
Ġelim inated
Ġm apped
ĠO pp
ol in
Ġbab ies
Ġsurve ys
ĠPro b
Ġcontain ers
Ġtub es
Ġpneum onia
ĠSte el
u pload
Ġinter pre
Ġcom edy
ĠF DA
ĠG A
Ġproduct ivity
Ġbi opsy
C are
Ġc in
Ġwas hing
Ġco oper
Ġprov ing
Ġwal ks
ĠPh arm
artifact Id
P ress
as ury
ĠAN OVA
exec ute
ĠCom merce
AN CE
Ġbank ing
Ġnull ptr
Ġproxim ity
ĠS cript
h pp
ind ependent
Ġspecial ized
Ġcathe ter
iz ard
Ġdig est
Ġcere mony
Mem ory
Ġ25 6
o il
ĠĠĠĠĠĠĠĠĠĠĠĠĠĠĠĠĠĠĠĠĠĠĠĠĠĠĠĠĠĠĠĠ ĠĠĠĠĠĠĠĠĠĠĠĠ
================ ======
Ġlumin osity
Ġ0 6
ĠTe ch
ap olis
Des criptor
Ġmet als
o j
Ġrecip ient
ĠW at
ĠG ulf
Ġjournal ists
ĠP ubl
Ġrab bit
Ġadequ ately
Ġappell ants
Ġremem bered
c iting
Ġas h
get s
u ating
ĠD VD
ĠL oc
Ġvalid ated
sk ip
g re
amb ling
ĠAn imal
Ġsal ine
Ġess ence
Ġanch or
30 6
ethyl ene
$ ^
F low
ST ATE
Ġhab its
ochem istry
ĠN T
w x
sub ject
Ġmaint ains
com a
P erm
Ġoff enses
ĠLe ban
à Ń
Ġca usal
Ġhost ed
S end
ag ain
\] (
Ġfra ctions
15 8
Ġsche ma
Ġpancre atic
em on
Ġdefe ated
B et
sim ple
ĠSt one
Ġqual ify
Ġhor ror
Ġfat igue
ĠSwed en
Ġpsychi atric
ad just
Ġgrow s
Ġexpect ing
bo olean
Ġscre w
Ġcomposition s
v able
ĠEx change
Ġtou ched
ic iary
Ġent ang
Ġ13 1
S orry
Ġv ic
Ġspont aneous
Ġel ong
comp et
t p
Ġto wer
Ġanticip ated
ĠPetition er
f un
Ġarrange ments
ĠBow l
s ight
Ġpre ferences
pro ve
the ir
ĠC ox
Ġby pass
Ġall ies
Ġdie lectric
Ġprison ers
R IGHT
Ġsummar ized
T om
Ġh ug
Ġantib iotic
L ib
ig s
." );
Ġpass engers
in line
Ġl ane
Ġroll ed
f und
ĠĠĠĠĠĠĠĠĠĠĠĠĠĠĠĠĠĠĠĠĠĠĠĠĠĠĠĠĠĠĠĠ ĠĠĠĠĠĠĠĠĠĠĠĠĠĠĠ
bor ne
Ġcort ical
Ġdepart ure
b as
as ound
Ġ\ +
ĠH S
plet ed
ĠB h
Ġshould ers
set s
Ġ0 3
Ġsp ite
AL S
web kit
Ã ´
ĠJon athan
ve e
Ġwhere by
OP T
Ġout lined
ĠRev olution
ic i
^{ {\
book s
om ed
Ġmin eral
Ġclear ance
ĠCar ter
ĠAct iv
Ġapp ellee
anc ell
b g
Ġde ployment
m other
ry ption
Ġhousehold s
Ġenrich ment
Ġe ars
Ġdeploy ed
ĠG ov
Ġab used
math op
Ġcr ude
Ġtrem end
c ounter
f requency
ĠC ould
Ġfl ip
N M
Ù ĩ
ĠG as
Ġquestion ed
hydro xy
ĠCONDITION S
ĠM ort
In ternal
ul se
ĠG rad
Ġsim plicity
import ant
Ġ ĊĠĠĠĠĠĠĠĠĠĠĠ
Ġd ining
driv en
ubunt or
Ġc attle
ĠC art
Ġterm inated
Ġexerc ises
ĠH AVE
Ġcomp ress
29 3
Â ĳ
38 4
Ġgovern ed
arc el
um atic
Ġr ug
EE E
Ġf etch
Ġped iatric
Ġcou rage
Ġdev oted
ä¸ º
li ers
}{ (
Ġtown s
Ġchem istry
Ġrev ision
Ġc er
iss ippi
fol io
2 23
ĠK al
Ġtime out
Ġperform s
at ivity
Ġse ctors
h ist
form ula
Ġsubject ive
Ġre productive
). ](
Ġsens ing
Ġr itual
lim it
2 80
ĠB ody
Ġcomp iled
Ġphosph ate
Pa ul
N Y
le en
el come
Ð ±
ĠPrem ier
Ġb rows
ĠRe ference
ĠD er
rad ius
Ġregard s
Ġprohib ited
group Id
:" ){
leq slant
>> >
n als
Ġin con
cont ract
Ġregul ating
Ġhand ful
Ġlist ing
l oss
å ½
Ġperform ances
ä» ¥
ĠAtl antic
Se lection
ĠB uff
ĠO k
Ġdam n
Ġge ometric
pan el
an aly
ĠFif th
it ic
ĠA ud
Ġr ounds
Ġdeput y
Ġp up
Ġd irty
Ġg ard
ĠF all
n ia
ĠE conomic
alt imore
Ġde ce
ĠN ig
Ġund ers
å Į
Ġas sembled
Ġs ne
33 2086
SC s
Ġaccommod ate
H ub
Ġhigh way
Ġspread ing
Ġb orders
au er
ĠSt atus
Ġcrit ics
v iruses
icro bial
ĠO cc
Ġreprodu ce
ĠDig ital
S em
ä ¼
ED IT
Ġpract ition
ĠMal ays
Ġin oc
ic ient
Ġlab our
Ġmyocard ial
c n
ĠA gr
******** ****
call back
Att ributes
ĠC ass
Ġsympt om
Ġsuperv ision
Ġcapt ain
Ġn s
Ġi Phone
car bon
rif ice
L T
ĠGree ce
i ative
| _{
au nd
ograph ical
Ġrespon ding
ĠEmp ire
cat en
p ublished
Ġfilter ing
ĠV I
Ġhep atic
ig uous
Ġg ym
Ġsens ory
ĠN MR
Ġrec urs
Ġparent al
paren cy
ur ities
Ġmicro bial
Ġj oke
m iddle
usal em
Ġ4 50
Ġv ine
Ġpath ogen
ĠO w
Ġgr at
s chool
ĠS pect
Ġext ensively
ĠG h
Ġc ant
ĠP F
ĠDep uty
ĠP O
ĠJ un
Ġrec ycl
Ġanaly zing
33 3
ĠM un
Ġsum m
ĠHar vard
ĠLear ning
Ġr anks
ĠBAS IS
Ġg ently
ver ter
be at
Ġconduct ive
id ase
ĠOnt ario
ĠPat rick
long rightarrow
f actor
qu in
ĠD S
Ġen compass
Ġmechan ics
G s
an ing
Ġneg lect
K ind
Ġb ureau
16 9
Ġnight s
ĠP ed
ather ine
Ġs ons
Ġover view
Ġpreced ing
ETH OD
ĠE P
Rel ated
w al
Ġan is
ĠS ite
Ġequ als
Ġinteract ing
2 24
op ens
and ra
lic ations
Ġbub ble
Ï Ħ
Ġw orm
27 0
Ġindic ators
Ġsk illed
âĢ¦ ]
ĠSte wart
Qu ant
Ġrac ing
k top
t ax
ac o
Ġeng ines
Ġconf idential
P ackage
ĠWar ren
Ġen riched
30 8
h n
Ġdem ographic
Ġstri kes
un ks
Ġb esides
Ġre ass
em ploy
Ġo ct
ĠD a
Ġbr ush
) {\
Ġdis able
;\ ;\
Ġbur ied
Ġdiab etic
e ur
ard o
oci ation
N ational
ar o
__ _
s yn
fil m
G reat
Ġ ery
ING S
Ġsurv ived
Ġsque e
2 13
æ İ
ĠD al
Ġwa ited
n ced
ĠMic hel
Ġpredomin antly
un ique
Ġcalcul ating
le in
Ġag rees
Ġloc i
in cre
ĠEv idence
Ġjuris dict
ĠDen ver
ĠW ang
b matrix
n il
down arrow
v ariable
Ġin hab
count ry
Go ogle
Ġf et
Ġbl end
Ġrest art
Ġabnormal ities
ĠDe an
Ġqu otes
force ment
ĠArab ia
40 4
Ġthrom b
Ġthem es
Ev ents
3 12
ash i
Ġquarter back
ĠCl oud
Ġsitu ated
Ġst yl
Ġvari eties
ĠSe ason
}^ *
ĠViet nam
C am
ĠK an
30 4
P erson
Ġ14 5
N ative
ĠSt adium
Ġfeat uring
oc a
con sum
Ġjournal ist
Load er
Ġb om
ĠCo oper
Ġinadequ ate
+ (
Ġint u
ĠRe lease
col n
Ġport able
; "
Ġ2 20
th al
19 81
S everal
n pm
00 10
ari ables
Ġca us
cur s
com plex
Ġcoron avirus
Ġrecru ited
ot or
Ġmalign ant
Ġdecl ar
čĊč ĊĠĠĠĠĠĠĠ
Ġkin etic
Ġcytok ine
Ġpath ogenesis
Ġbrilli ant
ores cence
cos ystem
Ġabund ant
L I
è §
man if
Ġarter ial
ĠH it
Ġto ile
b ing
Ġse ized
ak h
32 4
ĠE le
Ġcur sor
elle es
)) );
V ariable
Ġm u
greg ation
Ġam id
ĠS ET
19 79
amp ed
Ġst adium
ĠG er
ph ones
Ġpol ls
log in
19 4
Ġbad ly
ĠM obile
ĠR ic
ĠWARRANT Y
Mean while
Ġ" _
op ts
Sim ple
ĠTok yo
down load
0 50
ĠAr thur
Ġmanufact ured
Ġg aming
Ġ------------ ---
Ġf lesh
Ġatt itudes
ĠTra ining
Un known
t ics
Ġaccompany ing
ĠI ron
Ġnucle otide
ĠTai wan
Ġvacc ination
B est
b oy
ul ose
S cale
asp ase
Ġd ressed
Ġse arches
Ġmet ers
Ġbe ans
Ġquant ified
Ġclick ing
E s
ĠAr ts
U LE
ĠC ut
Ġ1 64
Ġprint f
!! !!
plic it
sc hem
EN C
Ġe ager
Ġ19 71
sens itive
Ġirre levant
) ",
qu er
Ġfore ach
S ep
av y
æ Ń
Ġe uro
ch y
Ġ4 04
17 8
Ġstreng the
å ¾
gg ing
Comp ile
ĠS ize
ĠD rag
ĠH op
Ġdel ta
Ġgather ing
m ine
Ġf u
ĠL PS
erm i
put ed
z heimer
ĠCh ap
on z
she et
ol as
Ġsp ir
A rt
Ġoverexp ression
ĠC ert
M ove
Ï ģ
St ill
ĠNe uro
ĠB run
Ġsol uble
Ġforg otten
pon s
Ġpath ogens
Ġstim ulated
C ourt
Ġpro st
ue z
Ġcons iders
ĠCont ract
mem ory
Ġcoal ition
level and
Ġmin us
rac ks
Ġgr asp
Ġsubstit uted
H g
Ġpro ton
Ġpro gen
pan ic
ac les
ĠG ard
Ġinter faces
Ġafore mentioned
Ġconstit uted
Ġbul let
Ġb ust
Ġmet adata
Ġb is
ĠL abel
Sche ma
Ġc ous
Ġphilos oph
P N
ĠA CC
v ens
Ġc iting
Ġco in
==================== =
Ġnot able
Ġdesign er
Ġexpress ly
ĠC K
Ġapp le
Ġin ch
Ġd f
Ġaggreg ate
Ġg rip
Ġbes ide
38 6
Ġpharm aceutical
ist ically
Ġd s
ah o
ĠN ik
ĠSim ple
e le
Ġhom eless
io let
Ġblock chain
CL A
Ġdep icted
Ġanaly tic
Ġ" ^
22 8
c rim
im ated
Ġpun ct
R ear
ol ph
tes ters
ex it
ãģ Ĩ
Ġband width
bet ween
Ġ19 68
ĠIran ian
G al
Pro of
Ġnot ification
Ġdist ribut
Ġmal aria
Ġexception al
Are a
Ġtri ps
Ġdiv ine
supp orted
Ġcrypt ocur
Ġ ../
Ġgu ided
Pl ugin
________________ ________________
0 29
Ġaccept ing
num bered
ĠT ed
ĠChar acter
Post ed
ĠProte in
Ġvo ices
um ab
struct ure
d ose
| {\
18 6
Ġpress ing
Ġlift ed
ĠP red
Ġlog ging
th ird
Ġqual itative
Ġre jection
iz ontal
Ġfear s
ĠP AR
ĠTh or
Ġant im
ĠCount ry
Ġsevere ly
H aving
Ġconsequ ently
Ġswit ched
m itt
Ġw ishes
itzer land
ĠB ag
ĠL IM
Ġcot ton
L EN
o ons
T race
C ould
ol utions
Ġrefuge es
A ust
S outh
in yl
ĠH ug
Ġrece ption
V s
ĠJ O
UN D
Ġo w
ou ver
ort ex
AT T
Sc ope
CLUD ING
x d
Ġan a
ĠS ett
ĠD ur
Ġimpro ves
Ġur ged
Ġ( _
ĠPro cedure
Ġcyl ind
an notation
(- \
t v
}) =
F eb
j query
ĠL anguage
Ġautom obile
Ġphotograph s
ĊĠĠĠĠĠĠĠĠĠĠĠĠĠĠĠĠ ĠĠĠĠĠĠĠĠĠĠ
Ġput ative
ev ents
L at
ĠSt ory
com ponents
Ġact in
Ġsi RNA
âĢĶâĢĶ âĢĶâĢĶ
Ġsoc cer
m ock
Ġre ck
19 6
17 1
Ġstruct ured
otyp ic
Ġto k
Ġequival ence
k ed
Ġrun time
Ġcent ered
Ġproduct ive
b rain
ĠI RS
Ġac res
Ġpa ired
ĠC au
ĠL as
Pl ace
Ġorth ogonal
Ġsophistic ated
Ġs ql
Pro p
Ġadm its
HE AD
ĠIN TO
Ġnanop articles
Ġse aled
Ġimprison ment
ĠS ex
Ġwa iver
Ġens ures
ĠF ab
uck er
c H
Ġple ad
A U
x a
ĠH ans
row ave
ob last
h im
ä ¿
un es
Ġcont end
Ġcomm od
arent ly
sv g
W O
t ar
ĠRe act
he ro
ht hal
Ġr anged
ust ration
Ø ¯
ĠC B
Ġclar ify
ĠAr gent
ĠBe ck
ĠRem ember
Ġin complete
ig ating
Ġad vers
N ormal
Å ¡
ĠE mb
Ġret inal
rop ol
check ed
Ġbl adder
Ġrevers al
âĸĪ âĸĪ
Ð¾ ÑĢ
Ġpaint ing
> )
Ġ âĶ
ĠC os
ĠP as
cont act
ĠPort ug
Ġwood en
C ert
ĠWh it
Ġenjoy ing
Ġdiss olved
N H
Ġun reasonable
Ġir regular
ous ing
Ġju ven
ĊĠĠĠĠĠĠĠĠĠĠĠĠĠĠĠĠ ĠĠĠĠĠĠĠĠĠĠĠĠ
Ġspecial ist
Sh ape
ĠQu estion
L ibrary
l arg
Mult i
L iving
Ġact ress
Ġir rit
Ġin ability
am inated
Ġrese m
ĠBe ijing
ĠStat istical
Ġg ifts
Ġroy al
is ol
Ġi OS
... )
Ġ14 4
rec ated
cl uster
ĠP i
ens itive
L en
ĠC ro
Fig ures
ĠS ant
ãĤ Į
Ġland ing
Ġaggreg ation
ĠTe le
Ġd ictionary
ĠRob inson
============ =
Pass word
Ġhoriz on
Ġw ings
ne ut
Ġgo ogle
Ġshel ter
amb ers
ab e
inc ome
R ob
Ġd ough
Ġg host
ç ½
J ack
ĠM agn
ĠF estival
ag ine
Ġstr at
Ġbuild er
ĠA V
l on
ĠE ND
Ġcon ject
te am
S ocket
18 9
Ġcle ared
Ġful fill
Bo olean
ĠCrim inal
Ġg aps
ĠBru ce
Ġspectrosc opy
man ager
ĠH ash
^* $
Ð ¹
ĠSy d
ett i
Ġdo zens
Ġpath ological
Ġ% }
ĠKent ucky
ac a
ac cur
15 1
2 60
ym ers
Ġcontract or
Ġembry os
ĠRepresent ative
ĠB ron
Ġb ite
less sim
ĠP ent
Ġpotential s
Ġprotect s
Ġsubset s
Ġâ Ĥ¬
x it
end ent
= [
arc in
Ġoppon ent
M ill
ĠT y
ĠT ree
ĠCon n
Ġincorpor ate
ĠJer usalem
M arch
PAR AM
Ġaltern ate
R ate
the me
ĠVict or
ĠI mm
bar a
" `
_ **
vis ible
Sc roll
Ġd end
ĠN ative
ĠFr an
Ï ĥ
Ġgen us
Ġep id
Ġste ep
D atabase
ĠN AT
Ġmin istry
Ġdischarg ed
; }
p al
ĠAct ive
Ġdark ness
xx xx
ĠMot or
F ollow
Ã ²
~~~~ ~~~~
Ġn ie
te ch
Ġdeal t
inte ger
p ull
17 2
ĠEvery thing
Ġrec urrent
Ġdesk top
ch at
ĠD ave
Ġim pe
ĠIn ternal
Ġrese ction
Ġcircul ating
A I
16 1
STAT US
ĠEnvironment al
Ċ ĊĠĠĠĠĠĠĠĠĠ
Ġ ic
im s
Ġen velope
Se pt
Ġimplic ated
ex ternal
Ġdep ict
Ġpath ology
Ġalk yl
u ance
æ Ģ
Ġcol ony
Ġce iling
Par se
Ġprem ature
PT ION
Ġend point
ĠDe ad
is o
ĠD oc
Ġcompan ion
Ġhierarch y
re ne
Ġis ot
ĠP ope
s ame
ac s
Ġclaim ant
Ġdiss ip
Ġint imate
li est
Ġin appropriate
ĠN ut
Ġtrans genic
S creen
Ġmy ster
Ġplan es
Ġconne ctor
ĠRes erve
Ġbreak down
ĠMiss issippi
Ġbi ochemical
Ġoptim ized
Ġb anned
30 7
S an
ĠN ich
lic ense
ĠB rew
Ġ' <
ing ham
Ġantioxid ant
j ury
Ġon t
us hes
Ġb od
Ġcomp elling
up arrow
Â· Â·
ĠR at
ite ment
Ġsupplement ed
Ġinter fere
Ġdel ays
]^ ,
Ġvacc ines
Ġgar age
c v
Ġh arsh
P rior
ĠK y
Th rough
ĠOr th
IL D
por ter
Ġtaxp ayer
ĠB ed
iff s
Ã¼ r
Ġcombust ion
Ġbe ars
Ġven ue
} )$,
Ġprov es
** :
Ġover flow
ĠY an
Ġorient ed
23 5
Ġretrie ve
Ġslic es
est y
ĠF ollow
aur a
] $.
Ġassum es
Ġreflect ing
ĠÐ¿ ÑĢ
ĠT ag
Ġsusp icion
small caps
j ax
P U
Ġlov ing
en vironment
Ġr ush
ĠCol on
N UM
Ġn ested
18 2
aint ies
Ġart ifact
M al
r ative
Ġ\ ~
ĠD or
Ġrel atives
Ġco herent
Ġbl ast
Ġel uc
Ġsat ur
k r
r ison
ul as
Ġcompet ent
ro b
ĠComput er
R s
h ook
idd ing
plement ation
Ġbil ateral
Ġassess ments
Ġmand ate
n atural
gu ard
ĠVict oria
H ER
T ABLE
is hers
Ġbe ating
ill o
sub mit
Ġpresum ably
Ġd ashed
app le
Se q
Pl an
Ġanalog ous
ĠAdd ress
Ġwarn ings
el er
id ad
ĠC ow
ĠW olf
ĠL L
Ġconst rued
Ġ? >
Ġil leg
ĠĠĠĠĠĠĠĠĠĠĠĠĠĠĠĠĠĠĠĠĠĠĠĠĠĠĠĠĠĠĠĠ ĠĠĠĠĠĠĠĠĠĠĠĠĠĠ
ĠT X
am ount
Ġbr id
Ġsou p
b ach
n amed
Ġa est
he ta
ĠL arge
Stand ard
W illi
Ġnever theless
Ġcoll ateral
x b
ĠC X
quest ion
j ug
st ant
Ġen roll
Îº B
ĠN HL
d og
ad ic
Ġadd iction
ĠKenn edy
Ġc tx
Ġex on
ĠF ried
Ġconfig ure
R ich
ĠâĢ Ŀ
Ġinter active
ĠMedic are
Ġplasm id
g oto
ĠT u
Col l
ĠGra ham
W atch
m ust
Ġmis conduct
Ġprogn ostic
ĠĠĠĠĠĠĠĠĠĠĠĠĠĠĠĠĠĠĠĠĠĠĠĠĠĠĠĠĠĠĠĠ ĠĠĠĠĠĠĠĠĠĠĠĠĠĠĠĠĠ
ĠSte ven
ĠScott ish
ĠTurk ish
S en
Ġj unior
Ġintellig ent
G reen
ĠL am
Ġch urches
int estinal
Ġfoc al
Ġunf ortunately
( @
Ġfix ing
Ġdisadvant age
Ġle ather
32 7
C reat
Ġh i
cre ated
Ġhyp ox
Ġcook ie
Iter ator
T IME
ĠD I
ĠF low
be it
40 5
n odes
Ġre vel
ig a
Ġco il
Sing le
Ġdis reg
ĠIt em
hen yl
Ġalleg es
Ġnut s
Ġdis g
f at
Ġb ones
Cont act
en abled
load ed
or ious
ĠA le
ĠF M
ĠG ordon
ĠC reek
ĠPart ners
ĠMor ris
Ġdeliver ing
M ASK
ĠH i
ĠG rid
Ġtransplant ation
Mich ael
O O
serv ices
Ġ î
Ġ _{\
Ġneut ron
Ġcompr ise
k h
do es
ĠR ES
W D
Ġd ye
i encies
Ġb ov
ĠCom pl
Ġcoord ination
friend ly
Ġd ock
Ġtrans istor
Ġquestion ing
Ġann ually
Ġunt reated
VER T
M atch
ĠA bb
ĠCo hen
Ġlink ing
leg es
k u
v d
ĠT GF
ol ip
Ġpre cursor
Ġsimpl er
Ġmanip ulation
iz oph
Ġattract ed
ad v
Ġref usal
Ġst ochastic
out heast
Ġthreat ening
local host
Ġcomp lementary
Ġinsp iration
Char acter
Ġ ÑĤ
ĠB altimore
Ġcomm ut
ĠTR UE
p are
ĠA ns
Ġso y
Ġh ockey
sing le
- .
Ġm erc
19 3
ax y
ĠBl oom
Ġport ray
Ð° Ñ
Ġd war
Ġelect romagnetic
Ġfore going
L OC
Ġl uc
Ġform ally
Ġop io
br idge
Rear range
if ference
ĠL D
Ġviol ate
state ment
ĠW ard
50 9
Ġneut roph
Ġjump ed
d ensity
000 6
ops is
ĠMod ern
Ġre habilitation
Ġfail ures
C U
is ible
Ġcom ic
ĠCh i
Ġchromat ography
č ĊĠĠĠĠĠĠĠĠĠ
Ġcl ones
Ġint end
re ported
16 3
Ġs ib
19 77
Ġimp ed
i op
GB T
ing e
Ġnow here
Ġtw ist
izoph ren
r and
Ġown s
Ġuser name
ococ cus
ob by
Ġutil ization
Ġfract ure
Ġsong s
Ġm igr
ĠÂ «
Ġdiscrim in
Met adata
ĠW a
Ġe cosystem
Ġch ick
ĠG it
Ġsm iled
ĠMar x
Ġmoist ure
Ġinf erior
Ġl amp
Ġ' ,
24 4
Ġtouch down
ĠEvery one
c ould
s il
v art
Ġco aching
(" %
Ġc ave
ĠR s
in cess
Ġ -----
ä» ¶
Ġt orn
ĠG FP
Ġref ract
Ġredu nd
ĠPat ri
in ine
ĠBo olean
d ue
w ick
pt ide
Ġburn ed
Ġstre ams
U h
om ous
Ġit eration
Ġsub mission
ari ans
Ġd irt
å® ļ
Ġj avax
} >
Ġfor b
Ġdocument ary
Ġcl ouds
Ġold est
ear ly
ĠPl ayer
O wn
25 2
Ġgu ards
Ġprox imal
c op
d ynamic
ul us
Un iversity
Ġexec ut
Ġpeace ful
è¡ Į
ĠT ro
ĠD ad
ĠPr int
Ġb ot
ĠV eter
R ober
c z
c ible
p n
Ġsw ord
Ġdou b
Ġadjust ing
ĠCON TR
] +
Ġins isted
ĠSN Ps
{ {{\
Ġun related
ĠBl og
Ġinj unction
ĠEv ans
C ast
c od
ĠAl zheimer
Ġfire arm
: [
Ġc asc
======== =======
ĠLa ure
Ġmetall ic
ĠM and
Ġpl aus
AT CH
add le
p ages
Ĭ ¦
Ġm arrow
Ġent ers
oly tic
Ġ19 69
19 78
, .
am an
Ġu h
Y et
Ġb icy
Ġcommer ce
ĠW ind
37 8
Ġphot ons
Ġver b
sn ap
ig o
Ġg i
ache l
ĠSyd ney
Ġur inary
En um
Ġsupern at
W ed
Ġs its
id ays
c ity
Ġsurprising ly
V O
Ġproced ural
r f
ĠDe velop
Ġsuper conduct
e ctions
Ġd erm
Ġorgan isation
ĠS EM
h ide
}} {{\
pro to
ĠRec ent
Ġfif ty
ĠE state
Ġdead line
s ay
Ġm ism
Ġpri est
ĠO tt
18 1
Ġf estival
Ġaccess ed
ĠCurrent ly
k k
ĠB art
ĠH REF
Ġfollow ers
L F
j ournal
ĠY ES
f ac
Ġs ender
Ġrespons ibilities
INT ER
ĠInd ones
aret te
Ġarth ritis
b asic
ĠSh are
D b
v ae
R Y
Pro te
ĠSte p
Ġmi RNA
} &
he at
Ġchar ity
P rivate
Ġregul ator
ĠBet ween
In f
Ġtrad em
Ġlux ury
i q
Ġ18 7
s b
ĠB asic
Field s
ĠAnton io
Ġî Ĭ¦
ov en
Ġinvent ory
m ont
Ġover head
Ġpurch asing
Ġteasp oon
t oggle
Ġis omorphism
pc bi
Ġpopular ity
ĠÃĲÂº ÃĲ
Ġst oring
St ruct
ĠAl b
Ġlog o
Ġscript s
Ġfin ishing
Ġsal ad
Ġeconom ics
ĠAppe al
pa id
0 33
g ender
li ver
Con dition
Ġdisappe ared
) '
ĠS in
ĠM aterials
) }_{
am el
ĠV A
aj ax
å Ģ
Ġab ol
Th ough
Ġsy m
Ġsex ually
Ġneurolog ical
ĠSc i
Ġbit coin
ĠRuss ell
M eta
st ory
ĠF ix
Ġdepend encies
ĠSing le
Ġposition ing
prim ary
ĠĠĠĠĠĠĠĠĠĠĠĠĠĠĠĠĠĠĠĠĠĠĠĠĠĠĠĠĠĠĠĠ ĠĠĠĠĠĠĠĠĠĠĠĠĠĠĠĠ
C apt
Ġinf ar
Ġcorrespond ence
og an
Ġdis ruption
Ġintegr ate
Ġfavour ite
' ])
Î ´
att ributes
Ġconv ince
prot ocol
or us
out ube
Ġve in
Ġle ar
ey ond
B N
Ġ Å
sp ot
it on
Ġridic ulous
Ġunlaw ful
ĠPol it
ou stic
Not es
Inst ead
D ES
=" {
Ġs our
Ġre q
id ation
ke ep
Ġsort ed
Ġagric ulture
ĠN elson
Ġref und
Ġsqu ares
Ġin coming
Ġheter ogeneity
Ġultr asound
Ġass ured
AN S
.' "
Ġth umb
u ates
Ġapproach ing
Ġappropri ately
hes ia
Ġmetabol ites
ĠChair man
R end
ud son
ĠSuper ior
ĠR C
Ġampl ified
and um
bal ance
Ġwor n
f ixed
k b
Ġt elesc
Hel p
b ie
on ce
Ġgirl friend
B en
an cer
ar ma
Ġ$ _
Ġcol ored
Ġkill er
Ġtrust ed
hed ral
Ġsign atures
Ġadoles cents
ass ador
ĠRes ource
ĠMem bers
ercul osis
ĠC leveland
Ġappear ances
f an
Ġ! ==
UR N
depend ency
Ġsac rifice
Init ial
ctic ut
- )
ment ia
ĠF reedom
O FF
e clipse
Ġdemonstr ation
ot ics
Ġal ias
ĠD ick
config uration
at able
ĠP AC
ĠW L
3 01
N othing
Ġ( âĪĴ
ĠN an
det ail
ĠE dition
Ġfin ancing
Ġcapital ism
pow ered
Ġj Query
Ġinv oke
ĠL ock
ĠIN C
ÂłÂł Âł
Ġspl itting
Ġ| =
ĠOlymp ic
ĠM ORE
ĠQ uality
OU NT
am az
ĠL ane
ert ainties
Ġst ressed
com mit
23 8
gl uc
ĠReg ional
S ER
Ġche aper
Ġundert aken
N K
p es
23 7
Ġcontin uum
Ġdefin ite
ĠPB X
á¹ĩ a
J ames
sc roll
Ext ension
Ġretros pective
Ġp orn
ĠAl an
Ġengine er
S uch
ro d
ĊĊ ĊĠĠĠĠĠĠĠĠĠĠĠĠĠĠĠĠĠĠĠĠĠĠĠĠĠĠĠĠĠĠĠĠ
Ġmulti pl
comfort able
Ġgen omes
Ġsl ides
Ġbra ins
Ġde br
Ġcro ps
ĠL iving
Ġper mut
Ġflu ids
Ġchamp ion
Q R
Ġmod er
ĠSw itzerland
AP P
Ġscr ut
Ġremind ed
Pres ident
s ocial
Ġst ays
ĠE SP
Ġun changed
sh adow
pre v
pre ced
aug hed
Ġz inc
Ġcost ly
ia e
p atch
om at
te enth
Ġco ated
Ġsl ave
Ġattend ance
Ġwon dered
Ġund es
id ency
Ġr ated
Ġsub scrib
Gener ic
ĠD ak
b rew
Ġ19 67
get Element
Ġirrad iation
» ¿
Ġvot er
J une
Ġ ----
Ġf ence
sc ore
ah oo
22 9
fl ix
Ġlack s
- {\
Ġhydro ly
Ġdepart ments
ĠPitt s
Ġview ers
cont ains
H a
#### #
Ġelev ation
Ġrom antic
7 50
ĠW R
process ing
qu ote
ĠF at
op les
Ġle ver
fe ature
anc ouver
ĠPl ain
bra ce
Ġr Ã©
all ed
Ġinterview ed
Ġcred its
ĠP arent
Ġann iversary
á¹ Ľ
ĠLin coln
Ġassem bl
ist le
Ġmon etary
Ġdisplay ing
oglob in
p kg
Ġhere by
K K
f mt
000 8
EM ENT
O k
ĠS cal
ĠC OR
ĠD AM
ĠCon vention
m oz
Ġwhe els
ateg ories
' ];
as ures
ĠH ttp
ĠV M
row ing
Ġov arian
Ġrot ate
node ID
Ke ep
us c
Ġch unk
hold ing
Ġpert inent
Vis ible
Down load
ĠPh ase
Ġpack ets
Ġvent ure
ĠBre xit
ĠÂ§ Â§
ĥ ½
all enge
Ġglass es
Ġtra pped
opt ional
op ard
Ġch i
ys et
Ġun ions
B as
P B
v iol
ab a
Ġfl aw
Ġpress ures
Ġinhib its
xim ately
ext ension
Ġelim ination
C enter
w estern
on ucle
ĠA x
Ġde pletion
Ġgener ators
section al
ĠCamp bell
st ates
Ġpl ed
Ġsy na
st airs
ĠM ess
Ġconf ined
Ġstrong est
Pat tern
K O
ĠD atabase
o ffic
ĠD ES
w riter
ĠW y
immun e
L ow
or able
Ġtra it
C ent
iz ar
ter y
th ink
time out
ĠB attle
Ġsu ited
Ġinf er
Ġspeak ers
Ġunc ertainties
Ġfant asy
A pril
ĠE ver
Ġexem pl
Ġroll er
Ġcon cludes
od ox
ĠN os
Ġpan ic
om o
US ER
Ġsecur ities
M ock
ce iver
19 76
reg istry
Ġloc ate
function s
Ġisol ate
Ġappe aled
~ .
ĠF ALSE
Per haps
3 64
ĠM ov
Ġproblem atic
^âĪĴ /âĪĴ
ĠFed eration
Further more
I ll
Ġc ute
as et
Ġadvoc ate
iss ues
Ġsimult aneous
Ġan notation
Frame work
ĠDou glas
Ġl aughed
ĠP el
ĠN um
ĠG ary
ĠÎ ´
Ä ĩ
ric ulum
br ane
Ġ19 2
Ġhead quarters
ĠTechn ologies
Ġm arch
Ġst raw
Ġv apor
oy d
Ġclar ity
ic he
ĠTem ple
r x
Ġc rown
res olution
Ġsu its
Ġr amp
Ġz ip
SE D
}}( {\
ĠT her
Ġord inance
Ġworth y
Ġaw k
R ender
V ery
dat abase
m outh
re ach
ĠG un
6 387
S un
Ġ14 9
Ġan k
ĠC av
Ġ" '
ac ular
ĠAgr icult
ĠV II
29 4
æĹ ¶
Ġsub stitution
Ġacc us
par ameters
Ġlog s
Ġdr ift
Ġemb race
Ġstream ing
Ġdisappoint ed
# .
v ubuntor
Ġm ush
Ġ[ âĢ¦]
ĠZ n
Ġliber ty
Ġsp ine
AR CH
col lect
Ã¡ n
ĠAng el
ocl onal
De legate
ä½ ¿
oen ix
ĠB ios
ĠH em
ill us
ĠJ enn
Ġev id
Ġnutrition al
Ã ¹
as ac
Ġerrone ous
vart heta
N orth
am ents
Ġpro jections
Ġtext s
T imer
Ġfr iction
Ġachieve ment
ĠASS ERT
ĠP ER
Ġexpect s
Ġsub scription
}. \
Ġw ore
Ġcompl ained
ĠS PE
Ġlabel ing
ativ istic
ĠPhil ip
Ġimp ressed
COM P
ĠT LR
ĠTh ink
28 8
Ġflow er
Def endant
Ġhydro x
Ġpig s
O s
T B
Ġtra ins
60 5
ĠS ide
ist ration
ass ium
S eg
ĠLegisl ature
Ġsu ite
plic ate
Ġaccount ed
Ġl ag
ĠF E
ok ers
math it
OU ND
Ġsam pled
Am ong
Ġse venth
Ġterm in
S B
W ould
st orage
Pro gress
Ġball ot
Y Y
Pro file
ropol itan
E lements
ct ive
Ġl ith
Ġeduc ated
al og
Ġpract ically
Ġconsult ation
Ġ19 1
Ġlaw makers
Ġport s
Ġmetast atic
ra it
par ser
Ġphen otypes
Ġcompar ative
ĠCON FIG
Ġlic enses
Ġb ay
ro v
d ark
m il
gen e
ĠPut in
ãģ £
Ġkey board
Un fortunately
Ġlung s
Ġh iding
oun cing
ĠA u
ĠM MP
Ġcor ners
Ġintra ven
Ġsp herical
SE C
Ġemploy ing
Ġsum s
Ġassert Equals
Ġfib rosis
B egin
t re
Ġ2 10
Ġmamm alian
as cin
err ors
c ause
Ġm useum
H F
f are
u pt
en h
res ources
con n
Ġpr icing
34 8
En umer
Ġalgebra ic
Ġmunicip al
b atch
Ġd w
act in
reduc ible
ĠR ange
Ġrel iance
Ġinv ite
Ġsk i
ĠPD F
Ġgrap hene
æ Į
Ġdr ill
ĠRom ney
M a
Ġbiomark ers
\ }$.
Ġorgan ism
Ġwin ners
PL C
32 3
Ġ16 5
28 5
ĠFin ance
Ġrecom b
d w
6387 19
C opyright
ĠPort land
H I
d ump
t rain
se ctions
} ),
th ood
Ġsh ar
ĠIn stit
Ġrel ie
Ġp upp
st ats
Ġinte gers
Ġes cal
Ġconvin cing
Ġf iction
Ġh iring
ĠF ly
: /
M G
ä ¾
Ġbon us
es c
omet ers
Ġb p
ĠH ell
unc hes
MA KE
Ġaut ophag
uk i
ĠGr iff
l as
TR UE
bold math
ĠVill age
m aker
Ġd t
ol k
Enc oding
ah u
e fficient
ro st
Ġh unt
ĠM IT
ĠP os
Ġpay load
ost ics
Ġdefect ive
Ġscr atch
m icrosoft
è Ģ
ĠL ICENSE
Ġlig ands
un ting
pect ives
ĠS now
ĠA CT
Ġphot ograp
H O
g iving
Î »
á ĥ
Î¼ m
ĠM ust
ary n
ert o
ra ise
32 1
Ġ15 5
eral d
Ġwild life
Ġp ays
ĠAltern atively
Ġtraff icking
Ġb ore
Ġro ster
Ġbro ker
Ġpenal ties
re cted
-> _
Ġp ale
Ġsc andal
ext ra
n ative
32 8
66 7
; <
Z nodeID
Ġm art
Ġd in
Ġcle avage
Ġstandard ized
acer b
ĠMatthe w
Ġu ph
Ġinter pol
A ns
Ġqu ark
Ġstrength s
ĠMult iple
Î ¹
t ags
Ġw ard
ang les
ĠHawai i
ĠPe ace
Ġdro pping
Ġaccum ulated
ĠM uch
oph age
Ġess ay
op ter
ĠU C
Ġfoot age
Ġduplic ate
el ed
Ġ2 30
Ġex terior
ĠV a
ĠY ang
Ġpolymer ase
ĠG DP
Ġpolynomial s
Ġsh ook
Ġimport ed
Ġfund ament
Ġattack ing
Ġg em
22 7
Ġtechn ological
Ġpubl ishing
Ġ riv
Ġcompass ion
Y S
Y ear
l ad
n ick
Ġb tn
ation ally
=" "
Ġterror ists
Ġ$ ,
cf g
rocy tes
R C
\ (
augh ters
Ġqual ities
S ymbol
c oding
Ġis lands
Ġcab inet
ĠF al
Ġsucceed ed
Ġtremend ous
\ %
iss a
ĠOr ange
++ ++
struct or
Ġint rig
Ġlong est
) },
S elf
Ġpat ents
ĠIraq i
g overnment
32 6
1 0000
D omain
ĠS B
Ġad missible
Ġlapt op
riv ing
Ġtem plates
Ġspeed s
Child ren
Ġsu ed
33 5
ab olic
Ġob server
Ġtempor arily
E uro
f ood
t race
Å Ĥ
Ġve c
AB A
Ðµ Ð¼
Ġstrugg led
Ġfo am
ĠC AN
Ġwe aken
qu et
Ġsurviv ors
) >
L IST
.. ...
Ġatt enu
rag ma
Rep ository
Ġinfra red
ĠE li
Fl ag
Ġeigen values
b idity
Ð¸ Ñ
á¹ £
Ġcataly tic
j amin
Ġpsych ology
Ġrank ing
ĠR and
Des ign
Ġ" ${
oth y
Ġtri angle
Log ger
27 5
ĠPol and
Ġgra bbed
Ġwell s
Ġfree ze
lock ed
28 7
Ġcru el
yd rate
er d
ER Y
ĠMar ia
Ġpro testers
ident ifier
ĠInt elligence
ĠB row
25 7
Ġrest ing
Ġnormal ization
aid en
e enth
ĠM ann
prot otype
Ġmyst ery
* ).
ĠH ost
pro xy
not es
Com mun
ĠMar ine
ĠF iles
umn i
ĠInt el
ĠPrim ary
Ġw anna
ĠS ac
Ġqu art
man y
Ġtem ple
Ġtraject ory
Ġsc attered
Ġpr inter
32 9
26 5
roph ys
. __
G old
36 5
Ġrespons ive
Ġdiag rams
Ġsoci eties
. <
t ensor
ad os
Ġval ued
Ġmar ine
AA A
ĠCommun ications
Ġon ion
iv an
Ġadj ud
ĠPre vious
ĠER R
st ick
Ġfor ty
ch art
ĠB aker
ĠE val
Ġref using
Ġpreced ent
s ix
** ).
l ia
s ig
ĠD omin
ang a
Ġinf usion
ĠSN P
âī ¥
, *
ĠM os
ent o
Ġem erge
ĠCOP Y
] $,
enez uel
Ġsh ake
ag ents
ens is
\* ](#
Ġdiff ers
ort s
ĠĠĠĠĠĠĠĠĠĠĠĠĠĠĠĠĠĠĠĠĠĠĠĠĠĠĠĠĠĠĠĠ ĠĠĠĠĠĠĠĠĠĠĠĠĠĠĠĠĠĠ
^ .
ĠF ast
Ġad ren
Ġvolunte er
compat ible
Ġu gly
po ons
Ġcons ume
S at
s z
d ifferent
Ġp icks
Ġax ial
Ġhepat itis
I ss
R oute
ie re
d ll
æ į
ĠD ub
ĠLaw rence
Ġg ates
Ġrecip ients
A z
am ate
ĠI DE
pend icular
ĠN D
Ġgot ta
Ġcert ification
M ouse
Ġdet ention
an ium
ĠL V
Ġthy roid
ĠS ug
ĠO cean
ian ces
ffect ed
Ġgar bage
ĠLiber ty
ĠNew ton
Ġhonest ly
ĠSher iff
const ant
2 15
Ġn M
æĸ ĩ
A udio
ĠC arm
pack ages
c mp
Ġf oss
ke e
Ġdes cent
yl on
Ġlow ered
Ġinstall ing
F inal
Ġsp ouse
ĠH ER
ĠT ool
ĠH ung
]{} .
Ġd ots
fore ach
23 6
Ġconsum ing
ĠConne cticut
Ġsh ifting
ĠRes ult
Ġâ Ļª
Ġredist ribute
ç §
Ġh oly
Ġrac ist
p f
Ġth ym
Ġz e
à¤ ¾
Ġreprodu ction
d st
m om
Ġ[ (
Ġgl ory
AG ES
M ON
å ¹
Ġt f
Ġb ump
ĠC BS
Ġsub space
arg ument
Ġflow ing
Ġoverse as
Î¼ g
ar ial
Ġdest ruct
ĠVeg as
Ġ elli
ĠC rown
ĠE ve
Re view
ãģ ĵ
Ġprompt ed
C AP
Ġ15 7
Ġkne es
N I
Res ources
P AGE
ĠT M
se cret
rit es
ĠCom par
75 4
C y
C HECK
ĠD rive
yl ene
gen ase
ĠChar lie
Ġfif teen
iem ann
g ic
s ymbol
Ġ ##
ac iÃ³n
Ġrel uct
es pecially
ĠP ET
Su ccess
t rial
ĠState ment
Const raint
VAL ID
T AG
U K
Ġcol lections
ĠDe bug
ĠB D
Ġinvest ed
Ġhost ing
car b
Ġrelax ed
t ub
Ġsub unit
ĠÂ ·
Cont in
More over
00 20
ĠB us
ĠR av
28 4
ĠS ay
Ġlymph ocytes
ĠWork ing
Ġantim icrobial
Ġsub groups
Ġcontem pl
H tml
33 4
}) ^
ĠAct ivity
ĠHel p
A IL
ov al
ĠCor ps
Ġgra ins
Ġsyn c
F older
Ġp unch
Ġbit ter
ĠOR DER
ĠG ray
ĠE E
Ġprob abilities
Ġcy ber
Ġneighbor ing
m eth
Ġbre eding
UT E
Ġbott les
: '
ĠP riv
Ġant it
s ync
ĠDe ep
Ġpra ise
F ire
Ġd ps
Ġ" .
Ġapplic ant
State ment
Ġn aked
UR I
un iform
Ġant igens
ĠO wn
ĠChrist opher
Ġtrust ee
Ġad herence
Ġper pendicular
] >
ĠC OL
Ġ$ ^{
33 6
0 21
Â Ļ
Ġcon gression
Ad v
Ġmic rowave
35 7
---------------------------------------------------------------- --------
ren cies
Des c
Ġhor rible
^ [
é Ĺ
et ed
Ġsch izophren
ot ides
op ing
28 9
Ġglob ally
con sole
With out
U B
l ive
Ġthe ater
ath on
Ġver ification
Ġdil uted
Ġtok ens
Ġshock ed
ĠS DS
Ġnot ably
Ġgen otypes
AL E
rypt ed
: @"
g ie
Ġcomplet ing
ĠTOD O
Ġtrans c
Ġtransport ed
0 34
F ailed
u u
ĠEx amples
v ic
Ġl id
ĠS el
ĠH CC
ĠF le
uck et
Ġmor bidity
Ġple asant
Ġinher ited
ĠW inter
Ġworld s
Ġdiff use
ĠChristian ity
prote in
Ġrel ay
Ġpr one
C ook
Ġp ants
Ġd ub
Ġbeh ave
CL C
ĠĠĠ ĊĠ
ĠP P
Ġcoll agen
Ġh r
Ġhy d
Ġ19 64
Ġp ound
Ġd ign
Ġde formation
ĠHigh way
Ġlif ting
l ord
Ġiniti atives
ĠP V
cl inical
ĠYOU R
sc ar
pr ising
Ġsp ell
30 2
23 3
Ġtrou bles
Ġnod ded
w ire
ĠM ach
Ġclass room
Ġlim b
Ġtim er
Ġreal m
å ¸
Ġf right
Ġpolym ers
R P
d m
ĠO FF
Ġdr illing
mut ex
w hether
Ġ2 25
Ġback ing
Ġmult ivariate
Ġconcept ual
Ġ{ },
Ġafter wards
ï¼ ī
st an
se en
Ġ[ ],
sh ire
Ġ17 1
Ġout s
We ight
i ably
ĠS ent
ĠCont act
n ik
w rapper
ĠJ u
Ġun comfortable
Ġbond ing
im als
ĠH us
Ġobst ruction
l inks
oc o
Ġ\* \*
Ġdesper ate
N OW
Ġphosph at
Ġob s
24 9
ĠNe ed
Ġtr ash
Ġbre ed
Ġout line
Ġchar ter
Ġunt o
mi R
Ġpars er
Ġr am
Ġph on
Ġfl ed
Ġobserv ing
comp are
A IN
Pro tocol
ĠCle arly
Ġoccas ional
Ġ[ \
Ġben z
Ġbuy ers
W K
PL IED
ĠAP PE
Ġpros per
Ġadhes ive
il ized
Ġcounterpart s
Ġlast ing
Ġexperiment ally
Ġembed ding
rem y
Ġaud it
/- /
æ Ķ
ĠInd ividual
NE W
Ġbatter ies
ard less
RE T
Ġdr um
nav bar
he im
Ġp c
Ġadvoc ates
s ided
ĠF T
ĠR u
styles heet
ig ator
Ġcry ing
ĠE mail
ĠO NE
port ion
BL IC
Ġasympt otic
W ARN
ĠAll iance
Ġdr unk
Ġprec ious
ĠMA X
grad uate
. *,
H TTP
Ġwork place
Ġtrans parency
Ð¾Ð ¼
Ġdefic its
S pecial
l ag
p nt
ĠR y
Ġregul ators
Trans action
ĠCast le
em ption
AN Y
Ġrele asing
Ġcondition ing
ran ch
N L
O ld
Ã ¯
ros ine
IF T
g mail
ĠT ogether
ĠÎ ³
Ġ( {\
ĠN P
Ġcam ps
oster one
Ġlack ed
E p
ĠG il
Ġpotato es
osex ual
F und
I l
Ġconst rained
Ġinev itable
Ġex acerb
ov ation
Ġwa ist
Ġcongression al
Ġbase ment
ĠT rial
Ġbar red
ai ro
PR ESS
c ad
Ġse q
ĠG T
ĠInd ependent
osp el
bo ost
19 75
Ġpaint ed
m atic
ĠW AS
ãĤ ĵ
Ġo u
ĠP erm
Ġcivil ian
ĠEth ics
17 3
Ġw ires
by e
Ġo we
Ġim g
Ġpar ks
Ġhand les
Ġplan ets
sy nt
P et
Ġt au
ou bt
Ġwe aker
ĠR oom
ĠComp ared
ï¼ Ī
k ov
text it
Ġred shift
Bl ue
Ġalt ogether
in itions
Ġsold ier
ĠChem ical
W rapper
Ð ³
Ġland ed
Pr ice
direct ory
f ail
s qu
en cer
80 8
Ġprospect s
Ġseiz ure
f etch
Ċ ĊĠĠĠĠĠĠĠĠ
ĠB B
Ġmitochond ria
Ġ*/ ,
Ġlog ar
d n
_{ {{\
45 6
Ġnut rient
X Y
č Ċĉĉĉĉ
ĠB urn
Ġoverl apping
? :
ĠT ru
um at
() ));
Ġ14 6
Ġdest ro
ĠMur ray
Ġdef ending
Ġnut rients
? !
R ole
Ġinvest ing
Ġoff spring
} </
âĢ ł
Ġev ac
Ġsl iding
ĠTre asury
ĠHig gs
ass y
Ġent ert
22 6
ĠAssoci ated
Ġpurs uit
getElement ById
t reatment
Ġcomp artment
st ation
2 18
Ġstreng then
Ġkid n
Ġdescript ions
Ġa pert
Ġj acket
Ġover look
Id x
Ġsimpl ified
W hether
Ġsu cc
Ġsh ore
ch t
Ġunder ground
gen eric
IE q
Ġhung ry
Ġ ðŁ
um m
Ġtrans fers
ina fter
Ġâ ĨĴ
Ġtransform ations
Ġst unning
26 6
object s
/ "
ĠV ancouver
Ġcha os
') );
ĠCL ASS
Ġhal o
chem ical
c g
ul ic
Ġcount ies
N ER
Ġlar vae
S cal
ĠM aine
Ġsac rific
Ġabsorb ed
al gebra
Ġre lying
ĠH P
Ġmult ic
Ġparad igm
ĠLiver pool
ex pect
25 8
ĠÐ ¼
Ã¨ re
ĠGab ri
P resent
it ant
() ).
40 8
att ed
ĠReg ion
ore ct
Ġtables poons
Ġlit eral
Ġtom ography
p ire
¦ Ĥ
le ans
Ġinf erred
G EN
Ġc ass
ĠM eg
Ġ19 65
Ġam mon
ĠMe chan
Ġquadr atic
o ct
Ġmar ry
Ġne at
ĠG W
St atic
he nd
cc a
Ġintention al
Ġmarg ins
ab i
Ġdec ree
VAL UE
ence phal
Ġag ar
Ġcal ories
Ġdownload ed
ĠMult i
ĠU l
Ġadd itive
Ġrest oration
Ġver te
Ġir r
Get ty
ĠR uby
pro gress
bl ank
Ġupd ating
ĠPet ers
ĠMarsh all
Ġste al
D epend
Å Ľ
Ġal ike
LE ASE
gl ut
ĠMem orial
inter pret
/ #
al ias
ĠR andom
Serv ices
ç ±
Ġro cks
Ġgener ous
Ġharvest ed
Select or
40 7
Ġ15 8
Ġinc urred
ĠOther s
Ġfirm ly
ĠØ§ ÙĦ
el ian
Ġnom ine
Ġf ier
ãĤ ¹
ic ator
Ġpe ers
Ġdetect able
Ġpreval ent
Ġreform s
Ġkick ed
est ine
Ġres erves
ĠJ J
ĠEqu ation
ë ĭ
ust ed
Ke ys
R aw
ĠN ormal
Ġo un
ĠJ ess
Ġconf using
S ql
ast ically
Ġsur f
Ġwa ived
Ġplate let
Point s
è¦ ģ
ab y
i asis
ĠCom ment
C re
ĠP ap
ud o
Ġ14 7
P od
l ip
Ġd uck
ĠH ills
Ġcont ing
Ġap i
Ġvill ages
è ĩ
í ķ
Ġaw ful
30 9
54 9
Sc an
Ġscient ist
Ġbright ness
Jo in
ĊĠĠĠĠĠĠĠĠĠĠĠĠĠĠĠĠĠĠĠĠĠĠĠĠĠĠĠĠĠĠĠĠ ĠĠĠĠ
ĠStan ley
ĠC AR
Ġpl aque
ĠĠĠĠĠĠĠĠĠĠĠ ĊĠ
Not ification
Ġnec rosis
Ġtra ged
Ġ15 1
Com put
Reg ion
h ind
Ġindirect ly
Ġbuild s
Ð½ Ð¾
Ġpresum ption
0 36
ill ation
Ġshe ar
US A
ĠArray List
ĠM ind
Ġass isted
Ġr het
ad ows
Ġher itage
Ġcryst als
Ġp izza
ost asis
Ġob ese
ĠZ hang
Ġaccel erated
ĠEL ISA
INS ERT
r ang
re ck
Ġwh ites
ong o
Ġg aze
ĠIs lands
Ġsil ly
Ġab st
Ġdon ations
Ġmi RNAs
Ġjuven ile
s am
OR M
Stat istical
C ity
ĠK EY
Ġrout inely
M aster
ĠO racle
alth ough
sh ips
Ġterm inals
28 6
ze ch
Ġpurch ases
ĠSub ject
Ġdepos its
W C
Ġl adies
He ad
ĠLike wise
R X
S ure
at z
ĠF ermi
Ġrem od
Ġcoc on
Ġperturb ation
Ġst ub
Ġimag ination
e as
is ers
| $
Ġcrit ically
bour ne
Ġdisse min
Ġwealth y
Ġemphas ized
ID TH
Ġprepar ations
Ġconver ting
Ġsp are
Ġsens it
ĠÃ Ħ
osc opy
B u
ĠC ertain
Ġ( +
flu id
24 1
por al
ĠStat istics
ars on
is i
ĠHe y
sc al
work ing
Com ments
urs or
Ġport folio
load ing
cos ity
ĠNE W
Ġ14 3
Ch ain
Ġsatisf actory
Ġtort ure
Ġ( ).
Ġref err
T ri
cer n
Ġstat s
Ġadministr ator
Ġg low
ĠL ower
ĠK han
Ġsp ike
Ġbu gs
Ġintention ally
%%%% %%%%
Ġre per
Ġacc ret
Ġlaugh ing
b inary
ĠTh ings
ĠTh read
Ġselect ively
od o
RE QU
IC H
/ )
ĠT ABLE
Ġup grad
of lu
ĠStud ents
Ġjur ors
img ur
ĠAir port
ob uf
Ġca ption
NOT ES
Ġl enses
ĠV R
Ġatt ain
Ġend less
Ġhyper b
N B
Ġout lets
ĠM oney
ĠPh ilos
Ġcontext s
Anal ysis
ä¸ ĭ
bel ie
ä¸Ģ ä¸ª
J uly
âĢ ³
19 70
ĠSe ven
ĠBut ton
Â İ
ĠN BC
ond a
ĠCl ient
Ġex ports
Ġk er
empt yset
orient ed
Ġscre ened
0 35
W W
ul k
ask et
ÑĢ Ð°Ð
[ $\
23 9
Ġredu ctions
Ġreve aling
A cknow
Ġf ires
Jan uary
ine a
ur ious
ĠO d
Ġ19 30
AD E
Ġshall ow
FFFFFFFF FFFFFFFF
Ġneutr ino
p ract
atal y
W elcome
l c
Ġt itled
ĠT F
ĠC over
Ġst ones
B io
ĠP rivate
th s
ft en
sequ ence
Ġend e
\ ;
v n
ib an
ov irus
Ġ14 8
Ġc raw
Ġr ay
Ġsum mit
Ġbed s
Ġveter ans
Ġher b
Ġins urer
ferent ial
pin ion
ĠHun ter
W as
ĠN ort
ĠDet ect
D rop
Ġan omal
Ġn u
Ġeth n
Ġsurge on
A f
Ġa in
ĠSm art
pred ict
ĠRespon dent
% "}
t b
ă ă
ĠA qu
du cer
Ġback ward
ĠAl ber
Ġtight ly
Ġsimpl est
Ġt ire
Ġfor k
EL D
ĠPart icipants
Ġdil ution
Ġforg ot
preced ented
R ot
Ġs isters
Ġequ itable
34 4
Ġf aint
upp er
Ġfar ms
Ġcycl ic
Ġgastro intestinal
ch r
Ġdifferent ially
Ġconduct ivity
Ġhem orrh
ĠB eth
24 6
W arning
Ġjust ification
sh ore
24 3
ĠCo al
Ġwound ed
Ġglob e
ç ī
Ġm ud
Ġass ass
ric ane
ĠSh an
bur se
Ġperman ently
ure us
Ġab ort
ber ries
Ġmon oclonal
Ġaccel er
Ġfinger print
al one
Ġcontribut or
Ġpul ses
P air
ĠJust in
ĠRec ord
Â Ī
ĠT el
An n
Ġ" *
ĠĠĠĠĠĠĠĠĠĠĠĠĠĠĠĠĠĠĠĠĠĠĠĠĠĠĠĠĠĠĠĠ ĠĠĠĠĠĠĠĠĠĠĠĠĠĠĠĠĠĠĠ
ĊĠĠ ĊĠ
Ġconstruct s
ĠO kay
ĠAnd y
Fe ature
ĠSpring er
M or
c apt
it ably
Ġhel per
Ġdesign ing
ĠNa Cl
L M
Ġswe at
Ġpri ze
d ialog
ĠâĢĵ ,
Ġlight ly
ĊĠĠĠĠĠĠĠĠĠĠĠĠĠĠĠĠĠĠĠĠĠĠĠĠĠĠĠĠĠĠĠĠ Ġ
Ġmach inery
Ġcivil ians
pers onal
def endant
ĠAb d
âĢĥ âĢĥ
Ag ain
qu ito
Ġcontin uity
Ġpolit ician
Ġswit ches
ĠP oll
B ro
Ġpolit ically
v ity
Ġl y
ĠS ave
ĠP od
Ġ20 2
ĠOr leans
ASS ERT
ĠCle ar
Ġpar ole
lement al
Ġamb ient
f ocus
ĠT S
Ġsc rap
ĠCl ay
J apan
g nu
j j
ĠG PS
ĠP G
EN S
ĠAb stract
urb an
Ver tex
Ġf oster
Ġsoon er
Ġl ord
amm ad
99 8
Ġport al
Ġcub ic
ens en
25 1
ĠAn ne
Ġ2 60
ĠK i
Ġdiscl aim
ĠMem ory
sen al
ĠB and
ĠRe uters
Ġsupport ive
Ġbind s
Ġdress ing
Ġc f
Ġcor pus
Ġinvest or
Ġhe y
ĠBr and
Ġcan vas
ĊĠĠĠĠĠĠĠĠĠĠĠĠĠĠĠĠ ĠĠĠĠĠĠĠĠĠĠĠĠĠĠ
Ġ14 2
ĠOb viously
ORD ER
Ġanaly st
Ġbron ch
b h
e cess
Ġaddition ally
ĠPh oenix
Ġf ascin
ern and
ĠL l
de velopment
45 5
ĠMur phy
A lex
Ġh alt
int endo
ne ath
ĠV in
Ġsuccess ive
ĠL GBT
Ġdec ides
Ġdev iations
Ġbroad ly
Ġengine ers
ĠSing h
set up
ĠT ob
ĠG ill
ress ions
Ġcar pet
W M
Ġra bb
Ġregul ates
m art
ĠT reat
Ġf reed
Ġex tern
O ffic
Ġwal let
Ġto y
ĠS ound
un numbered
ĠS UM
âĢĿ ).
Ġemerg ence
i ota
Â ¬
Ġtw isted
Ġrenew able
W orks
x ious
ct omy
Ġde mentia
ĠPro f
' _{
n h
ĠG arden
Ġexplos ion
Ġtact ics
ĠL DL
Ġexp ed
F la
Ġb ib
Ġst airs
b usiness
Ġmod ular
ss on
)) ))
Ġrac ism
Ġcolon ies
ĠPark er
Ġlock ing
Y ES
it atively
ĠP ub
rac ing
E lect
yl um
^* (
Ġbuck et
in her
os al
Ġmed al
Ġuniqu ely
Ġmiss ions
\ **
ĠH ep
Ġ15 6
schem as
. âĢĶ
e or
ĠU ntil
Ġcyt ometry
Ġpow ered
Ġep ile
Ġdraft ed
Ġcontrad iction
Ġu mb
ĠF un
Ġalle les
Ġc is
], \
26 7
US B
Ġbuy er
Ġfle e
F Par
se gment
Ġour s
}) ^{
ĠColl ins
v id
Ġcomment ed
bu ilt
d ie
acter ial
ĠConst ant
ĠGener ally
Ġur ge
ĠMit chell
M aterials
yl er
ST ART
Ġquant ification
Ġclean ed
ri ors
iz on
Ġexp ose
ozyg ous
ĠR oute
Ġver bal
Ġrecall ed
Ġeleg ant
Ġdebr is
F M
I gn
ar an
s al
ĠE lectric
Ġple aded
T x
h over
Ġw ished
ar b
Ġcomp ressed
R ay
d irection
ri k
ĠF ish
ĠPitts burgh
Ã ¸
Ġa rose
ac ry
Ġapp et
ser ies
ĠOut put
Ġpossess ed
ĠB erg
Ġpun ish
Ġlat ent
Ġcelebr ated
L anguage
M en
d ag
Ġb ell
am o
Ġcom o
ĠL ang
Ġint ens
Ġph p
ĠT aking
Ġident ities
ĠPl ant
n atal
Ġfl ies
Ġtradition ally
Ġexceed s
Ġtor que
C reated
Ġar Xiv
ise cond
overs et
Ġexch anges
cipl inary
t urn
AR G
Ġneur on
Ġs ie
Ġat e
rom y
50 6
ank a
\ -
Ġse cular
29 6
s ym
um ble
cc cc
Ġir reducible
ex isting
Ġbov ine
S omething
ĠH O
Ġconcent rate
Ä į
ĠS ym
ĠSTAT ES
ĠL ip
ĠV enezuel
36 8
script s
Ġprison er
Ġreg istry
29 7
Ġcompat ibility
FUN CTION
ĠA Î²
ĠW S
ĠWork ers
æĸ ¹
t m
est e
tt es
vol ume
Ġo wed
Ġc ath
000 7
ey er
Ġyield ed
del ay
Ġli en
R a
ss l
40 2
Ġwind s
Ġexecut ives
te es
Ġout rage
Ġopen ly
col lection
ĠInst agram
Ġathlet ic
an ine
Ġking dom
D s
Ġsing ing
Ġdon ation
ass ign
ĠĠĠĠĠĠĠĠĠĠĠĠĠĠĠĠĠĠĠĠĠĠĠĠĠĠĠĠĠĠĠĠ ĠĠĠĠĠĠĠĠĠĠĠĠĠĠĠĠĠĠĠĠĠ
Ġsp acing
we ak
18 3
Ġoil s
Ġemphas ize
plug ins
w ers
ĠF el
Ġnew er
Ġ15 4
ĠTw enty
9999 9999
Ġrecomb ination
p k
List en
ica id
ĠInit ial
Ġpredict ing
Ġc aspase
ĠArk ansas
itone al
e V
FF ER
Ġw ounds
Ġd aughters
ĠA uth
rit eria
sl ash
f aster
Ġselect or
Ġtradition s
OUR CE
Ġche er
Ġtechn ically
Ġimmun ohist
ĠConst ruction
, [@
ke eper
ĠG ram
ĠApp ellee
Pol ice
Ġg y
Ġdown ward
Sp ring
Ġske letal
ãĥ¼ ãĥ
ĠUn iverse
Ġsw allow
product s
Ġquiet ly
}} ,\
Ġte aches
Ġalleg ing
ĠWal ter
Ġexem ption
ĠMathemat ics
Ġb ent
ar in
ĠM n
Ġgro cery
00 15
ĠLe ader
Ġge omet
Ġcocon ut
Ġant is
che mic
p he
Ġem it
ALL Y
cut aneous
Ġbod ily
de ep
Ġem itted
80 4
Ġingred ient
ig rant
Ġlog istic
ĠH end
ren a
Ġorig ins
Form s
Ġdry ing
ÐµÐ½ Ð¸
Ã ¦
Ġg ases
ĠSw iss
ĠAg ent
ç± »
B ACK
F IL
r n
Ġex cluding
(' /
Ġfix ation
Ġrail way
Ġnewsp apers
Ġt anks
ed uc
Ġ16 8
ĠPer formance
Ġexceed ed
F ROM
åĪ Ĩ
U PDATE
Ġg aining
Ġfor fe
ĠD T
Ġlike wise
rypt o
ĠFrame work
/ ?
Ġsper m
ik h
Ġprior ities
cs v
orect al
ĠJ oint
ĠCl ose
RE CT
29 8
48 5
Ġdynam ically
Ġd airy
B asic
Ġw t
ke ley
ĠL uke
Ġmet er
ĠId aho
| ^{
ic ates
Ġsp iral
Ġdes erves
Ġintent ions
Ġsubstant ive
ĊĊĉĉ ĉ
(" /
Ġ19 0
Ġ9 00
Ġinf inity
Ġpost er
res olve
un ion
hes ize
ĠCon text
Ġchlor ide
Ġobserv ational
Ġleuk emia
ĠM K
ens itivity
Conne ct
Ġappro ve
s ed
Ġ4 01
ĠDis cussion
Ð°Ð º
Ġcycl ing
P oly
Ġm akers
Ġj ack
ival ent
Ġtr unk
Ġob ey
Ġco ins
jack son
' "
0 44
Ġdet rim
Ã¡ s
com pl
SS L
ĠDown load
ent ric
Ġsh ade
27 6
CON T
Ġguarant ees
Ġenact ed
r ame
Ġnot ified
Ġqu arters
Ġpat ri
Ġhe ars
Ġprim itive
d ates
ch rome
ĠD H
ĠH M
IC AL
Mem bers
Ġsyna ptic
g f
} |\
â ķ
Ġcut off
ipp et
po inter
Ġso ap
et on
ĠR P
arg o
ev idence
L ear
Ġf id
om ology
ĠS omething
ĠO t
ail and
Ġcar go
SE M
Ġadv ise
Ġtal ented
ĠTurn er
Ġl azy
ĠP ad
Ġx en
Ġfibrobl asts
ĠR R
pro c
Ġ15 2
Ch ina
Ġcomment ary
ĠDet ails
op last
Ġ{ '
Ġcor ne
ĠPhys ical
Ġ---------------- -
Ġbeat en
) ]{}
RO W
ĠJ ob
res pect
An imation
Ġear ning
Ġeditor ial
ĠP ast
add ed
ĠT ab
ok a
Ġinst antly
ĠProduct s
ĠI E
ĠA MP
ĠB lu
ĠH LA
Ġres il
iel der
, ...,
Ġ2 70
ars hal
ĠQ t
¿ ½
Ġde ed
ĠD ow
hat tan
Ġelectron ics
ol ation
Ġhy dra
ĠE ither
oun ters
run ning
p rec
sc ience
ex amination
She ll
se lection
ĠR d
27 2
Ġair way
T or
Ġw are
um ar
pp y
pl ess
29 5
Ġa ortic
en ic
Ġv end
ĠK ir
Ġpur ple
Ġ ];
ĠH ilbert
=" _
bo ards
ĠAss ume
enc il
Ġwitness ed
ĠPract ice
Ġal gebras
Ġall ergic
ĠK ings
ĠStan ford
ific ates
Ġcos mic
ĠCle an
Ġembod iments
Ġb or
ri en
cy l
ĠLim ited
iz ens
25 9
Ġheter ogeneous
D ifferent
ĠG aza
Ġins ulating
role um
ĠNig eria
Ġimp art
Cl uster
Ġut er
Ġ19 66
Ġinst inct
rel ations
Ġtoile t
pect or
ron es
ĠTra vel
process or
F ragment
ĠC el
Ġal i
est one
for cing
Ġtomato es
D W
p ragma
it ives
ĠH erm
Ġcur riculum
Ġmis leading
å ¦Ĥ
ĠĠĠĠĠĠĠĠĠĠĠĠĠĠĠĠĠĠĠĠĠĠĠĠĠĠĠĠĠĠĠĠĠĠĠĠĠĠĠĠĠĠĠĠĠĠĠĠĠĠĠĠĠĠĠĠĠĠĠĠĠĠĠĠĠĠĠĠĠĠĠĠĠĠĠĠĠĠĠĠĠĠĠĠĠĠĠĠĠĠĠĠĠĠĠĠĠĠĠĠĠĠĠĠĠĠĠĠĠĠĠĠĠĠĠĠĠĠĠĠĠĠĠĠĠĠĠĠ ĠĠĠĠĠĠĠĠĠĠĠĠĠĠĠĠĠĠĠĠĠĠĠĠĠĠĠĠĠĠĠĠĠĠĠĠĠĠĠĠĠĠĠĠĠĠĠĠĠĠĠĠĠĠĠĠĠĠĠĠĠĠĠĠ
Ġcreat ures
look up
Ġtub erculosis
Ġplaus ible
pos ite
19 74
Ġfriend ship
Rem ember
Ġcar ing
anc el
ĠB uck
pon der
ĠG ate
26 9
Ġtyp edef
Vis ual
Ġcred entials
Ġtutor ial
N eed
39 7
neut ral
Ġas leep
let t
che at
![ **
Ġt am
ĠGet ty
Ġlic ensing
ĠPhilipp ines
l av
Ġcont raction
19 1
ĠL P
ĠAdv anced
P ack
---------------- --
Ġpat ches
sim ilar
r ors
Ġt une
it i
ane an
it ar
Ġn ail
ĠB ishop
Ġstim ulate
Ġn ont
ĠM ission
Ġup ward
Ġs or
am ation
ĠG H
def icient
Ġorgan isations
t et
Ġc our
am ino
ĠM Hz
Ġep ic
Test s
Ġmorph ological
ac re
Ġch iral
Ġdi oxide
Ġathe ros
& =\
h istory
Ġd ors
Ġins ult
with standing
Ġdep ressed
ĠVE GF
ĠW i
ĠPro c
Se quence
Bit map
S ync
j av
er als
el ines
ĠM d
Ġtr ucks
Ġacc idents
ĠAl ice
75 6
F amily
M il
Ġ' %
Ġactiv ist
35 4
Ġinflu ential
Ġrock et
Ġepit he
Ġc el
Ġd ich
}\ ,\
Ġspec ulation
Ġmarked ly
Ġmicrosc opic
Ġrail road
Ġexplo it
Sept ember
Ġfil tration
Ġwa fer
Ġquant ify
Ġinto x
Ġel ic
Ð¾Ð ³
ĠMcC ain
t ot
Ġ2 80
Ġtouch ing
Ġwarm ing
j an
Qu estion
C u
Ġtra ces
mod al
Ġcab in
FOR M
c red
ĠW ILL
88 8
AD DR
32 2
ENT S
Ġresearc her
ĠCh rome
Ġmist aken
bre aking
. ]{}
ĠG y
Ġwhere ver
Ġproceed ed
det ails
0 60
as ync
os i
Ġrep airs
arcel ona
Ġ\ (
ĠD est
Ġus eless
Ġgrad uated
Ġen semble
IT S
Ġdam aging
idel ity
Ġmerg ed
é ¡
re peat
Ġal lev
lib s
Ġcapac itor
ĠWay ne
B ur
Ġs ail
Ġw and
ĠS ox
Ġident ifies
e lection
ah n
Ġf mt
ut er
ĠAl f
CT RL
LA ST
3 40
e ous
Ġh ollow
ĠA wards
ĠN ash
Ġun precedented
Ġery th
st eps
Ġback s
ner g
48 1
Ġc ad
ur u
Ġmon ol
Ġauthor ization
ĠQu est
Ġd ancing
ut enant
Ġad ul
PI O
h ill
Ġd ash
Ġse vent
Ġnot ify
land o
27 7
t alk
ĠĠĠĠĠĠĠĠĠĠĠĠĠĠĠĠĠĠĠĠĠĠĠĠĠĠĠĠĠĠĠĠ ĠĠĠĠĠĠĠĠĠĠĠĠĠĠĠĠĠĠĠĠ
Ġun itary
Ġt ile
in is
ĠB iden
ĠK r
c art
ĠT C
ĠAp J
Ġbench mark
pnt d
\ }\
ot ive
Ġcommercial ly
DEV ICE
os ine
ps hire
26 1
Ġl ighter
50 5
Ġcop ied
æ³ ķ
Ġmon ster
Ġ20 4
Ex pr
ĠJud ges
38 5
CC ESS
Ġnom ination
Ġde legate
ĠG onz
sur face
ithm etic
Ġanim ated
Ġped est
Ġepidem ic
ĠUnivers al
Ġp ione
oc ate
ĠCOM P
{ %
ĠLe v
Ġund is
Ġweak ly
é Ŀ
Ġcol leges
string s
Ġear liest
Ġgraph ic
@ @
s at
Ġst ance
Ġgly col
sw ift
Ġsusp icious
Ġch im
Ġstart up
br and
Ġenh ancing
Ġmathemat ics
ĠPublic ation
Ġtw in
ĠLib eral
è¡ ¨
G N
k ernel
Ġf est
Ġl un
Ã© t
Ġ17 7
Ġexc itement
f ed
Ġp g
bb ing
Ġelim inating
ĠBel ow
( %
Ġc ube
Ġsupp lements
ĠAl t
Ġsat uration
Ġv ocal
Ġsu pre
Ġtr illion
ident ified
amp a
35 8
}_{ {\
Ġrefere nced
Ġsa fer
ble ms
90 6
Ġball oon
T OR
Ġbo il
Ġcompet itors
M ag
Ġl ately
Ġcr icket
Over all
× Ļ
ĠG E
T ell
Ġt ended
00 11
Ġr outer
Ð°Ð »
Ġveget able
Ġment ally
Let t
in x
Ġim posing
let ed
label ed
erc ise
Const ants
Ġf ancy
Ġneglig ible
ace ae
Cle ar
ĠEag le
P red
at itis
ĠR N
Ġdis abilities
head ers
Ġgra ve
"" "
{ |
Ġch ron
Ġnation wide
Ġnorm s
ĠQue ens
Names pace
canc ers
3 15
E th
nd um
ub ern
Ġvis cosity
Ġloy al
å ·
Ġg orge
Ġaggrav ated
å ī
ĠC old
Ġgen etically
ĠCar lo
ynam ics
ĠBar bara
Ġp ine
Ġdi ets
Ġenc ode
Ġretrie ved
Ġmaxim ize
WR ITE
ct l
ug s
Ġfr ustration
ĠHig her
ĠT alk
act ing
oot ing
ĠM aj
Ġbo ots
AC S
pol ar
27 9
Ġbi ased
inv oke
ĠB reak
ĠRe ading
Ġrot ational
Ġdiver gence
U ns
ra ctions
ĠM achine
Ġob jections
Inst all
Ġnas al
id yl
ĊĠ Ċ
ph ab
ĠFl ash
ĠConserv ative
ĠC iv
Ġsh oe
eb ra
Ġspecim en
Ġrational e
ĠC RE
24 2
34 7
oll ar
othe tical
Ġsupre me
^ (
d L
Ġdes ires
FI X
ĠRog er
E NA
Ġform ats
Ġ14 1
Ġce ment
Ġfaith ful
ĠStr ong
Ġparas ite
Ġin ert
ĠT ower
50 4
39 8
dis able
ĠSus an
Ġb row
et itive
Ġqu as
ĠPa per
Ġaffirm ative
ĠNev ada
ĠW ash
Ġ* ,
De cember
Ġaw a
Ġben ign
ĠIndust rial
d uration
ul u
Ġmi xtures
EG IN
Ġproport ions
lem ma
Ġdefic ient
Ġfol lic
Sm ith
^^ ^^
5 000
Ġglut en
Ġp ause
ĠS end
ĠS port
Ġjud gments
Ġ_ ,
Ġanaly sts
di ag
Oct ober
ter min
80 5
DE X
Ġfascin ating
ir s
dim en
Ġpot assium
log ger
Ġm ate
Ġgr am
26 8
ĠPh D
ortun ate
Ġcon ceived
are ttes
Ġterm inate
64 7
ĠMar vel
CM D
t frac
umb led
ophage al
S ometimes
Ġinit iate
Ġknock down
# ,
> ";
Î ·
he aring
Ġu i
av an
ob serv
Ġatt ribut
aps es
Ġprot otype
Ġelectro ly
PRO C
ĠA aron
29 0
op rop
Ġid i
Ġhot els
Ġbe ams
Ġbo ats
rec ogn
Ġstrugg les
Ġboy friend
Ġaver aging
ĠS eg
of fee
AN C
Ġtax on
Ġ19 20
Ġtaxp ayers
ĠR ain
Ġj ar
ĠPro perties
Ġmer ger
Ġcontribut ors
ĠEag les
ld rich
ref lect
Ġge ographic
0 37
ĠCom m
Ġcast ing
Euro pe
ol or
NS String
Ġcompens ate
mult i
Ġcig arette
ä½¿ çĶ¨
åĪ °
m ix
ĠM ail
pr ises
Ġfract ures
---------------- -----
ĠSu ccess
Ġoscill ations
Ġf ond
Ġbe ads
Ġre im
ĠC hel
ĠB rain
ah l
Ġ15 3
gu ide
ĠSy nt
orig in
Draw ing
Ġgrad es
Gener ator
ER N
80 7
70 4
Ġfarm ing
H int
T i
s ocket
Ġs ul
as px
t ake
ĠD ra
Ġjoint s
, (
Ġ5 12
Ġoptim ize
Ġpos ed
Ã© n
En able
c ott
the m
40 6
V T
Ġv est
Ġj s
Ġob struct
ĠCom mons
Ġfr ank
Line ar
win ning
Ġvic inity
Ġprote ase
ĠShe l
ĠÐ ·
Î¼ M
\ }$,
Ġp ork
ĠD om
ĠR EM
ĠCent ury
Ġr hythm
Ġdi amond
urch ase
Ġexplan ations
Ġf are
Ġr c
ts d
ĠInd ians
ĠNet flix
äº Ĩ
ĠProfess ional
id is
us age
---------------- -
Ġno ble
l ies
Ġid x
Ġarriv ing
Ġrevers ible
Ġpursu ing
Ġnic ely
Ġin ad
Ġd st
Ġl am
ĠT erry
ah an
circ le
Ġo wing
ĠK night
ĠSt ream
^{ (\
Ġur gent
Ġlat ency
l ades
Ġp ent
Ġt at
ĠS ales
Ġref lex
36 7
Ġpred ecess
ps in
Ġide ology
ĠR ace
35 5
Ġlist ener
Ġhost ile
rolog y
= {\
Ġb er
Ġke en
Ġrespon ds
DE FAULT
ĠMed icaid
zz le
C UR
ĠP ant
Ġne ph
author ized
Ġshel f
ĠDak ota
w he
ĠB S
ced ent
Ġcelebr ation
Ġval ley
ĠQ U
Ġtrad ed
ĠD iet
36 6
Ġn arc
ĠC and
Ġad sor
Ġpair ing
Ġgod s
m illion
ra ising
pe g
Ġ2 45
ĠP ick
ĠIs a
Ġopt imum
ãĤ ī
icular ly
Ġambig uous
Ġconject ure
we g
Ġspect acular
ĠBal d
ĠCam eron
g om
Ġres ume
Ġcle ver
ĠAn na
Ġbelie ving
N odes
Con clusions
Ġcommand er
Ġmur dered
ĠD raw
ĠE instein
ah a
Ġdem o
pa per
Ġvent ilation
Ġhol idays
Ġthr ust
p rior
Ġb ru
Ġres ur
19 73
Ġend omet
Ġabs urd
opl astic
in arily
ml ess
70 6
Ġrad ar
Ġ---------------- ---
Ġvol atile
ĠCol lect
ĠJer ry
Ġphilosoph ical
en ia
her iff
Ġret reat
Ġsin us
Ġsuperv ised
al ter
op ting
Ġhum or
Ġmelan oma
Ġ ĊĠĠĠĠĠ
Ġin duct
ĠNC AA
ĠE F
Ġab err
Ġ19 40
Ġro ok
Ðµ Ð»
Ġcritic ized
ocyt osis
Ġc ried
Ġarg u
29 2
Ġ16 6
MS G
Ġrob ots
ÂłÂłÂłÂłÂłÂłÂłÂł ÂłÂłÂłÂłÂłÂłÂłÂł
Aug ust
* {
u rop
am us
Ġind oor
adition al
C ir
h appy
oc arcin
ĠPol ish
st rip
ell ate
Ġpool ed
X L
ĠD og
ĠH PV
Ġcol ours
Ġmat t
Ġchrom atin
establ ished
ĠB ond
ne ed
Ġpredict or
Ġtravel ed
f ty
è ¾
Ġad missions
ĠR ou
Ġ3 65
mer ge
CL K
ĠMil itary
Ġsh aking
ĠSt ra
Ġoff ender
Ġunder neath
der r
ĠAt ty
ca ption
Ġregim en
E B
en code
fe atures
ĠPer ry
ĠP anel
Ġle v
ĠU T
39 6
accept able
ĠI BM
Ġj er
ĠBr ig
Ġawk ward
C iv
ĠSwed ish
Ġre write
35 9
ĠTyp ically
Ġremed ies
] *
ĠT rack
ĠF B
Re quired
ote chnology
inv ariant
ĠIM PLIED
ar cer
ĠA RT
Ġz oom
Ad vert
ĠO H
ob i
Ġmon o
ĠPro tocol
ser ial
Ġcreat ure
ĠLar ry
ro e
Ġv ibration
ĠR ice
ud ed
P rom
alk yl
che z
W L
ic illin
ly cer
gen es
ri o
Ġaff air
Ġeight h
ĠCra ig
st roke
Ġst ro
ri z
ĠH ERE
li ography
Ġcat ast
R andom
Ġref ined
Ġ16 2
Ġneighborhood s
Ġneglig ent
Ġescap ed
per ial
rou t
ĠV e
Ġdevelop s
Ġlog ger
3 11
if i
Ġac oustic
ĠCom ponent
Ġmodel ed
ĠMe asure
al in
cl one
Ġsequ ential
Ġbackground s
Ġ ĊĠĠĠĠ
Ġass ists
Ġpol ys
Com plete
cho ice
ĠIS IS
ĠBen jamin
T her
t own
ĠR S
rou te
Ġdraw s
Ġsecre ts
â ģ
60 7
27 4
Ġapopt otic
= %
Ġ( .
ĠI ce
Ġem power
Ġfl ights
Ġlif es
Ġl ub
ĠK am
Ġamplit udes
c gi
Ġp ockets
ĠP oss
Ġlast ed
Ġinn ings
organ ization
R ows
ry l
Ġpe cul
Ġdifferent iate
60 8
reg n
Ġenc aps
ä¸ Ĭ
G ive
r v
ĠS alt
ĠAss essment
Ġhyp ers
omy cin
Ġcon ception
Ġ17 2
Ġbill ions
âī ¤
Ġconf irms
dest roy
R F
Ġsw ap
ĠNor way
r ically
it Ã©
ĠM ale
Ġdifferent iated
ĠDi agn
Ġform ulas
Ġref res
ĠSer ge
Ġcondem n
t ok
er os
ra ham
ne ys
ãĤ ¤
Ġtrig gers
Ġpropag anda
Ġanth rop
s ible
{ $\
ĠH old
Ġline arly
34 6
zym e
Ġ10 24
ĠÂµ g
Stud y
ĠDebt or
" ];
ĠF D
ĠR M
90 4
^* \
h ref
p it
ĠH F
Ġass ure
80 6
Ġreplic ates
pl ings
gh ai
Ġplan ar
ubl isher
ĠJud gment
ĠLeban on
ĠT A
ĠT s
pt ical
ari um
33 8
Ġlib ert
scri ber
is ive
ĠTo o
RA Y
F ocus
ass ets
Ġexec uting
Is rael
Ġpubl isher
Ġpredict ors
ll ll
According ly
STR ING
Ġ19 62
Ġcoll isions
Ġarch ive
Ġcrypt o
ist rate
l ar
z r
Ġstar ter
Ġkin etics
M esh
N ick
Ġce ase
ĠA ra
ĠB ou
Ġ} {
Ġaccommod ation
h um
Ġcontract ors
ĠH H
Ġschizophren ia
ĠK irk
text up
~ /
in valid
Ġinf ringe
ancell or
00 25
ĠP resent
Ġ16 7
Ġsubdiv ision
ink le
ĠBank ruptcy
ĠJeff erson
..\ ..\
ĠA IDS
ch rom
Ġ* (
so ever
Ġsp or
Ġgen re
Ġfra g
Ġmys ql
Ġorb its
âĶĢâĶĢâĶĢâĶĢâĶĢâĶĢâĶĢâĶĢ âĶĢâĶĢâĶĢâĶĢâĶĢâĶĢâĶĢâĶĢ
Ġincent ive
ãģ¾ ãģĻ
Ġem itting
Ġbarg aining
ĠLIM ITED
Ġdeliber ately
Rober t
Ġl ent
Inter val
Ġamend ments
× ķ
Ġw iring
ĠR ot
Ġpool s
Ġr ays
ĠH ist
ĠF ellow
Ġcar box
35 6
ĠRog ers
3 25
ĠHe at
Ġconfirm ing
faster xml
W il
Ġ 000
ĠF F
ĠN ixon
Ġsc ans
Ġatt raction
Ġprosec utors
ĠRod rig
Ġgl and
gener ative
er nal
oph ila
Ġadjust ments
Ġtour ist
ind le
ĠCo ach
Ġhom ology
Ġbr ick
Ġrenew ed
ur ia
ãģ ķ
Int erest
Ġ16 3
Ġdistinct ive
m aps
ess ert
Ġimmun os
Ġbur gl
Ġfast est
Ġpand emic
Ġ erg
Ġ20 5
Ġforg ive
Ġflav ors
Ġfrustr ated
Ġc ough
Ġ2 15
bl ob
k ers
ĠT ar
ur ry
ĠW r
Ġsy st
Ġpers pectives
fl at
ocr ine
ĠB uy
pt o
ĠG B
ĠG MT
Ġinn ate
Ap pe
ar med
ĠN intendo
( ()
G ER
v ars
ist ered
LA Y
b rowser
d z
p her
il ine
ĠA pr
Ġwh olly
ich i
Ġsimilar ities
Ġdispos al
N OS
in qu
otyp ing
ĠT ib
Ġ- =
Ġ18 5
ern ate
Ġad apter
è¿ Ļ
boot strap
ld er
com ments
Ġhar monic
Ġign oring
organ ic
ĠVAL UES
ol im
Ġvis ibility
Ġfun eral
amy cin
Ġ---------------- --
Ġassign ments
................ ................
p ent
~ (
Ġdist ortion
cel and
Ġpod cast
Ġintraven ous
ac hers
ĠFor um
Ġ15 9
Ġfung al
Ġsatur ated
W ar
Ġw ip
ĠR oll
ff f
Ġrest raint
En vironment
Ġin accur
Ġsuspect s
m x
Ġt out
Ġt ale
in ib
Ġp ile
Ġbe an
ĠAl bert
ĠPol itical
Ġdimin ished
Ġbrack et
C ong
ĠB os
Ġseason al
Ġdisput ed
Z Z
t oc
ĠS ri
ĠB order
iv ities
ĠO T
ĠHam pshire
Te am
Ġclimb ing
2 17
: *
G I
f lex
Ġc ents
Ġbut t
A gent
Ġse am
Ġkey word
F ed
ot omy
ĠA part
ĠV erm
,\ \
Ġdil ig
))/( (-
ĠGuard ian
Intern ational
et ta
Ġfle et
Ġp ou
Ġpers ist
Ġb g
ĠN ag
Ġline age
Ġaccret ion
H uman
Ġf art
et ric
Ġsp arse
rad io
Ġsell er
mem bers
0 32
Ġam yl
65 5
Ġinvestig ator
size of
Ġsovere ign
3 30
be ans
Ġindu cing
I mp
Å «
ĠA the
form er
Ġ19 63
45 4
L AB
27 8
K S
ĠT IME
Ġcor ro
ĠĠĠĠĠĠĠĠĠĠĠĠĠĠ ĊĠ
N eg
em bed
Ġab usive
ĠProv ince
Ġsc iences
Ġplay offs
Ġinequ alities
The me
respon ding
Ġmur ine
Ġelig ibility
u cc
60 4
File Name
Ġconflic ting
T urn
Ġe osin
ĠB U
ĠR iemann
unt ed
success ful
O bs
ĠF er
fold er
Ġper f
Ġcare g
ĠLeg al
ernand ez
M RI
h aw
ĠB enn
Ġhe al
per or
Ġcont empt
ĠPat ient
: =\
Ġt ilt
60 6
ĠQuant um
Ġincent ives
es ium
per cent
iz ational
Ġund erest
Ġexpend iture
ab ul
ĠB egin
Ġbu zz
Com parison
Sh ader
ĠTal iban
Ġd ur
Ġsh am
Ġaccess ing
Ġmos quito
ĠC ape
oc ities
ST EM
Ġgovernment al
assert Equals
select or
W all
ir ates
Ġrem inder
ound ed
type of
Ġreal ization
ĠCon versely
Ġneg lected
ĠV ar
ĠYou th
mod ified
ĠHy dro
Â Ķ
ĠL aura
Ġsol o
Ġwid get
ĠMad ison
Ġdisput es
ĠDev ice
å¯ ¹
Ġf als
ĠCom plex
Ġflo ors
Ġcond ens
R o
top ic
ĠS olar
ĠAll ah
ou p
Ġy oga
37 7
Ġopp ose
Ġmulti plication
Ġchart s
Ġcount less
Ġant ip
Ġcent res
Ġex ponent
ure rs
Ġmel ting
A li
ph ot
Ġrespect ed
Ġcomplic ation
Ġarbit r
Ġknock ed
**************************************************************** ************
Ġj ets
ĠB T
th umb
Ġr ust
Ġwr ist
Ġclin ics
F ix
Ġt ast
Ġle verage
Ġvolunt arily
ste ine
ĠKen ya
Ċĉĉ Ċĉ
Ġrespect s
Ġlower ing
arc ia
Object s
Sm all
Pref ix
```` ````
stit uted
Ġearth qu
IE W
B bb
dra wn
ĠâĪ ¼
Ġis omorphic
amm ar
Ġaccept s
Ġretrie val
ĠC oul
Ġref resh
Ġinitial ize
Ret urns
ĠTerm s
M ut
Ġr he
cl i
Ġpath ogenic
ĠPalestin ians
z h
ĠB arcelona
05 4
En v
Ġauthent ic
! '
Ġprogram mes
Ġviol ating
Ġsound ed
ĠConsider ing
j c
rem ote
ceed ings
Ġsurv iving
b is
39 4
w hy
Ġto ys
as a
ĠN ap
Ġcl oth
Ġsequ el
Ġmiss ile
MS O
Ġcoast al
t imer
part icle
ĠMan hattan
light s
at ility
ct rl
ĠD OM
ĠR EG
mid t
e ight
it ches
ap on
Ġhold ers
Ġlog ged
Ġre ign
D at
el astic
ĊĊĊĊ ĊĠĠĠĠĠĠĠĠĠĠĠĠĠĠĠĠĠĠĠĠĠĠĠĠĠĠĠĠĠĠĠĠ
Ġampl ifier
3 90
Ġal beit
Ġterm ed
Ġfle w
Ġslee ve
ch air
Ġbet ray
67 8
ĠGe V
Or gan
Ġ{ Â¶
face book
$- $
D uration
Ġcred itors
Ins ert
b ag
t z
Ġsepar ating
Ġsupplement al
Ġpolymorph ism
fe eding
Ġen jo
}} [
Ġtraged y
Ġf ist
_{ +
Ġend ors
ĠDef inition
Ġcoll apsed
ĠMad rid
Exec ute
Ġst reak
IN IT
ĠBe aut
Ġpsychi at
H am
re k
ĠS ample
ĠW ire
æĪ Ĳ
ĠBO OST
h art
Ġen er
Ġcal ibr
oly mer
Ġphyl ogenetic
it amin
ol ysis
Ġinc ap
Ġacet ate
B ind
is ode
ĠT D
In clude
ik z
ĠTechn ical
ĠMat rix
Ġ2 35
Ġappeal ing
Rec ent
ĠConne ction
w y
ĠF P
Date Time
: %
h ours
cess ion
Ġ17 6
ĠGl ass
Ġsac red
Ġdivid ing
C ALL
Ġe g
Ġun cle
Ġrem anded
Ġs plic
Ġu re
Ġpro ps
44 4
Ġhistor ically
M aterial
Ġin clusive
th rows
Ġgovern ance
hib ition
tem perature
B rit
Ġeconom ies
Ġconsult ant
Ġhybrid ization
ht m
pt ure
Ġret ire
Ġplay off
Ġ---------------- ----
mys ql
B ottom
p icture
Ġcreat ivity
Ġembry onic
Ġopio id
Ġ3 20
ll i
cal cul
Comp eting
Ġhabit at
Ġpat rol
sc her
Ġfold ing
a eda
é Ļ
Ġp ier
A bb
y outube
}$ \
Ġ16 1
: -
D en
a verage
ĠCh anges
asc ii
& &\
F ill
em atic
Ġpat ience
Ġsal mon
FFFF FF
E arly
Ġelectr ically
ĠJ ur
br aska
Ġblood y
ĠSE LECT
" \
S ite
ig ers
ĠM ario
Ġsort ing
Ġcitizens hip
Ġinhab it
Ġis chemic
ĠN ancy
und ers
rug s
ĠCor ollary
ĠMalays ia
ĊĊ ĊĠĠĠ
Ġdisc oura
å ±
ij n
Co ord
tain ment
B a
AT OR
F oot
Ġ< %
Ġsc aled
Ġ. /
Ġadsor ption
M ass
ter ms
ĠT un
se ek
Ġpro to
ĠF oster
Ð¾ ÑĤ
aph yl
M apping
Z ero
c py
ĠW atson
Ġpresent ly
Ġacet yl
G W
ĠL OG
Ġev olve
ov an
Ġmeas urable
Ġobserv able
Ġsec uring
Ġneu rop
Ġrefere ndum
D OM
F uture
it err
Ġ19 61
80 9
Ġrecord ings
ĠB A
form al
Ġel if
ĠSub sequently
H ope
erm al
Ġinter cept
Ġdig its
ĠBet ter
B al
F acebook
ac ic
ĠE lement
pack et
Ġ2 13
ĠH CV
Ġ' #
AR GET
ID ENT
Rec ently
H ide
Ġn ap
Ġep och
Ġfire arms
vis ory
Ġ$(' #
N i
es a
Ġpres erving
Ġsol ic
Ġinhib iting
Ġpolar ized
ĠS ad
ĠF ib
Ġsp otted
iss ance
pro f
Ġroll s
block List
r g
Ġ ****,
---------------- ------
34 3
0 48
m ul
Ġall iance
key word
Ġformer ly
ucl ide
Ġdece ased
Ġener get
") ]
Ð½ Ñĭ
ĠBook s
Ġc age
Ġk et
ĠJ ake
ĠSt ruct
}\ |
)) **
Ġlink age
g one
Ġa th
Ġpres idency
Ġclass Name
Ġinj ections
Ġspons ored
Ġm igrants
Ġpe oples
ĠGu idelines
Ġ$- $
m are
al tern
AN N
ĠPo isson
- [
ĠEq s
Ġrevolution ary
re li
ĠP le
ĠL iter
CL ASS
ĠVal ues
rang ian
B ay
Ġtr an
roll ing
ĠAr n
Ġassembl ies
k an
70 7
hand ed
ĠB our
Ġet ernal
bin om
ç½ ®
ĠA my
ĠSt age
ĠR ol
Ġout ward
sc i
čĊč ĊĠ
Ġpassion ate
V EL
Ġcar ot
ĠTrans fer
Ġtour ists
ĠEffect s
Ġre gex
Ġha em
ex pl
Ġspecific ations
^âĪĴ ^
Ġtrans fection
ĠBrazil ian
ĠEs pecially
P OS
ĠAL J
Ġincl ined
Ġ2 12
Ġper oxid
Cl oud
Ġ17 9
Ġsent iment
ores is
ĠIN S
Ġbatt les
w riting
ĠNot es
Ġarom atic
IC A
Ġconstruct ive
Ġwood s
Ġcous in
: `
Ñ ħ
ĠR io
Ġopt ic
load er
foot er
Ġepithe lium
pt ive
Ġjump ing
Ġwhat soever
Ġrequest ing
Ġcred ible
AT TR
Ġbra ve
ke eping
ĠMet ro
Ġuncon stitutional
ĠPers onal
em et
Ph ot
athe tic
Ġstir ring
Ġscrut iny
Ġhydra ulic
] ))
Ġh ood
---------------- ---
Ġnav igate
hell o
Ġf ighters
Ġelect oral
Ġapplic ants
Ġcorrel ate
gom ery
is co
ic iency
ber ger
Ġmake up
FL O
Ġa xi
is y
Pro c
Ġmetast ases
ĠO bs
ĠRed ist
ĠJe remy
ĠAv ailable
en eration
ĠS ony
oc cup
ĠE b
ĠAnd re
40 9
osp here
ocy tic
64 4
rid ay
Ġimag inary
Ġseiz ures
Ġdis ks
work ers
atur ated
Ac cept
Ï Ģ
ac ies
ĠK el
sign al
ĠBelg ium
os ide
ĠO liver
ph yl
NA L
ĠWe ight
Const ant
K I
Ġbel oved
ĠSte in
ĠMc Donald
Ġentreprene ur
Ġst ew
Ġloc ks
38 8
chem ia
ĠArgent ina
Ġmyster ious
Ġb oring
as se
ĠP in
Ġ\ _
ĠEd wards
Ġimproper ly
i am
Ġ ....
ĠN J
ĠUr ban
Ġ3 01
Ġestabl ishes
Ġconnect s
rosc opic
Ġpenet ration
ch ip
Ġde form
19 72
As sembly
Ġwilling ness
70 9
Ġelabor ate
Ġfid uc
al ous
Ġstr and
45 1
Ġ19 5
Ġwork force
Ġinv oked
Ġunf ortunate
orth y
ĠLi u
Ġank le
r p
Ġoper ative
ĠWar ner
Ġp tr
id y
33 7
Ġexerc ised
W AY
ad minist
Ġher bs
66 8
Ġ ^\
enc ia
Ġeat en
Ġf t
ĠP enn
E ar
F ar
m ot
ĠK u
Ġre consider
Ġhome ostasis
}) }
ĠIP v
Ġdisadvant ages
Ġthe sis
Ġg am
ul sive
um ina
ĠM N
ric ks
Ġnon etheless
Ġrout ing
Ġdos age
Ġcytoplasm ic
C ross
v v
Ġle pt
Ġmot ive
IR T
Fr ank
Ġinfil tr
C ost
M IS
al b
ĠJ oy
Ġpres ervation
sh arp
s pl
ĠMarg aret
Ġc rap
Ġha pl
Ġsc ary
ma jor
Ġinv ari
000 9
Ġsuper visor
Ġdeal ers
comp ile
.* ]{},
Ġcomprom ised
Ġinfar ction
r ants
Ġa ster
Ġhar bor
Ġpractition ers
Ġal lege
c ation
Ġind igenous
Ġtreat s
Ġsupposed ly
N ovember
P en
ĠN HS
In cre
Ġinter sect
70 8
head s
BO OL
as ters
ĠA y
ĠC zech
Ġst aring
epend ence
Ġhorm ones
å ¿
Ġle thal
Ġfl ank
ĠWh atever
j our
Ġ$ <
u art
Ġ17 4
C trl
Ø ¨
Ġv om
H or
H om
le uk
Ġg ambling
ĠT EST
Ġgu ides
Ġindic ative
Ġnic ot
Ġimper ial
Ġperme ability
L and
Ġc ros
Ġworks hop
Ġunw anted
ĠU til
Ġdet er
Ġcomb ines
IG H
Ġjew el
/ +
W alk
Ġdefend er
Ġcertain ty
ament e
ĠJ P
ĠTh ailand
Ġdef enses
ĠCOP D
) ^\
in vest
Ġ( %
ul ly
Ġmat uration
Ch anges
ĠDi rac
Ġt ennis
Ġl anes
Ġcont aminated
Ġobser vers
Ġm ant
ĠR ud
ĠL B
ĠY e
ãĤ Ĭ
Ġprint s
Ġinstance of
$]{} ;
R aiden
the se
coh olic
p H
Ġco pe
Ġline up
er ial
Ġalleg ation
Ġcolon ial
Ġsystem atically
Ġshare holders
ĠTransport ation
N or
Ġmed itation
Ġstress es
Ġconver ter
ĠH udson
nt z
Ġque en
al ert
"> &
Ġdel icate
77 7
ih ad
Ġv ague
ĠF ont
' =>
0 39
f u
Ġde hydro
ĠN AME
Ġrecogn izes
Ġexhaust ed
ynchron ous
Ġd orm
st ru
ĠY ears
Ġrec ession
Ġpur ity
Ġmedic ines
] ->
line width
reg s
90 9
uff le
å Ĵ
Ġpre st
oy l
38 9
Ġris es
ĠST ATE
Ġhead ache
Ġbow el
ĠBang lades
Ġdevast ating
I g
com ed
Ġrun ner
ĠDef ine
ic idal
se ed
ex ports
ĠGu y
Ġenh ances
Ġstret ching
Py thon
40 3
Ġpur ification
26 2
Mon day
f ailed
Ġind ent
Ġimport s
05 6
orb id
og raft
ring ton
96 7
Ġflav our
o qu
"} :
Ġincorpor ation
plo ys
W F
m obile
Ġc ens
ell es
Ġmeant ime
Ġalb um
ĠâĻª "
P an
i at
Ġd umb
ĠEd ge
phen yl
j cm
m is
o es
Ġt ropical
ĠH B
ĠL uther
ine z
Ġrep etition
exp ensive
Ġfurn ished
Ġcancell ation
ĠIndones ia
Ġprinc ip
Ġeigen value
ĠLI ABILITY
ĠContin ue
L ower
g rowth
Ġin def
---------------- ---------
Ġmis represent
Ġapprec iation
M n
y cle
ĠO ptions
cept ive
exp and
check box
4 80
ĠS igma
ĠA FP
aint ed
Ġinc arcer
P ART
ĠE A
ub er
Ġ7 50
At tr
Ġpal m
contin ue
5 50
p G
em n
Ġ17 3
Ġdiv isions
Ġwra pper
re le
Ġbus es
Ġbrut al
Ġy a
Ġsupp lementary
Ġnews letter
Ġm p
ch or
Ġcon gest
Ġloc als
Ġnetwork ing
Ġmis under
Ġchrom osomes
Ġtub ular
ç İ
ĠM ason
ĠTH EN
ben z
Ġhierarch ical
? .
th ose
ism iss
Ġdisc ourse
H M
ĠS ERV
Ġco res
Ġpack ing
Ġty rosine
Ġs ized
Ġfor ums
Ġch ambers
CL US
ĠD at
Ġdirect ing
ĠCon sole
pi pe
trans ition
u ent
Ġb if
Ġ16 9
Ġspecial ly
ĠL S
Ġ2 11
Ġgroup ed
Ġreplic ate
il ic
/ _
ĠT odd
Ġgood ness
CS F
Ġprem ise
Ġmm ol
Pre vious
Ġbios ynthesis
B ound
Ġf isher
ĠC U
ull ivan
Ġsw ift
Ġtable t
in ar
Ġ' ',
Ġhypot hesized
Prim ary
Ġhydroph obic
Ġcryptocur rency
s ion
ĠK l
X R
Ġm aker
Ġinv isible
pos ure
ĠRe ed
Ġsuper f
cho ose
Rem ote
3 13
G rad
m w
Ø ³
ad ays
Ġam bit
Ġ20 6
Ġdiscuss es
Ġri vers
T ouch
L aw
Ġinf l
Pro ps
Ġhar mless
Ġwel ding
C md
V L
Ġth ou
ĠA stron
ĠBut ler
build er
opens sl
we eks
Ġmorph ism
Ġvine gar
Ġcomm itting
read er
Pro b
Com b
Ġorig inated
Ġform ulated
Ġcur l
ÑĢ Ðµ
ĠSchool s
CRE ATE
s leep
Ġ ^{\
Ġcon gen
Ġgo at
ym al
Ġele ven
Ġcoord inated
ï ½
pe er
ant ing
te chn
Ġrec ess
Ġfl ame
ĠCol umn
ĠUk rain
U nd
ic in
im ir
igh s
AR M
Ġgl ance
Ġconf inement
Ġfraud ulent
Ġdipl omatic
` )
Ġt sp
Ġstri ps
à¯ į
Ġp ins
ĠR AM
og ly
opl asm
Ġadmin ister
un o
Ġexc it
* /*
B ad
ĠP il
Ġr im
Ġunderstand s
Cont ents
Ġdig estion
Ġautom orph
Ġcrim inals
Ġis chemia
ĠF IR
tr im
ĠSh ar
ĠRe venue
ĠMag azine
Rend erer
ĠI EEE
âĢĶ "
37 9
Ġhyp othetical
Ġhypot heses
ĠCR C
Ġster ile
Ġdop amine
\ ":
Ġdetect ors
Ġradi otherapy
con vert
}} }^
Ġsign alling
Ġtyp ing
ĠPat tern
ĠKe ith
ĠNAT O
è ĥ½
ie val
Ġaccount able
Ġvisual ization
ĠH ann
Ġsh ipped
per formance
sd k
Ġvulner ability
Ġtet ra
C ursor
w indows
il iation
Ġcl erk
Ġlist ened
Ġeas iest
ION S
Ġven ous
ab etes
Ġfree zing
Ġjournal ism
ĠForm ula
ĠCamp aign
åŃ Ĺ
Ġext inction
Ġ æ
Ġ ê
Ġ[ ];
ĠPro blem
Ġcommission er
ĠP osition
Ġrese mb
Ġgorge ous
M icro
l p
ĠRe agan
IC ES
Log in
Ġp all
Ġ[ ****,
95 5
Ġfabric ation
D river
W ow
Ġe ch
ĠS ession
Ġj aw
Ġ, $$
Ġprim a
ate ur
ag ra
amaz on
ĠT ell
ĠCr ime
Ġmanifest ations
F act
c atch
ĠS IM
ios ity
T IM
Ġas ylum
Ġwh oles
Ġup regulated
66 6
Ġansw ering
Ġmic rom
r ating
Ġco herence
Ġ20 3
28 1
Ġste ering
Ġsymb olic
Ġcoh omology
Ġautophag y
E st
ĠG UI
48 6
Ġconver ges
Ġun anim
Ġtrav elling
ĠM olecular
oc used
." )
Ġsim plify
ĠMu eller
ĠIO Exception
Ġn erves
Ġhe d
Ġcont amin
Ġintegr ating
ĠM Ps
ang i
Ġmid st
Ġvel ocities
Ġul cer
4 01
ym an
Ġlength y
Ġec ological
Ġc p
um ption
produ ction
Ġmin isters
ç ¤
Ġt a
Ġ{ };
AR C
ĠTr uth
Ġatmosp heric
Ġn ort
ĠR osen
Ġt ut
Ġinter im
ĠBar ry
Ġin active
ĠR achel
Ġwork out
ĠCom ments
Ġd ens
Ġ' .
Ġevident iary
âķ Ĳ
c out
Ġcon duction
ache lor
Ġre wards
ĠC AP
th reat
sec ure
st orm
Ġl ang
ĠB ah
St ation
25 3
OU S
gl ob
Ġpresum ed
æĿ ¥
N ov
Ã Ł
The ir
arch y
Ġpers istence
Ġpercent ages
Ġauto immune
ä½ ľ
Ident ity
ĠR EC
ĠPriv acy
2 19
al c
arch ive
33 1
D am
res a
ind a
Ġi od
unc her
Ġ\ !
Ġsp y
Ġdiff raction
G CC
i per
Ġ20 8
AN GE
itor ing
Ġcarboh ydrate
h it
ĠJ os
ll a
ĠV ent
prot obuf
Ġshr ink
ĠM ode
Ġ2 93
yr us
ĠMag ic
Ġsu g
M utable
m aven
ç ¬
ĠCom mercial
ling ton
0 45
g ue
Ġadvantage ous
ĠWell s
oubt edly
iterr anean
od ic
Al tern
ĠAb u
Ġax es
Ġdomin ance
Ġc ops
ĠS ame
Ġun just
Th ird
ĠCom parison
Ġcr ust
Ġperm itting
fe ree
48 8
Ġ17 8
Class es
Ġattribut able
, %
ĠR aw
bl ocks
Ġblog s
Ġlay ing
Ġtour ism
Ġinfil tration
X P
ra is
ĠH ousing
ĠM all
ĠUn ity
Ġmult if
37 4
assert Equal
M IT
Ġun common
Ġpe an
Ġext rap
v et
Ġ( ((
ĠD L
Ġmult im
Ġslic ed
I ds
W omen
con tr
Ġrot or
Ġobst acles
F riday
ress es
Ġun aware
Ġplant ed
ĠDen mark
ov ich
Ġcol orectal
Ġca res
des cribed
ĠSpec ific
ĠBrief ly
f m
ĠL M
ĠN AD
S ocial
ins ki
ĠCol omb
Ġsens es
as per
ow ing
ĠR B
Ġhist ological
Ġarriv es
S PE
Ġw rest
ĠSt ars
ĠCON T
å¼ ı
+ {\
H older
Ġviol ates
R B
ĠM aking
æŀ ľ
Ġhyperb olic
Ġp ets
ĠR isk
... ]
Ġins ist
Ġtweet ed
Ġt b
Ġc c
uss els
supp l
Ġhon our
ĠPu erto
ĠJO IN
S y
Ġde er
art ments
Ġrecre ational
Ġdign ity
T u
ĠD ream
ĠD ennis
Ġ' ./
Ġinv itation
Ġref lections
az ar
Look ing
&= &\
åĽ ŀ
Ġleak age
Ġc b
Ġc oded
Ġd read
Ġre agents
ĠC BD
Ġanalog y
ĠE t
Ġover weight
Ġscre aming
ĠQu ick
c ro
Ġchar set
M om
S ame
} %
Ñ İ
Ġbal ancing
D ue
" ?
w ic
T a
ĠD NS
ĠN SA
Ġread only
Ġcontin ually
Ġground ed
Ġfront al
Ġcounsel ing
Ġtun ed
second s
Ġd are
Ġsk ull
atom ical
åĴ Į
ust ain
Ġcl oned
val ued
Ġstem s
ĠS CH
ĠA SC
ĠE dd
ie u
64 5
A ff
ĠT T
Ġret al
Us age
Ġa ureus
Ġg rief
ĠL ot
Ġimag ined
C irc
NA M
ĠCD C
Ġconstitu ents
Ġprovin cial
Ġb a
Ġl ined
Ġv endor
arr hea
Ġuncon scious
lot te
Ġcon cluding
Ġ2 16
Ġaut ism
Ġorgan ize
C AT
b ast
Ġs s
ier ra
IC S
Ġmicro organisms
Ġfundament ally
amb iguous
with in
Ġtox in
ĠĠĠĠĠĠĠĠĠĠĠĠĠĠĠĠĠĠĠĠĠĠĠĠĠĠĠĠĠĠĠĠĠĠĠĠĠĠĠĠĠĠĠĠĠĠĠĠĠĠĠĠĠĠĠĠ ĠĠĠĠĠ
ĠNon etheless
) })
k el
Ġact u
ĠSh aw
Ġgeneral ization
Ġargu ably
g res
ĠC ov
un ge
ĠG rey
Ġpre y
Ġsub types
Ġval uation
ĠAct ually
Ġ2 24
Ġcl ue
Ġpossess es
ĠAgain st
Sn ap
id in
ĠFor ces
ĠDou g
ĠCub a
pl asia
Ġfire f
as sembly
ĠH C
Ġcan al
Ġintrodu ces
â ĨĴ
al ph
Ġindic ations
00 12
Ġj avascript
az ines
ĠMon th
Ġm aj
AS P
ĠPRO VID
ĠFI LE
Ġcylind rical
) !
V AR
af ood
PE G
Ġwavelength s
Ġy og
Ġthere to
Col lections
Ġstack ed
B order
o ard
ĠI celand
ĠA J
Ġor che
Ġall oy
;\ ;
r ules
": [
Ġvol t
Ġmim ic
Dan iel
I J
J es
ĠT ak
od al
ia o
Ġlub ric
n ational
ri le
36 3
Ġtun ing
^âĪĴ/âĪĴ ^
U A
ĠM ull
ĠPet erson
ĠMel bourne
Ġfeas ibility
ĠPhill ips
Ġcorro bor
ĠH DL
ĠU E
ĠSe an
Ġconf ession
ĠCommun ist
Ġdisclaim er
, #
m its
ĠK re
vert ical
no ise
Ġincorpor ating
ĠA CE
ĠThe atre
ĠArch itect
est ock
ĠQu ery
Add r
Sc ene
j unit
ra h
ĠP ain
Ġexp ans
Ġcy st
atin um
cor rect
Control s
Ġcreat or
ĠNe braska
Ġsyn th
d ens
Ġh ike
Ġ2 22
ren ces
75 5
L ES
ul i
Ġsc ul
Ġ20 7
Ġbless ed
Ġo t
Ġall ergy
Ġpredict s
Ġinev itably
a ques
Ġm ast
ur an
ĠS tyle
ĠM AC
Set ting
Ġcast le
Ġentang lement
èĩ ª
U ntil
en ium
Ġc ite
ator ial
Ch art
Ġdom inate
67 4
ĠBrook lyn
Ġr iders
Ġan onym
ĠC ant
gr ay
oph osph
Ad min
Ġshut down
æľ ¬
Ax is
ĠS SL
Ġst ared
ĠM AT
EN V
Trans port
le arning
Ġ3 30
Ġtra ils
Ġinsect s
Ġaux iliary
æį ®
Ġc i
Ġc ss
ĠHol land
Ġbund les
Ġpiv ot
Ġch airs
04 3
Ġir res
+ "
Ġet her
Ġdou bled
Wh it
ĠExper iment
U ri
b undle
Ġan xious
dis abled
Ġevalu ations
ĠSix th
re pt
Ġapp les
ĠCh ile
Ġspectrom etry
ĠâĶ Ĥ
Ġcontin uation
Av ailable
Ġt s
Ġare na
Ġback wards
ĠSer ial
Ð» Ð¸
Ġaffili ated
N BC
k ill
Ġapert ure
ĠDel aware
Ġmamm als
Ġconjug ate
Ġtwe ets
3 99
fr ames
cell ular
Ġrepe ats
ĠMont real
Ġscholars hip
H u
ĠM IN
Ġun int
Ġmut ually
Ġjoint ly
ĠB eng
ens on
ĠV el
Ġro pe
app s
Ġenc ryption
Ġpip es
K B
Ġd essert
Ġg ig
Ġhero es
Ġdepriv ed
C ounter
Ġvag inal
Ġchap ters
M achine
O cc
Ġthe atre
Ġd rought
Ġsm okers
)) *
Ġhat red
C at
M i
f am
ab ol
Ġeven ly
ĊĠĠĠĠĠĠĠĠĠĠĠĠĠĠĠĠĠĠĠĠĠĠĠĠĠĠĠĠĠĠĠĠ ĠĠ
OW ER
Ġadvert ise
t rivial
Ġt x
ĠM atter
Ġed itors
åħ ¥
Ġturn over
Ġsomet ime
d ash
ï ¿½
Ġl oses
ra ining
Ġillum ination
3 16
A rm
s ic
Ġun limited
Ġmon op
ĠSh ah
Ġconserv atives
spe ech
ĠLook ing
ĠLear n
ĠAl ong
*]{} .
Ġlap ar
Ġmicrobi ota
U X
Ġco operative
sh irt
Ġdirect ive
Ġbo om
fess ional
Ġalb umin
Ġt in
nt y
ãĤ Ī
Ġpret end
ĠÂµ M
ĠGi ants
' +
< [
M ail
iv iral
ĠO B
ĠK ant
(' .
c ritical
m ad
ack ed
Ġpr ayers
Ġ18 4
Ġjur or
Ġwel comed
" ?>
ĠM ade
hy per
Ġsan ction
C AR
F eed
R om
Ġre normal
ĠV P
Ġlip ids
Ġnegot iate
Ġbrid ges
Ġs aves
Be ing
D u
Ġph ag
ĠApp ellants
Pl us
Ġre actor
IN ION
Ġfil mm
ĠColl abor
phosph ate
+ ,
V B
], [
Ġlab elled
ol an
Ġdefin itive
u ant
ell ers
DE CL
Ġtable ts
Ġconsult ing
Ġquot ient
comp any
Ġbra ke
Ġhypox ia
il let
ag le
======== ======
D K
Ġam ple
mind ed
I AN
om eric
ac in
ĠB apt
ĠQ ual
ĠÐ ±
C red
ĠD Cs
ĠH az
ĠK o
ĠK ay
str ument
67 9
Ġmuc osa
s an
ĠP RE
Ġad opting
get Name
Ġemb ra
ĠHar per
pol ymers
Ġdif fered
ĠPark inson
adjust ed
x FF
ĠAd vent
ĠJen kins
ĠESP N
ĠB AL
50 3
hib it
Ġfather s
Ġreprodu ced
) (\
B rowser
ic ides
ĠC NS
ĠN GC
Ġremov es
Ġintern ally
ĠWall ace
Every thing
ĠJim my
Ġh ills
ĠP ic
Ġle x
ograph ics
Ġgrad ed
uclide an
Ġwe ighed
ĠV iol
Ġ19 3
Ġcor ros
Up dated
ĠSur v
Ġub untu
m ans
ĠO pinion
Ġpos es
ale y
mat ched
Ġmal icious
aud io
2 99
å ĳ
ĠF ant
Ġcondition ed
ãģ Ĥ
Ġcollect ively
?? ??
+- +-
M ad
r ue
s olid
Ġ18 6
Ġstat istic
pan cy
ĠOper ation
ĠExper imental
Ġsli pped
Ġal umni
ĠER K
Lim it
Ġspir its
ĠM ix
Lo op
åĩ º
Ġvend ors
ĠR ank
Ġ ?"
xx x
æĸ °
c ot
th a
Ġback end
Ġhear ings
ĠV ari
W IN
or ie
Ġp estic
ĠM ol
con jug
}} _\
Ġhaz ards
Ġsupernat ant
W r
Ġ19 7
work er
Ġsan ct
Ġfort un
Dep artment
č ĊĠĠĠĠĠĠĠĠĠĠĠĠĠĠĠĠĠĠĠĠĠĠĠ
Ġadv iser
ĠBen ef
unct ure
ãģĻ ãĤĭ
Ġrif le
c ia
Ġ ib
Ġ2 65
ĠN ar
pl aced
Ġrep o
Ġprior it
Ġignor ance
Ġdisreg ard
Ġrhet oric
Ġ2 14
set Text
Ġsw elling
Ġmicro gl
Ġmill enn
Ġ ĊĠĠ
Ġse aling
Ġes ter
="../../../../ ../
Ġelectroph oresis
ĠDrag on
ĠV irtual
Ġtrans mitting
45 8
Every one
Ġbiom ass
Ġd urable
ak u
Ġcor rid
26 3
ĠMy SQL
Ġsil ica
Ġstake holders
, **
D irection
Ġin aug
ge vity
ĠH at
Ġgall ery
Ġneon atal
Ġs heriff
Ġk its
Ġcourt esy
æĪ ĳ
ĠEgypt ian
Ġinherent ly
Ġcomm enced
ocy an
oler ance
h yp
ag g
Ġj unk
ann ers
44 7
Ġfinancial ly
Ġprivile ges
Ġfoss il
or p
Ġ2 75
ĠCOPY RIGHT
Ġn inet
ĠD W
Ġen umer
Ġ19 8
ract ing
ĠPro test
Ġdeb ts
ign ore
Ġneed ing
Ġbelong ed
tri angle
par ation
Ð¾Ð ±
Feb ruary
Ġc ensus
=\ {
Ġtraject ories
Ġgri ev
Ġ2 23
ĠW M
ĠAss uming
Ġconstruct ing
Ġwarrant ed
exec ution
stack rel
ĠBase ball
c ord
Ġall erg
ĠIn fo
Ġadvis ory
Ġpecul iar
Ġm asks
ab ad
ĊĠĠĠĠĠĠĠĠĠĠĠĠĠĠĠĠĠĠĠĠĠĠĠĠĠĠĠĠĠĠĠĠ ĠĠĠĠĠĠĠĠĠĠĠĠĠĠĠ
ĠSte vens
Ġs ig
Ġag gression
Ġpar ity
Ġ18 8
bl er
Ġcatch ing
Current ly
Ġincon ven
E r
on line
ĠC row
ĠH ob
int s
be en
27 3
rell a
elect ron
Ġcock tail
n z
p oon
col umns
w arn
ĠP romise
Ġjud ged
oe lectric
Ge orge
Ġartifact s
cl ine
---------------- -------
de code
We ek
Ġep igen
J on
Ġs ore
Ġc ites
Ġst ent
Ġsu e
Ġmed ial
Ġretail ers
mom ent
ĠB eyond
ins ula
Ġtype of
Ġsal ts
d it
ĠD ays
ins ured
lb rack
O E
ĠS or
qu o
Ġcompl aining
Serv let
Rich ard
p q
Ġw olf
yn olds
ĠMont ana
4 20
B us
c nt
w arning
Ġb ending
Ġne o
Ġform ulations
Ġhand y
ãĤ ¯
PD F
Ġthreshold s
= #
t un
Ġsub scribe
Ġ20 9
ãĥ Ī
Error f
Ġdraw ings
Ġsulf ur
Vol ume
ĠAgricult ure
H V
U pload
Ġste pping
pat cher
j ah
ĠP un
(" \
95 8
Ġattenu ated
K L
v ari
Ġmerch and
Ġw ax
ĠF CC
Ġres p
pro portion
ĠA thlet
Ġres igned
arg v
ocarcin oma
Ġd angers
id ated
Ġpre view
70 2
Ġdem ol
)} (\
ĠRob in
M el
r ates
Ñ Ī
Ġse ated
ĠG ran
ract or
Ġphen otypic
f w
t ikz
Ġst a
Ġres ent
=" \
pro pto
ĠDis play
å¤ §
Ġfu els
Aust ral
Ã °
Ġ2 17
ĠR oth
Ġfin est
Ġâ ģ
Ġhun ger
ĠNaz i
ĠC hat
ag u
Ġcomm ence
Ġsens ation
valid ate
LO AD
Ġa uction
ig ion
Ġ2 18
Ġ} _{
ict ures
Ġcur ved
opt im
Ġeconom ically
ĠCons umer
Ġremind s
Ġcancell ed
Ġsymp athetic
n r
ĠF inn
36 9
Ġmag ical
H o
g irl
Ġint estine
64 8
ĠOr lando
ĠP OST
ĠB oot
hy dr
ĠIN TER
Ġth ro
ĠL isa
AB C
ĠHer itage
ĠĠĠĠĠĠĠĠĠĠĠĠĠĠĠĠĠĠĠĠĠĠĠĠĠĠĠĠĠĠĠĠ ĠĠĠĠĠĠĠĠĠĠĠĠĠĠĠĠĠĠĠĠĠĠ
Ġcar riage
Int ent
g ap
ĠL anc
ĠW indow
Ġ19 9
Ġsl ots
cont ents
ĊĠĠĠĠĠĠĠĠĠĠĠĠĠĠĠĠĠĠĠĠĠĠĠĠĠĠĠĠĠĠĠĠ ĠĠĠĠĠ
Ġspokes person
ĠHug hes
D er
ĠJ uan
Th omas
ãĤ Ĥ
Ġdecl ining
Ġl amb
az i
isecond s
ist ors
and em
und o
Ġaccount ability
Ġsup rem
Ġannoy ing
Ġtradem ark
* ;
ç Ĳ
ce il
Ġpair wise
ĠSim ply
ĠGal axy
Ġadvoc acy
DI RECT
ĠÙ ħ
Q t
ight ing
Ġ[ -
str and
Ġhom olog
ryst all
T ools
c ox
ĠCom plete
Ġcare ers
48 4
Ġgran ul
ĠBuff alo
ĠChel sea
C LE
ĠM is
ĠN L
ĠG rowth
out ing
Ġuns afe
ĠĠĠĠĠĠĠĠĠĠĠĠĠĠĠĠĠĠĠĠĠĠĠĠĠĠĠĠĠĠĠĠĠĠĠĠĠĠĠĠĠĠĠĠĠĠĠĠĠĠĠĠĠĠĠĠ ĠĠ
ĠVol ume
N ONE
Ġ ell
is ure
Ġatt en
mov ing
ĠFred er
Ġc d
ĠHy per
Ġantagon ist
ĠEmer gency
Ġcon com
ĠK O
Ġreg eneration
Ġten ure
} /\
ĠH yp
ust ers
Ġreg isters
ĠCl ar
Ġparas ites
ĠEnter tainment
ĠE lection
ident ity
ĠMark ov
Ġpark ed
SU CCESS
ĠPlan ning
Det erm
ĠG ST
37 6
um ed
Ġsk etch
ĠGal actic
åĲ į
Ġtrib al
Ġdrain age
P acket
R M
im mer
Ġ$ ("#
ab ove
ĠE c
Ġsp leen
Ġfound ing
ĠX box
Ġinterrupt ed
Ġcou ch
Ġinform al
Ġswe ep
ĠChampionship s
m otion
Ġs arc
ac ute
28 2
Ġ~ *
Ð°Ð ²
ĠMont gomery
Ġentire ty
er ring
Ġon ions
log o
Ġc ues
Ġre but
ĠEx pect
CL U
ĠSw ift
è ½
ĠSt ack
Ġremark ably
Ġe V
Ġret aining
Ġop acity
29 1
ĠAust ria
ĠFil ter
T y
b ands
ĠInst all
ĠHit ler
Ġclick ed
SH A
en berg
Ġp ore
Ġsupp liers
Ġes p
Ġestim ating
W he
Ġmark ing
config ure
acchar ide
O SE
z el
Ġ[ ]{
ov o
ĠEx cel
Ġpo etry
ĠHind u
Ġnomine e
an ed
ag ulation
ĠPRO C
Ġenroll ment
> ()
ver b
Load ing
K P
Ġl ingu
ut t
Ġmod ifying
Ġnon profit
Ġimpact ed
Ġhem isp
Ġillust ration
Ġrook ie
. \[
l ene
Ġdoc s
MOD ULE
Ġ5 50
ext end
Ar ticle
Ġsem antic
Ġdefault s
ĠDE FAULT
Ġsatell ites
Ġcasc ade
R at
[...]
